{"version":"1.0","truncation":{"max_length":512,"strategy":"LongestFirst","stride":0},"padding":null,"added_tokens":[{"id":0,"special":true,"content":"[UNK]","single_word":false,"lstrip":false,"rstrip":false,"normalized":false},{"id":1,"special":true,"content":"[CLS]","single_word":false,"lstrip":false,"rstrip":false,"normalized":false},{"id":2,"special":true,"content":"[SEP]","single_word":false,"lstrip":false,"rstrip":false,"normalized":false},{"id":3,"special":true,"content":"[PAD]","single_word":false,"lstrip":false,"rstrip":false,"normalized":false},{"id":4,"special":true,"content":"[MASK]","single_word":false,"lstrip":false,"rstrip":false,"normalized":false}],"normalizer":{"type":"Sequence","normalizers":[{"type":"NFD"},{"type":"StripAccents"}]},"pre_tokenizer":{"type":"Whitespace"},"post_processor":{"type":"TemplateProcessing","single":[{"SpecialToken":{"id":"[CLS]","type_id":0}},{"Sequence":{"id":"A","type_id":0}},{"SpecialToken":{"id":"[SEP]","type_id":0}}],"pair":[{"SpecialToken":{"id":"[CLS]","type_id":0}},{"Sequence":{"id":"A","type_id":0}},{"SpecialToken":{"id":"[SEP]","type_id":0}},{"Sequence":{"id":"B","type_id":1}},{"SpecialToken":{"id":"[SEP]","type_id":1}}],"special_tokens":{"[CLS]":{"id":"[CLS]","ids":[1],"tokens":["[CLS]"]},"[SEP]":{"id":"[SEP]","ids":[2],"tokens":["[SEP]"]}}},"decoder":null,"model":{"type":"WordPiece","unk_token":"[UNK]","continuing_subword_prefix":"##","max_input_chars_per_word":100,"vocab":{"[UNK]":0,"[CLS]":1,"[SEP]":2,"[PAD]":3,"[MASK]":4,"!":5,"\"":6,"#":7,"$":8,"%":9,"&":10,"'":11,"(":12,")":13,"*":14,"+":15,",":16,"-":17,".":18,"/":19,"0":20,"1":21,"2":22,"3":23,"4":24,"5":25,"6":26,"7":27,"8":28,"9":29,":":30,";":31,"<":32,"=":33,">":34,"?":35,"@":36,"A":37,"B":38,"C":39,"D":40,"E":41,"F":42,"G":43,"H":44,"I":45,"J":46,"K":47,"L":48,"M":49,"N":50,"O":51,"P":52,"Q":53,"R":54,"S":55,"T":56,"U":57,"V":58,"W":59,"X":60,"Y":61,"Z":62,"[":63,"\\":64,"]":65,"^":66,"_":67,"`":68,"a":69,"b":70,"c":71,"d":72,"e":73,"f":74,"g":75,"h":76,"i":77,"j":78,"k":79,"l":80,"m":81,"n":82,"o":83,"p":84,"q":85,"r":86,"s":87,"t":88,"u":89,"v":90,"w":91,"x":92,"y":93,"z":94,"{":95,"|":96,"}":97,"~":98,"":99,"":100,"":101,"":102,"":103,"":104,"":105,"¡":106,"¢":107,"£":108,"¤":109,"¥":110,"¦":111,"§":112,"©":113,"«":114,"¬":115,"­":116,"®":117,"°":118,"±":119,"¶":120,"·":121,"»":122,"¿":123,"Æ":124,"Ð":125,"×":126,"Ø":127,"Þ":128,"ß":129,"æ":130,"ð":131,"÷":132,"ø":133,"þ":134,"Đ":135,"đ":136,"ħ":137,"ı":138,"ĸ":139,"Ł":140,"ł":141,"ŋ":142,"Œ":143,"œ":144,"Ŧ":145,"ŧ":146,"Ɓ":147,"ƅ":148,"ƈ":149,"Ɖ":150,"Ɗ":151,"ƍ":152,"Ɛ":153,"Ƒ":154,"ƒ":155,"Ɣ":156,"Ɩ":157,"Ɨ":158,"Ƙ":159,"ƙ":160,"ƚ":161,"ƛ":162,"ƞ":163,"Ɵ":164,"Ƥ":165,"Ʀ":166,"ƨ":167,"Ʃ":168,"ƪ":169,"Ƭ":170,"Ʈ":171,"Ʊ":172,"Ʋ":173,"Ƴ":174,"ƴ":175,"Ʒ":176,"ƺ":177,"ƿ":178,"ǀ":179,"ǁ":180,"ǂ":181,"ǃ":182,"ǝ":183,"ǥ":184,"Ȝ":185,"ȝ":186,"Ƞ":187,"ȡ":188,"Ȥ":189,"ȥ":190,"ȷ":191,"ȼ":192,"Ƚ":193,"ȿ":194,"ɀ":195,"Ɂ":196,"Ʌ":197,"ɐ":198,"ɑ":199,"ɒ":200,"ɔ":201,"ɖ":202,"ɗ":203,"ɘ":204,"ə":205,"ɚ":206,"ɛ":207,"ɜ":208,"ɡ":209,"ɣ":210,"ɤ":211,"ɥ":212,"ɧ":213,"ɨ":214,"ɩ":215,"ɪ":216,"ɫ":217,"ɭ":218,"ɯ":219,"ɱ":220,"ɲ":221,"ɳ":222,"ɵ":223,"ɷ":224,"ɸ":225,"ɹ":226,"ɽ":227,"ɾ":228,"ɿ":229,"ʀ":230,"ʁ":231,"ʂ":232,"ʃ":233,"ʄ":234,"ʅ":235,"ʇ":236,"ʈ":237,"ʊ":238,"ʋ":239,"ʌ":240,"ʎ":241,"ʐ":242,"ʒ":243,"ʔ":244,"ʕ":245,"ʘ":246,"ʙ":247,"ʝ":248,"ʟ":249,"ʤ":250,"ʧ":251,"ʹ":252,"ʺ":253,"ʻ":254,"ʼ":255,"ʽ":256,"ʾ":257,"ʿ":258,"ˁ":259,"˂":260,"˃":261,"˄":262,"˅":263,"ˆ":264,"ˇ":265,"ˈ":266,"ˉ":267,"ˊ":268,"ˋ":269,"ˌ":270,"ˍ":271,"ˎ":272,"ː":273,"ˑ":274,"˒":275,"˕":276,"˖":277,"˗":278,"˞":279,"˟":280,"˦":281,"˧":282,"˫":283,"˭":284,"ˮ":285,"˳":286,"˷":287,"˽":288,"΀":289,"Α":290,"Β":291,"Γ":292,"Δ":293,"Ε":294,"Ζ":295,"Η":296,"Θ":297,"Ι":298,"Κ":299,"Λ":300,"Μ":301,"Ν":302,"Ξ":303,"Ο":304,"Π":305,"Ρ":306,"Σ":307,"Τ":308,"Υ":309,"Φ":310,"Χ":311,"Ψ":312,"Ω":313,"α":314,"β":315,"γ":316,"δ":317,"ε":318,"ζ":319,"η":320,"θ":321,"ι":322,"κ":323,"λ":324,"μ":325,"ν":326,"ξ":327,"ο":328,"π":329,"ρ":330,"ς":331,"σ":332,"τ":333,"υ":334,"φ":335,"χ":336,"ψ":337,"ω":338,"ϗ":339,"Ϙ":340,"Ϛ":341,"ϛ":342,"Ϝ":343,"ϝ":344,"ϟ":345,"Ϣ":346,"ϣ":347,"ϧ":348,"Ϩ":349,"ϫ":350,"Ϭ":351,"ϭ":352,"Ϯ":353,"ϯ":354,"϶":355,"ϻ":356,"ϼ":357,"Ͽ":358,"Є":359,"Ѕ":360,"І":361,"Ј":362,"Ћ":363,"А":364,"Б":365,"В":366,"Г":367,"Д":368,"Е":369,"Ж":370,"З":371,"И":372,"К":373,"Л":374,"М":375,"Н":376,"О":377,"П":378,"Р":379,"С":380,"Т":381,"У":382,"Ф":383,"Х":384,"Ц":385,"Ч":386,"Ш":387,"Ь":388,"Э":389,"Ю":390,"Я":391,"а":392,"б":393,"в":394,"г":395,"д":396,"е":397,"ж":398,"з":399,"и":400,"к":401,"л":402,"м":403,"н":404,"о":405,"п":406,"р":407,"с":408,"т":409,"у":410,"ф":411,"х":412,"ц":413,"ч":414,"ш":415,"щ":416,"ъ":417,"ы":418,"ь":419,"э":420,"ю":421,"я":422,"ђ":423,"є":424,"ѕ":425,"і":426,"њ":427,"ћ":428,"ѡ":429,"Ѱ":430,"ѱ":431,"Ѳ":432,"ѳ":433,"Ѵ":434,"ѵ":435,"ѿ":436,"Ҏ":437,"Ґ":438,"ґ":439,"Ҕ":440,"қ":441,"ҝ":442,"Ҡ":443,"ҡ":444,"Ң":445,"Ҫ":446,"ҫ":447,"ҳ":448,"ҷ":449,"ҹ":450,"һ":451,"Ӏ":452,"ӄ":453,"ӊ":454,"ӕ":455,"ә":456,"ӡ":457,"Ө":458,"ө":459,"Ӷ":460,"Ӽ":461,"ԁ":462,"Ԑ":463,"ԑ":464,"ԗ":465,"ԡ":466,"ԥ":467,"ԧ":468,"԰":469,"Կ":470,"Պ":471,"Փ":472,"՚":473,"՛":474,"՜":475,"դ":476,"հ":477,"ղ":478,"ս":479,"ւ":480,"փ":481,"־":482,"׀":483,"׃":484,"א":485,"ב":486,"ג":487,"ד":488,"ה":489,"ו":490,"ז":491,"ח":492,"ט":493,"י":494,"ך":495,"כ":496,"ל":497,"ם":498,"מ":499,"ן":500,"נ":501,"ס":502,"ע":503,"ף":504,"פ":505,"צ":506,"ק":507,"ר":508,"ש":509,"ת":510,"׳":511,"״":512,"؄":513,"،":514,"؛":515,"؟":516,"ء":517,"ا":518,"ب":519,"ة":520,"ت":521,"ث":522,"ج":523,"ح":524,"خ":525,"د":526,"ذ":527,"ر":528,"ز":529,"س":530,"ش":531,"ص":532,"ض":533,"ط":534,"ظ":535,"ع":536,"غ":537,"ـ":538,"ف":539,"ق":540,"ك":541,"ل":542,"م":543,"ن":544,"ه":545,"و":546,"ى":547,"ي":548,"٠":549,"١":550,"٢":551,"٣":552,"٥":553,"٦":554,"٧":555,"٨":556,"٩":557,"٪":558,"٫":559,"٭":560,"پ":561,"ڄ":562,"چ":563,"ڕ":564,"ڤ":565,"ڥ":566,"ک":567,"گ":568,"ڰ":569,"ڲ":570,"ی":571,"ە":572,"ۯ":573,"۰":574,"۷":575,"ۻ":576,"܀":577,"܃":578,"ܕ":579,"ܗ":580,"ܜ":581,"ܣ":582,"ܥ":583,"ܧ":584,"ܫ":585,"݋":586,"ݙ":587,"ݯ":588,"ރ":589,"ފ":590,"ޚ":591,"߀":592,"߄":593,"ߕ":594,"ߗ":595,"ߚ":596,"ߝ":597,"ߡ":598,"ߣ":599,"ߧ":600,"ߩ":601,"߷":602,"߻":603,"ࠊ":604,"࡯":605,"ࡱ":606,"ࡼ":607,"ࢋ":608,"࢛":609,"अ":610,"ई":611,"ऊ":612,"क":613,"ग":614,"ड":615,"ण":616,"त":617,"द":618,"न":619,"फ":620,"म":621,"य":622,"र":623,"ल":624,"व":625,"श":626,"स":627,"ह":628,"॥":629,"६":630,"॰":631,"ঞ":632,"ড":633,"থ":634,"ব":635,"ৠ":636,"৥":637,"৿":638,"ਈ":639,"੠":640,"ક":641,"ડ":642,"ଚ":643,"௎":644,"ఉ":645,"಴":646,"೑":647,"೼":648,"ഛ":649,"ඁ":650,"෍":651,"෎":652,"ซ":653,"๗":654,"๼":655,"໛":656,"໣":657,"໶":658,"໻":659,"༗":660,"ཞ":661,"࿘":662,"࿧":663,"࿭":664,"࿳":665,"ဇ":666,"ၡ":667,"Ⴝ":668,"მ":669,"ᄀ":670,"ᄂ":671,"ᄃ":672,"ᄄ":673,"ᄅ":674,"ᄆ":675,"ᄇ":676,"ᄉ":677,"ᄊ":678,"ᄋ":679,"ᄌ":680,"ᄎ":681,"ᄏ":682,"ᄐ":683,"ᄑ":684,"ᄒ":685,"ᄤ":686,"ᄳ":687,"ᄺ":688,"ᅝ":689,"ᅟ":690,"ᅡ":691,"ᅢ":692,"ᅣ":693,"ᅥ":694,"ᅦ":695,"ᅧ":696,"ᅩ":697,"ᅪ":698,"ᅫ":699,"ᅬ":700,"ᅭ":701,"ᅮ":702,"ᅯ":703,"ᅰ":704,"ᅱ":705,"ᅲ":706,"ᅳ":707,"ᅵ":708,"ᅸ":709,"ᆊ":710,"ᆍ":711,"ᆚ":712,"ᆞ":713,"ᆨ":714,"ᆩ":715,"ᆪ":716,"ᆫ":717,"ᆬ":718,"ᆭ":719,"ᆮ":720,"ᆯ":721,"ᆰ":722,"ᆱ":723,"ᆲ":724,"ᆳ":725,"ᆵ":726,"ᆶ":727,"ᆷ":728,"ᆸ":729,"ᆹ":730,"ᆺ":731,"ᆻ":732,"ᆼ":733,"ᆽ":734,"ᆾ":735,"ᆿ":736,"ᇁ":737,"ᇂ":738,"ᇍ":739,"ᇣ":740,"ᇨ":741,"ሖ":742,"ሲ":743,"ዄ":744,"ጠ":745,"ጬ":746,"Ꮂ":747,"Ꮉ":748,"Ꮧ":749,"ᑇ":750,"ᑨ":751,"ᑩ":752,"ᑺ":753,"ᒋ":754,"ᓎ":755,"ᔎ":756,"ᔧ":757,"ᔺ":758,"ᕅ":759,"ᕘ":760,"ᕫ":761,"ᕾ":762,"ᖋ":763,"ᖫ":764,"ᗕ":765,"ᗻ":766,"ᘏ":767,"៤":768,"ᠽ":769,"ᠿ":770,"ᡔ":771,"ᢝ":772,"ᢳ":773,"ᣀ":774,"ᤃ":775,"᥹":776,"᥻":777,"ᦣ":778,"ᦦ":779,"ᨬ":780,"ᨽ":781,"ᬑ":782,"ᬜ":783,"᭛":784,"ᮄ":785,"ᮍ":786,"ᮮ":787,"ᯊ":788,"ᯢ":789,"᯹":790,"ᰃ":791,"᱊":792,"᳆":793,"᳿":794,"ᴂ":795,"ᴃ":796,"ᴅ":797,"ᴇ":798,"ᴈ":799,"ᴓ":800,"ᴖ":801,"ᴗ":802,"ᴛ":803,"ᴠ":804,"ᴢ":805,"ᴤ":806,"ᴦ":807,"ᴧ":808,"ᴨ":809,"ᵫ":810,"ᵰ":811,"ᶀ":812,"ᶁ":813,"ᶊ":814,"ẟ":815,"ỿ":816,"​":817,"‌":818,"‍":819,"‎":820,"‏":821,"‐":822,"‒":823,"–":824,"—":825,"―":826,"‖":827,"‘":828,"’":829,"‚":830,"‛":831,"“":832,"”":833,"„":834,"‟":835,"†":836,"‡":837,"•":838,"‧":839,"‪":840,"‬":841,"‰":842,"‱":843,"′":844,"‵":845,"‹":846,"›":847,"※":848,"‿":849,"⁀":850,"⁁":851,"⁂":852,"⁃":853,"⁄":854,"⁎":855,"⁓":856,"⁕":857,"⁠":858,"⁡":859,"⁢":860,"⁣":861,"⁭":862,"₢":863,"₤":864,"₦":865,"€":866,"₵":867,"₸":868,"₹":869,"⃵":870,"℘":871,"℧":872,"℮":873,"⅁":874,"←":875,"↑":876,"→":877,"↓":878,"↔":879,"↕":880,"↖":881,"↗":882,"↘":883,"↙":884,"↝":885,"↞":886,"↟":887,"↠":888,"↡":889,"↤":890,"↦":891,"↨":892,"↵":893,"↹":894,"↺":895,"↼":896,"↽":897,"↾":898,"↿":899,"⇀":900,"⇁":901,"⇂":902,"⇄":903,"⇅":904,"⇆":905,"⇇":906,"⇈":907,"⇉":908,"⇊":909,"⇋":910,"⇌":911,"⇐":912,"⇑":913,"⇒":914,"⇓":915,"⇔":916,"⇕":917,"⇛":918,"⇝":919,"⇢":920,"⇦":921,"⇨":922,"⇵":923,"⇶":924,"⇻":925,"⇼":926,"⇾":927,"∀":928,"∁":929,"∂":930,"∃":931,"∅":932,"∆":933,"∇":934,"∈":935,"∊":936,"∋":937,"∍":938,"∎":939,"∏":940,"∐":941,"∑":942,"−":943,"∓":944,"∕":945,"∖":946,"∗":947,"∘":948,"∙":949,"√":950,"∝":951,"∞":952,"∟":953,"∠":954,"∡":955,"∢":956,"∣":957,"∥":958,"∧":959,"∨":960,"∩":961,"∪":962,"∫":963,"∮":964,"∱":965,"∲":966,"∴":967,"∵":968,"∶":969,"∷":970,"∼":971,"∽":972,"∾":973,"≃":974,"≅":975,"≈":976,"≊":977,"≌":978,"≍":979,"≏":980,"≐":981,"≑":982,"≒":983,"≔":984,"≕":985,"≘":986,"≙":987,"≜":988,"≝":989,"≟":990,"≡":991,"≤":992,"≥":993,"≦":994,"≧":995,"≪":996,"≫":997,"≲":998,"≳":999,"≶":1000,"≷":1001,"≺":1002,"≻":1003,"≼":1004,"≽":1005,"≾":1006,"≿":1007,"⊂":1008,"⊃":1009,"⊆":1010,"⊇":1011,"⊊":1012,"⊎":1013,"⊏":1014,"⊐":1015,"⊓":1016,"⊔":1017,"⊕":1018,"⊖":1019,"⊗":1020,"⊘":1021,"⊙":1022,"⊛":1023,"⊝":1024,"⊟":1025,"⊠":1026,"⊡":1027,"⊢":1028,"⊣":1029,"⊤":1030,"⊥":1031,"⊧":1032,"⊨":1033,"⊩":1034,"⊲":1035,"⊵":1036,"⊺":1037,"⊻":1038,"⊿":1039,"⋀":1040,"⋁":1041,"⋂":1042,"⋃":1043,"⋄":1044,"⋅":1045,"⋆":1046,"⋇":1047,"⋈":1048,"⋉":1049,"⋌":1050,"⋍":1051,"⋐":1052,"⋒":1053,"⋘":1054,"⋙":1055,"⋚":1056,"⋟":1057,"⋮":1058,"⋯":1059,"⋰":1060,"⋱":1061,"⌀":1062,"⌃":1063,"⌄":1064,"⌆":1065,"⌈":1066,"⌉":1067,"⌊":1068,"⌋":1069,"⌍":1070,"⌐":1071,"⌒":1072,"⌕":1073,"⌘":1074,"⌜":1075,"⌝":1076,"⌞":1077,"⌟":1078,"⌢":1079,"⌣":1080,"⌶":1081,"⌷":1082,"⍬":1083,"⍴":1084,"⍵":1085,"⍺":1086,"⎔":1087,"⎕":1088,"⎛":1089,"⎜":1090,"⎝":1091,"⎞":1092,"⎟":1093,"⎠":1094,"⎡":1095,"⎢":1096,"⎣":1097,"⎤":1098,"⎥":1099,"⎦":1100,"⎧":1101,"⎨":1102,"⎩":1103,"⎪":1104,"⎫":1105,"⎬":1106,"⎭":1107,"⎯":1108,"⎵":1109,"⎸":1110,"⎹":1111,"⎺":1112,"⎻":1113,"⏜":1114,"⏞":1115,"⏟":1116,"⏵":1117,"⏽":1118,"␋":1119,"␢":1120,"␣":1121,"␪":1122,"⓫":1123,"⓬":1124,"⓭":1125,"─":1126,"━":1127,"│":1128,"┄":1129,"┌":1130,"┐":1131,"└":1132,"┘":1133,"├":1134,"┤":1135,"┴":1136,"┼":1137,"┿":1138,"═":1139,"║":1140,"╔":1141,"╳":1142,"▁":1143,"▄":1144,"░":1145,"▒":1146,"▓":1147,"■":1148,"□":1149,"▢":1150,"▨":1151,"▪":1152,"▫":1153,"▬":1154,"▭":1155,"▯":1156,"▲":1157,"△":1158,"▴":1159,"▵":1160,"▶":1161,"▷":1162,"▸":1163,"▹":1164,"►":1165,"▼":1166,"▽":1167,"▾":1168,"▿":1169,"◀":1170,"◁":1171,"◂":1172,"◃":1173,"◄":1174,"◆":1175,"◇":1176,"◉":1177,"◊":1178,"○":1179,"◌":1180,"◎":1181,"●":1182,"◐":1183,"◑":1184,"◖":1185,"◗":1186,"◘":1187,"◦":1188,"◬":1189,"◯":1190,"◺":1191,"◻":1192,"◼":1193,"◽":1194,"◾":1195,"★":1196,"☆":1197,"☉":1198,"☐":1199,"☒":1200,"☓":1201,"☨":1202,"☰":1203,"☹":1204,"☺":1205,"☻":1206,"☼":1207,"♀":1208,"♂":1209,"♠":1210,"♡":1211,"♢":1212,"♣":1213,"♥":1214,"♦":1215,"♭":1216,"♮":1217,"♯":1218,"⚍":1219,"⚑":1220,"⚪":1221,"⚫":1222,"⚬":1223,"⛩":1224,"⛺":1225,"✉":1226,"✓":1227,"✔":1228,"✕":1229,"✖":1230,"✗":1231,"✘":1232,"✞":1233,"✠":1234,"✦":1235,"✧":1236,"✩":1237,"✯":1238,"✰":1239,"✱":1240,"✳":1241,"✵":1242,"✸":1243,"✽":1244,"❄":1245,"❅":1246,"❉":1247,"❏":1248,"❖":1249,"❚":1250,"❤":1251,"❨":1252,"❶":1253,"❷":1254,"❸":1255,"❹":1256,"❺":1257,"❻":1258,"❼":1259,"❾":1260,"➀":1261,"➁":1262,"➂":1263,"➃":1264,"➄":1265,"➅":1266,"➆":1267,"➇":1268,"➈":1269,"➉":1270,"➊":1271,"➋":1272,"➌":1273,"➍":1274,"➎":1275,"➏":1276,"➐":1277,"➑":1278,"➒":1279,"➓":1280,"➔":1281,"➙":1282,"➜":1283,"➝":1284,"➞":1285,"➢":1286,"➱":1287,"⟂":1288,"⟒":1289,"⟨":1290,"⟩":1291,"⟵":1292,"⟶":1293,"⟷":1294,"⟸":1295,"⟹":1296,"⟺":1297,"⟼":1298,"⟿":1299,"⠅":1300,"⠽":1301,"⢊":1302,"⤳":1303,"⤺":1304,"⤻":1305,"⥂":1306,"⥄":1307,"⥛":1308,"⥟":1309,"⥩":1310,"⦀":1311,"⦁":1312,"⦃":1313,"⦄":1314,"⦆":1315,"⦋":1316,"⦌":1317,"⦏":1318,"⦙":1319,"⦡":1320,"⦰":1321,"⦵":1322,"⦸":1323,"⦻":1324,"⦾":1325,"⦿":1326,"⧖":1327,"⧚":1328,"⧫":1329,"⧸":1330,"⧹":1331,"⨁":1332,"⨂":1333,"⨄":1334,"⨉":1335,"⨍":1336,"⨜":1337,"⨥":1338,"⨭":1339,"⨯":1340,"⨸":1341,"⨿":1342,"⩝":1343,"⩳":1344,"⩽":1345,"⩾":1346,"⪅":1347,"⪆":1348,"⪈":1349,"⪖":1350,"⪝":1351,"⪡":1352,"⪢":1353,"⪯":1354,"⪰":1355,"⪷":1356,"⪸":1357,"⫅":1358,"⫪":1359,"⫫":1360,"⫳":1361,"⫶":1362,"⫺":1363,"⫼":1364,"⬄":1365,"⬅":1366,"⬉":1367,"⬌":1368,"⬚":1369,"⬜":1370,"⬠":1371,"⬦":1372,"Ⱗ":1373,"ⱘ":1374,"ⱱ":1375,"Ⲥ":1376,"Ⳍ":1377,"ⶀ":1378,"⷇":1379,"⸦":1380,"⸰":1381,"⸱":1382,"⸳":1383,"⹂":1384,"⿟":1385,"⿠":1386,"⿡":1387,"⿢":1388,"⿤":1389,"⿥":1390,"⿦":1391,"⿫":1392,"⿯":1393,"⿲":1394,"⿳":1395,"⿼":1396,"⿿":1397,"、":1398,"。":1399,"〇":1400,"〈":1401,"〉":1402,"《":1403,"》":1404,"「":1405,"」":1406,"『":1407,"』":1408,"〒":1409,"〓":1410,"〔":1411,"〕":1412,"〖":1413,"〗":1414,"〚":1415,"〛":1416,"〜":1417,"〞":1418,"あ":1419,"い":1420,"う":1421,"え":1422,"お":1423,"き":1424,"け":1425,"さ":1426,"し":1427,"た":1428,"つ":1429,"と":1430,"に":1431,"の":1432,"は":1433,"ひ":1434,"へ":1435,"ほ":1436,"み":1437,"め":1438,"ょ":1439,"り":1440,"る":1441,"を":1442,"ん":1443,"ア":1444,"イ":1445,"エ":1446,"オ":1447,"キ":1448,"ク":1449,"コ":1450,"サ":1451,"シ":1452,"タ":1453,"テ":1454,"ネ":1455,"ハ":1456,"フ":1457,"ム":1458,"メ":1459,"ユ":1460,"ラ":1461,"リ":1462,"ル":1463,"レ":1464,"ロ":1465,"ン":1466,"・":1467,"ー":1468,"ㄏ":1469,"ㄓ":1470,"ㄚ":1471,"ㄥ":1472,"ㄦ":1473,"ㄨ":1474,"㑺":1475,"㒓":1476,"㒧":1477,"㔫":1478,"㗗":1479,"㙪":1480,"㛑":1481,"㜅":1482,"㜤":1483,"㡃":1484,"㣗":1485,"㦋":1486,"㦎":1487,"㱔":1488,"㸠":1489,"㸼":1490,"㹿":1491,"㽕":1492,"㾦":1493,"㾷":1494,"䅵":1495,"䅸":1496,"䆎":1497,"䆡":1498,"䆩":1499,"䆫":1500,"䍙":1501,"䕏":1502,"䖒":1503,"䖛":1504,"䖥":1505,"䖭":1506,"䖯":1507,"䗚":1508,"䗦":1509,"䗮":1510,"䙱":1511,"䚥":1512,"䜕":1513,"䜡":1514,"䞡":1515,"䞣":1516,"䞥":1517,"䩰":1518,"䪒":1519,"䪱":1520,"䫖":1521,"䬂":1522,"䬰":1523,"䭓":1524,"䮿":1525,"䯈":1526,"䰇":1527,"䰧":1528,"䰶":1529,"䴲":1530,"䴶":1531,"一":1532,"丁":1533,"七":1534,"万":1535,"三":1536,"上":1537,"下":1538,"不":1539,"与":1540,"丐":1541,"专":1542,"且":1543,"世":1544,"丙":1545,"业":1546,"东":1547,"丢":1548,"两":1549,"丨":1550,"个":1551,"中":1552,"丰":1553,"串":1554,"临":1555,"为":1556,"主":1557,"丽":1558,"举":1559,"乃":1560,"么":1561,"义":1562,"之":1563,"乎":1564,"乐":1565,"乙":1566,"乜":1567,"九":1568,"也":1569,"习":1570,"书":1571,"乫":1572,"买":1573,"乱":1574,"了":1575,"争":1576,"事":1577,"二":1578,"于":1579,"云":1580,"互":1581,"五":1582,"井":1583,"亚":1584,"些":1585,"亞":1586,"亡":1587,"交":1588,"产":1589,"享":1590,"京":1591,"亮":1592,"亲":1593,"亳":1594,"人":1595,"亿":1596,"什":1597,"仁":1598,"今":1599,"介":1600,"仍":1601,"从":1602,"仓":1603,"仔":1604,"他":1605,"付":1606,"仙":1607,"代":1608,"令":1609,"以":1610,"仪":1611,"们":1612,"仰":1613,"件":1614,"价":1615,"任":1616,"份":1617,"企":1618,"伊":1619,"伍":1620,"休":1621,"众":1622,"优":1623,"伙":1624,"会":1625,"伟":1626,"传":1627,"伤":1628,"伦":1629,"伯":1630,"伴":1631,"伶":1632,"伸":1633,"似":1634,"但":1635,"位":1636,"低":1637,"住":1638,"体":1639,"佔":1640,"何":1641,"佛":1642,"作":1643,"你":1644,"佢":1645,"佪":1646,"使":1647,"來":1648,"例":1649,"供":1650,"依":1651,"侣":1652,"侵":1653,"便":1654,"係":1655,"俊":1656,"保":1657,"信":1658,"修":1659,"俸":1660,"個":1661,"倍":1662,"們":1663,"倒":1664,"候":1665,"倩":1666,"倪":1667,"值":1668,"偄":1669,"偅":1670,"假":1671,"做":1672,"停":1673,"偠":1674,"健":1675,"偶":1676,"偷":1677,"傅":1678,"傘":1679,"備":1680,"储":1681,"催":1682,"傲":1683,"僅":1684,"像":1685,"億":1686,"儣":1687,"儿":1688,"元":1689,"先":1690,"光":1691,"克":1692,"免":1693,"兔":1694,"入":1695,"內":1696,"全":1697,"兩":1698,"八":1699,"公":1700,"六":1701,"兰":1702,"共":1703,"关":1704,"兴":1705,"其":1706,"具":1707,"典":1708,"养":1709,"内":1710,"冈":1711,"再":1712,"写":1713,"军":1714,"农":1715,"冨":1716,"冬":1717,"冯":1718,"冲":1719,"决":1720,"冶":1721,"凌":1722,"减":1723,"凝":1724,"几":1725,"凡":1726,"凯":1727,"出":1728,"击":1729,"函":1730,"分":1731,"切":1732,"刊":1733,"刑":1734,"划":1735,"列":1736,"刘":1737,"则":1738,"刚":1739,"创":1740,"初":1741,"判":1742,"別":1743,"刨":1744,"利":1745,"别":1746,"到":1747,"制":1748,"刷":1749,"刻":1750,"剂":1751,"則":1752,"前":1753,"副":1754,"創":1755,"力":1756,"劝":1757,"办":1758,"功":1759,"加":1760,"务":1761,"动":1762,"助":1763,"励":1764,"劲":1765,"势":1766,"勇":1767,"動":1768,"務":1769,"勝":1770,"勢":1771,"勤":1772,"包":1773,"化":1774,"北":1775,"区":1776,"医":1777,"區":1778,"十":1779,"千":1780,"升":1781,"半":1782,"华":1783,"协":1784,"卑":1785,"卓":1786,"協":1787,"单":1788,"卖":1789,"南":1790,"博":1791,"占":1792,"卡":1793,"卢":1794,"卫":1795,"危":1796,"卷":1797,"厂":1798,"厅":1799,"历":1800,"厉":1801,"原":1802,"厦":1803,"厭":1804,"去":1805,"县":1806,"参":1807,"參":1808,"又":1809,"及":1810,"友":1811,"双":1812,"反":1813,"发":1814,"叔":1815,"取":1816,"受":1817,"变":1818,"叡":1819,"口":1820,"古":1821,"另":1822,"只":1823,"叫":1824,"召":1825,"可":1826,"台":1827,"史":1828,"右":1829,"号":1830,"司":1831,"叼":1832,"吃":1833,"各":1834,"合":1835,"吉":1836,"同":1837,"名":1838,"后":1839,"吐":1840,"向":1841,"吓":1842,"吗":1843,"君":1844,"吞":1845,"吣":1846,"否":1847,"吧":1848,"含":1849,"听":1850,"启":1851,"吴":1852,"吵":1853,"吸":1854,"吻":1855,"呀":1856,"告":1857,"员":1858,"呛":1859,"呢":1860,"周":1861,"味":1862,"呼":1863,"命":1864,"咁":1865,"和":1866,"咗":1867,"咘":1868,"咨":1869,"咩":1870,"咬":1871,"品":1872,"哄":1873,"哈":1874,"哋":1875,"响":1876,"哎":1877,"員":1878,"哦":1879,"哪":1880,"哭":1881,"哲":1882,"唐":1883,"唔":1884,"售":1885,"唱":1886,"商":1887,"啊":1888,"啟":1889,"啭":1890,"善":1891,"喜":1892,"喝":1893,"嗎":1894,"嗮":1895,"嘅":1896,"嘉":1897,"嘢":1898,"器":1899,"嚟":1900,"四":1901,"回":1902,"因":1903,"团":1904,"困":1905,"围":1906,"固":1907,"国":1908,"图":1909,"圆":1910,"圈":1911,"國":1912,"圓":1913,"土":1914,"在":1915,"地":1916,"场":1917,"圾":1918,"均":1919,"坊":1920,"坏":1921,"坐":1922,"块":1923,"垃":1924,"型":1925,"垴":1926,"埋":1927,"城":1928,"埔":1929,"域":1930,"培":1931,"基":1932,"堂":1933,"堆":1934,"報":1935,"場":1936,"堵":1937,"塔":1938,"塘":1939,"境":1940,"增":1941,"墨":1942,"壁":1943,"士":1944,"处":1945,"备":1946,"夌":1947,"复":1948,"外":1949,"多":1950,"夜":1951,"够":1952,"大":1953,"天":1954,"太":1955,"夫":1956,"央":1957,"失":1958,"头":1959,"奇":1960,"奉":1961,"奎":1962,"契":1963,"女":1964,"奴":1965,"奸":1966,"她":1967,"好":1968,"如":1969,"妈":1970,"妨":1971,"妹":1972,"妻":1973,"妾":1974,"姆":1975,"始":1976,"姐":1977,"姑":1978,"姓":1979,"委":1980,"姣":1981,"姨":1982,"姻":1983,"威":1984,"娅":1985,"娟":1986,"娱":1987,"娶":1988,"婆":1989,"婚":1990,"婢":1991,"婦":1992,"婧":1993,"媽":1994,"嫡":1995,"嫩":1996,"子":1997,"孔":1998,"字":1999,"存":2000,"孙":2001,"孝":2002,"孟":2003,"季":2004,"孤":2005,"学":2006,"孩":2007,"學":2008,"宁":2009,"它":2010,"宇":2011,"守":2012,"安":2013,"宋":2014,"完":2015,"宏":2016,"官":2017,"定":2018,"宜":2019,"宝":2020,"实":2021,"审":2022,"客":2023,"室":2024,"害":2025,"家":2026,"容":2027,"宾":2028,"宿":2029,"密":2030,"寒":2031,"察":2032,"審":2033,"对":2034,"寺":2035,"寻":2036,"导":2037,"寿":2038,"射":2039,"将":2040,"將":2041,"尊":2042,"對":2043,"導":2044,"小":2045,"少":2046,"尔":2047,"就":2048,"尹":2049,"尽":2050,"尾":2051,"尿":2052,"局":2053,"层":2054,"居":2055,"屋":2056,"展":2057,"属":2058,"層":2059,"履":2060,"屬":2061,"屯":2062,"山":2063,"岁":2064,"岛":2065,"岡":2066,"岩":2067,"岳":2068,"峰":2069,"崇":2070,"崔":2071,"嵌":2072,"巔":2073,"川":2074,"州":2075,"工":2076,"左":2077,"巧":2078,"差":2079,"己":2080,"已":2081,"巴":2082,"巾":2083,"市":2084,"布":2085,"师":2086,"希":2087,"带":2088,"師":2089,"席":2090,"帮":2091,"帶":2092,"常":2093,"幅":2094,"幫":2095,"干":2096,"平":2097,"年":2098,"并":2099,"幸":2100,"幹":2101,"幼":2102,"幾":2103,"广":2104,"庆":2105,"序":2106,"库":2107,"应":2108,"店":2109,"府":2110,"废":2111,"度":2112,"座":2113,"庫":2114,"庭":2115,"康":2116,"延":2117,"建":2118,"开":2119,"异":2120,"弄":2121,"弈":2122,"式":2123,"引":2124,"弟":2125,"张":2126,"弱":2127,"張":2128,"強":2129,"强":2130,"归":2131,"当":2132,"形":2133,"彦":2134,"彩":2135,"彪":2136,"彭":2137,"影":2138,"往":2139,"征":2140,"径":2141,"待":2142,"很":2143,"律":2144,"後":2145,"徐":2146,"徒":2147,"得":2148,"從":2149,"微":2150,"徳":2151,"德":2152,"徽":2153,"心":2154,"忄":2155,"必":2156,"志":2157,"忘":2158,"忙":2159,"忠":2160,"快":2161,"态":2162,"怂":2163,"怎":2164,"怕":2165,"怜":2166,"思":2167,"怡":2168,"性":2169,"总":2170,"恐":2171,"恒":2172,"恙":2173,"息":2174,"恶":2175,"恿":2176,"悉":2177,"悍":2178,"情":2179,"惯":2180,"惰":2181,"想":2182,"意":2183,"愚":2184,"感":2185,"愿":2186,"慈":2187,"慢":2188,"慧":2189,"慰":2190,"憶":2191,"懂":2192,"應":2193,"成":2194,"我":2195,"或":2196,"战":2197,"戴":2198,"户":2199,"房":2200,"所":2201,"手":2202,"才":2203,"打":2204,"托":2205,"执":2206,"扩":2207,"扬":2208,"扭":2209,"扶":2210,"批":2211,"找":2212,"承":2213,"技":2214,"抄":2215,"把":2216,"投":2217,"抚":2218,"抢":2219,"护":2220,"报":2221,"抱":2222,"担":2223,"拉":2224,"拍":2225,"拎":2226,"拐":2227,"拒":2228,"拓":2229,"拔":2230,"拘":2231,"拙":2232,"拢":2233,"拦":2234,"择":2235,"括":2236,"拷":2237,"拾":2238,"拿":2239,"持":2240,"挂":2241,"指":2242,"按":2243,"挑":2244,"挥":2245,"振":2246,"换":2247,"据":2248,"授":2249,"掉":2250,"排":2251,"掛":2252,"探":2253,"接":2254,"控":2255,"推":2256,"措":2257,"提":2258,"揣":2259,"揭":2260,"搞":2261,"搣":2262,"搦":2263,"搭":2264,"搶":2265,"摆":2266,"摇":2267,"摔":2268,"摘":2269,"摩":2270,"撤":2271,"撥":2272,"播":2273,"擔":2274,"擠":2275,"攒":2276,"支":2277,"收":2278,"改":2279,"放":2280,"政":2281,"故":2282,"效":2283,"敏":2284,"救":2285,"教":2286,"敬":2287,"数":2288,"整":2289,"敵":2290,"文":2291,"斌":2292,"斑":2293,"斗":2294,"料":2295,"斩":2296,"斯":2297,"新":2298,"斷":2299,"方":2300,"於":2301,"施":2302,"旄":2303,"旅":2304,"族":2305,"旗":2306,"无":2307,"既":2308,"日":2309,"旧":2310,"旨":2311,"早":2312,"旭":2313,"时":2314,"旷":2315,"旻":2316,"昂":2317,"昆":2318,"昌":2319,"明":2320,"易":2321,"昙":2322,"星":2323,"映":2324,"春":2325,"昨":2326,"昭":2327,"是":2328,"昱":2329,"显":2330,"時":2331,"晋":2332,"晓":2333,"晖":2334,"晚":2335,"普":2336,"景":2337,"晰":2338,"晶":2339,"智":2340,"暂":2341,"暢":2342,"暴":2343,"暵":2344,"曦":2345,"曲":2346,"更":2347,"書":2348,"曹":2349,"替":2350,"最":2351,"會":2352,"月":2353,"有":2354,"朋":2355,"服":2356,"望":2357,"朝":2358,"期":2359,"木":2360,"未":2361,"末":2362,"本":2363,"术":2364,"朱":2365,"朴":2366,"朵":2367,"机":2368,"杂":2369,"权":2370,"李":2371,"材":2372,"村":2373,"杜":2374,"条":2375,"来":2376,"杨":2377,"杯":2378,"東":2379,"松":2380,"板":2381,"极":2382,"构":2383,"析":2384,"枕":2385,"林":2386,"果":2387,"枫":2388,"架":2389,"枷":2390,"柏":2391,"某":2392,"染":2393,"柠":2394,"查":2395,"柱":2396,"柳":2397,"栃":2398,"标":2399,"栋":2400,"树":2401,"校":2402,"样":2403,"核":2404,"根":2405,"格":2406,"桃":2407,"案":2408,"桌":2409,"梁":2410,"梅":2411,"條":2412,"棒":2413,"棕":2414,"棵":2415,"椅":2416,"業":2417,"極":2418,"楼":2419,"榜":2420,"樊":2421,"模":2422,"樣":2423,"樹":2424,"機":2425,"檬":2426,"櫚":2427,"次":2428,"欢":2429,"欣":2430,"款":2431,"歌":2432,"歐":2433,"止":2434,"正":2435,"此":2436,"步":2437,"武":2438,"死":2439,"殊":2440,"残":2441,"殴":2442,"段":2443,"殷":2444,"毅":2445,"母":2446,"每":2447,"比":2448,"毕":2449,"毛":2450,"民":2451,"气":2452,"氛":2453,"氢":2454,"氣":2455,"氧":2456,"氯":2457,"水":2458,"氵":2459,"求":2460,"江":2461,"池":2462,"污":2463,"汪":2464,"汽":2465,"沉":2466,"沒":2467,"沟":2468,"没":2469,"沪":2470,"河":2471,"油":2472,"治":2473,"況":2474,"泄":2475,"泉":2476,"法":2477,"泛":2478,"泡":2479,"波":2480,"注":2481,"泻":2482,"洁":2483,"洗":2484,"津":2485,"洪":2486,"洱":2487,"洲":2488,"活":2489,"派":2490,"流":2491,"济":2492,"浓":2493,"浩":2494,"海":2495,"涂":2496,"消":2497,"涉":2498,"涛":2499,"液":2500,"淀":2501,"淡":2502,"深":2503,"混":2504,"清":2505,"渐":2506,"渔":2507,"減":2508,"渠":2509,"温":2510,"港":2511,"游":2512,"湖":2513,"湾":2514,"溏":2515,"源":2516,"溜":2517,"溝":2518,"溫":2519,"溴":2520,"溶":2521,"滑":2522,"满":2523,"滨":2524,"演":2525,"漠":2526,"漢":2527,"漸":2528,"潇":2529,"潔":2530,"潘":2531,"澳":2532,"激":2533,"濟":2534,"灣":2535,"火":2536,"灭":2537,"灯":2538,"炔":2539,"炭":2540,"点":2541,"為":2542,"烁":2543,"烦":2544,"烧":2545,"热":2546,"烯":2547,"烷":2548,"焙":2549,"焚":2550,"無":2551,"焦":2552,"焱":2553,"然":2554,"照":2555,"熊":2556,"熟":2557,"熱":2558,"燃":2559,"燈":2560,"燒":2561,"燕":2562,"爛":2563,"爱":2564,"父":2565,"爸":2566,"片":2567,"版":2568,"牛":2569,"牢":2570,"牧":2571,"物":2572,"特":2573,"犯":2574,"状":2575,"狗":2576,"独":2577,"狱":2578,"狼":2579,"猪":2580,"猫":2581,"献":2582,"獾":2583,"率":2584,"玉":2585,"王":2586,"玩":2587,"环":2588,"现":2589,"玲":2590,"玻":2591,"珍":2592,"珠":2593,"班":2594,"現":2595,"球":2596,"理":2597,"琴":2598,"瑜":2599,"瑞":2600,"瑶":2601,"璃":2602,"環":2603,"瓜":2604,"瓶":2605,"生":2606,"產":2607,"用":2608,"田":2609,"由":2610,"甲":2611,"申":2612,"电":2613,"男":2614,"画":2615,"畅":2616,"界":2617,"留":2618,"畢":2619,"略":2620,"畫":2621,"異":2622,"畴":2623,"疗":2624,"疾":2625,"病":2626,"痕":2627,"痗":2628,"痢":2629,"療":2630,"発":2631,"登":2632,"發":2633,"白":2634,"百":2635,"皂":2636,"的":2637,"皎":2638,"皮":2639,"益":2640,"盐":2641,"监":2642,"盒":2643,"盗":2644,"盟":2645,"目":2646,"盯":2647,"直":2648,"相":2649,"盾":2650,"省":2651,"看":2652,"真":2653,"眷":2654,"眼":2655,"眾":2656,"着":2657,"睇":2658,"睛":2659,"睡":2660,"瞓":2661,"矛":2662,"知":2663,"矩":2664,"短":2665,"石":2666,"码":2667,"研":2668,"砲":2669,"破":2670,"硝":2671,"硫":2672,"硬":2673,"确":2674,"碍":2675,"碱":2676,"碳":2677,"磁":2678,"磊":2679,"磷":2680,"磺":2681,"示":2682,"社":2683,"祁":2684,"祄":2685,"祖":2686,"祝":2687,"神":2688,"祠":2689,"祥":2690,"福":2691,"禮":2692,"离":2693,"秀":2694,"秋":2695,"种":2696,"科":2697,"租":2698,"积":2699,"移":2700,"程":2701,"種":2702,"稱":2703,"稳":2704,"稿":2705,"穆":2706,"穩":2707,"究":2708,"空":2709,"穿":2710,"突":2711,"窗":2712,"窘":2713,"窝":2714,"窟":2715,"窿":2716,"立":2717,"竞":2718,"章":2719,"笔":2720,"第":2721,"筆":2722,"等":2723,"筑":2724,"筒":2725,"答":2726,"策":2727,"筛":2728,"签":2729,"简":2730,"算":2731,"管":2732,"箭":2733,"篇":2734,"簿":2735,"籍":2736,"米":2737,"类":2738,"粉":2739,"粒":2740,"粵":2741,"精":2742,"系":2743,"紅":2744,"紙":2745,"級":2746,"素":2747,"紫":2748,"細":2749,"給":2750,"經":2751,"維":2752,"網":2753,"緊":2754,"総":2755,"緣":2756,"總":2757,"繼":2758,"纠":2759,"红":2760,"纤":2761,"约":2762,"级":2763,"纪":2764,"纯":2765,"纲":2766,"纳":2767,"纷":2768,"纸":2769,"线":2770,"练":2771,"组":2772,"细":2773,"终":2774,"绍":2775,"经":2776,"结":2777,"给":2778,"络":2779,"绝":2780,"统":2781,"绥":2782,"继":2783,"绩":2784,"续":2785,"绳":2786,"维":2787,"绿":2788,"缌":2789,"缠":2790,"缪":2791,"缺":2792,"网":2793,"罗":2794,"罚":2795,"罪":2796,"羊":2797,"美":2798,"群":2799,"義":2800,"羽":2801,"習":2802,"翔":2803,"翰":2804,"翻":2805,"老":2806,"考":2807,"者":2808,"而":2809,"耐":2810,"耦":2811,"耳":2812,"耽":2813,"耿":2814,"聊":2815,"职":2816,"联":2817,"聘":2818,"聚":2819,"聪":2820,"聯":2821,"聽":2822,"肉":2823,"肖":2824,"肥":2825,"肯":2826,"育":2827,"背":2828,"胎":2829,"胖":2830,"胜":2831,"胡":2832,"胶":2833,"能":2834,"脄":2835,"脏":2836,"脑":2837,"脚":2838,"脱":2839,"腐":2840,"腔":2841,"腦":2842,"腿":2843,"膜":2844,"臉":2845,"臨":2846,"自":2847,"臭":2848,"至":2849,"致":2850,"與":2851,"興":2852,"舒":2853,"良":2854,"色":2855,"艳":2856,"艺":2857,"节":2858,"芬":2859,"花":2860,"芹":2861,"苏":2862,"苟":2863,"若":2864,"苦":2865,"苯":2866,"英":2867,"苹":2868,"范":2869,"茅":2870,"茉":2871,"茶":2872,"草":2873,"荣":2874,"荷":2875,"莉":2876,"莹":2877,"菁":2878,"菇":2879,"菊":2880,"菌":2881,"菜":2882,"萍":2883,"落":2884,"著":2885,"蒋":2886,"蓝":2887,"蔚":2888,"蔡":2889,"蔬":2890,"蕉":2891,"薄":2892,"薛":2893,"藏":2894,"藤":2895,"蘋":2896,"虑":2897,"處":2898,"號":2899,"虫":2900,"虹":2901,"蚀":2902,"蛋":2903,"蛙":2904,"蜑":2905,"蜡":2906,"蠕":2907,"蠢":2908,"行":2909,"衍":2910,"術":2911,"街":2912,"衡":2913,"衣":2914,"补":2915,"表":2916,"衰":2917,"袋":2918,"被":2919,"裁":2920,"装":2921,"裕":2922,"補":2923,"裡":2924,"複":2925,"襄":2926,"西":2927,"要":2928,"見":2929,"視":2930,"覺":2931,"见":2932,"观":2933,"规":2934,"视":2935,"觉":2936,"角":2937,"解":2938,"言":2939,"計":2940,"訊":2941,"討":2942,"記":2943,"設":2944,"詞":2945,"試":2946,"詩":2947,"詭":2948,"詰":2949,"話":2950,"該":2951,"認":2952,"誕":2953,"語":2954,"読":2955,"調":2956,"請":2957,"講":2958,"證":2959,"識":2960,"警":2961,"護":2962,"譽":2963,"讚":2964,"计":2965,"认":2966,"讨":2967,"让":2968,"训":2969,"议":2970,"讯":2971,"记":2972,"讲":2973,"许":2974,"论":2975,"讼":2976,"设":2977,"证":2978,"评":2979,"识":2980,"诉":2981,"词":2982,"试":2983,"诗":2984,"诚":2985,"话":2986,"询":2987,"该":2988,"语":2989,"误":2990,"说":2991,"请":2992,"诸":2993,"读":2994,"课":2995,"谁":2996,"调":2997,"谈":2998,"谐":2999,"谢":3000,"谦":3001,"谱":3002,"谷":3003,"豆":3004,"貌":3005,"負":3006,"貴":3007,"貿":3008,"賓":3009,"贏":3010,"负":3011,"贡":3012,"财":3013,"责":3014,"贤":3015,"败":3016,"质":3017,"购":3018,"贱":3019,"贵":3020,"贷":3021,"费":3022,"资":3023,"赎":3024,"赏":3025,"赖":3026,"赚":3027,"赞":3028,"赣":3029,"走":3030,"赵":3031,"赶":3032,"起":3033,"超":3034,"越":3035,"趋":3036,"趕":3037,"趙":3038,"趣":3039,"趨":3040,"足":3041,"跃":3042,"跑":3043,"距":3044,"跟":3045,"跡":3046,"跨":3047,"路":3048,"跳":3049,"踏":3050,"踢":3051,"踩":3052,"蹤":3053,"身":3054,"躺":3055,"車":3056,"軸":3057,"較":3058,"輸":3059,"轉":3060,"车":3061,"轩":3062,"软":3063,"轲":3064,"轻":3065,"载":3066,"较":3067,"辅":3068,"辉":3069,"辐":3070,"输":3071,"辛":3072,"辟":3073,"辦":3074,"辨":3075,"辰":3076,"边":3077,"辽":3078,"达":3079,"过":3080,"迎":3081,"近":3082,"返":3083,"还":3084,"这":3085,"进":3086,"远":3087,"违":3088,"连":3089,"迪":3090,"述":3091,"追":3092,"退":3093,"送":3094,"适":3095,"逆":3096,"选":3097,"透":3098,"逐":3099,"逗":3100,"這":3101,"通":3102,"速":3103,"造":3104,"連":3105,"進":3106,"逼":3107,"逾":3108,"遇":3109,"運":3110,"遍":3111,"過":3112,"道":3113,"遠":3114,"遣":3115,"遲":3116,"遵":3117,"遺":3118,"避":3119,"邀":3120,"邃":3121,"還":3122,"邊":3123,"邢":3124,"那":3125,"邻":3126,"郄":3127,"郎":3128,"郑":3129,"部":3130,"郭":3131,"都":3132,"鄂":3133,"配":3134,"酚":3135,"酯":3136,"酸":3137,"醇":3138,"醫":3139,"采":3140,"释":3141,"里":3142,"重":3143,"量":3144,"金":3145,"針":3146,"鉛":3147,"针":3148,"钛":3149,"钟":3150,"钢":3151,"钱":3152,"钻":3153,"钾":3154,"铁":3155,"铃":3156,"铅":3157,"铈":3158,"铵":3159,"银":3160,"铺":3161,"链":3162,"锋":3163,"错":3164,"锡":3165,"镇":3166,"镜":3167,"長":3168,"长":3169,"閉":3170,"開":3171,"間":3172,"關":3173,"门":3174,"闭":3175,"问":3176,"间":3177,"闹":3178,"闻":3179,"阅":3180,"阐":3181,"阔":3182,"阙":3183,"队":3184,"阳":3185,"阵":3186,"阿":3187,"附":3188,"际":3189,"陈":3190,"陌":3191,"降":3192,"限":3193,"院":3194,"陣":3195,"除":3196,"随":3197,"隐":3198,"際":3199,"障":3200,"隶":3201,"难":3202,"集":3203,"雇":3204,"雖":3205,"離":3206,"難":3207,"雨":3208,"雪":3209,"零":3210,"雷":3211,"電":3212,"需":3213,"震":3214,"霞":3215,"露":3216,"青":3217,"靖":3218,"静":3219,"靜":3220,"非":3221,"靠":3222,"面":3223,"革":3224,"鞋":3225,"鞒":3226,"鞔":3227,"韩":3228,"音":3229,"領":3230,"頭":3231,"页":3232,"项":3233,"顺":3234,"须":3235,"顾":3236,"顿":3237,"领":3238,"颗":3239,"题":3240,"颜":3241,"風":3242,"颱":3243,"风":3244,"飞":3245,"食":3246,"飯":3247,"餐":3248,"餓":3249,"饭":3250,"馆":3251,"首":3252,"香":3253,"馨":3254,"馬":3255,"驕":3256,"马":3257,"驱":3258,"驳":3259,"骂":3260,"骑":3261,"體":3262,"高":3263,"髫":3264,"鬱":3265,"鬼":3266,"魂":3267,"鯨":3268,"鱼":3269,"鲁":3270,"鲜":3271,"鵝":3272,"鸟":3273,"鸡":3274,"鸿":3275,"鹏":3276,"鹿":3277,"麻":3278,"麼":3279,"黄":3280,"黑":3281,"點":3282,"齐":3283,"龄":3284,"龚":3285,"龟":3286,"ꕧ":3287,"ꙍ":3288,"ꝏ":3289,"Ꞃ":3290,"ꞇ":3291,"꞉":3292,"꞊":3293,"ꞌ":3294,"ꞏ":3295,"Ʇ":3296,"":3297,"":3298,"":3299,"":3300,"":3301,"":3302,"":3303,"":3304,"":3305,"":3306,"":3307,"":3308,"":3309,"":3310,"":3311,"":3312,"":3313,"":3314,"":3315,"":3316,"":3317,"":3318,"":3319,"":3320,"":3321,"":3322,"":3323,"":3324,"":3325,"":3326,"":3327,"":3328,"":3329,"":3330,"":3331,"":3332,"":3333,"":3334,"":3335,"":3336,"":3337,"":3338,"":3339,"":3340,"":3341,"":3342,"":3343,"":3344,"":3345,"":3346,"":3347,"":3348,"":3349,"":3350,"":3351,"":3352,"":3353,"":3354,"":3355,"":3356,"":3357,"":3358,"":3359,"":3360,"":3361,"":3362,"":3363,"":3364,"":3365,"":3366,"":3367,"":3368,"":3369,"":3370,"":3371,"":3372,"":3373,"":3374,"":3375,"":3376,"":3377,"":3378,"":3379,"":3380,"":3381,"":3382,"":3383,"":3384,"":3385,"":3386,"":3387,"":3388,"":3389,"":3390,"":3391,"":3392,"":3393,"":3394,"":3395,"":3396,"":3397,"":3398,"﻿":3399,"＀":3400,"￼":3401,"�":3402,"##H":3403,"##U":3404,"##T":3405,"##R":3406,"##8":3407,"##7":3408,"##4":3409,"##3":3410,"##9":3411,"##n":3412,"##a":3413,"##d":3414,"##e":3415,"##q":3416,"##u":3417,"##t":3418,"##p":3419,"##l":3420,"##m":3421,"##o":3422,"##r":3423,"##y":3424,"##f":3425,"##c":3426,"##i":3427,"##x":3428,"##g":3429,"##s":3430,"##P":3431,"##1":3432,"##h":3433,"##5":3434,"##S":3435,"##j":3436,"##B":3437,"##v":3438,"##z":3439,"##I":3440,"##D":3441,"##F":3442,"##L":3443,"##O":3444,"##A":3445,"##N":3446,"##b":3447,"##0":3448,"##6":3449,"##k":3450,"##M":3451,"##E":3452,"##X":3453,"##G":3454,"##C":3455,"##w":3456,"##K":3457,"##*":3458,"##$":3459,"##2":3460,"##γ":3461,"##^":3462,"##/":3463,"##-":3464,"##'":3465,"##V":3466,"##Y":3467,"##W":3468,"##\\":3469,"##,":3470,"##+":3471,"##Q":3472,"##.":3473,"##”":3474,"##φ":3475,"##_":3476,"##J":3477,"##π":3478,"##?":3479,"##(":3480,"##Z":3481,"##σ":3482,"###":3483,"##δ":3484,"##τ":3485,"##)":3486,"##∑":3487,"##=":3488,"##〉":3489,"##∝":3490,"##ˆ":3491,"##ε":3492,"##β":3493,"##≈":3494,"##]":3495,"##−":3496,"##ρ":3497,"##þ":3498,"##υ":3499,"##ω":3500,"##р":3501,"##е":3502,"##с":3503,"##т":3504,"##о":3505,"##в":3506,"##а":3507,"##н":3508,"##\"":3509,"##~":3510,"##μ":3511,"##∫":3512,"##Δ":3513,"##θ":3514,"##:":3515,"##¤":3516,"##;":3517,"##λ":3518,"##Θ":3519,"##ß":3520,"##α":3521,"##ɛ":3522,"##×":3523,"##¡":3524,"##·":3525,"##<":3526,"##%":3527,"##η":3528,"##£":3529,"##κ":3530,"##ζ":3531,"##Γ":3532,"##ı":3533,"##引":3534,"##起":3535,"##矛":3536,"##盾":3537,"##的":3538,"##[":3539,"##!":3540,"##Ω":3541,"##Ø":3542,"##∀":3543,"##↔":3544,"##æ":3545,"##∇":3546,"##∞":3547,"##ħ":3548,"##Λ":3549,"##Σ":3550,"##ə":3551,"##ʊ":3552,"##ʹ":3553,"##≥":3554,"##ψ":3555,"##⇌":3556,"##�":3557,"##¢":3558,"##|":3559,"##人":3560,"##开":3561,"##心":3562,"##了":3563,"##我":3564,"##们":3565,"##也":3566,"##Н":3567,"##О":3568,"##ø":3569,"##К":3570,"##ي":3571,"##ج":3572,"##ا":3573,"##ب":3574,"##ة":3575,"##χ":3576,"##ν":3577,"##ƒ":3578,"##ᅟ":3579,"##`":3580,"##{":3581,"##枫":3582,"##水":3583,"##库":3584,"##′":3585,"##ч":3586,"##и":3587,"##ы":3588,"##ю":3589,"##щ":3590,"##&":3591,"##⟶":3592,"##⋅":3593,"##ξ":3594,"##∗":3595,"##Œ":3596,"##≤":3597,"##∆":3598,"##√":3599,"##ʼ":3600,"##✓":3601,"##‡":3602,"##«":3603,"##Π":3604,"##•":3605,"##}":3606,"##Φ":3607,"##ι":3608,"##“":3609,"##∂":3610,"##ο":3611,"##ς":3612,"##∅":3613,"##ل":3614,"##م":3615,"##د":3616,"##ن":3617,"##ت":3618,"##⊗":3619,"##‖":3620,"##Υ":3621,"##­":3622,"##@":3623,"##⇐":3624,"##–":3625,"##§":3626,"##>":3627,"##∩":3628,"##ح":3629,"##ق":3630,"##†":3631,"##⟹":3632,"##’":3633,"##⟨":3634,"##↑":3635,"##⁢":3636,"##​":3637,"##°":3638,"##€":3639,"##ʁ":3640,"##∧":3641,"##œ":3642,"##Ψ":3643,"##∁":3644,"##ف":3645,"##ر":3646,"##„":3647,"##ˇ":3648,"##®":3649,"##▲":3650,"##⟵":3651,"##♣":3652,"##ł":3653,"##□":3654,"##ˁ":3655,"##瑞":3656,"##林":3657,"##→":3658,"##⧹":3659,"##ˈ":3660,"##⋯":3661,"##Т":3662,"##ग":3663,"##द":3664,"##र":3665,"##श":3666,"##न":3667,"##क":3668,"##त":3669,"##य":3670,"##म":3671,"##व":3672,"##स":3673,"##⪡":3674,"##∈":3675,"##⌋":3676,"##〈":3677,"##ᯊ":3678,"##ᅝ":3679,"##‏":3680,"##‘":3681,"##⇒":3682,"##‰":3683,"##↓":3684,"##≡":3685,"##ɨ":3686,"##ɾ":3687,"##Ł":3688,"##♢":3689,"##":3690,"##Ξ":3691,"##◦":3692,"##海":3693,"##—":3694,"##∊":3695,"##і":3696,"##‒":3697,"##б":3698,"##ж":3699,"##г":3700,"##©":3701,"##鸡":3702,"##ˉ":3703,"##∪":3704,"##学":3705,"##娟":3706,"##ˊ":3707,"##∏":3708,"##选":3709,"##项":3710,"##ǁ":3711,"##⩾":3712,"##ו":3713,"##מ":3714,"##נ":3715,"##י":3716,"##ת":3717,"##±":3718,"##≜":3719,"##⁭":3720,"##樹":3721,"##Æ":3722,"##轻":3723,"##老":3724,"##志":3725,"##愿":3726,"##者":3727,"##Η":3728,"##ɔ":3729,"##Ζ":3730,"##ᅬ":3731,"##ᆬ":3732,"##Þ":3733,"##∮":3734,"##催":3735,"##化":3736,"##分":3737,"##解":3738,"##产":3739,"##氢":3740,"##秀":3741,"##康":3742,"##∥":3743,"##﻿":3744,"##〛":3745,"##ɸ":3746,"##»":3747,"##ð":3748,"##←":3749,"##Ð":3750,"##¶":3751,"##▪":3752,"##上":3753,"##٨":3754,"##ع":3755,"##ى":3756,"##ס":3757,"##כ":3758,"##ם":3759,"##棒":3760,"##控":3761,"##制":3762,"##≃":3763,"##∓":3764,"##△":3765,"##♦":3766,"##С":3767,"##л":3768,"##℘":3769,"##ɪ":3770,"##Β":3771,"##‚":3772,"##Α":3773,"##过":3774,"##固":3775,"##相":3776,"##烧":3777,"##结":3778,"##工":3779,"##艺":3780,"##备":3781,"##介":3782,"##孔":3783,"##▬":3784,"##■":3785,"##∃":3786,"##đ":3787,"##׳":3788,"##・":3789,"##ꞌ":3790,"##ɵ":3791,"##⩽":3792,"##Χ":3793,"##―":3794,"##郎":3795,"##Κ":3796,"##☆":3797,"##⋄":3798,"##∼":3799,"##树":3800,"##Ь":3801,"##ⱘ":3802,"##ᠽ":3803,"##Ө":3804,"##ʺ":3805,"##⋂":3806,"##⁠":3807,"##‹":3808,"##ー":3809,"##Ε":3810,"##▶":3811,"##是":3812,"##已":3813,"##過":3814,"##事":3815,"##業":3816,"##巔":3817,"##峰":3818,"##而":3819,"##到":3820,"##該":3821,"##交":3822,"##時":3823,"##候":3824,"##雨":3825,"##⋮":3826,"##兔":3827,"##仔":3828,"##ᄑ":3829,"##ᆵ":3830,"##ᇂ":3831,"##ᆻ":3832,"##ᆹ":3833,"##₹":3834,"##⌉":3835,"##⋃":3836,"##⌞":3837,"##⌈":3838,"##∷":3839,"##ʃ":3840,"##٠":3841,"##统":3842,"##计":3843,"##含":3844,"##硫":3845,"##天":3846,"##然":3847,"##气":3848,"##田":3849,"##丰":3850,"##度":3851,"##和":3852,"##地":3853,"##质":3854,"##储":3855,"##量":3856,"##ʋ":3857,"##合":3858,"##拷":3859,"##讯":3860,"##取":3861,"##众":3862,"##证":3863,"##为":3864,"##定":3865,"##∘":3866,"##佛":3867,"##湾":3868,"##Г":3869,"##":3870,"##☺":3871,"##篇":3872,"##Ο":3873,"##¬":3874,"##":3875,"##表":3876,"##䜕":3877,"##果":3878,"##明":3879,"##保":3880,"##局":3881,"##法":3882,"##院":3883,"##何":3884,"##¥":3885,"##复":3886,"##生":3887,"##ǀ":3888,"##¿":3889,"##Đ":3890,"##⿤":3891,"##⍴":3892,"##ː":3893,"##∨":3894,"##给":3895,"##他":3896,"##带":3897,"##来":3898,"##麻":3899,"##烦":3900,"##غ":3901,"##ض":3902,"##و":3903,"##▽":3904,"##¦":3905,"##在":3906,"##以":3907,"##子":3908,"##与":3909,"##摩":3910,"##尔":3911,"##比":3912,"##Р":3913,"##色":3914,"##旅":3915,"##游":3916,"##▨":3917,"##⁎":3918,"##⟩":3919,"##℧":3920,"##∙":3921,"##火":3922,"##要":3923,"##出":3924,"##格":3925,"##≘":3926,"##○":3927,"##米":3928,"##颗":3929,"##粒":3930,"##担":3931,"##载":3932,"##于":3933,"##其":3934,"##ւ":3935,"##➊":3936,"##➎":3937,"##⊤":3938,"##":3939,"##":3940,"##":3941,"##ز":3942,"##ه":3943,"##ᔺ":3944,"##㡃":3945,"##⦀":3946,"##ك":3947,"##∣":3948,"##ˑ":3949,"##励":3950,"##机":3951,"##花":3952,"##м":3953,"##х":3954,"##▿":3955,"##個":3956,"##›":3957,"##Ʇ":3958,"##➁":3959,"##А":3960,"##ሲ":3961,"##䰇":3962,"##行":3963,"##ᄤ":3964,"##ᘏ":3965,"##ᨽ":3966,"##ᇨ":3967,"##ʻ":3968,"##▴":3969,"##样":3970,"##会":3971,"##导":3972,"##致":3973,"##":3974,"##作":3975,"##⊆":3976,"##真":3977,"##⌊":3978,"##≫":3979,"##⥟":3980,"##⛩":3981,"##轉":3982,"##頭":3983,"##Е":3984,"##ᦦ":3985,"##ሖ":3986,"##ড":3987,"##ᑨ":3988,"##◯":3989,"##з":3990,"##ь":3991,"##к":3992,"##─":3993,"##һ":3994,"##▭":3995,"##Ͽ":3996,"##伦":3997,"##她":3998,"##一":3999,"##个":4000,"##门":4001,"##文":4002,"##走":4003,"##亮":4004,"##两":4005,"##投":4006,"##绳":4007,"##拉":4008,"##摇":4009,"##马":4010,"##就":4011,"##你":4012,"##抄":4013,"##组":4014,"##平":4015,"##柱":4016,"##扭":4017,"##非":4018,"##常":4019,"##圆":4020,"##良":4021,"##春":4022,"##某":4023,"##腔":4024,"##红":4025,"##之":4026,"##前":4027,"##吐":4028,"##店":4029,"##把":4030,"##雪":4031,"##皮":4032,"##提":4033,"##广":4034,"##扶":4035,"##打":4036,"##这":4037,"##魂":4038,"##将":4039,"##六":4040,"##馆":4041,"##后":4042,"##关":4043,"##里":4044,"##揣":4045,"##写":4046,"##着":4047,"##屯":4048,"##八":4049,"##泉":4050,"##头":4051,"##山":4052,"##铺":4053,"##瓶":4054,"##缠":4055,"##让":4056,"##拦":4057,"##夫":4058,"##纸":4059,"##被":4060,"##讨":4061,"##刨":4062,"##偶":4063,"##连":4064,"##楼":4065,"##谷":4066,"##中":4067,"##玩":4068,"##从":4069,"##路":4070,"##搭":4071,"##乱":4072,"##堵":4073,"##摔":4074,"##白":4075,"##丽":4076,"##本":4077,"##签":4078,"##木":4079,"##托":4080,"##班":4081,"##桃":4082,"##拢":4083,"##右":4084,"##昨":4085,"##洗":4086,"##安":4087,"##顿":4088,"##没":4089,"##有":4090,"##挑":4091,"##跑":4092,"##窗":4093,"##抚":4094,"##车":4095,"##拔":4096,"##冲":4097,"##体":4098,"##翻":4099,"##移":4100,"##桌":4101,"##风":4102,"##场":4103,"##东":4104,"##云":4105,"##筒":4106,"##单":4107,"##点":4108,"##哄":4109,"##拐":4110,"##收":4111,"##豆":4112,"##腿":4113,"##辉":4114,"##轩":4115,"##饭":4116,"##边":4117,"##赏":4118,"##阳":4119,"##空":4120,"##书":4121,"##十":4122,"##月":4123,"##攒":4124,"##阔":4125,"##线":4126,"##踢":4127,"##Ɵ":4128,"##ʿ":4129,"##镇":4130,"##❹":4131,"##⊻":4132,"##瞓":4133,"##吓":4134,"##覺":4135,"##≺":4136,"##判":4137,"##們":4138,"##學":4139,"##知":4140,"##識":4141,"##":4142,"##⊟":4143,"##始":4144,"##自":4145,"##己":4146,"##优":4147,"##势":4148,"##身":4149,"##价":4150,"##值":4151,"##◆":4152,"##÷":4153,"##Ι":4154,"##≔":4155,"##ɑ":4156,"##市":4157,"##★":4158,"##ɐ":4159,"##為":4160,"##ר":4161,"##ב":4162,"##ל":4163,"##":4164,"##护":4165,"##邻":4166,"##系":4167,"##В":4168,"##⋆":4169,"##ᅥ":4170,"##ᆸ":4171,"##ʌ":4172,"##Ф":4173,"##ɣ":4174,"##不":4175,"##做":4176,"##ʀ":4177,"##Τ":4178,"##⇔":4179,"##ᅰ":4180,"##ג":4181,"##⇀":4182,"##≅":4183,"##ɜ":4184,"##ʔ":4185,"##ԧ":4186,"##៤":4187,"##䫖":4188,"##ѕ":4189,"##⎥":4190,"##У":4191,"##⋀":4192,"##≼":4193,"##答":4194,"##题":4195,"##п":4196,"##▵":4197,"##∖":4198,"##⇄":4199,"##Х":4200,"##ʒ":4201,"##同":4202,"##时":4203,"##发":4204,"##新":4205,"##型":4206,"##碳":4207,"##方":4208,"##面":4209,"##更":4210,"##大":4211,"##┴":4212,"##▒":4213,"##⌃":4214,"##✠":4215,"##∽":4216,"##":4217,"##׀":4218,"##‵":4219,"##颱":4220,"##風":4221,"##來":4222,"##⊙":4223,"##⊕":4224,"##≊":4225,"##ҫ":4226,"##靖":4227,"##瑜":4228,"##㒧":4229,"##ᵰ":4230,"##㸼":4231,"##ᯢ":4232,"##ᔧ":4233,"##包":4234,"##⇆":4235,"##⟷":4236,"##⌀":4237,"##Ʒ":4238,"##ɲ":4239,"##❶":4240,"##":4241,"##≪":4242,"##▫":4243,"##貌":4244,"##у":4245,"##д":4246,"##⊥":4247,"##供":4248,"##些":4249,"##资":4250,"##料":4251,"##环":4252,"##反":4253,"##击":4254,"##战":4255,"##遠":4256,"##離":4257,"##Μ":4258,"##央":4259,"##研":4260,"##究":4261,"##漢":4262,"##語":4263,"##衡":4264,"##庫":4265,"##⁡":4266,"##Є":4267,"##完":4268,"##成":4269,"##溫":4270,"##習":4271,"##考":4272,"##試":4273,"##遍":4274,"##я":4275,"##采":4276,"##用":4277,"##低":4278,"##温":4279,"##∠":4280,"##⋱":4281,"##ц":4282,"##➔":4283,"##س":4284,"##خ":4285,"##幼":4286,"##♂":4287,"##孙":4288,"##邃":4289,"##金":4290,"##星":4291,"##٣":4292,"##║":4293,"##房":4294,"##◃":4295,"##Ɛ":4296,"##社":4297,"##聚":4298,"##伴":4299,"##侣":4300,"##离":4301,"##视":4302,"##⌟":4303,"##":4304,"##建":4305,"##设":4306,"##委":4307,"##员":4308,"##申":4309,"##请":4310,"##湖":4311,"##南":4312,"##省":4313,"##境":4314,"##厅":4315,"##履":4316,"##电":4317,"##磁":4318,"##监":4319,"##管":4320,"##职":4321,"##责":4322,"##є":4323,"##Ρ":4324,"##政":4325,"##府":4326,"##信":4327,"##息":4328,"##公":4329,"##条":4330,"##例":4331,"##苹":4332,"##▾":4333,"##ᅡ":4334,"##ᄉ":4335,"##ᅳ":4336,"##ᆷ":4337,"##可":4338,"##≦":4339,"##ѵ":4340,"##段":4341,"##话":4342,"##乐":4343,"##川":4344,"##●":4345,"##ص":4346,"##∕":4347,"##期":4348,"##接":4349,"##近":4350,"##理":4351,"##想":4352,"##剂":4353,"##求":4354,"##⊐":4355,"##ش":4356,"##➍":4357,"##‌":4358,"##⊔":4359,"##گ":4360,"##ɹ":4361,"##Ш":4362,"##Ѵ":4363,"##⪯":4364,"##⊖":4365,"##♀":4366,"##∴":4367,"##►":4368,"##▼":4369,"##食":4370,"##➂":4371,"##≳":4372,"##與":4373,"##科":4374,"##技":4375,"##溝":4376,"##通":4377,"##‐":4378,"##令":4379,"##任":4380,"##加":4381,"##入":4382,"##队":4383,"##伍":4384,"##很":4385,"##吃":4386,"##力":4387,"##ǃ":4388,"##振":4389,"##华":4390,"##☐":4391,"##⟒":4392,"##✕":4393,"##还":4394,"##背":4395,"##景":4396,"##黑":4397,"##效":4398,"##较":4399,"##好":4400,"##ɥ":4401,"##只":4402,"##能":4403,"##听":4404,"##怎":4405,"##么":4406,"##说":4407,"##应":4408,"##链":4409,"##网":4410,"##络":4411,"##И":4412,"##ˮ":4413,"##益":4414,"##共":4415,"##享":4416,"##契":4417,"##约":4418,"##ذ":4419,"##守":4420,"##刚":4421,"##西":4422,"##爱":4423,"##看":4424,"##闻":4425,"##推":4426,"##诉":4427,"##讼":4428,"##ɳ":4429,"##模":4430,"##式":4431,"##三":4432,"##维":4433,"##状":4434,"##ᆫ":4435,"##ᄋ":4436,"##ᅧ":4437,"##ᆼ":4438,"##│":4439,"##实":4440,"##◘":4441,"##⏞":4442,"##Ⴝ":4443,"##⦁":4444,"##ـ":4445,"##М":4446,"##持":4447,"##续":4448,"##展":4449,"##服":4450,"##下":4451,"##霞":4452,"##年":4453,"##五":4454,"##百":4455,"##億":4456,"##計":4457,"##畫":4458,"##、":4459,"##罪":4460,"##未":4461,"##首":4462,"##Ʌ":4463,"##˧":4464,"##ƞ":4465,"##⊂":4466,"##勇":4467,"##江":4468,"##苏":4469,"##元":4470,"##栋":4471,"##⁀":4472,"##道":4473,"##择":4474,"##⧸":4475,"##⊢":4476,"##外":4477,"##见":4478,"##去":4479,"##拍":4480,"##衣":4481,"##伙":4482,"##划":4483,"##ƅ":4484,"##⟺":4485,"##⇊":4486,"##都":4487,"##周":4488,"##刊":4489,"##‍":4490,"##蛙":4491,"##跳":4492,"##跃":4493,"##叫":4494,"##什":4495,"##亞":4496,"##區":4497,"##對":4498,"##國":4499,"##口":4500,"##形":4501,"##重":4502,"##唔":4503,"##驕":4504,"##傲":4505,"##♥":4506,"##小":4507,"##孩":4508,"##見":4509,"##別":4510,"##哭":4511,"##或":4512,"##受":4513,"##苦":4514,"##會":4515,"##難":4516,"##Ν":4517,"##䪒":4518,"##א":4519,"##隶":4520,"##麼":4521,"##辦":4522,"##⿢":4523,"##ᆩ":4524,"##П":4525,"##≶":4526,"##פ":4527,"##ע":4528,"##▸":4529,"##❷":4530,"##ɯ":4531,"##≐":4532,"##女":4533,"##多":4534,"##〚":4535,"##䞣":4536,"##䖒":4537,"##长":4538,"##٦":4539,"##⨁":4540,"##昂":4541,"##З":4542,"##策":4543,"##洲":4544,"##领":4545,"##吴":4546,"##鹏":4547,"##،":4548,"##ƈ":4549,"##射":4550,"##粉":4551,"##末":4552,"##衍":4553,"##对":4554,"##经":4555,"##活":4556,"##缺":4557,"##失":4558,"##件":4559,"##器":4560,"##物":4561,"##證":4562,"##需":4563,"##「":4564,"##✦":4565,"##幹":4566,"##区":4567,"##吸":4568,"##敵":4569,"##砲":4570,"##└":4571,"##师":4572,"##⸱":4573,"##↗":4574,"##意":4575,"##付":4576,"##种":4577,"##租":4578,"##應":4579,"##◇":4580,"##废":4581,"##旧":4582,"##池":4583,"##回":4584,"##处":4585,"##函":4586,"##参":4587,"##碱":4588,"##ө":4589,"##告":4590,"##败":4591,"##➃":4592,"##І":4593,"##涛":4594,"##⁄":4595,"##▓":4596,"##慢":4597,"##性":4598,"##疾":4599,"##病":4600,"##越":4601,"##普":4602,"##功":4603,"##❺":4604,"##ˍ":4605,"##ф":4606,"##高":4607,"##等":4608,"##手":4609,"##改":4610,"##变":4611,"##构":4612,"##ᆞ":4613,"##⦆":4614,"##吉":4615,"##徳":4616,"##栃":4617,"##朝":4618,"##井":4619,"##民":4620,"##ɒ":4621,"##ᅮ":4622,"##⊺":4623,"##䴶":4624,"##䖯":4625,"##㸠":4626,"##ߚ":4627,"##থ":4628,"##⿿":4629,"##➄":4630,"##ᄆ":4631,"##ᅵ":4632,"##Ѳ":4633,"##先":4634,"##析":4635,"##石":4636,"##墨":4637,"##烯":4638,"##半":4639,"##光":4640,"##特":4641,"##婚":4642,"##业":4643,"##主":4644,"##冬":4645,"##菇":4646,"##油":4647,"##窝":4648,"##飞":4649,"##速":4650,"##˂":4651,"##ʘ":4652,"##Ѱ":4653,"##现":4654,"##少":4655,"##农":4656,"##范":4657,"##":4658,"##姨":4659,"##ᑇ":4660,"##ഛ":4661,"##ᕘ":4662,"##㑺":4663,"##⁣":4664,"##此":4665,"##䯈":4666,"##≍":4667,"##ʾ":4668,"##ᅢ":4669,"##斌":4670,"##词":4671,"##语":4672,"##❏":4673,"##级":4674,"##属":4675,"##氧":4676,"##基":4677,"##材":4678,"##进":4679,"##⫶":4680,"##⥄":4681,"##善":4682,"##虫":4683,"##ш":4684,"##家":4685,"##次":4686,"##於":4687,"##歐":4688,"##盟":4689,"##今":4690,"##超":4691,"##兩":4692,"##替":4693,"##别":4694,"##ӕ":4695,"##字":4696,"##؄":4697,"##ܥ":4698,"##笔":4699,"##ӄ":4700,"##東":4701,"##熱":4702,"##幫":4703,"##助":4704,"##➀":4705,"##衰":4706,"##雷":4707,"##針":4708,"##传":4709,"##互":4710,"##帮":4711,"##初":4712,"##ʝ":4713,"##԰":4714,"##ᆮ":4715,"##ロ":4716,"##ハ":4717,"##ル":4718,"##双":4719,"##板":4720,"##具":4721,"##壁":4722,"##序":4723,"##ᄒ":4724,"##乃":4725,"##♠":4726,"##ܗ":4727,"##ث":4728,"##翔":4729,"##宇":4730,"##⍺":4731,"##᳆":4732,"##ϝ":4733,"##較":4734,"##長":4735,"##留":4736,"##ɗ":4737,"##ᴗ":4738,"##ᴤ":4739,"##务":4740,"##纳":4741,"##ґ":4742,"##ط":4743,"##觉":4744,"##得":4745,"##存":4746,"##⌝":4747,"##位":4748,"##繼":4749,"##承":4750,"##思":4751,"##維":4752,"##Ѕ":4753,"##顺":4754,"##利":4755,"##绝":4756,"##Ӏ":4757,"##э":4758,"##送":4759,"##掉":4760,"##條":4761,"##命":4762,"##∶":4763,"##ט":4764,"##ש":4765,"##ן":4766,"##冈":4767,"##窟":4768,"##ᅫ":4769,"##ᆺ":4770,"##Ƭ":4771,"##调":4772,"##":4773,"##":4774,"##早":4775,"##曲":4776,"##肥":4777,"##ᆾ":4778,"##":4779,"##≲":4780,"##➌":4781,"##ћ":4782,"##啟":4783,"##┤":4784,"##├":4785,"##源":4786,"##":4787,"##玉":4788,"##洁":4789,"##增":4790,"##熟":4791,"##瓜":4792,"##驱":4793,"##浓":4794,"##尿":4795,"##素":4796,"##逐":4797,"##渐":4798,"##切":4799,"##及":4800,"##透":4801,"##镜":4802,"##术":4803,"##征":4804,"##律":4805,"##":4806,"##爛":4807,"##ߕ":4808,"##硬":4809,"##ד":4810,"##↿":4811,"##⇂":4812,"##ᆽ":4813,"##当":4814,"##香":4815,"##▄":4816,"##ŋ":4817,"##Ч":4818,"##姐":4819,"##弟":4820,"##各":4821,"##校":4822,"##掛":4823,"##靜":4824,"##師":4825,"##翰":4826,"##居":4827,"##程":4828,"##终":4829,"##骑":4830,"##⏟":4831,"##況":4832,"##睛":4833,"##州":4834,"##希":4835,"##望":4836,"##搞":4837,"##。":4838,"##名":4839,"##亲":4840,"##违":4841,"##犯":4842,"##教":4843,"##养":4844,"##阙":4845,"##隐":4846,"##":4847,"##轲":4848,"##照":4849,"##顾":4850,"##♯":4851,"##祖":4852,"##父":4853,"##母":4854,"##嫡":4855,"##继":4856,"##慈":4857,"##查":4858,"##土":4859,"##耳":4860,"##消":4861,"##费":4862,"##容":4863,"##吗":4864,"##晓":4865,"##":4866,"##步":4867,"##挥":4868,"##义":4869,"##谐":4870,"##积":4871,"##极":4872,"##若":4873,"##干":4874,"##≻":4875,"##卡":4876,"##ɷ":4877,"##⇝":4878,"##国":4879,"##育":4880,"##岩":4881,"##集":4882,"##层":4883,"##并":4884,"##且":4885,"##布":4886,"##均":4887,"##向":4888,"##购":4889,"##买":4890,"##影":4891,"##响":4892,"##探":4893,"##淡":4894,"##漠":4895,"##羊":4896,"##补":4897,"##牢":4898,"##故":4899,"##品":4900,"##ᴓ":4901,"##那":4902,"##⊇":4903,"##所":4904,"##紫":4905,"##Ґ":4906,"##角":4907,"##ɤ":4908,"##赣":4909,"##目":4910,"##标":4911,"##块":4912,"##贡":4913,"##献":4914,"##⇉":4915,"##踩":4916,"##˭":4917,"##✗":4918,"##劲":4919,"##松":4920,"##":4921,"##僅":4922,"##記":4923,"##憶":4924,"##痕":4925,"##跡":4926,"##薄":4927,"##满":4928,"##草":4929,"##图":4930,"##浩":4931,"##沒":4932,"##修":4933,"##ϯ":4934,"##无":4935,"##味":4936,"##䖛":4937,"##ᕾ":4938,"##像":4939,"##疗":4940,"##铁":4941,"##造":4942,"##案":4943,"##":4944,"##":4945,"##":4946,"##┌":4947,"##⎟":4948,"##⎜":4949,"##氯":4950,"##锡":4951,"##※":4952,"##联":4953,"##刑":4954,"##˗":4955,"##降":4956,"##正":4957,"##勝":4958,"##坏":4959,"##ء":4960,"##ᅭ":4961,"##∋":4962,"##迪":4963,"##司":4964,"##代":4965,"##动":4966,"##ཞ":4967,"##◗":4968,"##ה":4969,"##够":4970,"##慰":4971,"##军":4972,"##远":4973,"##⇋":4974,"##ᴇ":4975,"##":4976,"##忙":4977,"##ɡ":4978,"##施":4979,"##福":4980,"##ण":4981,"##ड":4982,"##ल":4983,"##弈":4984,"##论":4985,"##Б":4986,"##呢":4987,"##径":4988,"##根":4989,"##据":4990,"##短":4991,"##内":4992,"##≕":4993,"##ঞ":4994,"##ޚ":4995,"##䗚":4996,"##":4997,"##⎠":4998,"##趋":4999,"##使":5000,"##沉":5001,"##淀":5002,"##ɱ":5003,"##ᄇ":5004,"##❤":5005,"##ᇁ":5006,"##磺":5007,"##率":5008,"##》":5009,"##便":5010,"##宜":5011,"##指":5012,"##数":5013,"##限":5014,"##╔":5015,"##☼":5016,"##靠":5017,"##⪢":5018,"##ᅣ":5019,"##贵":5020,"##县":5021,"##⎯":5022,"##⇕":5023,"##߻":5024,"##嘢":5025,"##苟":5026,"##梁":5027,"##ᅩ":5028,"##肯":5029,"##⬉":5030,"##媽":5031,"##將":5032,"##書":5033,"##給":5034,"##妹":5035,"##崇":5036,"##ᆭ":5037,"##↽":5038,"##◊":5039,"##商":5040,"##群":5041,"##官":5042,"##示":5043,"##热":5044,"##蠕":5045,"##四":5046,"##դ":5047,"##脑":5048,"##":5049,"##∵":5050,"##京":5051,"##决":5052,"##↙":5053,"##↖":5054,"##↘":5055,"##䖭":5056,"##":5057,"##ˎ":5058,"##毅":5059,"##焙":5060,"##抱":5061,"##恙":5062,"##場":5063,"##開":5064,"##放":5065,"##片":5066,"##咬":5067,"##卫":5068,"##帶":5069,"##傘":5070,"##∡":5071,"##阐":5072,"##述":5073,"##域":5074,"##⊃":5075,"##艳":5076,"##Ƙ":5077,"##⟸":5078,"##◎":5079,"##岛":5080,"##村":5081,"##":5082,"##":5083,"##又":5084,"##阅":5085,"##读":5086,"##胜":5087,"##奎":5088,"##⦿":5089,"##朋":5090,"##友":5091,"##怂":5092,"##恿":5093,"##娅":5094,"##⌜":5095,"##部":5096,"##≙":5097,"##第":5098,"##二":5099,"##∾":5100,"##鸟":5101,"##ᅯ":5102,"##ᆿ":5103,"##倍":5104,"##⊧":5105,"##晶":5106,"##财":5107,"##日":5108,"##报":5109,"##ƛ":5110,"##窿":5111,"##吧":5112,"##弱":5113,"##精":5114,"##神":5115,"##◁":5116,"##界":5117,"##列":5118,"##负":5119,"##◀":5120,"##係":5121,"##紅":5122,"##嘅":5123,"##ᮍ":5124,"##茅":5125,"##ʕ":5126,"##٧":5127,"##习":5128,"##ᆲ":5129,"##◽":5130,"##枕":5131,"##龟":5132,"##₦":5133,"##↦":5134,"##察":5135,"##䞥":5136,"##直":5137,"##间":5138,"##因":5139,"##Д":5140,"##波":5141,"##の":5142,"##さ":5143,"##き":5144,"##け":5145,"##へ":5146,"##黄":5147,"##埔":5148,"##⎤":5149,"##德":5150,"##Ϙ":5151,"##⦵":5152,"##台":5153,"##灣":5154,"##經":5155,"##占":5156,"##總":5157,"##⚬":5158,"##济":5159,"##箭":5160,"##伤":5161,"##逼":5162,"##清":5163,"##晰":5164,"##必":5165,"##须":5166,"##伟":5167,"##‧":5168,"##城":5169,"##污":5170,"##染":5171,"##ʎ":5172,"##⇵":5173,"##盯":5174,"##肉":5175,"##種":5176,"##興":5177,"##務":5178,"##显":5179,"##著":5180,"##妨":5181,"##碍":5182,"##❖":5183,"##革":5184,"##ϗ":5185,"##ߩ":5186,"##辟":5187,"##號":5188,"##闹":5189,"##這":5190,"##课":5191,"##室":5192,"##Ю":5193,"##▯":5194,"##原":5195,"##٩":5196,"##懂":5197,"##庆":5198,"##貿":5199,"##易":5200,"##極":5201,"##虹":5202,"##ۯ":5203,"##ၡ":5204,"##┐":5205,"##执":5206,"##ک":5207,"##棵":5208,"##售":5209,"##₵":5210,"##藏":5211,"##埋":5212,"##深":5213,"##":5214,"##踏":5215,"##庭":5216,"##措":5217,"##禮":5218,"##遇":5219,"##扬":5220,"##お":5221,"##ᆰ":5222,"##播":5223,"##简":5224,"##快":5225,"##世":5226,"##鲜":5227,"##儿":5228,"##➢":5229,"##✰":5230,"##龄":5231,"##排":5232,"##⨯":5233,"##困":5234,"##难":5235,"##孤":5236,"##⎕":5237,"##否":5238,"##ی":5239,"##针":5240,"##绿":5241,"##姓":5242,"##渔":5243,"##户":5244,"##◻":5245,"##Ʀ":5246,"##܀":5247,"##":5248,"##":5249,"##ɘ":5250,"##ᄐ":5251,"##ᅦ":5252,"##ᆯ":5253,"##⿦":5254,"##␣":5255,"##⎦":5256,"##⇑":5257,"##⇓":5258,"##〜":5259,"##⎞":5260,"##⷇":5261,"##๼":5262,"##෎":5263,"##全":5264,"##球":5265,"##":5266,"##ǂ":5267,"##如":5268,"##遲":5269,"##姣":5270,"##奇":5271,"##异":5272,"##斯":5273,"##⪈":5274,"##辛":5275,"##巴":5276,"##誕":5277,"##谱":5278,"##溶":5279,"##液":5280,"##酸":5281,"##⇶":5282,"##⇻":5283,"##⠽":5284,"##≝":5285,"##⎔":5286,"##克":5287,"##眾":5288,"##往":5289,"##ጬ":5290,"##ዄ":5291,"##卓":5292,"##ח":5293,"##微":5294,"##辅":5295,"##≧":5296,"##宝":5297,"##珍":5298,"##该":5299,"##辨":5300,"##认":5301,"##˃":5302,"##佪":5303,"##规":5304,"##审":5305,"##批":5306,"##医":5307,"##适":5308,"##绩":5309,"##ᗻ":5310,"##㛑":5311,"##ᕅ":5312,"##ડ":5313,"##惯":5314,"##喝":5315,"##‟":5316,"##ظ":5317,"##狼":5318,"##钻":5319,"##纪":5320,"##旄":5321,"##再":5322,"##ꞏ":5323,"##ѳ":5324,"##哋":5325,"##佢":5326,"##紙":5327,"##鹿":5328,"##流":5329,"##ᆪ":5330,"##乙":5331,"##醇":5332,"##㣗":5333,"##ݙ":5334,"##հ":5335,"##視":5336,"##岡":5337,"##锋":5338,"##":5339,"##ᆶ":5340,"##‬":5341,"##⊣":5342,"##⨥":5343,"##裕":5344,"##芬":5345,"##河":5346,"##ጠ":5347,"##ᣀ":5348,"##鸿":5349,"##贱":5350,"##奸":5351,"##オ":5352,"##ク":5353,"##サ":5354,"##點":5355,"##呀":5356,"##万":5357,"##亿":5358,"##立":5359,"##秋":5360,"##但":5361,"##纤":5362,"##距":5363,"##健":5364,"##護":5365,"##強":5366,"##調":5367,"##节":5368,"##兴":5369,"##胖":5370,"##乎":5371,"##椅":5372,"##坐":5373,"##潇":5374,"##Ɂ":5375,"##":5376,"##腦":5377,"##層":5378,"##漸":5379,"##叼":5380,"##颜":5381,"##眼":5382,"##英":5383,"##ҡ":5384,"##括":5385,"##页":5386,"##狱":5387,"##Ʃ":5388,"##Ɣ":5389,"##姆":5390,"##厭":5391,"##⊘":5392,"##⎣":5393,"##㗗":5394,"##ᆳ":5395,"##⦙":5396,"##Ʈ":5397,"##燒":5398,"##腐":5399,"##嫩":5400,"##滑":5401,"##ৠ":5402,"##婢":5403,"##奉":5404,"##ᆨ":5405,"##酯":5406,"##最":5407,"##启":5408,"##◑":5409,"##汽":5410,"##〕":5411,"##ꝏ":5412,"##⩝":5413,"##✔":5414,"##◬":5415,"##吣":5416,"##⇅":5417,"##每":5418,"##樣":5419,"##情":5420,"##ᡔ":5421,"##ᄺ":5422,"##䰶":5423,"##Ꮉ":5424,"##缌":5425,"##卑":5426,"##≽":5427,"##牧":5428,"##鞋":5429,"##ᤃ":5430,"##ɽ":5431,"##ㄨ":5432,"##ㄚ":5433,"##":5434,"##荣":5435,"##ǥ":5436,"##ᄎ":5437,"##ᅱ":5438,"##張":5439,"##ᄀ":5440,"##甲":5441,"##丙":5442,"##附":5443,"##聪":5444,"##≑":5445,"##ょ":5446,"##た":5447,"##ん":5448,"##驳":5449,"##⊿":5450,"##裁":5451,"##注":5452,"##⁓":5453,"##⁃":5454,"##ϟ":5455,"##Ϣ":5456,"##彦":5457,"##ҷ":5458,"##⦻":5459,"##₤":5460,"##ƙ":5461,"##俊":5462,"##ᢝ":5463,"##趙":5464,"##協":5465,"##軸":5466,"##‪":5467,"##關":5468,"##閉":5469,"##稳":5470,"##算":5471,"##ꙍ":5472,"##圾":5473,"##焚":5474,"##厂":5475,"##菜":5476,"##婆":5477,"##逾":5478,"##换":5479,"##夜":5480,"##晚":5481,"##既":5482,"##嚟":5483,"##⊝":5484,"##":5485,"##武":5486,"##⧫":5487,"##⎛":5488,"##幅":5489,"##妾":5490,"##殴":5491,"##涉":5492,"##士":5493,"##撤":5494,"##義":5495,"##⿫":5496,"##〇":5497,"##➅":5498,"##⨸":5499,"##Ɩ":5500,"##ẟ":5501,"##辐":5502,"##博":5503,"##":5504,"##㹿":5505,"##䞡":5506,"##㜤":5507,"##㱔":5508,"##ᄌ":5509,"##扩":5510,"##典":5511,"##ˋ":5512,"##≒":5513,"##矩":5514,"##阵":5515,"##待":5516,"##诚":5517,"##⪆":5518,"##術":5519,"##版":5520,"##⊩":5521,"##团":5522,"##议":5523,"##⪰":5524,"##則":5525,"##ԁ":5526,"##‎":5527,"##画":5528,"##评":5529,"##炭":5530,"##总":5531,"##虑":5532,"##巧":5533,"##拙":5534,"##争":5535,"##谢":5536,"##⇈":5537,"##":5538,"##ɫ":5539,"##ɩ":5540,"##⍬":5541,"##尽":5542,"##权":5543,"##软":5544,"##尊":5545,"##怜":5546,"##垃":5547,"##害":5548,"##确":5549,"##◌":5550,"##臉":5551,"##婦":5552,"##˟":5553,"##升":5554,"##ק":5555,"##则":5556,"##莉":5557,"##专":5558,"##太":5559,"##ʙ":5560,"##架":5561,"##副":5562,"##哦":5563,"##它":5564,"##达":5565,"##玲":5566,"##谦":5567,"##❸":5568,"##蚀":5569,"##":5570,"##暴":5571,"##۰":5572,"##⅁":5573,"##擠":5574,"##堆":5575,"##裡":5576,"##搶":5577,"##啊":5578,"##➋":5579,"##參":5580,"##補":5581,"##⦾":5582,"##钢":5583,"##琴":5584,"##兰":5585,"##␢":5586,"##ʧ":5587,"##◾":5588,"##暂":5589,"##办":5590,"##密":5591,"##吻":5592,"##⌢":5593,"##伶":5594,"##追":5595,"##蹤":5596,"##旭":5597,"##圈":5598,"##破":5599,"##感":5600,"##⪅":5601,"##珠":5602,"##席":5603,"##青":5604,"##ᅲ":5605,"##ᆚ":5606,"##ᑺ":5607,"##✖":5608,"##⋁":5609,"##落":5610,"##厉":5611,"##⌷":5612,"##几":5613,"##⚫":5614,"##ߣ":5615,"##話":5616,"##":5617,"##阿":5618,"##悉":5619,"##ܫ":5620,"##际":5621,"##Л":5622,"##⥂":5623,"##类":5624,"##梅":5625,"##٥":5626,"##∢":5627,"##進":5628,"##員":5629,"##《":5630,"##Ҏ":5631,"##减":5632,"##赎":5633,"##領":5634,"##動":5635,"##⊏":5636,"##茶":5637,"##爸":5638,"##撥":5639,"##電":5640,"##⋍":5641,"##垴":5642,"##辽":5643,"##":5644,"##ߝ":5645,"##┄":5646,"##⋙":5647,"##塘":5648,"##筆":5649,"##泻":5650,"##寺":5651,"##硝":5652,"##苯":5653,"##酚":5654,"##徒":5655,"##䴲":5656,"##㒓":5657,"##ᢳ":5658,"##檬":5659,"##࿧":5660,"##◼":5661,"##殊":5662,"##↕":5663,"##俸":5664,"##⌒":5665,"##⇁":5666,"##烁":5667,"##辰":5668,"##弄":5669,"##堂":5670,"##谈":5671,"##王":5672,"##姻":5673,"##聘":5674,"##支":5675,"##盐":5676,"##怕":5677,"##連":5678,"##飯":5679,"##足":5680,"##欣":5681,"##嗮":5682,"##街":5683,"##讲":5684,"##祠":5685,"##߄":5686,"##Ҡ":5687,"##ᄃ":5688,"##籍":5689,"##袋":5690,"##☨":5691,"##洱":5692,"##ᶊ":5693,"##⌕":5694,"##∟":5695,"##历":5696,"##史":5697,"##筑":5698,"##":5699,"##‿":5700,"##濟":5701,"##體":5702,"##佔":5703,"##岳":5704,"##由":5705,"##內":5706,"##美":5707,"##退":5708,"##١":5709,"##餐":5710,"##":5711,"##ㄥ":5712,"##審":5713,"##音":5714,"##配":5715,"##詞":5716,"##樊":5717,"##қ":5718,"##仙":5719,"##⿲":5720,"##討":5721,"##邀":5722,"##請":5723,"##際":5724,"##級":5725,"##演":5726,"##講":5727,"##貴":5728,"##賓":5729,"##猫":5730,"##玻":5731,"##璃":5732,"##仪":5733,"##客":5734,"##讚":5735,"##譽":5736,"##谁":5737,"##错":5738,"##渠":5739,"##装":5740,"##ᄅ":5741,"##䆡":5742,"##⎭":5743,"##嘉":5744,"##䜡":5745,"##ԡ":5746,"##ᬜ":5747,"##ᇍ":5748,"##ɚ":5749,"##哲":5750,"##↝":5751,"##〔":5752,"##೼":5753,"##挂":5754,"##ߗ":5755,"##㦋":5756,"##ᕫ":5757,"##њ":5758,"##Ꮧ":5759,"##乫":5760,"##運":5761,"##氣":5762,"##⎩":5763,"##恶":5764,"##⌐":5765,"##還":5766,"##認":5767,"##ף":5768,"##潔":5769,"##燃":5770,"##慧":5771,"##仍":5772,"##屋":5773,"##聊":5774,"##⊡":5775,"##曦":5776,"##卷":5777,"##凝":5778,"##胶":5779,"##召":5780,"##似":5781,"##铃":5782,"##":5783,"##फ":5784,"##ъ":5785,"##住":5786,"##◂":5787,"##祥":5788,"##巾":5789,"##⋈":5790,"##":5791,"##₸":5792,"##￼":5793,"##叡":5794,"##许":5795,"##份":5796,"##≌":5797,"##氛":5798,"##詭":5799,"##異":5800,"##⊛":5801,"##刻":5802,"##ᆱ":5803,"##ব":5804,"##除":5805,"##ԗ":5806,"##舒":5807,"##暢":5808,"##馨":5809,"##独":5810,"##识":5811,"##记":5812,"##➆":5813,"##醫":5814,"##療":5815,"##發":5816,"##趨":5817,"##勢":5818,"##創":5819,"##み":5820,"##る":5821,"##レ":5822,"##ア":5823,"##メ":5824,"##タ":5825,"##溜":5826,"##穩":5827,"##陣":5828,"##尾":5829,"##羽":5830,"##毛":5831,"##詰":5832,"##怡":5833,"##问":5834,"##躺":5835,"##":5836,"##":5837,"##◄":5838,"##岁":5839,"##鵝":5840,"##趕":5841,"##救":5842,"##機":5843,"##旻":5844,"##昱":5845,"##ϫ":5846,"##⿼":5847,"##鬼":5848,"##遺":5849,"##忘":5850,"##⤳":5851,"##偷":5852,"##毕":5853,"##耽":5854,"##误":5855,"##沟":5856,"##喜":5857,"##欢":5858,"##灯":5859,"##吵":5860,"##赞":5861,"##亚":5862,"##朴":5863,"##至":5864,"##✸":5865,"##焦":5866,"##餓":5867,"##死":5868,"##祝":5869,"##杯":5870,"##脏":5871,"##拒":5872,"##✧":5873,"##港":5874,"##畴":5875,"##":5876,"##☉":5877,"##止":5878,"##偠":5879,"##ᅸ":5880,"##䭓":5881,"##凯":5882,"##϶":5883,"##滨":5884,"##髫":5885,"##输":5886,"##≷":5887,"##咗":5888,"##妻":5889,"##ĸ":5890,"##冶":5891,"##め":5892,"##に":5893,"##ᴖ":5894,"##從":5895,"##左":5896,"##逗":5897,"##☒":5898,"##ᖫ":5899,"##找":5900,"##":5901,"##צ":5902,"##➐":5903,"##倒":5904,"##态":5905,"##┼":5906,"##〖":5907,"##⎧":5908,"##䗦":5909,"##˄":5910,"##ʇ":5911,"##按":5912,"##骂":5913,"##才":5914,"##ह":5915,"##ซ":5916,"##丨":5917,"##櫚":5918,"##Պ":5919,"##ఉ":5920,"##练":5921,"##铈":5922,"##➝":5923,"##休":5924,"##⨜":5925,"##䗮":5926,"##ᠿ":5927,"##ᦣ":5928,"##号":5929,"##≿":5930,"##晖":5931,"##し":5932,"##コ":5933,"##ム":5934,"##ԑ":5935,"##∲":5936,"##後":5937,"##٭":5938,"##咨":5939,"##询":5940,"##↡":5941,"##↟":5942,"##↞":5943,"##↠":5944,"##⨍":5945,"##盗":5946,"##":5947,"##":5948,"##宾":5949,"##Э":5950,"##✩":5951,"##脱":5952,"##依":5953,"##赖":5954,"##窘":5955,"##稱":5956,"##⚪":5957,"##言":5958,"##彩":5959,"##障":5960,"##⇾":5961,"##徽":5962,"##迎":5963,"##☓":5964,"##ܣ":5965,"##丢":5966,"##坊":5967,"##劝":5968,"##榜":5969,"##䅵":5970,"##⦸":5971,"##绍":5972,"##発":5973,"##耐":5974,"##震":5975,"##設":5976,"##⧖":5977,"##彪":5978,"##悍":5979,"##露":5980,"##⟼":5981,"##族":5982,"##報":5983,"##־":5984,"##燕":5985,"##ᄏ":5986,"##":5987,"##Ƞ":5988,"##昭":5989,"##呼":5990,"##໣":5991,"##い":5992,"##钛":5993,"##钾":5994,"##哎":5995,"##揭":5996,"##忠":5997,"##纯":5998,"##蕉":5999,"##耦":6000,"##免":6001,"##遣":6002,"##卖":6003,"##導":6004,"##君":6005,"##ⶀ":6006,"##ᗕ":6007,"##❉":6008,"##延":6009,"##寿":6010,"##ך":6011,"##炔":6012,"##圓":6013,"##⿥":6014,"##ӊ":6015,"##₢":6016,"##牛":6017,"##码":6018,"##⬠":6019,"##稿":6020,"##泛":6021,"##磷":6022,"##拓":6023,"##ߧ":6024,"##":6025,"##释":6026,"##":6027,"##ネ":6028,"##キ":6029,"##ᬑ":6030,"##细":6031,"##强":6032,"##千":6033,"##═":6034,"##款":6035,"##映":6036,"##ȷ":6037,"##偄":6038,"##幸":6039,"##⊲":6040,"##➏":6041,"##跟":6042,"##遵":6043,"##訊":6044,"##網":6045,"##串":6046,"##聯":6047,"##纲":6048,"##⇨":6049,"##᯹":6050,"##纠":6051,"##纷":6052,"##另":6053,"##▷":6054,"##钱":6055,"##ᴛ":6056,"##恒":6057,"##":6058,"##ᄂ":6059,"##處":6060,"##≾":6061,"##朵":6062,"##北":6063,"##座":6064,"##Ж":6065,"##忄":6066,"##夌":6067,"##䩰":6068,"##Ϯ":6069,"##う":6070,"##协":6071,"##治":6072,"##間":6073,"##派":6074,"##":6075,"##੠":6076,"##敬":6077,"##複":6078,"##⌍":6079,"##臭":6080,"##ᴂ":6081,"##ђ":6082,"##ᅪ":6083,"##睇":6084,"##⨿":6085,"##季":6086,"##嵌":6087,"##໻":6088,"##膜":6089,"##灭":6090,"##菌":6091,"##䆫":6092,"##ᖋ":6093,"##围":6094,"##⊵":6095,"##妈":6096,"##筛":6097,"##ラ":6098,"##イ":6099,"##ン":6100,"##威":6101,"##↤":6102,"##䖥":6103,"##ଚ":6104,"##ક":6105,"##❨":6106,"##愚":6107,"##杂":6108,"##∐":6109,"##培":6110,"##训":6111,"##⊨":6112,"##ࡼ":6113,"##刷":6114,"##䚥":6115,"##Ꮂ":6116,"##䕏":6117,"##萍":6118,"##赚":6119,"##整":6120,"##減":6121,"##負":6122,"##擔":6123,"##烷":6124,"##溴":6125,"##铵":6126,"##亳":6127,"##無":6128,"##ȼ":6129,"##⪷":6130,"##⎡":6131,"##临":6132,"##凡":6133,"##ɀ":6134,"##臨":6135,"##邊":6136,"##緣":6137,"##危":6138,"##诸":6139,"##殷":6140,"##⋰":6141,"##ܕ":6142,"##り":6143,"##ⱱ":6144,"##he":6145,"##er":6146,"##on":6147,"##ti":6148,"the":6149,"##es":6150,"##ed":6151,"##en":6152,"##in":6153,"##al":6154,"##or":6155,"##at":6156,"##nd":6157,"of":6158,"##tion":6159,"##an":6160,"##ro":6161,"in":6162,"##it":6163,"##ar":6164,"##ic":6165,"and":6166,"##ec":6167,"##re":6168,"##as":6169,"##ing":6170,"##is":6171,"##ent":6172,"to":6173,"##el":6174,"##ac":6175,"##ation":6176,"##ol":6177,"##ur":6178,"##et":6179,"##mp":6180,"##le":6181,"##ect":6182,"th":6183,"##ig":6184,"##st":6185,"##ul":6186,"##ly":6187,"co":6188,"con":6189,"##id":6190,"for":6191,"##ith":6192,"##ow":6193,"st":6194,"##uc":6195,"is":6196,"##ter":6197,"##ve":6198,"##il":6199,"The":6200,"##ity":6201,"with":6202,"re":6203,"##us":6204,"##os":6205,"##ce":6206,"pro":6207,"as":6208,"##ot":6209,"##od":6210,"##ge":6211,"be":6212,"##lect":6213,"al":6214,"##if":6215,"an":6216,"##ab":6217,"##im":6218,"##tic":6219,"##ap":6220,"on":6221,"##ut":6222,"##um":6223,"elect":6224,"##ir":6225,"at":6226,"##ess":6227,"##ver":6228,"ex":6229,"##ate":6230,"was":6231,"that":6232,"##ure":6233,"##om":6234,"##tin":6235,"##ated":6236,"are":6237,"##ts":6238,"##ment":6239,"de":6240,"res":6241,"by":6242,"##am":6243,"##her":6244,"##ical":6245,"##ain":6246,"##si":6247,"##ad":6248,"##ri":6249,"electro":6250,"##ting":6251,"comp":6252,"ac":6253,"##op":6254,"##ay":6255,"##ere":6256,"ch":6257,"##00":6258,"##rom":6259,"us":6260,"en":6261,"##igh":6262,"##em":6263,"##pp":6264,"sh":6265,"dis":6266,"##tive":6267,"##ch":6268,"were":6269,"##eri":6270,"##for":6271,"##qu":6272,"wh":6273,"##iz":6274,"su":6275,"##tiv":6276,"or":6277,").":6278,"sp":6279,"##ud":6280,"##ff":6281,"##oc":6282,"##ell":6283,"pr":6284,"##ance":6285,"##un":6286,"from":6287,"##ers":6288,"##gy":6289,"##duc":6290,"##ous":6291,"##ant":6292,"##ich":6293,"##yst":6294,"##fer":6295,"In":6296,"##se":6297,"##ies":6298,"##per":6299,"##able":6300,"##ine":6301,"Fig":6302,"ad":6303,"str":6304,"tr":6305,"inc":6306,"##ted":6307,"per":6308,"##form":6309,"met":6310,"##age":6311,"##th":6312,"which":6313,"Li":6314,"cont":6315,"##ition":6316,"can":6317,"##les":6318,"##ase":6319,"##ore":6320,"##ion":6321,"dif":6322,"##ations":6323,"mat":6324,"##ely":6325,"##and":6326,"),":6327,"##als":6328,"##ence":6329,"show":6330,"imp":6331,"par":6332,"##ak":6333,"##ou":6334,"##ag":6335,"##og":6336,"high":6337,"car":6338,"##ther":6339,"cap":6340,"##all":6341,"##hem":6342,"##arge":6343,"eff":6344,"inter":6345,"app":6346,"20":6347,"et":6348,"se":6349,"##ace":6350,"##atter":6351,"##te":6352,"##rou":6353,"this":6354,"##ign":6355,"ne":6356,"##ave":6357,"##hen":6358,"sol":6359,"19":6360,"].":6361,"ob":6362,"##ility":6363,"##ased":6364,"##ergy":6365,"##sis":6366,"##ents":6367,"##ib":6368,"##uct":6369,"##ific":6370,"##ide":6371,"##ved":6372,"##yc":6373,"materi":6374,"##str":6375,"ind":6376,"nan":6377,"##enc":6378,"10":6379,"##vel":6380,"##ans":6381,"##ally":6382,"##cess":6383,"ph":6384,"##ution":6385,"le":6386,"mod":6387,"##ech":6388,"##action":6389,"ab":6390,"##hod":6391,"electrod":6392,"stud":6393,"have":6394,"##ue":6395,"##enti":6396,"##ati":6397,"##tr":6398,"##sion":6399,"##etw":6400,"##act":6401,"##aly":6402,"perform":6403,"##ens":6404,"capac":6405,"pl":6406,"##ystem":6407,"energy":6408,"not":6409,"##amp":6410,"##ite":6411,"##ium":6412,"Th":6413,"##low":6414,"##vi":6415,"pre":6416,"##ties":6417,"me":6418,"##ort":6419,"resul":6420,"gr":6421,"sc":6422,"pol":6423,"sur":6424,"##ric":6425,"##ding":6426,"differ":6427,"##hemical":6428,"cyc":6429,"##bon":6430,"##ating":6431,"te":6432,"##so":6433,"##O2":6434,"exp":6435,"rep":6436,"##erat":6437,"##ors":6438,"##est":6439,"batter":6440,"rel":6441,"##ear":6442,"ion":6443,"system":6444,"cell":6445,"int":6446,"incre":6447,".,":6448,"##ower":6449,"hy":6450,"##ong":6451,"##par":6452,"##ron":6453,"has":6454,"struct":6455,"also":6456,"##een":6457,"cur":6458,"##uld":6459,"it":6460,"we":6461,"##face":6462,"##our":6463,"##uch":6464,"temp":6465,"##ary":6466,"used":6467,"##ari":6468,"##etween":6469,"resp":6470,"##ip":6471,"between":6472,"##rib":6473,"carbon":6474,"un":6475,"##lic":6476,"ox":6477,"##ll":6478,"##ates":6479,"##ach":6480,"ass":6481,"rec":6482,"been":6483,"##end":6484,"trans":6485,"##ost":6486,"form":6487,"red":6488,"##tivity":6489,"process":6490,"using":6491,"than":6492,"##dition":6493,"##yn":6494,"##ork":6495,"##ill":6496,"##ability":6497,"##gh":6498,"cat":6499,"##orp":6500,"he":6501,"com":6502,"sub":6503,"##ang":6504,"electrode":6505,"##ied":6506,"201":6507,"##ble":6508,"des":6509,"##ight":6510,"##tain":6511,"##ves":6512,"##ures":6513,"ev":6514,"Co":6515,"##yl":6516,"##tim":6517,"##ater":6518,"##ene":6519,"200":6520,"##ard":6521,"temperat":6522,"##ound":6523,"##ici":6524,"val":6525,"analy":6526,"based":6527,"##erm":6528,"##ection":6529,"pres":6530,"##tively":6531,"spec":6532,"This":6533,"tim":6534,"capacity":6535,"vol":6536,"surface":6537,"conduc":6538,"##fter":6539,"dec":6540,"##out":6541,"##ep":6542,"##yp":6543,"##uring":6544,"materials":6545,"performance":6546,"##lo":6547,"##ree":6548,"det":6549,"##wo":6550,"electroly":6551,"produc":6552,"sign":6553,"##gen":6554,"cor":6555,"##iv":6556,"##der":6557,"##ia":6558,"##lu":6559,"##ass":6560,"##ange":6561,"samp":6562,"##..":6563,"meas":6564,"cons":6565,"##ym":6566,"##O4":6567,"partic":6568,"dep":6569,"##res":6570,"##unc":6571,"##ative":6572,"##ized":6573,"##arg":6574,"##rent":6575,"##gr":6576,"gen":6577,"und":6578,"more":6579,"##ser":6580,"##anc":6581,"method":6582,"temperature":6583,"their":6584,"effect":6585,"compar":6586,"two":6587,"reduc":6588,"##ments":6589,"different":6590,"compos":6591,"##ist":6592,"pos":6593,"am":6594,"mic":6595,"##ond":6596,"conc":6597,"##ack":6598,"these":6599,"##ew":6600,"other":6601,"##ros":6602,"vari":6603,"12":6604,"##rop":6605,"##ose":6606,"##ile":6607,"such":6608,"##ata":6609,"under":6610,"##ever":6611,"##ub":6612,"##ency":6613,"##ial":6614,"##ization":6615,"electroc":6616,"##unction":6617,"##ox":6618,"results":6619,"current":6620,"##ual":6621,"grou":6622,"##oth":6623,"##ential":6624,"##mal":6625,"hyd":6626,"model":6627,"##aus":6628,"low":6629,"study":6630,"over":6631,"##tical":6632,"hig":6633,"##echn":6634,"##velop":6635,"##br":6636,"li":6637,"time":6638,"cl":6639,"##ome":6640,"reaction":6641,"pot":6642,"pe":6643,"rate":6644,"##ular":6645,"grap":6646,"##here":6647,"15":6648,"Ni":6649,"power":6650,"into":6651,"cr":6652,"structure":6653,"no":6654,"##ber":6655,"after":6656,"##ast":6657,"out":6658,"11":6659,"during":6660,"disch":6661,"199":6662,"##ory":6663,"di":6664,"group":6665,"data":6666,"##olo":6667,"shown":6668,"battery":6669,"acc":6670,"all":6671,"##mon":6672,"##entr":6673,"##ues":6674,"##ected":6675,"develop":6676,"##ology":6677,"##the":6678,"contro":6679,"op":6680,"##ensity":6681,"##ail":6682,"##lud":6683,"its":6684,"signific":6685,"obser":6686,"##owever":6687,"obtain":6688,"##ectively":6689,"ar":6690,"syn":6691,"typ":6692,"electrolyte":6693,"electrochemical":6694,"mA":6695,"##ases":6696,"##acter":6697,"##olog":6698,"lay":6699,"diff":6700,"lith":6701,"gener":6702,"reg":6703,"##ollow":6704,"electron":6705,"one":6706,"##hed":6707,"but":6708,"ag":6709,"higher":6710,"##ms":6711,"function":6712,"solution":6713,"##ys":6714,"##ix":6715,"##ra":6716,"Al":6717,"It":6718,"peak":6719,"significant":6720,"##reat":6721,"##ling":6722,"##ize":6723,"min":6724,"indic":6725,"techn":6726,"##ress":6727,"man":6728,"material":6729,"due":6730,"##urther":6731,"##ides":6732,"##ined":6733,"##ould":6734,"hydro":6735,"##ention":6736,"##irst":6737,"##ane":6738,"ther":6739,"cal":6740,"As":6741,"metal":6742,"##orted":6743,"work":6744,"sim":6745,"##ha":6746,"impro":6747,"##ust":6748,"may":6749,"both":6750,"supp":6751,"charge":6752,"proper":6753,"discharge":6754,"fil":6755,"13":6756,"im":6757,"up":6758,"##perim":6759,"col":6760,"Fe":6761,"cm":6762,"spect":6763,"prov":6764,"##aracter":6765,"100":6766,"prepar":6767,"##ord":6768,"##ities":6769,"analysis":6770,"water":6771,"##usion":6772,"well":6773,"lithium":6774,"present":6775,"##ites":6776,"use":6777,"specific":6778,"respectively":6779,"num":6780,"##mis":6781,"only":6782,"##fore":6783,"##ne":6784,"##ie":6785,"density":6786,"batteries":6787,"For":6788,"##2O":6789,"sm":6790,"##trib":6791,"##echan":6792,"##itive":6793,"##av":6794,"potential":6795,"applic":6796,"##ulf":6797,"##ob":6798,"includ":6799,"##oun":6800,"concentr":6801,"synthe":6802,"##rough":6803,"bi":6804,"14":6805,"character":6806,"volt":6807,"could":6808,"obtained":6809,"bec":6810,"there":6811,"effici":6812,"25":6813,"rem":6814,"##hib":6815,"follow":6816,"However":6817,"##EM":6818,"##ective":6819,"pati":6820,"calc":6821,"##ider":6822,"ver":6823,"##ited":6824,"##ind":6825,"level":6826,"##ame":6827,"##tig":6828,"Na":6829,"observed":6830,"first":6831,"16":6832,"##amet":6833,"##ood":6834,"main":6835,"sel":6836,"##vic":6837,"cathod":6838,"stor":6839,"##one":6840,"##ulation":6841,"when":6842,"##row":6843,"anod":6844,"mem":6845,"phase":6846,"##ensi":6847,"mechan":6848,"appro":6849,"##iel":6850,"##its":6851,"##NT":6852,"cells":6853,"##sible":6854,"addition":6855,"##hene":6856,"layer":6857,"where":6858,"##lex":6859,"equ":6860,"##ax":6861,"found":6862,"polym":6863,"##ause":6864,"inf":6865,"30":6866,"properties":6867,"##cc":6868,"tes":6869,"##ural":6870,"##ry":6871,"through":6872,"po":6873,"##ences":6874,"each":6875,"##gan":6876,"es":6877,"condition":6878,"experim":6879,"mol":6880,"18":6881,"def":6882,"##iver":6883,"fact":6884,"##over":6885,"##atic":6886,"Ti":6887,"reported":6888,"##ke":6889,"##orption":6890,"##que":6891,"##eng":6892,"shows":6893,"##iti":6894,"##vestig":6895,"control":6896,"Mn":6897,"##ick":6898,"##ough":6899,"##oci":6900,"##ield":6901,"Con":6902,"most":6903,"will":6904,"conductivity":6905,"##ays":6906,"consider":6907,"prop":6908,"mon":6909,"measure":6910,"##ath":6911,"##lement":6912,"##ning":6913,"non":6914,"investig":6915,"##osp":6916,"oper":6917,"##ets":6918,"decre":6919,"so":6920,"##ov":6921,"disc":6922,"design":6923,"range":6924,"graphene":6925,"Ch":6926,"##ark":6927,"##havi":6928,"qu":6929,"storage":6930,"##led":6931,"],":6932,"##ination":6933,"##ove":6934,"##ants":6935,"samples":6936,"##ently":6937,"##ured":6938,"50":6939,"cost":6940,"##uel":6941,"##ale":6942,"conf":6943,"17":6944,"area":6945,"##tics":6946,"##osed":6947,"##orph":6948,"compared":6949,"three":6950,"electrodes":6951,"##ages":6952,"studies":6953,"requ":6954,"order":6955,"increase":6956,"##omp":6957,"number":6958,"lo":6959,"stability":6960,"##ulated":6961,"##earch":6962,"large":6963,"patients":6964,"##tit":6965,"por":6966,"id":6967,"cycles":6968,"##ult":6969,"##ects":6970,"Si":6971,"size":6972,"cryst":6973,"##ilar":6974,"voltage":6975,"##cep":6976,"An":6977,"##cop":6978,"lower":6979,"##vir":6980,"small":6981,"behavi":6982,"##up":6983,"Cu":6984,"determ":6985,"En":6986,"lead":6987,"##viron":6988,"##gg":6989,"Table":6990,"test":6991,"respon":6992,"chemical":6993,"further":6994,"##zed":6995,"about":6996,"cathode":6997,"sample":6998,"dir":6999,"prepared":7000,"24":7001,"##mission":7002,"##vious":7003,"##ological":7004,"##adi":7005,"There":7006,"nano":7007,"##ational":7008,"lim":7009,"some":7010,"##ole":7011,"##alyst":7012,"systems":7013,"##tal":7014,"mix":7015,"comb":7016,"Sn":7017,"##mer":7018,"##....":7019,"import":7020,"##ental":7021,"treat":7022,"bl":7023,"Re":7024,"state":7025,"dop":7026,"exhib":7027,"gas":7028,"##uted":7029,"values":7030,"devic":7031,"value":7032,"fr":7033,"ions":7034,"##sorption":7035,"##now":7036,"##roduc":7037,"fin":7038,"loc":7039,"while":7040,"they":7041,"##ness":7042,"cycle":7043,"composite":7044,"term":7045,"##ade":7046,"##til":7047,"##The":7048,"active":7049,"same":7050,"##edic":7051,"21":7052,"##resp":7053,"##formation":7054,"initi":7055,"acid":7056,"198":7057,"##ive":7058,"fe":7059,"##ire":7060,"new":7061,"sulf":7062,"fre":7063,"We":7064,"##hy":7065,"##other":7066,"##roscop":7067,"##aining":7068,"##vironment":7069,"##tern":7070,"anode":7071,"formation":7072,"nm":7073,"Res":7074,"enh":7075,"demon":7076,"Un":7077,"These":7078,"mul":7079,"demonstr":7080,"sugg":7081,"thermal":7082,"showed":7083,"##ism":7084,"22":7085,"ins":7086,"add":7087,"occ":7088,"exc":7089,"effects":7090,"then":7091,"solid":7092,"micro":7093,"##ful":7094,"long":7095,"##loy":7096,"year":7097,"rati":7098,"##are":7099,"##ically":7100,"optim":7101,"sec":7102,"To":7103,"Zn":7104,"because":7105,"grow":7106,"separ":7107,"efficiency":7108,"phot":7109,"##alu":7110,"aut":7111,"##ex":7112,"prec":7113,"Sc":7114,"oxid":7115,"transfer":7116,"increased":7117,"concentration":7118,"paramet":7119,"Mo":7120,"##ks":7121,"volum":7122,"St":7123,"##artic":7124,"conditions":7125,"distrib":7126,"corresp":7127,"fuel":7128,"electric":7129,"00":7130,"organ":7131,"##ild":7132,"##con":7133,"she":7134,"sever":7135,"frequ":7136,"reduction":7137,"nanop":7138,"activity":7139,"av":7140,"heat":7141,"cycling":7142,"air":7143,"treatment":7144,"type":7145,"activ":7146,"associ":7147,"##asing":7148,"40":7149,"€“":7150,"##O3":7151,"##tes":7152,"##entif":7153,"##ten":7154,"##ired":7155,"##ake":7156,"chang":7157,"##hic":7158,"our":7159,"##ount":7160,"disp":7161,"flu":7162,"##agn":7163,"similar":7164,"##ses":7165,"evalu":7166,"23":7167,"##crib":7168,"groups":7169,"improve":7170,"##omet":7171,"load":7172,"ret":7173,"##ump":7174,"##ise":7175,"del":7176,"##osition":7177,"inv":7178,"##sy":7179,"had":7180,"do":7181,"membr":7182,"important":7183,"##ines":7184,"environment":7185,"resist":7186,"should":7187,"##ics":7188,"polymer":7189,"##ains":7190,"sens":7191,"##Co":7192,"very":7193,"28":7194,"case":7195,"PA":7196,"##rr":7197,"within":7198,"flow":7199,"##ygen":7200,"##af":7201,"consis":7202,"would":7203,"##hie":7204,"##ator":7205,"##rical":7206,"performed":7207,"good":7208,"need":7209,"related":7210,"catalyst":7211,"achie":7212,"##ified":7213,"line":7214,"applications":7215,"##ible":7216,"oxide":7217,"##brid":7218,"##ances":7219,"##50":7220,"PV":7221,"##let":7222,"research":7223,"##S2":7224,"##struct":7225,"##lear":7226,"##ength":7227,"particles":7228,"##ug":7229,"##sor":7230,"peaks":7231,"##lied":7232,"##int":7233,"region":7234,"##old":7235,"sl":7236,"ref":7237,"sti":7238,"assess":7239,"development":7240,"result":7241,"##ER":7242,"##olution":7243,"press":7244,"br":7245,"##ute":7246,"##round":7247,"##ried":7248,"ratio":7249,"those":7250,"total":7251,"##rap":7252,"med":7253,"##PS":7254,"##irc":7255,"%)":7256,"##ivid":7257,"various":7258,"##onding":7259,"##gn":7260,"conver":7261,"multi":7262,"##10":7263,"change":7264,"repres":7265,"26":7266,"oxygen":7267,"##ording":7268,"atom":7269,"compon":7270,"sour":7271,"expl":7272,"graph":7273,"characteris":7274,"diffusion":7275,"##ivers":7276,"##rel":7277,"field":7278,"neg":7279,"nanopartic":7280,"##etwork":7281,"second":7282,"stand":7283,"##hyl":7284,"##ross":7285,"##12":7286,"##ren":7287,"27":7288,"transp":7289,"##ward":7290,"volume":7291,"##imum":7292,"##IB":7293,"##aper":7294,"##ores":7295,"like":7296,"##ingle":7297,"##ES":7298,"##ier":7299,"depend":7300,"film":7301,"charg":7302,"without":7303,"know":7304,"##ety":7305,"##sych":7306,"fl":7307,"ext":7308,"including":7309,"##quid":7310,"prot":7311,"##ft":7312,"##ins":7313,"lif":7314,"max":7315,"fac":7316,"adv":7317,"initial":7318,"extr":7319,"##mun":7320,"molec":7321,"##tions":7322,"##Cl":7323,"previous":7324,"##oss":7325,"##ving":7326,"capacit":7327,"set":7328,"measured":7329,"hydrogen":7330,"##ink":7331,"##verage":7332,"above":7333,"less":7334,"vis":7335,"network":7336,"significantly":7337,"morph":7338,"##ffici":7339,"emp":7340,"occur":7341,"##anes":7342,"60":7343,"##ann":7344,"proble":7345,"##attern":7346,"##Mn":7347,"##ained":7348,"##etter":7349,"##met":7350,"hybrid":7351,"##ison":7352,"resistance":7353,"super":7354,"techni":7355,"Pro":7356,"gl":7357,"##ven":7358,"29":7359,"estim":7360,"poly":7361,"mass":7362,"##ension":7363,"distribution":7364,"mAh":7365,"##ately":7366,"tran":7367,"single":7368,"interaction":7369,"complex":7370,"##lis":7371,"pattern":7372,"sugges":7373,"rever":7374,"##roscopy":7375,"bas":7376,"examp":7377,"##air":7378,"dim":7379,"liquid":7380,"methods":7381,"##ey":7382,"end":7383,"production":7384,"##und":7385,"##sequ":7386,"##ces":7387,"II":7388,"##view":7389,"##GO":7390,"##ince":7391,"aff":7392,"following":7393,"##anced":7394,"discus":7395,"associated":7396,"see":7397,"##ually":7398,"functional":7399,"increasing":7400,"behavior":7401,"synthesi":7402,"##ilic":7403,"##2S":7404,"nanoparticles":7405,"identif":7406,"calculated":7407,"ro":7408,"nat":7409,"35":7410,"strong":7411,"33":7412,"##bal":7413,"##ification":7414,"induc":7415,"frequency":7416,"##med":7417,"PC":7418,"porous":7419,"step":7420,"describ":7421,"parameters":7422,"##ock":7423,"##ynam":7424,"32":7425,"##put":7426,"changes":7427,"Therefore":7428,"##ustr":7429,"predic":7430,"direct":7431,"life":7432,"nit":7433,"transi":7434,"paper":7435,"CNT":7436,"TiO2":7437,"band":7438,"peri":7439,"##abric":7440,"larg":7441,"##ason":7442,"approach":7443,"proposed":7444,"##ture":7445,"##RD":7446,"any":7447,"##atively":7448,"nor":7449,"synthesis":7450,"ve":7451,"ser":7452,"##ression":7453,"##itor":7454,"31":7455,"electrical":7456,"Ex":7457,"presence":7458,"developed":7459,"More":7460,"transport":7461,"much":7462,"information":7463,"##oid":7464,"content":7465,"##though":7466,"presented":7467,"adsorption":7468,"##ok":7469,"##alytic":7470,"path":7471,"bu":7472,"##elect":7473,"att":7474,"pur":7475,"dr":7476,"contrib":7477,"##iven":7478,"PE":7479,"##vent":7480,"circ":7481,"##yr":7482,"considered":7483,"##aw":7484,"##tegr":7485,"##inc":7486,"ionic":7487,"response":7488,"##vention":7489,"strate":7490,"coun":7491,"bel":7492,"reduced":7493,"dem":7494,"measurements":7495,"Further":7496,"##hes":7497,"average":7498,"several":7499,"##Fe":7500,"compound":7501,"growth":7502,"even":7503,"better":7504,"mg":7505,"##aj":7506,"##SA":7507,"investigated":7508,"80":7509,"##ced":7510,"sulfur":7511,"fabric":7512,"possible":7513,"example":7514,"Ag":7515,"01":7516,"##cept":7517,"##SI":7518,"applied":7519,"subj":7520,"##ct":7521,"corresponding":7522,"structures":7523,"gre":7524,"amount":7525,"years":7526,"sites":7527,"const":7528,"allow":7529,"tests":7530,"correl":7531,"thick":7532,"eV":7533,"progr":7534,"##alth":7535,"many":7536,"ful":7537,"crystall":7538,"emission":7539,"##red":7540,"CO":7541,"36":7542,"##ice":7543,"prof":7544,"individ":7545,"util":7546,"via":7547,"nanoc":7548,"processes":7549,"##In":7550,"##NA":7551,"37":7552,"##els":7553,"##lusion":7554,"controll":7555,"free":7556,"##20":7557,"##inal":7558,"##cap":7559,"species":7560,"provide":7561,"levels":7562,"oxidation":7563,"bin":7564,"##imp":7565,"pressure":7566,"sal":7567,"lit":7568,"if":7569,"influ":7570,"##ults":7571,"##pec":7572,"reve":7573,"mean":7574,"standard":7575,"34":7576,"el":7577,"avail":7578,"On":7579,"positive":7580,"organic":7581,"##atory":7582,"application":7583,"##agne":7584,"##istr":7585,"##eter":7586,"Elect":7587,"devices":7588,"synthesized":7589,"##eed":7590,"##urn":7591,"##iversity":7592,"Comp":7593,"##rogen":7594,"wind":7595,"child":7596,"##Cs":7597,"electrolytes":7598,"##hip":7599,"At":7600,"invol":7601,"ear":7602,"period":7603,"##3O4":7604,"inst":7605,"De":7606,"##fac":7607,"stable":7608,"tas":7609,"eth":7610,"exam":7611,"scan":7612,"##itu":7613,"##ily":7614,"##cal":7615,"##rip":7616,"wt":7617,"##atis":7618,"After":7619,"##tice":7620,"vehic":7621,"##ellent":7622,"dom":7623,"diss":7624,"##ital":7625,"##ty":7626,"solar":7627,"##sed":7628,"attrib":7629,"reactions":7630,"suc":7631,"Energy":7632,"integr":7633,"mechanism":7634,"scale":7635,"collect":7636,"mm":7637,"simp":7638,"experimental":7639,"Ad":7640,"##less":7641,"excellent":7642,"doped":7643,"membrane":7644,"off":7645,"##OH":7646,"##art":7647,"mark":7648,"##app":7649,"dist":7650,"maximum":7651,"##ules":7652,"reac":7653,"still":7654,"coating":7655,"45":7656,"real":7657,"given":7658,"thus":7659,"effective":7660,"##oph":7661,"deri":7662,"##az":7663,"##lay":7664,"hum":7665,"comparison":7666,"caus":7667,"##ern":7668,"containing":7669,"loss":7670,"contin":7671,"ele":7672,"highly":7673,"being":7674,"phys":7675,"refer":7676,"increases":7677,"contr":7678,"##Ps":7679,"studied":7680,"rele":7681,"particular":7682,"##roc":7683,"situ":7684,"confir":7685,"em":7686,"##11":7687,"38":7688,"constant":7689,"##ph":7690,"ris":7691,"spectra":7692,"negative":7693,"Ph":7694,"clear":7695,"improved":7696,"##stit":7697,"XRD":7698,"##stand":7699,"##ably":7700,"##de":7701,"##IBs":7702,"composition":7703,"provid":7704,"University":7705,"##ograp":7706,"%,":7707,"##gine":7708,"hand":7709,"##omb":7710,"All":7711,"made":7712,"part":7713,"prob":7714,"capacitance":7715,"self":7716,"cogn":7717,"##ration":7718,"##anol":7719,"##ologies":7720,"generation":7721,"radi":7722,"##emb":7723,"##lor":7724,"##ina":7725,"CV":7726,"light":7727,"##fact":7728,"electronic":7729,"pow":7730,"films":7731,"fib":7732,"Su":7733,"nanos":7734,"particip":7735,"##ables":7736,"##tives":7737,"05":7738,"substr":7739,"##ogen":7740,"class":7741,"point":7742,"demonstrated":7743,"Bi":7744,"SE":7745,"##ish":7746,"neu":7747,"structural":7748,"##val":7749,"four":7750,"##osph":7751,"39":7752,"##ulations":7753,"rates":7754,"kg":7755,"factors":7756,"prim":7757,"graphite":7758,"sensi":7759,"rat":7760,"factor":7761,"Mg":7762,"curves":7763,"weight":7764,"##xim":7765,"constr":7766,"##fficient":7767,"anti":7768,"##2O3":7769,"times":7770,"diffr":7771,"##Ni":7772,"##aled":7773,"##tom":7774,"##agnetic":7775,"##gor":7776,"represent":7777,"##orm":7778,"##aking":7779,"fo":7780,"##AT":7781,"##arch":7782,"##conom":7783,"##erior":7784,"transition":7785,"complet":7786,"difference":7787,"OH":7788,"prac":7789,"ray":7790,"##abil":7791,"carried":7792,"##ateri":7793,"Moreover":7794,"characteristics":7795,"determined":7796,"##nal":7797,"##uration":7798,"morphology":7799,"##umption":7800,"auth":7801,"resulting":7802,"Thus":7803,"appear":7804,"redox":7805,"success":7806,"age":7807,"role":7808,"48":7809,"before":7810,"dimension":7811,"##tor":7812,"##ajor":7813,"##ions":7814,"models":7815,"95":7816,"therm":7817,"mo":7818,"##ering":7819,"short":7820,"Sci":7821,"sum":7822,"introduc":7823,"feat":7824,"##ymp":7825,"ul":7826,"lat":7827,"particle":7828,"##onal":7829,"products":7830,"##erg":7831,"composites":7832,"sem":7833,"##ication":7834,"available":7835,"3D":7836,"pers":7837,"##ma":7838,"differences":7839,"##sorb":7840,"decrease":7841,"##IS":7842,"##sib":7843,"CO2":7844,"##ially":7845,"silic":7846,"vi":7847,"##........":7848,"CN":7849,"seen":7850,"cer":7851,"common":7852,"ill":7853,"foc":7854,"around":7855,"mes":7856,"##rial":7857,"general":7858,"larger":7859,"described":7860,"70":7861,"mechanical":7862,"employ":7863,"##2O4":7864,"vs":7865,"##to":7866,"##merc":7867,"NC":7868,"Wh":7869,"TM":7870,"44":7871,"##lementary":7872,"major":7873,"##reated":7874,"demand":7875,"them":7876,"##PO4":7877,"42":7878,"section":7879,"##inical":7880,"##more":7881,"qual":7882,"relations":7883,"##queous":7884,"formed":7885,"SEM":7886,"02":7887,"##idence":7888,"GO":7889,"seri":7890,"great":7891,"##ings":7892,"device":7893,"CH":7894,"components":7895,"##au":7896,"conn":7897,"review":7898,"##ner":7899,"proced":7900,"bond":7901,"##mit":7902,"among":7903,"technology":7904,"post":7905,"Pt":7906,"43":7907,"attributed":7908,"ste":7909,"##co":7910,"pH":7911,"flex":7912,"##osure":7913,"est":7914,"##ian":7915,"source":7916,"##grad":7917,"##sive":7918,"MO":7919,"500":7920,"required":7921,"thickness":7922,"##anti":7923,"phen":7924,"##itation":7925,"90":7926,"room":7927,"charging":7928,"##ons":7929,"cognitive":7930,"stress":7931,"hel":7932,"focus":7933,"thin":7934,"compounds":7935,"consist":7936,"indicating":7937,"kine":7938,"##odium":7939,"Furthermore":7940,"ed":7941,"##ule":7942,"##ral":7943,"product":7944,"##iation":7945,"rGO":7946,"conversion":7947,"##ques":7948,"Results":7949,"relatively":7950,"require":7951,"interface":7952,"When":7953,"health":7954,"sw":7955,"##izing":7956,"continu":7957,"75":7958,"detail":7959,"commerc":7960,"econom":7961,"##ld":7962,"near":7963,"precur":7964,"##ither":7965,"diffraction":7966,"temperatures":7967,"environmental":7968,"SnO2":7969,"##enef":7970,"did":7971,"He":7972,"aqueous":7973,"dri":7974,"approxim":7975,"##uture":7976,"reason":7977,"plas":7978,"Ac":7979,"##osis":7980,"assemb":7981,"reversible":7982,"##orous":7983,"##SC":7984,"Met":7985,"back":7986,"##reg":7987,"concentrations":7988,"Ar":7989,"known":7990,"##aling":7991,"pure":7992,"53":7993,"##Fs":7994,"##lished":7995,"##abor":7996,"experiments":7997,"##ei":7998,"##MS":7999,"##ords":8000,"according":8001,"##ude":8002,"children":8003,"enhanced":8004,"shap":8005,"##iss":8006,"magn":8007,"##amm":8008,"##rix":8009,"support":8010,"linear":8011,"eas":8012,"99":8013,"finding":8014,"##line":8015,"##min":8016,"diamet":8017,"Ind":8018,"consumption":8019,"stim":8020,"shell":8021,"##ires":8022,"prote":8023,"##ON":8024,"who":8025,"300":8026,"##uit":8027,"##ynamic":8028,"normal":8029,"local":8030,"EC":8031,"41":8032,"relationship":8033,"##cer":8034,"coated":8035,"AC":8036,"achieved":8037,"imped":8038,"oxides":8039,"enhance":8040,"vac":8041,"##own":8042,"toward":8043,"##iform":8044,"advant":8045,"crystal":8046,"layers":8047,"46":8048,"spectroscopy":8049,"along":8050,"##EC":8051,"Tr":8052,"coe":8053,"##ler":8054,"benef":8055,"since":8056,"Sp":8057,"##agement":8058,"sup":8059,"risk":8060,"##ching":8061,"47":8062,"55":8063,"##capac":8064,"electricity":8065,"##AC":8066,"contact":8067,"O2":8068,"problem":8069,"##AN":8070,"##ots":8071,"orig":8072,"promis":8073,"##ram":8074,"##arm":8075,"TEM":8076,"##ompos":8077,"theore":8078,"conducted":8079,"expected":8080,"polar":8081,"mV":8082,"##ode":8083,"##icity":8084,"03":8085,"##pper":8086,"matrix":8087,"exhibited":8088,"Br":8089,"ability":8090,"maintain":8091,"operation":8092,"produced":8093,"act":8094,"##ferences":8095,"tox":8096,"Me":8097,"images":8098,"deposition":8099,"length":8100,"pore":8101,"iss":8102,"Cl":8103,"##aterials":8104,"induced":8105,"Se":8106,"Pb":8107,"PP":8108,"##ethyl":8109,"##istry":8110,"coup":8111,"side":8112,"nanoshe":8113,"capability":8114,"however":8115,"##erature":8116,"##TO":8117,"ultr":8118,"atoms":8119,"##ressed":8120,"##cent":8121,"cases":8122,"##ators":8123,"targ":8124,"##acy":8125,"mixture":8126,"##isms":8127,"sodium":8128,"##omen":8129,"mainly":8130,"##13":8131,"multip":8132,"wor":8133,"wid":8134,"##tine":8135,"##istic":8136,"position":8137,"impact":8138,"limited":8139,"##sp":8140,"few":8141,"##OC":8142,"ED":8143,"authors":8144,"types":8145,"dise":8146,"waste":8147,"arr":8148,"pop":8149,"cent":8150,"PAN":8151,"phosph":8152,"ep":8153,"MnO2":8154,"##ended":8155,"nec":8156,"poor":8157,"##ogene":8158,"##of":8159,"pub":8160,"physical":8161,"recover":8162,"##inated":8163,"uniform":8164,"cool":8165,"##ously":8166,"##ledge":8167,"relative":8168,"commun":8169,"Although":8170,"obj":8171,"activation":8172,"nuc":8173,"open":8174,"##any":8175,"inj":8176,"tested":8177,"day":8178,"##ret":8179,"indicates":8180,"way":8181,"speed":8182,"intr":8183,"MoS2":8184,"nanostruct":8185,"##akes":8186,"shif":8187,"##ventional":8188,"##TI":8189,"influence":8190,"deg":8191,"##ocial":8192,"rap":8193,"deliver":8194,"54":8195,"##rol":8196,"working":8197,"intercal":8198,"understand":8199,"altern":8200,"glass":8201,"##ote":8202,"top":8203,"##hest":8204,"##eration":8205,"##part":8206,"areas":8207,"added":8208,"cross":8209,"commercial":8210,"attention":8211,"supercapac":8212,"potenti":8213,"saf":8214,"memory":8215,"μm":8216,"##rum":8217,"##ision":8218,"impedance":8219,"accur":8220,"sk":8221,"decomp":8222,"alk":8223,"exposure":8224,"With":8225,"technique":8226,"alloy":8227,"No":8228,"future":8229,"does":8230,"##tered":8231,"yield":8232,"solutions":8233,"nitrogen":8234,"human":8235,"197":8236,"##ared":8237,"##omes":8238,"reduce":8239,"efficient":8240,"catalytic":8241,"spin":8242,"element":8243,"either":8244,"##li":8245,"Conc":8246,"derived":8247,"##vation":8248,"49":8249,"000":8250,"##MC":8251,"chall":8252,"##otor":8253,"decreased":8254,"Supp":8255,"diffic":8256,"##urb":8257,"quality":8258,"might":8259,"##PC":8260,"##AS":8261,"modified":8262,"followed":8263,"core":8264,"##ised":8265,"terms":8266,"inhib":8267,"##ries":8268,"below":8269,"mL":8270,"Am":8271,"##PE":8272,"typical":8273,"experiment":8274,"bar":8275,"52":8276,"sensor":8277,"##orpor":8278,"individual":8279,"bro":8280,"theoretical":8281,"##hyd":8282,"##zation":8283,"provided":8284,"rapid":8285,"##pecially":8286,"output":8287,"2017":8288,"elements":8289,"heating":8290,"))":8291,"##ouse":8292,"meth":8293,"promising":8294,"Sh":8295,"##ector":8296,"substrate":8297,"##aken":8298,"space":8299,"diameter":8300,"nanocompos":8301,"##roduction":8302,"##orts":8303,"successful":8304,"strategy":8305,"site":8306,"heter":8307,"resid":8308,"conductive":8309,"catalysts":8310,"bul":8311,"##bi":8312,"psych":8313,"patterns":8314,"buil":8315,"##ogn":8316,"mixed":8317,"again":8318,"full":8319,"defined":8320,"##tically":8321,"task":8322,"##ession":8323,"Le":8324,"##ining":8325,"exch":8326,"gene":8327,"techniques":8328,"ge":8329,"agg":8330,"overall":8331,"degrad":8332,"plate":8333,"lik":8334,"##pot":8335,"##16":8336,"##ger":8337,"##hemistry":8338,"H2":8339,"##crip":8340,"400":8341,"65":8342,"##tle":8343,"unit":8344,"recent":8345,"magnetic":8346,"nanof":8347,"greater":8348,"China":8349,"Sim":8350,"clinical":8351,"spectrum":8352,"metals":8353,"grid":8354,"measurement":8355,"whe":8356,"powder":8357,"absorption":8358,"measures":8359,"##ymmet":8360,"summ":8361,"novel":8362,"##ylene":8363,"SEI":8364,"Rec":8365,"conventional":8366,"OR":8367,"Fin":8368,"##ulate":8369,"react":8370,"##aging":8371,"67":8372,"interest":8373,"fram":8374,"hom":8375,"##ank":8376,"biom":8377,"chann":8378,"LIBs":8379,"processing":8380,"monitor":8381,"##heres":8382,"##14":8383,"##man":8384,"##aving":8385,"##ickel":8386,"doping":8387,"provides":8388,"means":8389,"##me":8390,"##enew":8391,"56":8392,"##ET":8393,"inser":8394,"depos":8395,"They":8396,"record":8397,"indicate":8398,"diagn":8399,"literature":8400,"direction":8401,"solvent":8402,"lattice":8403,"##ody":8404,"contrast":8405,"controlled":8406,"##acts":8407,"##active":8408,"retention":8409,"##ensities":8410,"##uter":8411,"bo":8412,"testing":8413,"nanot":8414,"hal":8415,"##gorith":8416,"%.":8417,"##ibility":8418,"smaller":8419,"sch":8420,"##electric":8421,"link":8422,"simple":8423,"Ne":8424,"therefore":8425,"indicated":8426,"pul":8427,"##arbon":8428,"limit":8429,"CNTs":8430,"##ritical":8431,"Ca":8432,"how":8433,"engine":8434,"ow":8435,"facil":8436,"pri":8437,"##ubes":8438,"glo":8439,"##ether":8440,"mob":8441,"capacities":8442,"err":8443,"Cr":8444,"necess":8445,"subst":8446,"##ending":8447,"generated":8448,"adj":8449,"2018":8450,"best":8451,"##ymptom":8452,"fast":8453,"oil":8454,"pack":8455,"especially":8456,"##ework":8457,"nature":8458,"subjects":8459,"##iting":8460,"##faces":8461,"config":8462,"nanosheets":8463,"intensity":8464,"Figure":8465,"highest":8466,"component":8467,"sources":8468,"problems":8469,"Sch":8470,"##medi":8471,"##ored":8472,"SC":8473,"operating":8474,"must":8475,"illustr":8476,"discharg":8477,"##ales":8478,"##SS":8479,"brain":8480,"series":8481,"help":8482,"57":8483,"MW":8484,"##read":8485,"additional":8486,"##sequently":8487,"##ze":8488,"AN":8489,"ang":8490,"preparation":8491,"##sess":8492,"##osity":8493,"##itable":8494,"coll":8495,"dou":8496,"2016":8497,"abs":8498,"circuit":8499,"assessment":8500,"##Ti":8501,"Conclusion":8502,"image":8503,"85":8504,"App":8505,"fit":8506,"bulk":8507,"determine":8508,"tri":8509,"##izes":8510,"2000":8511,"superior":8512,"##order":8513,"detection":8514,"revealed":8515,"correspond":8516,"remov":8517,"primary":8518,"2015":8519,"Li2":8520,"directly":8521,"key":8522,"discussed":8523,"algorith":8524,"##lust":8525,"##way":8526,"molecular":8527,"across":8528,"##MO":8529,"multiple":8530,"##AR":8531,"##DF":8532,"whereas":8533,"##ton":8534,"treated":8535,"curve":8536,"valid":8537,"Research":8538,"target":8539,"designed":8540,"##allic":8541,"management":8542,"reference":8543,"emissions":8544,"##15":8545,"gu":8546,"##ols":8547,"##mosp":8548,"##ensive":8549,"month":8550,"##IC":8551,"behaviour":8552,"63":8553,"##ique":8554,"##land":8555,"framework":8556,"included":8557,"##ems":8558,"achieve":8559,"read":8560,"lear":8561,"features":8562,"58":8563,"another":8564,"molecules":8565,"employed":8566,"##hold":8567,"bound":8568,"construc":8569,"expression":8570,"parti":8571,"gel":8572,"evaluated":8573,"La":8574,"prom":8575,"exhibits":8576,"disease":8577,"approximately":8578,"Eq":8579,"##itors":8580,"natural":8581,"display":8582,"##sibility":8583,"analyses":8584,"IC":8585,"1000":8586,"##Li":8587,"##xt":8588,"##ED":8589,"##ustion":8590,"membranes":8591,"scores":8592,"identified":8593,"include":8594,"Acc":8595,"mode":8596,"instr":8597,"dependent":8598,"64":8599,"down":8600,"##olar":8601,"technologies":8602,"##troduction":8603,"stage":8604,"slight":8605,"supply":8606,"##ecting":8607,"coal":8608,"##FC":8609,"Co3O4":8610,"##aced":8611,"##apor":8612,"reli":8613,"AD":8614,"estab":8615,"decomposition":8616,"sequ":8617,"##olved":8618,"often":8619,"make":8620,"drug":8621,"Ram":8622,"fail":8623,"nickel":8624,"Ab":8625,"##iat":8626,"degree":8627,"##most":8628,"selected":8629,"days":8630,"distance":8631,"corr":8632,"hydrox":8633,"fill":8634,"##enz":8635,"rang":8636,"patient":8637,"##MA":8638,"anim":8639,"degradation":8640,"##ints":8641,"##ept":8642,"strength":8643,"participants":8644,"likely":8645,"##ways":8646,"procedure":8647,"##alled":8648,"variables":8649,"##ffor":8650,"##vant":8651,"proj":8652,"##roly":8653,"ques":8654,"##ufact":8655,"consistent":8656,"##enewable":8657,"References":8658,"signal":8659,"amp":8660,"interactions":8661,"contribution":8662,"XPS":8663,"IL":8664,"symptom":8665,"exhibit":8666,"upon":8667,"##encies":8668,".)":8669,"resour":8670,"##roph":8671,"previously":8672,"##oles":8673,"NH":8674,"go":8675,"difficult":8676,"cre":8677,"66":8678,"##Se":8679,"##ters":8680,"place":8681,"atmosp":8682,"##umin":8683,"pp":8684,"findings":8685,"##ware":8686,"mill":8687,"evolution":8688,"Cd":8689,"broad":8690,"states":8691,"internal":8692,"##reen":8693,"fraction":8694,"##CNT":8695,"##ube":8696,"2014":8697,"adsorb":8698,"py":8699,"##alysis":8700,"##30":8701,"caused":8702,"##epend":8703,"##ense":8704,"##ify":8705,"drop":8706,"salt":8707,"kinetics":8708,"59":8709,"##acted":8710,"##ta":8711,"##esting":8712,"wide":8713,"optimal":8714,"loading":8715,"dimensional":8716,"binding":8717,"##organ":8718,"estimated":8719,"evidence":8720,"recorded":8721,"experi":8722,"72":8723,"centr":8724,"least":8725,"##isc":8726,"62":8727,"exis":8728,"##ung":8729,"##iles":8730,"feed":8731,"transmission":8732,"vehicle":8733,"Pol":8734,"star":8735,"##IN":8736,"##lit":8737,"##ropri":8738,"intercalation":8739,"##son":8740,"mesop":8741,"discussion":8742,"##rochemical":8743,"repe":8744,"##ival":8745,"##lood":8746,"CA":8747,"Techn":8748,"##oxide":8749,"fabricated":8750,"extraction":8751,"mechanisms":8752,"costs":8753,"2D":8754,"NM":8755,"separator":8756,"flexible":8757,"##lying":8758,"precursor":8759,"##pr":8760,"Science":8761,"phases":8762,"social":8763,"collected":8764,"vehicles":8765,"indust":8766,"minim":8767,"dry":8768,"sci":8769,"##ument":8770,"incorpor":8771,"clust":8772,"soft":8773,"leading":8774,"From":8775,"statis":8776,"assum":8777,"equation":8778,"PD":8779,"coefficient":8780,"sus":8781,"##eived":8782,"view":8783,"##CO":8784,"safety":8785,"clearly":8786,"semic":8787,"densities":8788,"asp":8789,"vers":8790,"tet":8791,"coord":8792,"Pr":8793,"##18":8794,"Finally":8795,"One":8796,"suitable":8797,"##2O5":8798,"strateg":8799,"whether":8800,"critical":8801,"carbonate":8802,"attr":8803,"##orphous":8804,"etc":8805,"polys":8806,"almost":8807,"CC":8808,"combination":8809,"schem":8810,"cann":8811,"ide":8812,"98":8813,"avoid":8814,"Raman":8815,"early":8816,"fluid":8817,"##ird":8818,"96":8819,"program":8820,"produce":8821,"care":8822,"decreases":8823,"##rier":8824,"examined":8825,"##amine":8826,"Experim":8827,"mice":8828,"far":8829,"acet":8830,"removal":8831,"simulation":8832,");":8833,"correlation":8834,"##iteri":8835,"2013":8836,"confirmed":8837,"##otyp":8838,"##atalytic":8839,"suggest":8840,"combustion":8841,"substit":8842,"here":8843,"able":8844,"##incip":8845,"photoc":8846,"fam":8847,"plant":8848,"implement":8849,"practical":8850,"##raw":8851,"##etric":8852,"##aff":8853,"access":8854,"polymers":8855,"##bers":8856,"ir":8857,"##ope":8858,"taken":8859,"2012":8860,"68":8861,"rather":8862,"##andom":8863,"report":8864,"leads":8865,"ax":8866,"left":8867,"market":8868,"solv":8869,"final":8870,"unique":8871,"microscopy":8872,"Key":8873,"MS":8874,"According":8875,"##hol":8876,"towards":8877,"rob":8878,"##ah":8879,"##by":8880,"photo":8881,"By":8882,"crystalline":8883,"usually":8884,"combined":8885,"building":8886,"chlor":8887,"manufact":8888,"##TA":8889,"aim":8890,"hist":8891,"regions":8892,"PS":8893,"##DS":8894,"##enari":8895,"##elling":8896,"##ortion":8897,"##omm":8898,"78":8899,"77":8900,"##rate":8901,"NPs":8902,"facilit":8903,"##17":8904,"disorder":8905,"wee":8906,"improvement":8907,"counter":8908,"bre":8909,"performances":8910,"amorphous":8911,"##PA":8912,"If":8913,"##ool":8914,"2010":8915,"USA":8916,"ORR":8917,"characterized":8918,"PANI":8919,"ZnO":8920,"artic":8921,"methyl":8922,"certain":8923,"fluor":8924,"close":8925,"exchange":8926,"renewable":8927,"hour":8928,"##ryst":8929,"##lace":8930,"##sing":8931,"half":8932,"supported":8933,"appropri":8934,"exist":8935,"slow":8936,"double":8937,"Au":8938,"##igned":8939,"index":8940,"variation":8941,"criteri":8942,"shape":8943,"stabil":8944,"later":8945,"cover":8946,"hollow":8947,"templ":8948,"##ipp":8949,"sensors":8950,"run":8951,"##thermal":8952,"##ury":8953,"##60":8954,"cyclic":8955,"poll":8956,"##ai":8957,"prior":8958,"##come":8959,"consum":8960,"analyzed":8961,"protein":8962,"##icial":8963,"iron":8964,"move":8965,"74":8966,"##astic":8967,"ur":8968,"##ierarch":8969,"##hers":8970,"necessary":8971,"##FP":8972,"knowledge":8973,"##urop":8974,"percent":8975,"##och":8976,"150":8977,"Ge":8978,"##aboratory":8979,"soil":8980,"##OL":8981,"MC":8982,"widely":8983,"independ":8984,"##entioned":8985,"nucle":8986,"hard":8987,"characterization":8988,"gap":8989,"cooling":8990,"dried":8991,"1995":8992,"right":8993,"enc":8994,"scanning":8995,"##odes":8996,"servic":8997,"five":8998,"##ternal":8999,"optimization":9000,"##anad":9001,"mel":9002,"Inter":9003,"fix":9004,"97":9005,"numer":9006,"##partment":9007,"New":9008,"Supplementary":9009,"ens":9010,"##19":9011,"evaluation":9012,"##25":9013,"##utes":9014,"economic":9015,"##uals":9016,"resolution":9017,"##rient":9018,"dam":9019,"DC":9020,"layered":9021,"Then":9022,"fer":9023,"although":9024,"cho":9025,"random":9026,"fav":9027,"investigate":9028,"GC":9029,"69":9030,"black":9031,"interp":9032,"##aches":9033,"2011":9034,"input":9035,"polic":9036,"##ring":9037,"play":9038,"##atus":9039,"log":9040,"##sequent":9041,"electrons":9042,"reflect":9043,"kW":9044,"##antit":9045,"activities":9046,"ethanol":9047,"princip":9048,"therap":9049,"##tif":9050,"##eral":9051,"Since":9052,"##erc":9053,"CD":9054,"alkal":9055,"precip":9056,"motor":9057,"grad":9058,"scenari":9059,"rad":9060,"##inter":9061,"anodes":9062,"##ffer":9063,"##inity":9064,"##onic":9065,"##earc":9066,"involved":9067,"Zh":9068,"body":9069,"follows":9070,"strategies":9071,"suggested":9072,"##ogeneous":9073,"##ef":9074,"##ceed":9075,"continuous":9076,"##sc":9077,"##know":9078,"detected":9079,"needed":9080,"separation":9081,"possess":9082,"##iated":9083,"agree":9084,"##inant":9085,"##set":9086,"##ext":9087,"sust":9088,"pyr":9089,"##ombic":9090,"recovery":9091,"##seud":9092,"):":9093,"alternative":9094,"window":9095,"challeng":9096,"copper":9097,"aggreg":9098,"plan":9099,"characteristic":9100,"disper":9101,"block":9102,"opp":9103,"##tric":9104,"##enced":9105,"onto":9106,"radiation":9107,"##istine":9108,"obvious":9109,"stimul":9110,"Des":9111,"##ometric":9112,"##ST":9113,"sensitivity":9114,"##omer":9115,"LiFe":9116,"corro":9117,"600":9118,"effectively":9119,"##oses":9120,"hierarch":9121,"ol":9122,"120":9123,"cannot":9124,"optical":9125,"##oral":9126,"##Ox":9127,"##AL":9128,"learning":9129,"polysulf":9130,"##H2O":9131,"2009":9132,"though":9133,"##RI":9134,"insertion":9135,"functions":9136,"emer":9137,"against":9138,"nanow":9139,"##ivalent":9140,"account":9141,"73":9142,"##ends":9143,"purp":9144,"medium":9145,"ever":9146,"##erization":9147,"identify":9148,"94":9149,"generally":9150,"cut":9151,"##ronic":9152,"800":9153,"become":9154,"##tis":9155,"##ash":9156,"##ders":9157,"##aching":9158,"ml":9159,"weak":9160,"Gr":9161,"##ference":9162,"##GA":9163,"##mic":9164,"appropriate":9165,"points":9166,"76":9167,"Similar":9168,"population":9169,"During":9170,"PM":9171,"nanofib":9172,"##II":9173,"##22":9174,"irr":9175,"##ges":9176,"successfully":9177,"transform":9178,"advantages":9179,"##eness":9180,"recently":9181,"##uum":9182,"##atalyst":9183,"parameter":9184,"issues":9185,"anne":9186,"algorithm":9187,"##ersed":9188,"##ising":9189,"mac":9190,"##yt":9191,"##Vs":9192,"silicon":9193,"regard":9194,"cate":9195,"suggests":9196,"reducing":9197,"##balt":9198,"carb":9199,"CF":9200,"pristine":9201,"hydrothermal":9202,"las":9203,"##orting":9204,"79":9205,"fully":9206,"m2":9207,"##ights":9208,"##EN":9209,"2006":9210,"score":9211,"87":9212,"basis":9213,"##ibr":9214,"##RT":9215,"wa":9216,"2005":9217,"located":9218,"plane":9219,"cause":9220,"represents":9221,"metallic":9222,"III":9223,"evaluate":9224,"rout":9225,"effor":9226,"visual":9227,"approaches":9228,"complete":9229,"strain":9230,"presents":9231,"NiO":9232,"##loys":9233,"##As":9234,"##ansion":9235,"adop":9236,"researc":9237,"Based":9238,"##rem":9239,"##eline":9240,"2008":9241,"So":9242,"##acing":9243,"phenomen":9244,"tog":9245,"Here":9246,"chain":9247,"received":9248,"together":9249,"surfaces":9250,"symptoms":9251,"##verse":9252,"2007":9253,"profiles":9254,"tun":9255,"##van":9256,"##acking":9257,"Sb":9258,"arch":9259,"86":9260,"Be":9261,"##io":9262,"##sk":9263,"##ultane":9264,"responses":9265,"sat":9266,"expansion":9267,"easily":9268,"bal":9269,"##40":9270,"theory":9271,"##pol":9272,"2004":9273,"ST":9274,"##itect":9275,"useful":9276,"##abol":9277,"controls":9278,"nanotubes":9279,"concept":9280,"##AB":9281,"Instit":9282,"001":9283,"charged":9284,"##rosp":9285,"##ero":9286,"pair":9287,"mut":9288,"quantit":9289,"har":9290,"##ground":9291,"cm2":9292,"slightly":9293,"##ones":9294,"plot":9295,"respect":9296,"having":9297,"vacuum":9298,"introduced":9299,"##organic":9300,"##words":9301,"affect":9302,"Sub":9303,"##ustry":9304,"cle":9305,"rich":9306,"blood":9307,"Method":9308,"polarization":9309,"pyroly":9310,"subsequent":9311,"First":9312,"occurs":9313,"##ilib":9314,"##ections":9315,"88":9316,"##TF":9317,"ess":9318,"che":9319,"composed":9320,"assis":9321,"hex":9322,"##di":9323,"industrial":9324,"Addition":9325,"bio":9326,"tiss":9327,"+,":9328,"pas":9329,"##luor":9330,"S1":9331,"pseud":9332,"1994":9333,"While":9334,"CS":9335,"recogn":9336,"atmosphere":9337,"admin":9338,"DNA":9339,"SA":9340,"force":9341,"understanding":9342,"cation":9343,"orient":9344,"tasks":9345,"accel":9346,"83":9347,"##ography":9348,"##HE":9349,"green":9350,"##use":9351,"exposed":9352,"arg":9353,"individuals":9354,"vary":9355,"external":9356,"cobalt":9357,"secondary":9358,"sheets":9359,"host":9360,"##uk":9361,"suggesting":9362,"##Al":9363,"units":9364,"whole":9365,"trad":9366,"##atial":9367,"deposited":9368,"foil":9369,"tit":9370,"profile":9371,"##vers":9372,"##oxy":9373,"##OS":9374,"recyc":9375,"51":9376,")-":9377,"nam":9378,"configuration":9379,"PB":9380,"activated":9381,"cult":9382,"##amin":9383,"Gen":9384,"##apping":9385,"##orb":9386,"integrated":9387,"stirr":9388,"Inc":9389,"versus":9390,"variable":9391,"##lications":9392,"global":9393,"fund":9394,"##ectivity":9395,"##asc":9396,"alloys":9397,"base":9398,"##CoO2":9399,"foam":9400,"SP":9401,"1990":9402,"##zym":9403,"##ospital":9404,"immun":9405,"##iving":9406,"##eep":9407,"##inary":9408,"assembled":9409,"LiFePO4":9410,"hypot":9411,"##mental":9412,"##Hz":9413,"until":9414,"Li2S":9415,"##ulating":9416,"Experimental":9417,"04":9418,"resulted":9419,"dissolved":9420,"DM":9421,"generat":9422,"84":9423,"acqu":9424,"particularly":9425,"##EE":9426,"##cence":9427,"calculations":9428,"Com":9429,"noted":9430,"progress":9431,"##ident":9432,"impl":9433,"Materials":9434,"93":9435,"##anese":9436,"quanti":9437,"Per":9438,"rech":9439,"dig":9440,"connected":9441,"abund":9442,"dynamic":9443,"##ream":9444,"And":9445,"US":9446,"##yd":9447,"neut":9448,"inside":9449,"##facial":9450,"distin":9451,"monitoring":9452,"susp":9453,"Pl":9454,"world":9455,"##elf":9456,"89":9457,"##go":9458,"Str":9459,"making":9460,"cathodes":9461,"##ometry":9462,"##sh":9463,"##ilibri":9464,"conducting":9465,"demonstrate":9466,"summar":9467,"Fe2O3":9468,"##ounts":9469,"Pre":9470,"##oh":9471,"count":9472,"pump":9473,"ca":9474,"turn":9475,"Keywords":9476,"allows":9477,"biomass":9478,"Med":9479,"Electrochemical":9480,"screen":9481,"wall":9482,"article":9483,"##................":9484,"next":9485,"concern":9486,"##erate":9487,"shift":9488,"##arding":9489,"##23":9490,"autom":9491,"H2O":9492,"##ered":9493,"zinc":9494,"##PF":9495,"SiO2":9496,"den":9497,"IR":9498,"##ead":9499,"reports":9500,"plasma":9501,"+/":9502,"Jap":9503,"error":9504,"wave":9505,"isol":9506,"symmet":9507,"##RO":9508,"equivalent":9509,"##ographic":9510,"hypothe":9511,"NiCo":9512,"Fr":9513,"dose":9514,"defects":9515,"confirm":9516,"##ancy":9517,"##onduc":9518,"Such":9519,"simultane":9520,"##usc":9521,"Conclusions":9522,"##inning":9523,"##Ds":9524,"##MP":9525,"question":9526,"ground":9527,"2003":9528,"Mod":9529,"S2":9530,"Engine":9531,"##atives":9532,"placed":9533,"##xi":9534,"months":9535,"mentioned":9536,"mesoporous":9537,"##urrent":9538,"fem":9539,"detailed":9540,"turb":9541,"les":9542,"##angu":9543,"industry":9544,"accuracy":9545,"##iesel":9546,"##atically":9547,"architect":9548,"##andid":9549,"##TS":9550,"Col":9551,"2001":9552,"impair":9553,"##esides":9554,"1996":9555,"2002":9556,"plants":9557,"LiMn":9558,"##ae":9559,"resources":9560,"tra":9561,"needs":9562,"Our":9563,"MA":9564,"##lish":9565,"##ands":9566,"##ulombic":9567,"Fe3O4":9568,"supercapacitors":9569,"release":9570,"potentials":9571,"agreement":9572,"##arc":9573,"2p":9574,"emerg":9575,"##ynthe":9576,"##avy":9577,"pores":9578,"dend":9579,"Psych":9580,"draw":9581,"gly":9582,"Ther":9583,"find":9584,"##ynamics":9585,"now":9586,"##ont":9587,"##eloc":9588,"fixed":9589,"National":9590,"alumin":9591,"fabrication":9592,"##ano":9593,"##pite":9594,"##ye":9595,"appar":9596,"prevent":9597,"distributed":9598,"affected":9599,"Among":9600,"MWCNT":9601,"criteria":9602,"chrom":9603,"Bec":9604,"adjust":9605,"hem":9606,"bonds":9607,"EIS":9608,"intermedi":9609,"lab":9610,"##aster":9611,"his":9612,"1992":9613,"##den":9614,"aer":9615,"atomic":9616,"System":9617,"imm":9618,"mid":9619,"##aged":9620,"ii":9621,"relevant":9622,"offer":9623,"92":9624,"inorganic":9625,"interfacial":9626,"binder":9627,"adap":9628,"kind":9629,"##ality":9630,"discharging":9631,"##ded":9632,"enti":9633,"##inate":9634,"##ibration":9635,"##structure":9636,"requirements":9637,"Mic":9638,"pass":9639,"remains":9640,"last":9641,"independent":9642,"networks":9643,"shar":9644,"##luded":9645,"neur":9646,"rot":9647,"##ammet":9648,"angle":9649,"alco":9650,"toxicity":9651,"##ometer":9652,"##IT":9653,"nanocomposite":9654,"channel":9655,"original":9656,"UV":9657,"##alvan":9658,"##ournal":9659,"price":9660,"pain":9661,"assessed":9662,"equilibri":9663,"PVDF":9664,"Cent":9665,"Germ":9666,"candid":9667,"MP":9668,"neuro":9669,"Stud":9670,"tradition":9671,"excess":9672,"established":9673,"investigation":9674,"defic":9675,"##time":9676,"longer":9677,"mig":9678,"veloc":9679,"##ik":9680,"nanostructures":9681,"##EL":9682,"edge":9683,"SD":9684,"##FT":9685,"sil":9686,"##eth":9687,"250":9688,"1997":9689,"Imp":9690,"corrosion":9691,"hetero":9692,"bot":9693,"Pd":9694,"requires":9695,"82":9696,"sustain":9697,"##orders":9698,"enzym":9699,"utilization":9700,"importance":9701,"HC":9702,"Hz":9703,"##allel":9704,"##EG":9705,"what":9706,"sizes":9707,"##oted":9708,"1993":9709,"##NS":9710,"nanor":9711,"sensitive":9712,"##urope":9713,"assigned":9714,"##rehen":9715,"protoc":9716,"six":9717,"strongly":9718,"##water":9719,"##back":9720,"##bo":9721,"##aries":9722,"toxic":9723,"training":9724,"##ert":9725,"110":9726,"Section":9727,"advantage":9728,"Ru":9729,"pen":9730,"proportion":9731,"##Bs":9732,"SOC":9733,"Ce":9734,"LD":9735,"stret":9736,"software":9737,"bor":9738,"SS":9739,"##ople":9740,"existing":9741,"forms":9742,"damage":9743,"##ime":9744,"##cription":9745,"showing":9746,"##ocy":9747,"1999":9748,"Department":9749,"##king":9750,"voltammet":9751,"plat":9752,"##isp":9753,"displayed":9754,"severe":9755,"depth":9756,"##vey":9757,"Engineering":9758,"##32":9759,"Technology":9760,"recharge":9761,"developing":9762,"##erv":9763,"special":9764,"Both":9765,"1991":9766,"irradi":9767,"fiber":9768,"interlay":9769,"Institute":9770,"MOF":9771,"la":9772,"##tt":9773,"##temp":9774,"Also":9775,"##itic":9776,"collector":9777,"##tors":9778,"2019":9779,"expressed":9780,"##oint":9781,"ann":9782,"OER":9783,"context":9784,"hierarchical":9785,"##otion":9786,"minimum":9787,"1998":9788,"Two":9789,"##izoph":9790,"metabol":9791,"fron":9792,"##outh":9793,"N2":9794,"pyrolysis":9795,"##where":9796,"##uction":9797,"neurop":9798,"lack":9799,"##atin":9800,"irre":9801,"microscop":9802,"Chemical":9803,"duration":9804,"equal":9805,"belie":9806,"Europe":9807,"pan":9808,"##arily":9809,"lig":9810,"dissolution":9811,"absorb":9812,"educ":9813,"##ayer":9814,"MD":9815,"103":9816,"##cribed":9817,"LiCoO2":9818,"basic":9819,"Hence":9820,"satis":9821,"improving":9822,"##overn":9823,"agent":9824,"##enting":9825,"##izophren":9826,"Wang":9827,"vir":9828,"dys":9829,"##Si":9830,"consists":9831,"##ostatic":9832,"devi":9833,"swit":9834,"substanti":9835,"accum":9836,"Mar":9837,"failure":9838,"little":9839,"steel":9840,"steps":9841,"anion":9842,"spatial":9843,"address":9844,"typically":9845,"modification":9846,"##IL":9847,"##isation":9848,"take":9849,"##esis":9850,"gluc":9851,"%),":9852,"emb":9853,"laser":9854,"central":9855,"##lier":9856,"maintained":9857,"Or":9858,"equilibrium":9859,"supercapacitor":9860,"##TC":9861,"##ods":9862,"infr":9863,"##certain":9864,"##bor":9865,"##othermal":9866,"nanocomposites":9867,"observ":9868,"variety":9869,"fig":9870,"parallel":9871,"assembly":9872,"published":9873,"wire":9874,"##anguage":9875,"animals":9876,"##entific":9877,"hor":9878,"06":9879,"plots":9880,"PEO":9881,"##rup":9882,"solvents":9883,"heavy":9884,"property":9885,"bus":9886,"entire":9887,"##na":9888,"repeated":9889,"##OR":9890,"clean":9891,"##Ni0":9892,"done":9893,"Trans":9894,"policy":9895,"KOH":9896,"CP":9897,"Mean":9898,"every":9899,"occup":9900,"##Introduction":9901,"zero":9902,"lines":9903,"fibers":9904,"##td":9905,"node":9906,"methanol":9907,"AB":9908,"##ergies":9909,"Journal":9910,"##ists":9911,"subject":9912,"seg":9913,"##gression":9914,"third":9915,"called":9916,"61":9917,"semiconduc":9918,"Additionally":9919,"RGO":9920,"becomes":9921,"##aps":9922,"##reshold":9923,"wet":9924,"Intern":9925,"traditional":9926,"alcohol":9927,"PPy":9928,"##3C":9929,"comprehen":9930,"squ":9931,"challenges":9932,"dispersed":9933,"ceram":9934,"magnit":9935,"food":9936,"nodes":9937,"##24":9938,"##osen":9939,"##lin":9940,"compe":9941,"oct":9942,"polymerization":9943,"axis":9944,"##olec":9945,"advanced":9946,"aspects":9947,"196":9948,"##ception":9949,"absence":9950,"tube":9951,"##zer":9952,"researchers":9953,"Recently":9954,"##AD":9955,"anodic":9956,"ppm":9957,"##SM":9958,"##ready":9959,"predicted":9960,"porosity":9961,"reactor":9962,"countries":9963,"dispersion":9964,"##riers":9965,"ratios":9966,"explained":9967,"Besides":9968,"people":9969,"##CP":9970,"fuels":9971,"contain":9972,"computer":9973,"700":9974,"##3N":9975,"##anganese":9976,"##ochemical":9977,"ap":9978,"##ino":9979,"public":9980,"Sm":9981,"El":9982,"##bient":9983,"Cont":9984,"da":9985,"##rim":9986,"greatly":9987,"##ula":9988,"irrever":9989,"##roup":9990,"silica":9991,"template":9992,"objective":9993,"V2O5":9994,"##atom":9995,"spectrom":9996,"location":9997,"##ices":9998,"Fuel":9999,"##ifically":10000,"event":10001,"dat":10002,"route":10003,"Rep":10004,"AL":10005,"nanom":10006,"IV":10007,"detect":10008,"##arb":10009,"Japan":10010,"##ithium":10011,"Im":10012,"##ocks":10013,"##arr":10014,"already":10015,"comput":10016,"cations":10017,"Some":10018,"##econd":10019,"restric":10020,"baseline":10021,"corresponds":10022,"completely":10023,"partial":10024,"head":10025,"Because":10026,"sensing":10027,"focused":10028,"spinel":10029,"status":10030,"Eff":10031,"others":10032,"comparable":10033,"Cor":10034,"house":10035,"##odynamic":10036,"tend":10037,"mixing":10038,"##urity":10039,"prefer":10040,"issue":10041,"substrates":10042,"##OT":10043,"tw":10044,"beg":10045,"NMR":10046,"subs":10047,"##Th":10048,"depends":10049,"##ecu":10050,"reach":10051,"vit":10052,"commonly":10053,"Using":10054,"Te":10055,"chemistry":10056,"intervention":10057,"##nov":10058,"appears":10059,"Other":10060,"domain":10061,"energies":10062,"CR":10063,"##umn":10064,"remo":10065,"selection":10066,"##apac":10067,"transformation":10068,"08":10069,"beam":10070,"rece":10071,"considering":10072,"extent":10073,"remark":10074,"71":10075,"coupled":10076,"utilized":10077,"##itives":10078,"##ulose":10079,"makes":10080,"percentage":10081,"accept":10082,"##rich":10083,"##Ms":10084,"High":10085,"lithiation":10086,"amounts":10087,"##ills":10088,"##MI":10089,"cour":10090,"feas":10091,"##ormal":10092,"powders":10093,"reached":10094,"flux":10095,"##iatric":10096,"velocity":10097,"vanad":10098,"##inyl":10099,"##45":10100,"##sors":10101,"disorders":10102,"##CO3":10103,"grain":10104,"Dif":10105,"##hedral":10106,"diagnosis":10107,"##tures":10108,"items":10109,"SO":10110,"##aph":10111,"words":10112,"hyper":10113,"mobility":10114,"Par":10115,"ambient":10116,"Sur":10117,"##atch":10118,"threshold":10119,"Due":10120,"biological":10121,"clos":10122,"##agonal":10123,"##ipment":10124,"owing":10125,"rats":10126,"conduction":10127,"##ynthesis":10128,"providing":10129,"port":10130,"Methods":10131,"channels":10132,"smo":10133,"##ride":10134,"mobile":10135,"ammon":10136,"instance":10137,"Ltd":10138,"precursors":10139,"magnitude":10140,"schizophren":10141,"sufficient":10142,"microp":10143,"1989":10144,"family":10145,"nanowires":10146,"Nb":10147,"##TP":10148,"compr":10149,"Zr":10150,"interesting":10151,"##ior":10152,"reliability":10153,"attemp":10154,"categor":10155,"project":10156,")=":10157,"sex":10158,"optimized":10159,"essential":10160,"forming":10161,"own":10162,"##wh":10163,"PO4":10164,"past":10165,"alkaline":10166,"##polym":10167,"##tex":10168,"Phys":10169,"CB":10170,"07":10171,"voltammetry":10172,"hours":10173,"pred":10174,"##33":10175,"Compared":10176,"evapor":10177,"distinct":10178,"##otrop":10179,"bed":10180,"°,":10181,"##oy":10182,"##otox":10183,"Cal":10184,"interlayer":10185,"break":10186,"galvan":10187,"##bit":10188,"tetra":10189,"Op":10190,"##aired":10191,"illustrated":10192,"dependence":10193,"hear":10194,"Man":10195,"assumed":10196,"occurred":10197,"visible":10198,"wr":10199,"bacter":10200,"communication":10201,"correlated":10202,"microsp":10203,"origin":10204,"nanofibers":10205,"OF":10206,"Gu":10207,"PO":10208,"AS":10209,"titan":10210,"constrain":10211,"laboratory":10212,"estimate":10213,"feature":10214,"removed":10215,"##onom":10216,"students":10217,"##ening":10218,"favor":10219,"##ogram":10220,"rechargeable":10221,"##acr":10222,"imaging":10223,"tissue":10224,"language":10225,"sed":10226,"PL":10227,"##irect":10228,"##try":10229,"constit":10230,"##IF":10231,"complexes":10232,"trend":10233,"onset":10234,"##Se2":10235,"delivered":10236,"##NC":10237,"##ancing":10238,"##ives":10239,"annealing":10240,"CT":10241,"matter":10242,"led":10243,"Vol":10244,"##ovol":10245,"latter":10246,"##RA":10247,"ball":10248,"robust":10249,"##pl":10250,"##function":10251,"therapy":10252,"experience":10253,"events":10254,"##ID":10255,"choice":10256,"Power":10257,"calculation":10258,"Another":10259,"##till":10260,"buffer":10261,"conclusion":10262,"##lacement":10263,"##ading":10264,"currently":10265,"##ises":10266,"delay":10267,"91":10268,"NS":10269,"generate":10270,"ascribed":10271,"additives":10272,")/":10273,"##oelectric":10274,"Chen":10275,"filled":10276,"Aut":10277,"plastic":10278,"##uble":10279,"anxi":10280,"displ":10281,"NP":10282,"accomp":10283,"##rome":10284,"##otic":10285,"LC":10286,"box":10287,"purpose":10288,"Disc":10289,"genes":10290,"manganese":10291,"correct":10292,"procedures":10293,"integration":10294,"##etal":10295,"##ili":10296,"daily":10297,"mM":10298,"trials":10299,"dil":10300,"cham":10301,"signals":10302,"ranging":10303,"tool":10304,"musc":10305,"includes":10306,"desorption":10307,"##21":10308,"sequence":10309,"filter":10310,"decision":10311,"balance":10312,"chosen":10313,"##thal":10314,"81":10315,"Ob":10316,"CE":10317,"##abilities":10318,"ensure":10319,"lowest":10320,"105":10321,"ideal":10322,"irreversible":10323,"platform":10324,"govern":10325,"hydroph":10326,"bands":10327,"##role":10328,"quite":10329,"uncertain":10330,"##otype":10331,"Spec":10332,"defin":10333,"Germany":10334,"##ecutive":10335,"refl":10336,"possibility":10337,"visc":10338,"flexibility":10339,"stored":10340,"fields":10341,"cathodic":10342,"Data":10343,"existence":10344,"##ilities":10345,"barrier":10346,"Is":10347,"relation":10348,"Sw":10349,"agents":10350,"station":10351,"parts":10352,"gradually":10353,"ethylene":10354,"##rous":10355,"radical":10356,"divid":10357,"always":10358,"kinetic":10359,"proton":10360,"give":10361,"actual":10362,"color":10363,"diag":10364,"##oly":10365,"##uting":10366,"observation":10367,"##be":10368,"contribute":10369,"quantif":10370,"##vated":10371,"##upp":10372,"injection":10373,"##ests":10374,"recep":10375,"##tile":10376,"workers":10377,"pathway":10378,"equipment":10379,"##ched":10380,"##erative":10381,"anal":10382,"##urg":10383,"##ME":10384,"##ars":10385,"##fol":10386,"instrument":10387,"regarding":10388,"enhancement":10389,"##while":10390,"Mc":10391,"action":10392,"version":10393,"##theless":10394,"contains":10395,"##uments":10396,"bonding":10397,"linked":10398,"elemental":10399,"women":10400,"fluores":10401,"##take":10402,"cruc":10403,"phosphor":10404,"cancer":10405,"intrins":10406,"glucose":10407,"##ortun":10408,"Hg":10409,"##ovolta":10410,"##35":10411,"##//":10412,"Each":10413,"##LC":10414,"Introduction":10415,"111":10416,"technical":10417,"maxim":10418,"causes":10419,"amplit":10420,"##80":10421,"##iness":10422,"##zing":10423,"##ids":10424,"coupling":10425,"SW":10426,"depic":10427,"cyt":10428,"driving":10429,"blue":10430,"her":10431,"EV":10432,"AP":10433,"##equ":10434,"##bility":10435,"Zhang":10436,"enough":10437,"efforts":10438,"dendr":10439,"Di":10440,"perme":10441,"doc":10442,"##ogenic":10443,"los":10444,"hot":10445,"nearly":10446,"synthetic":10447,"##etry":10448,"dynamics":10449,"assay":10450,"CuO":10451,"##tiveness":10452,"upper":10453,"##enge":10454,"##lation":10455,"additive":10456,"##oung":10457,"nanocryst":10458,"##hing":10459,"1988":10460,"Neu":10461,"##ked":10462,"depending":10463,"consequ":10464,"Health":10465,"facile":10466,"association":10467,"extrem":10468,"estimation":10469,"salts":10470,"medical":10471,"beneficial":10472,"##).":10473,"history":10474,"But":10475,"##iline":10476,"heated":10477,"boundary":10478,".%":10479,"##ached":10480,"##ather":10481,"my":10482,"ESI":10483,"grown":10484,"electrosp":10485,"##PF6":10486,"highl":10487,"plateau":10488,"diesel":10489,"mis":10490,"##ats":10491,"benefits":10492,"##27":10493,"allowed":10494,"depression":10495,"pathways":10496,"##ender":10497,"prol":10498,"recycling":10499,"NF":10500,"slope":10501,"microscope":10502,"##meric":10503,"##ley":10504,"benz":10505,"phy":10506,"extended":10507,"##imetric":10508,"bottom":10509,"embed":10510,"##90":10511,"limits":10512,"column":10513,"intermediate":10514,"probably":10515,"gradi":10516,"impairment":10517,"just":10518,"Ste":10519,"##inder":10520,"sampling":10521,"Mul":10522,"stack":10523,"IN":10524,"module":10525,"##hel":10526,"throughout":10527,"Min":10528,"##ember":10529,"dielectric":10530,"##col":10531,"LTO":10532,"week":10533,"rise":10534,"##ynd":10535,"hence":10536,"survey":10537,"Similarly":10538,"contam":10539,"polysulfides":10540,"media":10541,"OC":10542,"coordination":10543,"selective":10544,"Over":10545,"RF":10546,"##26":10547,"loop":10548,"900":10549,"abundant":10550,"regression":10551,"elim":10552,"easy":10553,"##AP":10554,"adsorbed":10555,"washed":10556,"service":10557,"##vely":10558,"phenomenon":10559,"180":10560,"diagram":10561,"##Sn":10562,"get":10563,"##standing":10564,"prepare":10565,"array":10566,"yet":10567,"Second":10568,"too":10569,"Figs":10570,"fir":10571,"International":10572,"vanadium":10573,"old":10574,"##Mo":10575,"instead":10576,"reading":10577,"guid":10578,"Bl":10579,"Ass":10580,"displays":10581,"noise":10582,"TC":10583,"cardi":10584,"##istration":10585,"deriv":10586,"remain":10587,"Ga":10588,"Reg":10589,"uses":10590,"##tration":10591,"probe":10592,"Chem":10593,"mach":10594,"##ient":10595,"responsible":10596,"##des":10597,"##44":10598,"##ostic":10599,"considerable":10600,"vapor":10601,"monol":10602,"observations":10603,"invest":10604,"home":10605,"Dr":10606,"simultaneously":10607,"neutral":10608,"Cell":10609,"Abstr":10610,"simulations":10611,"Americ":10612,"##dle":10613,"respond":10614,"varying":10615,"penet":10616,"errors":10617,"numbers":10618,"migration":10619,"personal":10620,"proteins":10621,"reson":10622,"medic":10623,"suspension":10624,"exceed":10625,"setting":10626,"relax":10627,"stri":10628,"chloride":10629,"##Co0":10630,"engineering":10631,"##isted":10632,"Al2O3":10633,"##RS":10634,"nanomaterials":10635,"isother":10636,"##RE":10637,"##orth":10638,"facilitate":10639,"demonstrates":10640,"introduction":10641,"##ttp":10642,"##wise":10643,"sheet":10644,"architecture":10645,"##fficients":10646,"DO":10647,"homogeneous":10648,"://":10649,"thereby":10650,"##idity":10651,"predict":10652,"driven":10653,".-":10654,"##70":10655,"scatter":10656,"##ull":10657,"statistical":10658,"precipitation":10659,"RT":10660,"challenge":10661,"nuclear":10662,"##ellig":10663,"##Cl2":10664,"S3":10665,"consisting":10666,"summary":10667,"sedim":10668,"##conn":10669,"rapidly":10670,"recomm":10671,"schizophrenia":10672,"1987":10673,"earlier":10674,"##ubic":10675,"##2SO4":10676,"purch":10677,"Qu":10678,"ec":10679,"spheres":10680,"behaviors":10681,"taking":10682,"##inted":10683,"%).":10684,"Never":10685,"Cons":10686,"##IV":10687,"##era":10688,"UK":10689,"movement":10690,"##has":10691,"scheme":10692,"ring":10693,"##electron":10694,"starting":10695,"coefficients":10696,"satisf":10697,"smart":10698,"genetic":10699,"weeks":10700,"return":10701,"##Mn0":10702,"##err":10703,"2a":10704,"##lim":10705,"behavioral":10706,"Test":10707,"stimulation":10708,"CI":10709,"temporal":10710,"equations":10711,"##sibly":10712,"collection":10713,"##comes":10714,"electrocatalyst":10715,"center":10716,"trial":10717,"user":10718,"http":10719,"meet":10720,"construction":10721,"##ature":10722,"Sol":10723,"Car":10724,"crystals":10725,"##rief":10726,"outcome":10727,"scenario":10728,"##DA":10729,"Nevertheless":10730,"analytical":10731,"stages":10732,"##oring":10733,"transferred":10734,"gives":10735,"##eu":10736,"remaining":10737,"##ades":10738,"except":10739,"tum":10740,"tail":10741,"cere":10742,"##assi":10743,"identification":10744,"residual":10745,"irradiation":10746,"don":10747,"anions":10748,"slur":10749,"animal":10750,"##exp":10751,"details":10752,"ent":10753,"conj":10754,"drying":10755,"chains":10756,"##off":10757,"bur":10758,"start":10759,"summarized":10760,"LDH":10761,"FC":10762,"mi":10763,"variations":10764,"practice":10765,"examine":10766,"deficits":10767,"compare":10768,"chamber":10769,"anxiety":10770,"Li4":10771,"capacitive":10772,"##normal":10773,"Ev":10774,"morphologies":10775,"##herical":10776,"raw":10777,"community":10778,"land":10779,"##side":10780,"cycl":10781,"opportun":10782,"prediction":10783,"course":10784,"cluster":10785,"overpot":10786,"##O12":10787,"keep":10788,"Sever":10789,"funda":10790,"(∼":10791,"width":10792,"zone":10793,"octa":10794,"modes":10795,"microspheres":10796,"##ban":10797,"##leep":10798,"##29":10799,"##arrow":10800,"##ened":10801,"coulombic":10802,"LiMn2O4":10803,"##28":10804,"split":10805,"##aneous":10806,"##itory":10807,"reveal":10808,"clim":10809,"elevated":10810,"determination":10811,"##omers":10812,"09":10813,"NO":10814,"uptake":10815,"##VA":10816,"##2C":10817,"seems":10818,"substitution":10819,"##otes":10820,"aluminum":10821,"antib":10822,"protocol":10823,"##34":10824,"bare":10825,"hyp":10826,"alter":10827,"lifetime":10828,"##olecular":10829,"molar":10830,"μg":10831,"##atal":10832,"##entially":10833,"white":10834,"##romatic":10835,"spacing":10836,"grade":10837,"reduces":10838,"1a":10839,"rou":10840,"##ichi":10841,"asymmet":10842,"explored":10843,"receptor":10844,"104":10845,")).":10846,"divided":10847,"##obic":10848,"##zz":10849,"##65":10850,"BP":10851,"chem":10852,"separated":10853,"motion":10854,"eng":10855,"search":10856,"transportation":10857,"intrinsic":10858,"decreasing":10859,"##lig":10860,"tin":10861,"AF":10862,"3a":10863,"photovolta":10864,"##ci":10865,"stretching":10866,"Most":10867,"Center":10868,"##erve":10869,"interval":10870,"nanorods":10871,"separate":10872,"soci":10873,"##NF":10874,"##tivities":10875,"rough":10876,"represented":10877,"adding":10878,"chronic":10879,"interconn":10880,"reactive":10881,"adopted":10882,"growing":10883,"TMs":10884,"##carbon":10885,"trip":10886,"Hu":10887,"domains":10888,"remove":10889,"##las":10890,"3d":10891,"healthy":10892,"contents":10893,"inner":10894,"ES":10895,"##raz":10896,"chemicals":10897,"online":10898,"transmit":10899,"##inking":10900,"##ee":10901,"molecule":10902,"constructed":10903,"modeling":10904,"alone":10905,"LS":10906,"losses":10907,"involve":10908,"remained":10909,"Compar":10910,"TH":10911,"##fort":10912,"pip":10913,"amplitude":10914,"European":10915,"##aces":10916,"##EV":10917,"neuropsych":10918,"125":10919,"##tance":10920,"##ged":10921,"##ressive":10922,"male":10923,"wavel":10924,"probability":10925,"limitations":10926,"##asting":10927,"immedi":10928,"Ba":10929,"dur":10930,"faster":10931,"##emic":10932,"scenarios":10933,"##ray":10934,"analysed":10935,"##TIR":10936,"accurate":10937,"##lies":10938,"##ethylene":10939,"solub":10940,"reveals":10941,"Four":10942,"cubic":10943,"pollution":10944,"competi":10945,"deep":10946,"##ery":10947,"law":10948,"clin":10949,"dioxide":10950,"cellulose":10951,"org":10952,"##GC":10953,"earth":10954,"##ady":10955,"LiPF6":10956,"Hyd":10957,"protection":10958,"changed":10959,"cond":10960,"fract":10961,"tion":10962,"fri":10963,"##ascular":10964,"stirring":10965,"education":10966,"manufacturing":10967,"moderate":10968,"##75":10969,"##ished":10970,"dual":10971,"graphitic":10972,"desired":10973,"copolym":10974,"Ref":10975,"clusters":10976,"extremely":10977,"regulation":10978,"140":10979,"Develop":10980,"concluded":10981,"##ancies":10982,"melting":10983,"synd":10984,"##oxid":10985,"benefit":10986,"innov":10987,"correlations":10988,"lign":10989,"ordered":10990,"##opath":10991,"LL":10992,"background":10993,"galvanostatic":10994,"##knowledge":10995,"decay":10996,"decl":10997,"embedded":10998,"pulse":10999,"##roll":11000,"sharp":11001,"106":11002,"crucial":11003,"numerical":11004,"ones":11005,"users":11006,"##ulsion":11007,"implemented":11008,"selectivity":11009,"photocatalytic":11010,"expand":11011,"reliable":11012,"vitro":11013,"##ocapac":11014,"oxidized":11015,"1C":11016,"sand":11017,")]":11018,"101":11019,"assisted":11020,"impacts":11021,"electrocatalytic":11022,"##BS":11023,"functioning":11024,"spe":11025,"Meanwhile":11026,"##ovsk":11027,"repl":11028,"planes":11029,"emotion":11030,"trig":11031,"inhibition":11032,"carrier":11033,"precipit":11034,"harves":11035,"overl":11036,"##istered":11037,"##idal":11038,"kept":11039,"Ni3":11040,"##tivation":11041,"Typ":11042,"microstructure":11043,"Dis":11044,"potentially":11045,"##caps":11046,"note":11047,"##),":11048,"##lamm":11049,"##erated":11050,"services":11051,"net":11052,"hydroxide":11053,"vibration":11054,"outcomes":11055,"##hal":11056,"comparing":11057,"AND":11058,"BC":11059,"##hood":11060,"hypothesis":11061,"generator":11062,"Note":11063,"##resh":11064,"LIB":11065,"##tingu":11066,"1s":11067,"PF":11068,"discharged":11069,"reasons":11070,"works":11071,"height":11072,"Und":11073,"school":11074,"##truct":11075,"##85":11076,"HR":11077,"FTIR":11078,"Ni2":11079,"mental":11080,"leg":11081,"variance":11082,"perf":11083,"slurry":11084,"isolated":11085,"ether":11086,"##ograph":11087,"MX":11088,"160":11089,"overcome":11090,"cust":11091,"##TFSI":11092,"capture":11093,"stream":11094,"RE":11095,"undergo":11096,"MOFs":11097,"orth":11098,"marked":11099,"promote":11100,"Non":11101,"##izations":11102,"household":11103,"SIBs":11104,"namely":11105,"##ustral":11106,"involving":11107,"rest":11108,"reproduc":11109,"cycled":11110,"aggl":11111,"adults":11112,"##urated":11113,"PI":11114,"abnormal":11115,"shut":11116,"put":11117,"##36":11118,"Ed":11119,"science":11120,"sized":11121,"130":11122,"##oichi":11123,"Ro":11124,"bios":11125,"attractive":11126,"implementation":11127,"spherical":11128,"sustainable":11129,"appeared":11130,"##H2":11131,"##cin":11132,"frequencies":11133,"dimensions":11134,"methodology":11135,"##ky":11136,"##DC":11137,"##yclic":11138,"mmol":11139,"##oll":11140,"Dec":11141,"CM":11142,"partially":11143,"phosphate":11144,"suppress":11145,"extracted":11146,"completed":11147,"##rees":11148,"gain":11149,"##ying":11150,"##ommod":11151,"NA":11152,"Batter":11153,"km":11154,"establish":11155,"crystallinity":11156,"distill":11157,"exfol":11158,"stimuli":11159,"sector":11160,"listed":11161,"##pro":11162,"word":11163,"##37":11164,"extra":11165,"Rel":11166,"delivery":11167,"##ulph":11168,"¬�":11169,"mal":11170,"Mon":11171,"4a":11172,"financ":11173,"--":11174,"describe":11175,"structured":11176,"##oking":11177,"pseudocapac":11178,"##orter":11179,"##licated":11180,"takes":11181,"analog":11182,"valence":11183,"dominant":11184,"arrays":11185,"##ping":11186,"##static":11187,"fold":11188,"gases":11189,"cortex":11190,"##alline":11191,"flame":11192,"Rct":11193,"##gery":11194,"##Supp":11195,"DFT":11196,"LFP":11197,"##azard":11198,"##valent":11199,"figure":11200,"##Es":11201,"measuring":11202,"##han":11203,"face":11204,"dimethyl":11205,"Several":11206,"Austral":11207,"availability":11208,"defect":11209,"involves":11210,"##Elect":11211,"wavelength":11212,"##reatment":11213,"differential":11214,"square":11215,"##enes":11216,"350":11217,"implant":11218,"Progr":11219,"fall":11220,"BET":11221,"##RF":11222,"synerg":11223,"tetr":11224,"covered":11225,"1986":11226,"apparent":11227,"##irable":11228,"##ectiveness":11229,"##oma":11230,"uniformly":11231,"1D":11232,"quick":11233,"Carbon":11234,"##38":11235,"mar":11236,"discover":11237,"polyp":11238,"SI":11239,"orientation":11240,"milling":11241,"Liu":11242,"##orr":11243,"##RNA":11244,"varied":11245,"accommod":11246,"compositions":11247,"relationships":11248,"##heric":11249,"EM":11250,"Even":11251,"##H4":11252,"viscosity":11253,"Partic":11254,"volumetric":11255,"goal":11256,"Pati":11257,"gradient":11258,"##This":11259,"carbons":11260,"significance":11261,"ra":11262,"skin":11263,"reversibility":11264,"Environment":11265,"smooth":11266,"electronics":11267,"neigh":11268,"##3N4":11269,"verbal":11270,"neural":11271,"ms":11272,"discre":11273,"controlling":11274,"fa":11275,"##ulus":11276,"##antum":11277,"contained":11278,"dark":11279,"Hospital":11280,"Therm":11281,"MWCNTs":11282,"##Fig":11283,"periods":11284,"candidate":11285,"numerous":11286,"skills":11287,"IS":11288,"##ensively":11289,"##39":11290,"##aid":11291,"compens":11292,"##Mn1":11293,"curr":11294,"##EA":11295,"optimum":11296,"iden":11297,"nanostructured":11298,"au":11299,"soluble":11300,"##ocal":11301,"capable":11302,"interpret":11303,"S4":11304,"PCM":11305,"simulated":11306,"fundamental":11307,"aggregation":11308,"AR":11309,"sleep":11310,"author":11311,"photovoltaic":11312,"HP":11313,"changing":11314,"differenti":11315,"##estic":11316,"Bo":11317,"thermodynamic":11318,"pell":11319,"EP":11320,"aud":11321,"date":11322,"ceramic":11323,"deion":11324,"itself":11325,"Int":11326,"screening":11327,"##ighted":11328,"##berg":11329,"positions":11330,"mapping":11331,"survi":11332,"HCl":11333,"##lication":11334,"-,":11335,"physi":11336,"calcination":11337,"vertical":11338,"NiCo2O4":11339,"silver":11340,"mixtures":11341,"##cepted":11342,"##uary":11343,"sulfide":11344,"##oline":11345,"##ateral":11346,"Medical":11347,"##HC":11348,"##bs":11349,"fine":11350,"enab":11351,"ID":11352,"scientific":11353,"deviation":11354,"##ociation":11355,"##ico":11356,"quantitative":11357,"regul":11358,"chec":11359,"acute":11360,"whose":11361,"dip":11362,"##Supplementary":11363,"##encing":11364,"gold":11365,"resource":11366,"##ada":11367,"##armac":11368,"##orn":11369,"comprehensive":11370,"inform":11371,"toler":11372,"definition":11373,"##cale":11374,"##inations":11375,"annual":11376,"programm":11377,"narrow":11378,"acids":11379,"Li3":11380,"##amide":11381,"encaps":11382,"##ossil":11383,"phon":11384,"##tenance":11385,"outstanding":11386,"Model":11387,"coatings":11388,"favorable":11389,"##ams":11390,"norm":11391,"investigations":11392,"fresh":11393,"consisted":11394,"##NPs":11395,"operated":11396,"plays":11397,"liver":11398,"##pon":11399,"Of":11400,"flat":11401,"sin":11402,"grav":11403,"##gel":11404,"inset":11405,"horiz":11406,"Ir":11407,"Under":11408,"##anged":11409,"recognition":11410,"mom":11411,"vibr":11412,"##we":11413,"Vari":11414,"middle":11415,"furn":11416,"binary":11417,"##yond":11418,"##ipped":11419,"State":11420,"##rowave":11421,"friend":11422,"coin":11423,"beyond":11424,"extensive":11425,"inver":11426,"prices":11427,"deploy":11428,"##5O12":11429,"##alk":11430,"configur":11431,"##ivo":11432,"effectiveness":11433,"Control":11434,"environ":11435,"sched":11436,"FE":11437,"AA":11438,"Schem":11439,"compati":11440,"semi":11441,"majority":11442,"leaching":11443,"##LE":11444,"lip":11445,"outer":11446,"condens":11447,"ign":11448,"mostly":11449,"formula":11450,"solubility":11451,"##raft":11452,"-(":11453,"pollut":11454,"dye":11455,"##F3":11456,"##max":11457,"regular":11458,"Exp":11459,"Despite":11460,"injury":11461,"create":11462,"operational":11463,"##rence":11464,"constraints":11465,"identical":11466,"##uctu":11467,"##licit":11468,"cyl":11469,"semicirc":11470,"questions":11471,"May":11472,"##unctional":11473,"reactivity":11474,"proved":11475,"EDS":11476,"Analysis":11477,"H2O2":11478,"HT":11479,"TF":11480,"tools":11481,"explain":11482,"urban":11483,"expect":11484,"Medic":11485,"##odies":11486,"modelling":11487,"Group":11488,"Solar":11489,"regen":11490,"hep":11491,"currents":11492,"explore":11493,"##ounted":11494,"PVA":11495,"ultra":11496,"situation":11497,"mild":11498,"##paration":11499,"overpotential":11500,"##rown":11501,"categories":11502,"HF":11503,"##ste":11504,"attracted":11505,"stain":11506,"##hysi":11507,"purity":11508,"aver":11509,"primarily":11510,"stoichi":11511,"radius":11512,"##NO3":11513,"##ao":11514,"Consequently":11515,"Es":11516,"mediated":11517,"surfact":11518,"1985":11519,"steam":11520,"NW":11521,"##aterial":11522,"underlying":11523,"sections":11524,"Ox":11525,"emphas":11526,"frag":11527,"##tices":11528,"FT":11529,"HRT":11530,"principle":11531,"##epti":11532,"Jun":11533,"TGA":11534,"##assium":11535,"##55":11536,"adhe":11537,"oven":11538,"##obil":11539,"##oming":11540,"fluctu":11541,"neurons":11542,"##86":11543,"Micro":11544,"fossil":11545,"##itively":11546,"surround":11547,"##ippoc":11548,"incorporated":11549,"pairs":11550,"LCO":11551,"Laboratory":11552,"pic":11553,"inher":11554,"##elled":11555,"enable":11556,"volati":11557,"##idaz":11558,"C3N4":11559,"vivo":11560,"Em":11561,"##49":11562,"NO3":11563,"cold":11564,"##ued":11565,"##pective":11566,"107":11567,"steady":11568,"##otal":11569,"shaped":11570,"created":11571,"unc":11572,"##ylate":11573,"##ask":11574,"##nel":11575,"largely":11576,"109":11577,"syndrome":11578,"computational":11579,"adequ":11580,"converted":11581,"...":11582,"applying":11583,"wear":11584,"reag":11585,"##ippocamp":11586,"hazard":11587,"treatments":11588,"polysulfide":11589,"synergistic":11590,"heart":11591,"##31":11592,"fitting":11593,"##ussion":11594,"defici":11595,"drugs":11596,"locations":11597,"NH4":11598,"##uck":11599,"##Ns":11600,"enter":11601,"estimates":11602,"largest":11603,"perovsk":11604,"semiconductor":11605,"portable":11606,"mer":11607,"hospital":11608,"female":11609,"argon":11610,"maintenance":11611,"remarkable":11612,"Ald":11613,"mort":11614,"##NP":11615,"elastic":11616,"oxidative":11617,"##mium":11618,"fish":11619,"##Ti5O12":11620,"##isition":11621,"Applied":11622,"mail":11623,"PED":11624,"##sian":11625,"subsequently":11626,"##osing":11627,"##oir":11628,"culture":11629,"separators":11630,"NCM":11631,"##SO4":11632,"##letion":11633,"EG":11634,"##rea":11635,"liquids":11636,"5a":11637,"450":11638,"producing":11639,"financial":11640,"NaCl":11641,"deionized":11642,"##Br":11643,"substantial":11644,"distingu":11645,"scattering":11646,"Nan":11647,"aging":11648,"##HD":11649,"interfaces":11650,"specifically":11651,"administration":11652,"##py":11653,"##tension":11654,"incorporation":11655,"United":11656,"##RP":11657,"microgr":11658,"configurations":11659,"intellig":11660,"CNF":11661,"representative":11662,"##ush":11663,"planning":11664,"rein":11665,"##structures":11666,"Eng":11667,"C2":11668,"relaxation":11669,"Grap":11670,"Val":11671,"crack":11672,"men":11673,"determining":11674,"datab":11675,"hexagonal":11676,"sets":11677,"symmetric":11678,"older":11679,"worth":11680,"rating":11681,"built":11682,"bind":11683,"PEG":11684,"scales":11685,"ultrason":11686,"+)":11687,"##idin":11688,"Det":11689,"season":11690,"muscle":11691,"##oids":11692,"..":11693,"hydroxyl":11694,"##rile":11695,"infrared":11696,"hydrocarbon":11697,"tel":11698,"bil":11699,"2b":11700,"##ious":11701,"##entric":11702,"refr":11703,"bip":11704,"uns":11705,"2020":11706,"operations":11707,"bias":11708,"Interesting":11709,"##olute":11710,"spectrometer":11711,"Pa":11712,"Character":11713,"van":11714,"##ognitive":11715,"ethyl":11716,"##ifications":11717,"ranges":11718,"empir":11719,"##3C2":11720,"##IA":11721,"reviewed":11722,"retained":11723,"turbine":11724,"Differ":11725,"##ww":11726,"photoelectron":11727,"##iff":11728,"##ev":11729,"##46":11730,"##ging":11731,"acidic":11732,"standards":11733,"Not":11734,"delith":11735,"Found":11736,"controller":11737,"fluorescence":11738,"HRTEM":11739,"##ING":11740,"##ii":11741,"Naf":11742,"spent":11743,"mouse":11744,"supporting":11745,"methane":11746,"EL":11747,"seem":11748,"##Rs":11749,"TB":11750,"became":11751,"members":11752,"##F4":11753,"loaded":11754,"aromatic":11755,"##UL":11756,"##entral":11757,"##IP":11758,"serve":11759,"Inf":11760,"Abstracts":11761,"neuropsychological":11762,"##ernary":11763,"consideration":11764,"conv":11765,"graf":11766,"108":11767,"voltages":11768,"##47":11769,"brid":11770,"##acting":11771,"neglig":11772,"perspective":11773,"Interestingly":11774,"117":11775,"##ively":11776,"Many":11777,"##EP":11778,"##ION":11779,"Ser":11780,"##atinum":11781,"transpar":11782,"Consider":11783,"Lix":11784,"##sw":11785,"environments":11786,"##OP":11787,"115":11788,"##ellow":11789,"yields":11790,"diffus":11791,"##To":11792,"##esium":11793,"contributions":11794,"kV":11795,"Na2":11796,"TP":11797,"Aldrich":11798,"manner":11799,"carbonization":11800,"Nafion":11801,"DA":11802,"calculate":11803,"Ta":11804,"classified":11805,"prosp":11806,"##rec":11807,"NG":11808,"demonstrating":11809,"##mann":11810,"evident":11811,"##vier":11812,"boil":11813,"South":11814,"som":11815,"stainless":11816,"referred":11817,"efficiencies":11818,"GA":11819,"variability":11820,"offers":11821,"list":11822,"##ips":11823,"once":11824,"explo":11825,"meaning":11826,"equipped":11827,"##ectors":11828,"##ested":11829,"improvements":11830,"3b":11831,"Mat":11832,"spray":11833,"##Fe2O4":11834,"anch":11835,"PH":11836,"hole":11837,"Scale":11838,"##idine":11839,"panel":11840,"##ifying":11841,"resonance":11842,"PEDOT":11843,"Bar":11844,"##rolog":11845,"acquisition":11846,"Pe":11847,"Ti3C2":11848,"intern":11849,"##oxic":11850,"stimulus":11851,"functionalized":11852,"electrostatic":11853,"induce":11854,"##sia":11855,"Adv":11856,"accumulation":11857,"ZIF":11858,"microwave":11859,"beginning":11860,"##ney":11861,"AM":11862,"##aight":11863,"MB":11864,"electrodep":11865,"extract":11866,"examples":11867,"description":11868,"recon":11869,"##We":11870,"resis":11871,"improves":11872,"##intering":11873,"nucleation":11874,"##ches":11875,"##pping":11876,"sent":11877,"quantum":11878,"pi":11879,"SL":11880,"##inting":11881,"diagnostic":11882,"inflamm":11883,"##An":11884,"enzyme":11885,"specim":11886,"finally":11887,"##sen":11888,"predom":11889,"reasonable":11890,"##cepts":11891,"pay":11892,"principles":11893,"classification":11894,"amino":11895,"adjusted":11896,"HER":11897,"American":11898,"forces":11899,"lateral":11900,"share":11901,"horizon":11902,"effort":11903,"Lithium":11904,"distributions":11905,"//":11906,"geometry":11907,"Three":11908,"PR":11909,"##enn":11910,"carriers":11911,"attached":11912,"##apers":11913,"##NG":11914,"limiting":11915,"220":11916,"impaired":11917,"fitted":11918,"School":11919,"aspect":11920,"adult":11921,"Joh":11922,"statistically":11923,"administered":11924,"rare":11925,"influenced":11926,"person":11927,"Li4Ti5O12":11928,"death":11929,"discrim":11930,"conductivities":11931,"interview":11932,"##US":11933,"www":11934,"##ervoir":11935,"hydroly":11936,"penetration":11937,"capacitor":11938,"135":11939,"##otropic":11940,"despite":11941,"##000":11942,"centrif":11943,"disapp":11944,"Jan":11945,"straight":11946,"mitig":11947,"SB":11948,"possibly":11949,"vacancies":11950,"minor":11951,"rig":11952,"reaches":11953,"Bas":11954,"195":11955,"electrochemically":11956,"enhancing":11957,"ternary":11958,"##ject":11959,"##Sb":11960,"object":11961,"##ergic":11962,"Systems":11963,"##ads":11964,"H2SO4":11965,"initially":11966,"##itten":11967,"incub":11968,"nanotube":11969,"furnace":11970,"##igma":11971,"former":11972,"##antic":11973,"##tificial":11974,"##87":11975,"Their":11976,"interconnected":11977,"algorithms":11978,"##mark":11979,"polyc":11980,"Super":11981,"allowing":11982,"Current":11983,"hold":11984,"released":11985,"##42":11986,"Indeed":11987,"fluoride":11988,"bis":11989,"ways":11990,"purchased":11991,"##NTs":11992,"Park":11993,"frequently":11994,"aerog":11995,"true":11996,"PEM":11997,"##roscopic":11998,"titanium":11999,"sulph":12000,"serious":12001,"+.":12002,"##ologic":12003,"absolute":12004,"2C":12005,"immobil":12006,"outside":12007,"##ensor":12008,"big":12009,"##asi":12010,"brief":12011,"kWh":12012,"Development":12013,"polymeric":12014,"technological":12015,"##ocl":12016,"evaporation":12017,"##eting":12018,"2θ":12019,"serum":12020,"##VP":12021,"LiNi0":12022,"concentrated":12023,"##lands":12024,"heterogeneous":12025,"##iez":12026,"Ear":12027,"hippocamp":12028,"label":12029,"##tent":12030,"bending":12031,"examination":12032,"##astruct":12033,"##ESS":12034,"##erved":12035,"CNFs":12036,"explan":12037,"LM":12038,"Num":12039,"you":12040,"negligible":12041,"NaOH":12042,"asymmetric":12043,"kinds":12044,"##get":12045,"##gory":12046,"Struct":12047,".;":12048,"Dep":12049,"Sr":12050,"wireless":12051,"GP":12052,"Information":12053,"potassium":12054,"HA":12055,"##scill":12056,"SPE":12057,"Hum":12058,"complexity":12059,"##ominal":12060,"##ocation":12061,"stirred":12062,"reservoir":12063,"##DI":12064,"forward":12065,"##iop":12066,"##entia":12067,"stronger":12068,"effic":12069,"Samp":12070,"MoO3":12071,"continuously":12072,"dysfunction":12073,"##fin":12074,"##osite":12075,"nanoparticle":12076,"investment":12077,"rod":12078,"occurring":12079,"##ellular":12080,"JCP":12081,"Foundation":12082,"depicted":12083,"##TM":12084,"item":12085,"exerc":12086,"polyan":12087,"deformation":12088,"orbit":12089,"closed":12090,"enables":12091,"glove":12092,"plates":12093,"ben":12094,"capacitors":12095,"climate":12096,"VI":12097,"capabilities":12098,"dram":12099,"Far":12100,"##kin":12101,"ce":12102,"recording":12103,"##atase":12104,"##anger":12105,"extensively":12106,"Kα":12107,"India":12108,"decline":12109,"computed":12110,"##like":12111,"conflic":12112,"1984":12113,"mathem":12114,"##oor":12115,"##agen":12116,"##adily":12117,"reverse":12118,"affects":12119,"##pm":12120,"##uly":12121,"##admium":12122,"sediment":12123,"standing":12124,"Li2O2":12125,"simply":12126,"LA":12127,"##95":12128,"uncertainty":12129,"TG":12130,"##48":12131,"SH":12132,"sintering":12133,"##67":12134,"EVs":12135,"promo":12136,"contributed":12137,"##SP":12138,"Ny":12139,"minimize":12140,"Nat":12141,"DMC":12142,"vector":12143,"##--":12144,"concerns":12145,"##43":12146,"vide":12147,"safe":12148,"Medicine":12149,"nanostructure":12150,"severity":12151,"dev":12152,"Study":12153,"excitation":12154,"disappear":12155,"conjug":12156,"eight":12157,"usage":12158,"Sciences":12159,"electr":12160,"forec":12161,"mineral":12162,"tor":12163,"exact":12164,"##bial":12165,"moment":12166,"ze":12167,"solve":12168,"accord":12169,"ampl":12170,"manif":12171,"##mitted":12172,"morphological":12173,"##3O":12174,"formal":12175,"##rie":12176,"saturated":12177,"##ardi":12178,"##osal":12179,"text":12180,"CVD":12181,"cellular":12182,"surgery":12183,"##yan":12184,"gender":12185,"Comb":12186,"doi":12187,"##olic":12188,"##henyl":12189,"requirement":12190,"##ocytes":12191,"document":12192,"##41":12193,")(":12194,"Battery":12195,"VO2":12196,"JCPDS":12197,"Vis":12198,"ing":12199,"fading":12200,"##udes":12201,"leak":12202,"4b":12203,"##apped":12204,"##fully":12205,"arrange":12206,"TO":12207,"##itrile":12208,"analyze":12209,"1b":12210,"rev":12211,"Red":12212,"dehyd":12213,"##inement":12214,"der":12215,"reinfor":12216,"�‘":12217,"Acknowledge":12218,"Patients":12219,"young":12220,"medi":12221,"utility":12222,"phenomena":12223,"##ict":12224,"closely":12225,"Synthesis":12226,"##factory":12227,"##quist":12228,"Pub":12229,"##IR":12230,"##eptors":12231,"PT":12232,"explor":12233,"Effect":12234,"1980":12235,"Thermal":12236,"##itis":12237,"exists":12238,"cam":12239,"acquired":12240,"validity":12241,"##aker":12242,"##aim":12243,"##acent":12244,"##ighting":12245,"emit":12246,"feasible":12247,"##att":12248,"##linear":12249,"##aring":12250,"synthesize":12251,"Australia":12252,"Electro":12253,"170":12254,"platinum":12255,"wood":12256,"AT":12257,"Ah":12258,"modules":12259,"quantity":12260,"##V2":12261,"Child":12262,"centrifug":12263,"fire":12264,"tex":12265,"GF":12266,"machine":12267,"##isions":12268,"install":12269,"TA":12270,"disturb":12271,"##stream":12272,"##elet":12273,"##izer":12274,"blocks":12275,"late":12276,"##vals":12277,"carcin":12278,"##iatry":12279,"Meas":12280,"oscill":12281,"##lude":12282,"##oster":12283,"connection":12284,"possesses":12285,"supports":12286,"Li1":12287,"derivatives":12288,"##omy":12289,"Ver":12290,"##aceous":12291,"##umines":12292,"frontal":12293,"Kim":12294,"antic":12295,"demands":12296,"nanocrystals":12297,"ash":12298,"MnO":12299,"candidates":12300,"##aine":12301,"Sigma":12302,"targets":12303,"lignin":12304,"manufactur":12305,"loads":12306,"##ped":12307,"indirect":12308,"agglom":12309,"##yg":12310,"##erge":12311,"cataly":12312,"construct":12313,"Discussion":12314,"ligand":12315,"1983":12316,"nanosp":12317,"respective":12318,"infection":12319,"trace":12320,"national":12321,"##urally":12322,"RO":12323,"stop":12324,"##elt":12325,"##uge":12326,"##eller":12327,"glycol":12328,"oriented":12329,"PG":12330,"France":12331,"ILs":12332,"flo":12333,"thor":12334,"##omal":12335,"##rav":12336,"pseudo":12337,"1H":12338,"]:":12339,"experimentally":12340,"tub":12341,"minutes":12342,"subjected":12343,"##99":12344,"TE":12345,"##ogenous":12346,"102":12347,"##riting":12348,"exception":12349,"##ided":12350,"table":12351,"confirms":12352,"##illary":12353,"Chemistry":12354,"desirable":12355,"electrocatalysts":12356,"semicircle":12357,"females":12358,"moist":12359,"suffer":12360,"living":12361,"perovskite":12362,"##ford":12363,"drive":12364,"Bu":12365,"security":12366,"##HO":12367,"consequence":12368,"##erally":12369,"simpl":12370,"matched":12371,"S5":12372,"GS":12373,"Co2":12374,"splitting":12375,"kHz":12376,"insp":12377,"passi":12378,"127":12379,"capital":12380,"##oving":12381,"er":12382,"Clinical":12383,"males":12384,"terminal":12385,"##ATION":12386,"spectral":12387,"##cl":12388,"transient":12389,"ligands":12390,"##ricult":12391,"alkali":12392,"digital":12393,"##ilep":12394,"##urities":12395,"##LA":12396,"LiF":12397,"Cs":12398,"comm":12399,"##chlor":12400,"induction":12401,"##ignific":12402,"sorption":12403,"nitrate":12404,"##uan":12405,"##Te":12406,"##elines":12407,"##oto":12408,"Acknowledgements":12409,"lesions":12410,"##ENT":12411,"efficacy":12412,"empirical":12413,"government":12414,"RA":12415,"ammonia":12416,"None":12417,"instit":12418,"Spect":12419,"magnet":12420,"adoles":12421,"P2":12422,"exper":12423,"##ato":12424,"##ograms":12425,"##essions":12426,"powered":12427,"##Cl3":12428,"modulus":12429,"attack":12430,"Ma":12431,"permeability":12432,"RC":12433,"##umb":12434,"integrity":12435,"carry":12436,"##load":12437,"##yster":12438,"##ru":12439,"recovered":12440,"implies":12441,"##eta":12442,"abilities":12443,"##utter":12444,"DS":12445,"Nyquist":12446,"electrospinning":12447,"##ds":12448,"addressed":12449,"##bral":12450,"SU":12451,"##cript":12452,"observe":12453,"recomb":12454,"valu":12455,"concepts":12456,"alloying":12457,"vess":12458,"mit":12459,"installed":12460,"##ara":12461,"distilled":12462,"wastewater":12463,"##ulties":12464,"belong":12465,"eq":12466,"LiTFSI":12467,"intervals":12468,"##ij":12469,"expensive":12470,"atten":12471,"##inating":12472,"directions":12473,"comparisons":12474,"annealed":12475,"145":12476,"parent":12477,"attain":12478,"considerably":12479,"ER":12480,"business":12481,"##arn":12482,"pret":12483,"##LS":12484,"operate":12485,"TR":12486,"plus":12487,"Ul":12488,"##66":12489,"executive":12490,"LiPS":12491,"dendrite":12492,"R2":12493,"denoted":12494,"##naire":12495,"##ony":12496,"##lege":12497,"decades":12498,"Af":12499,"John":12500,"##atical":12501,"static":12502,"infrastruct":12503,"passive":12504,"seed":12505,"substances":12506,"sweep":12507,"manip":12508,"friendly":12509,"ANO":12510,"##ercury":12511,"thought":12512,"pat":12513,"##ectives":12514,"IG":12515,"healing":12516,"propag":12517,"achieving":12518,"designs":12519,"monolayer":12520,"##ories":12521,"mil":12522,"##inese":12523,"##imer":12524,"accompan":12525,"Tel":12526,"Organ":12527,"reform":12528,"combining":12529,"##ulin":12530,"##wards":12531,"marg":12532,"million":12533,"piez":12534,"employing":12535,"##MT":12536,"protective":12537,"option":12538,"bath":12539,"delithiation":12540,"Yang":12541,"written":12542,"##onitrile":12543,"##oti":12544,"Hy":12545,"##hyde":12546,"prolong":12547,"ten":12548,"radio":12549,"burn":12550,"contamination":12551,"chemically":12552,"pet":12553,"feasibility":12554,"##cepti":12555,"##ymph":12556,"objects":12557,"HS":12558,"GH":12559,")+":12560,"##ette":12561,"difficulty":12562,"(>":12563,"Fe3":12564,"DSC":12565,"##dehyde":12566,"durability":12567,"##ani":12568,"##oscop":12569,"emotional":12570,"##cell":12571,"137":12572,"##etary":12573,"##ived":12574,"##iang":12575,"(−":12576,"EF":12577,"supplied":12578,"Prof":12579,"category":12580,"##Na":12581,"tax":12582,"charges":12583,"Process":12584,"MRI":12585,"Mg2":12586,"##UC":12587,"Instr":12588,"##went":12589,"disrup":12590,"programs":12591,"front":12592,"##uclear":12593,"##uth":12594,"populations":12595,"Chinese":12596,"constitu":12597,"impurities":12598,"##otoxicity":12599,"synch":12600,"Act":12601,"inters":12602,"magnesium":12603,"##otherap":12604,"country":12605,"mW":12606,"efficiently":12607,"fabricate":12608,"FA":12609,"LiCl":12610,"Wu":12611,"sun":12612,"influences":12613,"##uits":12614,"feedback":12615,"shifts":12616,"seven":12617,"##iring":12618,"##known":12619,"asked":12620,"compression":12621,"voltamm":12622,"][":12623,"Lu":12624,"##echanical":12625,"Zn2":12626,"States":12627,"##vari":12628,"biof":12629,"128":12630,"##advant":12631,"char":12632,"call":12633,"strains":12634,"Scheme":12635,"##pher":12636,"detector":12637,"cortical":12638,"##acc":12639,"MT":12640,"switching":12641,"dementia":12642,"IQ":12643,"spread":12644,"aged":12645,"session":12646,"proceed":12647,"##ackground":12648,"quickly":12649,"124":12650,"epit":12651,"buildings":12652,"##rot":12653,"randomly":12654,"002":12655,"illustrates":12656,"##esthe":12657,"##ife":12658,"acetate":12659,"York":12660,"etching":12661,"##anning":12662,"MPa":12663,"Considering":12664,"chromat":12665,"ammonium":12666,"##yes":12667,"Sal":12668,"Mem":12669,"occurrence":12670,"rock":12671,"##FS":12672,"##elg":12673,"causing":12674,"GD":12675,"HIV":12676,"adapt":12677,"Multi":12678,"predominant":12679,"diseases":12680,"learn":12681,"##mentation":12682,"cm3":12683,"Only":12684,"database":12685,"116":12686,"replacement":12687,"options":12688,"119":12689,"Kore":12690,"CL":12691,"##war":12692,"NH3":12693,"##57":12694,"basal":12695,"118":12696,"calcium":12697,"receptors":12698,"fat":12699,"bacteria":12700,"1016":12701,"shorter":12702,"HE":12703,"substituted":12704,"Soci":12705,"129":12706,"##uling":12707,"##times":12708,"##IM":12709,"minimal":12710,"moisture":12711,"board":12712,"##f2":12713,"tap":12714,"##ogeneity":12715,"hop":12716,"adjacent":12717,"##uous":12718,"##lets":12719,"##................................":12720,"LN":12721,"nut":12722,"plating":12723,"##HP":12724,"Fl":12725,"dense":12726,")–":12727,"adverse":12728,"papers":12729,"##roke":12730,"viol":12731,"Follow":12732,"##vinyl":12733,"carbox":12734,"validated":12735,"boundaries":12736,"artificial":12737,"immediately":12738,"190":12739,"code":12740,"virt":12741,"pollutants":12742,"sound":12743,"coverage":12744,"Coulombic":12745,"catalysis":12746,"sulfate":12747,"interests":12748,"mesh":12749,"edges":12750,"difficulties":12751,"BD":12752,"##ceived":12753,"selen":12754,"##operative":12755,"ICP":12756,"2H":12757,"2c":12758,"nanowire":12759,"happ":12760,"PCR":12761,"Subsequently":12762,"##antly":12763,"Given":12764,"policies":12765,"##eck":12766,"6a":12767,"##alc":12768,"++":12769,"##ymer":12770,"build":12771,"transitions":12772,"μM":12773,"##yrene":12774,"crystallization":12775,"trends":12776,"positively":12777,"delivers":12778,"believed":12779,"track":12780,"alkyl":12781,"Lee":12782,"sulfides":12783,"spont":12784,"emerging":12785,"Del":12786,"##estern":12787,"answ":12788,"cooled":12789,"SM":12790,"started":12791,"characterize":12792,"transformed":12793,"Fe2":12794,"Equ":12795,"##version":12796,"tip":12797,"##S4":12798,"nitr":12799,"proportional":12800,"##othermic":12801,"transparent":12802,"March":12803,"constants":12804,"projects":12805,"Overall":12806,"distances":12807,"Generally":12808,"accordance":12809,"monitored":12810,"shifted":12811,"jud":12812,"cadmium":12813,"She":12814,"##Zn":12815,"##...":12816,"humans":12817,"##ensile":12818,"##ysteresis":12819,"Fre":12820,"mess":12821,"##night":12822,"##ipants":12823,"inclusion":12824,"EDX":12825,"epis":12826,"##Re":12827,"economy":12828,"rpm":12829,"frame":12830,"##illi":12831,"tank":12832,"adequate":12833,"accompanied":12834,"NE":12835,"obviously":12836,"##S8":12837,"PVP":12838,"iii":12839,"SnS2":12840,"##valence":12841,"unknown":12842,"##agon":12843,"Design":12844,"fed":12845,"unst":12846,"trade":12847,"hydr":12848,"vinyl":12849,"##house":12850,"store":12851,"compan":12852,"Bio":12853,"interpretation":12854,"diffract":12855,"##ils":12856,"##used":12857,"suscepti":12858,"##mitte":12859,"CoO":12860,"Proced":12861,"##uss":12862,"purposes":12863,"moving":12864,"##angular":12865,"volumes":12866,"scal":12867,"Er":12868,"readily":12869,"##MnO3":12870,"Gl":12871,"representation":12872,"generating":12873,"€�":12874,"##itud":12875,"setup":12876,"monomer":12877,"deterior":12878,"collectors":12879,"assays":12880,"regarded":12881,"why":12882,"##__":12883,"hous":12884,"validation":12885,"Comparison":12886,"##Mg":12887,"##uzz":12888,"substance":12889,"##amb":12890,"transl":12891,"Electric":12892,"barriers":12893,"affinity":12894,"produces":12895,"1st":12896,"une":12897,"teac":12898,"##inson":12899,"hol":12900,"##rox":12901,"##pped":12902,"##ster":12903,"atmospheric":12904,"lob":12905,"EU":12906,"##PO":12907,"Low":12908,"##89":12909,"##umina":12910,"octahedral":12911,"acts":12912,"road":12913,"##ott":12914,"5b":12915,"evid":12916,"SR":12917,"##aters":12918,"nanosheet":12919,"##ono":12920,"joint":12921,"Statis":12922,"portion":12923,"separately":12924,"anis":12925,"##yb":12926,"##oup":12927,"substantially":12928,"##eutic":12929,"insight":12930,"isotherms":12931,"Assess":12932,"##auer":12933,"autonom":12934,"##62":12935,"Mn3O4":12936,"What":12937,"##Rec":12938,"organization":12939,"instruments":12940,"WO3":12941,"NT":12942,"##ervation":12943,"utilizing":12944,"clar":12945,"valuable":12946,"##iaz":12947,"HO":12948,"##ham":12949,"112":12950,"anatase":12951,"simultaneous":12952,"humidity":12953,"rect":12954,"developmental":12955,"MXene":12956,"neurolog":12957,"abundance":12958,"hysteresis":12959,"##iol":12960,"implications":12961,"##ielding":12962,"gave":12963,"cyclability":12964,"pressures":12965,"satell":12966,"psychiatric":12967,"recall":12968,"##Co2O4":12969,"##F2":12970,"bone":12971,"##day":12972,"maintaining":12973,"mission":12974,"purification":12975,"areal":12976,"cit":12977,"##phase":12978,"Specifically":12979,"predictive":12980,"sense":12981,"clo":12982,"root":12983,"VO":12984,"Different":12985,"C1":12986,"coh":12987,"favour":12988,"assumption":12989,"##ources":12990,"converter":12991,"##53":12992,"median":12993,"upd":12994,"##hi":12995,"240":12996,"carbonaceous":12997,"hydrophilic":12998,"1982":12999,"That":13000,"##eli":13001,"##ifier":13002,"systematic":13003,"couple":13004,"##ione":13005,"hab":13006,"famil":13007,"##tinal":13008,"recommended":13009,"##ademic":13010,"##63":13011,"##ura":13012,"arter":13013,"pepti":13014,"Program":13015,"tissues":13016,"RS":13017,"diverse":13018,"fracture":13019,"Li2O":13020,"##luid":13021,"preferred":13022,"away":13023,"##anada":13024,"rule":13025,"complicated":13026,"experienced":13027,"##rystalline":13028,"infrastructure":13029,"3c":13030,"rank":13031,"brom":13032,"##inates":13033,"##lus":13034,"walls":13035,"tag":13036,"doses":13037,"disordered":13038,"Sept":13039,"decor":13040,"Press":13041,"IP":13042,"qualit":13043,"institution":13044,"750":13045,"piec":13046,"##Cu":13047,"displacement":13048,"dispersive":13049,"horizontal":13050,"##ames":13051,"exercise":13052,"realized":13053,"flows":13054,"rotation":13055,"compact":13056,"005":13057,"tendency":13058,"sandw":13059,"replaced":13060,"##oked":13061,"##aves":13062,"##ogenesis":13063,"appearance":13064,"normalized":13065,"Ep":13066,"restricted":13067,"actu":13068,"Auth":13069,"disadvant":13070,"##down":13071,"representing":13072,"July":13073,"intensive":13074,"##pha":13075,"cardiac":13076,"concer":13077,"prelim":13078,"##olve":13079,"affecting":13080,"##Nb":13081,"##TION":13082,"negatively":13083,"idea":13084,"Cop":13085,"resultant":13086,"performing":13087,"##ucle":13088,"abuse":13089,"centered":13090,"adsorbent":13091,"##MB":13092,"155":13093,"spac":13094,"##unced":13095,"##fs":13096,"intelligence":13097,"surfactant":13098,"(<":13099,"BN":13100,"verified":13101,"##ini":13102,"remote":13103,"exfoliation":13104,"##61":13105,"express":13106,"Aug":13107,"Herein":13108,"priv":13109,"physiological":13110,"##timate":13111,"##itudinal":13112,"round":13113,"Psychiatry":13114,"ADHD":13115,"139":13116,"molten":13117,"Environmental":13118,"adhesion":13119,"Pres":13120,"##terior":13121,"hybrids":13122,"doub":13123,"magne":13124,"mesopores":13125,"550":13126,"stabilized":13127,"describes":13128,"dro":13129,"affor":13130,"varies":13131,"mercury":13132,"schematic":13133,"Studies":13134,"opposite":13135,"grains":13136,"Sun":13137,"CH4":13138,"opportunities":13139,"criterion":13140,"plotted":13141,"ANOVA":13142,"RNA":13143,"inert":13144,"113":13145,"tracking":13146,"interference":13147,"Econom":13148,"Time":13149,"##ulator":13150,"GN":13151,"designing":13152,"frameworks":13153,"electrom":13154,"lymph":13155,"ranged":13156,"tubes":13157,"##ritic":13158,"never":13159,"alle":13160,"nanoscale":13161,"calibration":13162,"Cu2O":13163,"consumer":13164,"inserted":13165,"companies":13166,"CH3":13167,"competitive":13168,"perfect":13169,"##ume":13170,"tensile":13171,"stations":13172,"μL":13173,"pulver":13174,"##eding":13175,"robot":13176,"beh":13177,"claim":13178,"AFM":13179,"##ignment":13180,"parad":13181,"##rog":13182,"glut":13183,"##88":13184,"nanospheres":13185,"holes":13186,"LED":13187,"AG":13188,"enzymes":13189,"Canada":13190,"zeol":13191,"traff":13192,"conven":13193,"RES":13194,"##nan":13195,"See":13196,"SCs":13197,"Fourier":13198,"hydrolysis":13199,"gran":13200,"challenging":13201,"commercially":13202,"##idene":13203,"##HA":13204,"underst":13205,"##umm":13206,"##tial":13207,"consumed":13208,"##mittee":13209,"S8":13210,"##mented":13211,"##oprop":13212,"′-":13213,"limitation":13214,"interpre":13215,"symmetry":13216,"polyaniline":13217,"##ait":13218,"##ellar":13219,"respir":13220,"Cu2":13221,"promin":13222,"##artz":13223,"planar":13224,"##tization":13225,"##atalysis":13226,"##formance":13227,"excluded":13228,"Rh":13229,"##rof":13230,"expon":13231,"enhances":13232,"deficit":13233,"##isk":13234,"aˆ":13235,"*,":13236,"##lon":13237,"quasi":13238,"Na3":13239,"mortality":13240,"##BC":13241,"trigger":13242,"##ella":13243,"else":13244,"S6":13245,"map":13246,"dendrites":13247,"domestic":13248,"drawn":13249,"##umptions":13250,"MHz":13251,"hinder":13252,"EEG":13253,"##inger":13254,"cognition":13255,"https":13256,"environmentally":13257,"5000":13258,"drawback":13259,"Natural":13260,"210":13261,"LI":13262,"tumor":13263,"Afric":13264,"DI":13265,"boron":13266,"encour":13267,"olig":13268,"##anks":13269,"indicators":13270,"Solid":13271,"popular":13272,"deposits":13273,"isotherm":13274,"replace":13275,"Pet":13276,"September":13277,"##YP":13278,"art":13279,"aims":13280,"metric":13281,"stacking":13282,"##97":13283,"acceptable":13284,"##ele":13285,"circum":13286,"##osa":13287,"video":13288,"metabolism":13289,"agglomeration":13290,"Fund":13291,"##emia":13292,"calcined":13293,"##lant":13294,"regional":13295,"##NO":13296,"survival":13297,"define":13298,"##vice":13299,"Behavi":13300,"shapes":13301,"Water":13302,"communic":13303,"##hat":13304,"##msel":13305,"HD":13306,"bioc":13307,"neighbor":13308,"mathematical":13309,"Review":13310,"5C":13311,"accommodate":13312,"##**":13313,"peripher":13314,"come":13315,"inlet":13316,"residential":13317,"prev":13318,"huge":13319,"##FCs":13320,"routes":13321,"Preparation":13322,"introducing":13323,"GCD":13324,"Italy":13325,"Scientific":13326,"THE":13327,"PET":13328,"##PP":13329,"”,":13330,"RuO2":13331,"diffuse":13332,"June":13333,"fractions":13334,"shuttle":13335,"held":13336,"##trans":13337,"recognized":13338,"diab":13339,"NR":13340,"contributes":13341,"Temp":13342,"##III":13343,"ultrasonic":13344,"Characterization":13345,"sequences":13346,"##gress":13347,"Altern":13348,"##arant":13349,"SF":13350,"phosphorus":13351,"semantic":13352,"2d":13353,"##ograv":13354,"##idation":13355,".),":13356,"North":13357,"##Lithium":13358,"covalent":13359,"##otypes":13360,"correction":13361,"solvothermal":13362,"agricult":13363,"letter":13364,"enl":13365,"stoichiometric":13366,"LiNi":13367,"##reme":13368,"Management":13369,"PMMA":13370,"photocatalyst":13371,"MH":13372,"slowly":13373,"JE":13374,"paths":13375,"##flow":13376,"participant":13377,"epilep":13378,"macrop":13379,"arm":13380,"##1A":13381,"MoO2":13382,"##fortun":13383,"Wil":13384,"divers":13385,"##ZO":13386,"quad":13387,"nonlinear":13388,"overnight":13389,"+-":13390,"##activity":13391,"##omic":13392,"bub":13393,"MR":13394,"##titude":13395,"extension":13396,"trif":13397,"datas":13398,"##iet":13399,"##work":13400,"##64":13401,"Mal":13402,"thorough":13403,"diameters":13404,"electrodeposition":13405,"Dav":13406,"assume":13407,"Po":13408,"##ulfon":13409,"preliminary":13410,"IF":13411,"piezoelectric":13412,"regulatory":13413,"increasingly":13414,"situations":13415,"##LP":13416,"dominated":13417,"138":13418,"P3":13419,"suffici":13420,"indexed":13421,"Li2CO3":13422,"actions":13423,"4c":13424,"##2S4":13425,"psychological":13426,"shear":13427,"attenu":13428,"seiz":13429,"147":13430,"discuss":13431,"risks":13432,"attempt":13433,"##otherapy":13434,"surrounding":13435,"filtered":13436,"Following":13437,"stroke":13438,"##actor":13439,"markets":13440,"Oct":13441,"reflected":13442,"Mac":13443,"concerning":13444,"travel":13445,"plateaus":13446,"165":13447,"1981":13448,"ment":13449,"subt":13450,"bit":13451,"consequently":13452,"aqu":13453,"understood":13454,"analyzer":13455,"facilities":13456,"SN":13457,"pit":13458,"harvesting":13459,"gasoline":13460,"Commun":13461,"capt":13462,"reaching":13463,"hemisp":13464,"Korea":13465,"card":13466,"ant":13467,"ALD":13468,"electrolysis":13469,"Poly":13470,"distinguish":13471,"continued":13472,"175":13473,"Conf":13474,"copolymer":13475,"assessments":13476,"ceramics":13477,"processed":13478,"##acellular":13479,"ice":13480,"protocols":13481,"##ett":13482,"##iding":13483,"2e":13484,"embr":13485,"speech":13486,"VC":13487,"vap":13488,")),":13489,"residues":13490,"##ran":13491,"121":13492,"optimize":13493,"Co3":13494,"unstable":13495,"##etes":13496,"123":13497,"aligned":13498,"##rin":13499,"GPE":13500,"served":13501,"bacterial":13502,"Ber":13503,"collo":13504,"international":13505,"exec":13506,"industries":13507,"leakage":13508,"normally":13509,"Apr":13510,"eye":13511,"##idazol":13512,"##Zr":13513,"##oustic":13514,"BA":13515,"Post":13516,"intake":13517,"133":13518,"Initi":13519,"templates":13520,"##apse":13521,"Sel":13522,"giving":13523,"##2O7":13524,"alumina":13525,"urea":13526,"advance":13527,"BE":13528,"took":13529,"orb":13530,"perception":13531,"##hyth":13532,"illness":13533,"##ken":13534,"##otoxic":13535,"traffic":13536,"lung":13537,"Previous":13538,"incidence":13539,"junction":13540,"LO":13541,"son":13542,"melt":13543,"polyvinyl":13544,"accurately":13545,"January":13546,"income":13547,"actually":13548,"##uminescence":13549,"hydrophobic":13550,"pil":13551,"##head":13552,"##TR":13553,"insu":13554,"##iltration":13555,"sphere":13556,"spectrometry":13557,"Ig":13558,"##istics":13559,"regime":13560,"Chang":13561,"##adaic":13562,"##hedra":13563,"Its":13564,"presentation":13565,"##anch":13566,"FL":13567,"persist":13568,"##fortunately":13569,"twice":13570,"apply":13571,"##versely":13572,"connectivity":13573,"filtration":13574,"Neuro":13575,"fore":13576,"injected":13577,"##emi":13578,"allevi":13579,"##irr":13580,"nerve":13581,"parents":13582,"prevalence":13583,"##ova":13584,"alg":13585,"284":13586,"126":13587,"##77":13588,"##UR":13589,"##haust":13590,"LMO":13591,"movements":13592,"biomark":13593,"##oo":13594,"deal":13595,"##St":13596,"##onn":13597,"receiving":13598,"oral":13599,"Optim":13600,"rings":13601,"##fluor":13602,"136":13603,"##ana":13604,"DB":13605,"thermally":13606,"yellow":13607,"##ylation":13608,"sessions":13609,"##struction":13610,"advances":13611,"General":13612,"##inding":13613,"##Tx":13614,"sealed":13615,"EN":13616,"##ls":13617,"arrangement":13618,"heteroatom":13619,"##idone":13620,"Society":13621,"propose":13622,"ast":13623,"indicator":13624,"intercalated":13625,"du":13626,"guarant":13627,"Graphene":13628,"ventric":13629,"##akers":13630,"inherent":13631,"##ulative":13632,"developments":13633,"Effects":13634,"nanofiber":13635,"rated":13636,"##CH":13637,"114":13638,"importantly":13639,"##lined":13640,"Ann":13641,"modifications":13642,"##ka":13643,"Mor":13644,"PAn":13645,"dust":13646,"traum":13647,"rural":13648,"prem":13649,"rules":13650,"assessing":13651,"arc":13652,"##98":13653,"##ki":13654,"##oz":13655,"DE":13656,"threat":13657,"match":13658,"Inst":13659,"##rices":13660,"specified":13661,"BS":13662,"##point":13663,"1c":13664,"FES":13665,"##ymb":13666,"instability":13667,"immune":13668,"##Ph":13669,"od":13670,"Pri":13671,"compet":13672,"accepted":13673,"expanded":13674,"aimed":13675,"##Ch":13676,"##unt":13677,"switch":13678,"resin":13679,"Accordingly":13680,"Cyclic":13681,"proven":13682,"explanation":13683,"saturation":13684,"−,":13685,"hydride":13686,"ME":13687,"Gene":13688,"centers":13689,"comes":13690,"nominal":13691,"matching":13692,"##02":13693,"Recent":13694,"running":13695,"##rose":13696,"Analy":13697,"##All":13698,"tolerance":13699,"company":13700,"##acet":13701,"##hao":13702,"neutron":13703,"metabolic":13704,"cylind":13705,"3000":13706,"autocl":13707,"classes":13708,"resistant":13709,"monoc":13710,"roles":13711,"##ignificant":13712,"bif":13713,"colour":13714,"##sip":13715,"GR":13716,"##ivity":13717,"modern":13718,"##oding":13719,"iod":13720,"LE":13721,"angles":13722,"##uced":13723,"Ve":13724,"believe":13725,"precise":13726,"650":13727,"##awa":13728,"auditory":13729,"check":13730,"Nano":13731,"cerebral":13732,"transcription":13733,"gasification":13734,"imag":13735,"##ita":13736,"bir":13737,"sputter":13738,"acceleration":13739,"##key":13740,"pharmac":13741,"kin":13742,"##vol":13743,"resistivity":13744,"Stand":13745,"intensities":13746,"Incre":13747,"hydrogel":13748,"##station":13749,"Electron":13750,"finite":13751,"##bre":13752,"therapeutic":13753,"CeO2":13754,"involvement":13755,"##mselves":13756,"##ensors":13757,"themselves":13758,"fair":13759,"longitudinal":13760,"exploration":13761,"vul":13762,"pig":13763,"diffractometer":13764,"applicable":13765,"Eth":13766,"paradig":13767,"##ners":13768,"slop":13769,"sav":13770,"jo":13771,"firstly":13772,"Long":13773,"NMC":13774,"consequences":13775,"##omas":13776,"Rs":13777,"alternatives":13778,"encapsulated":13779,"Nor":13780,"solving":13781,"ng":13782,"ink":13783,"131":13784,"Har":13785,"kJ":13786,"circuits":13787,"reflects":13788,"prominent":13789,"##anned":13790,"##For":13791,"′′":13792,"bonded":13793,"tight":13794,"##anium":13795,"##eff":13796,"Kr":13797,"intense":13798,"rh":13799,"##ache":13800,"BT":13801,"stated":13802,"conclusions":13803,"##emp":13804,"Educ":13805,"poli":13806,"144":13807,"/(":13808,"exhaust":13809,"##GE":13810,"##ounting":13811,"retrie":13812,"city":13813,"##tra":13814,"coordinated":13815,"##imethyl":13816,"##Hs":13817,"otherwise":13818,"m3":13819,"SWCNT":13820,"eluc":13821,"Phot":13822,"architectures":13823,"Shan":13824,"lesion":13825,"Green":13826,"verify":13827,"##occ":13828,"placebo":13829,"##itary":13830,"Total":13831,"(~":13832,"159":13833,"157":13834,"markers":13835,"132":13836,"FeS2":13837,"pellets":13838,"NMP":13839,"repair":13840,"##itability":13841,"Assessment":13842,"decisions":13843,"##01":13844,"##ction":13845,"Metal":13846,"##prising":13847,"##aze":13848,"DEC":13849,"Material":13850,"cloth":13851,"thermoelectric":13852,"gravimetric":13853,"prono":13854,"shr":13855,"sulfon":13856,"sectional":13857,"##stein":13858,"##PD":13859,"extreme":13860,"recommend":13861,"PSS":13862,"lost":13863,"sufficiently":13864,"blend":13865,"##tivated":13866,"##erating":13867,"LV":13868,"##ama":13869,"perceived":13870,"tar":13871,"##haps":13872,"virus":13873,"suff":13874,"consumers":13875,"panels":13876,"supplementary":13877,"lengths":13878,"calor":13879,"picture":13880,"pronounced":13881,"vacancy":13882,"approximation":13883,"Gas":13884,"aluminium":13885,"preven":13886,"incomp":13887,"eqn":13888,"##athin":13889,"##otive":13890,"##regn":13891,"Lab":13892,"A1":13893,"##bl":13894,"167":13895,"##ards":13896,"##ift":13897,"guidelines":13898,"mRNA":13899,"reagents":13900,"comparative":13901,"gate":13902,"##TT":13903,"micron":13904,"polymorph":13905,"##undred":13906,"specificity":13907,"conclude":13908,"mas":13909,"evaluating":13910,"##asive":13911,"fault":13912,"7a":13913,"thermod":13914,"firm":13915,"vibrations":13916,"Surface":13917,"classical":13918,"obtaining":13919,"inferior":13920,"altered":13921,"JEOL":13922,"”.":13923,"camera":13924,"SiC":13925,"PU":13926,"##alination":13927,"rational":13928,"##amic":13929,"descrip":13930,"stock":13931,"AI":13932,"edu":13933,"explicit":13934,".(":13935,"overview":13936,"assumptions":13937,"donor":13938,"##cm":13939,"##Co1":13940,"##NFs":13941,"DMS":13942,"##81":13943,"combinations":13944,"6b":13945,"printing":13946,"##First":13947,"interventions":13948,"##83":13949,"0001":13950,"##ogravimetric":13951,"participation":13952,"LiB":13953,"##HS":13954,"Eqs":13955,"failed":13956,"surg":13957,"accessible":13958,"antibody":13959,"Max":13960,"quantities":13961,"saving":13962,"2nd":13963,"cereb":13964,"];":13965,"##arged":13966,"introduce":13967,"questionnaire":13968,"conform":13969,"opportunity":13970,"##aseous":13971,"farm":13972,"stem":13973,"##tein":13974,"Where":13975,"##lest":13976,"cloud":13977,"Lew":13978,"142":13979,"##uzzy":13980,"sea":13981,"##tism":13982,"absorbed":13983,"illum":13984,"enabled":13985,"confirming":13986,"nanob":13987,"reflection":13988,"NWs":13989,"##jing":13990,".”":13991,"biod":13992,"##sm":13993,"GNS":13994,"radicals":13995,"122":13996,"Van":13997,"irreg":13998,"phenyl":13999,"scaff":14000,"280":14001,"weather":14002,"##jects":14003,"dich":14004,"##ohyd":14005,"dimin":14006,"##electro":14007,"##atig":14008,"##odiation":14009,"microm":14010,"mother":14011,"orders":14012,"bipolar":14013,"##draw":14014,"recombination":14015,"somew":14016,"glasses":14017,"##oon":14018,"Electrical":14019,"anth":14020,"crossl":14021,"lin":14022,"##ivision":14023,"solved":14024,"cum":14025,"##82":14026,"##iophene":14027,"##DE":14028,"Firstly":14029,"##ochond":14030,"macro":14031,"##rontal":14032,"134":14033,"families":14034,"formulation":14035,"141":14036,"##EEE":14037,"dissociation":14038,"insights":14039,"143":14040,"DR":14041,"graphiti":14042,"##gence":14043,"mining":14044,"##can":14045,"Work":14046,"stripping":14047,"inhibit":14048,"neuronal":14049,"printed":14050,"prolonged":14051,"##opol":14052,"dissip":14053,"Performance":14054,"MI":14055,"vital":14056,"associations":14057,"Mn2":14058,"regulated":14059,"volatile":14060,"directed":14061,"medication":14062,"6H2O":14063,"apparatus":14064,"##Con":14065,"##ergetic":14066,"antim":14067,"##92":14068,"scope":14069,"##93":14070,"compatibility":14071,"lot":14072,"##orld":14073,"##ister":14074,"TFSI":14075,"continue":14076,"disk":14077,"dramatically":14078,"hundred":14079,"savings":14080,"##wareness":14081,"cav":14082,"wild":14083,"##ediatric":14084,"##roleum":14085,"corrected":14086,"##va":14087,"##wide":14088,"ster":14089,"multil":14090,"chromatography":14091,"##Ge":14092,"practices":14093,"terr":14094,"])":14095,"##knowled":14096,"##ria":14097,"yielded":14098,"lam":14099,"##ica":14100,"2p3":14101,"##group":14102,"##100":14103,"ter":14104,"Pot":14105,"sensory":14106,"pent":14107,"##AA":14108,"##erson":14109,"traj":14110,"confidence":14111,"##olk":14112,"##ariate":14113,"WS2":14114,"##liance":14115,"tree":14116,"Else":14117,"synchron":14118,"##cont":14119,"##ga":14120,"##olving":14121,"Nd":14122,"##ming":14123,"##4f":14124,"##aven":14125,"##ias":14126,"##icians":14127,"overlap":14128,"##lan":14129,"LiPSs":14130,"electrospun":14131,"orbital":14132,"##timately":14133,"##achment":14134,"generators":14135,"bring":14136,"PAA":14137,"Human":14138,"Through":14139,"abstr":14140,"considerations":14141,"autoclave":14142,"##icular":14143,"Pat":14144,"distr":14145,"night":14146,"185":14147,"inflammatory":14148,"degrees":14149,"Lo":14150,"facilitates":14151,"member":14152,"Av":14153,"enthal":14154,"predictions":14155,"prolif":14156,"deployment":14157,"WT":14158,"##illed":14159,"viable":14160,"##heimer":14161,"adaptive":14162,"##osan":14163,"settings":14164,"##lat":14165,"notice":14166,"depletion":14167,"fly":14168,"bench":14169,"Hydrogen":14170,"kn":14171,"decade":14172,"1200":14173,"incen":14174,"Measure":14175,"Ze":14176,"TS":14177,"backbon":14178,"electroactive":14179,"refers":14180,"delayed":14181,"weights":14182,"##actic":14183,"iter":14184,"shared":14185,"vic":14186,"indeed":14187,"underwent":14188,"Mn3":14189,"##ixed":14190,"##En":14191,"nitride":14192,"neglect":14193,"##iller":14194,"carefully":14195,"230":14196,"##po":14197,"##gl":14198,"dispers":14199,"##ald":14200,"Fac":14201,"wearable":14202,"##hu":14203,"##De":14204,"covari":14205,"##icy":14206,"foot":14207,"systematically":14208,"microf":14209,"S7":14210,"Yu":14211,".).":14212,"163":14213,"waves":14214,"venti":14215,"##6f":14216,"sp2":14217,"##91":14218,"experiences":14219,"excessive":14220,"##osol":14221,"##ostat":14222,"MG":14223,"cast":14224,"AgCl":14225,"##aceu":14226,"##tron":14227,"##linic":14228,"Young":14229,"Out":14230,"scaffold":14231,"##calation":14232,"##helial":14233,"az":14234,"##ycle":14235,"consecutive":14236,"powerful":14237,"inputs":14238,"Proc":14239,"##ober":14240,"sustainability":14241,"##actions":14242,"Nb2O5":14243,"firms":14244,"ha":14245,"##iliar":14246,"ren":14247,"pref":14248,"EX":14249,"standardized":14250,"DOI":14251,"Rev":14252,"Case":14253,"##BM":14254,"microbial":14255,"Background":14256,"DP":14257,"##erals":14258,"College":14259,"stationary":14260,"##rete":14261,"##aku":14262,"sometimes":14263,"DMF":14264,"void":14265,"contamin":14266,"Unfortunately":14267,"NPC":14268,"##istrib":14269,"Once":14270,"Calif":14271,"polyethylene":14272,"metall":14273,"##tized":14274,"##84":14275,"acetone":14276,"##orporation":14277,"goals":14278,"tunnel":14279,"Various":14280,"diges":14281,"##olin":14282,"MoSe2":14283,"HFP":14284,"oh":14285,"##ares":14286,"CPE":14287,"precision":14288,"##train":14289,"##ource":14290,"manus":14291,"dos":14292,"##pati":14293,"specimens":14294,"workstation":14295,"proxim":14296,"averaged":14297,"##8f":14298,"signs":14299,"Port":14300,"##aˆ":14301,"elucid":14302,"permit":14303,"supplement":14304,"##IG":14305,"modulation":14306,"Id":14307,"unch":14308,"soils":14309,"187":14310,"miss":14311,"##sized":14312,"##charge":14313,"feeding":14314,"##ala":14315,"embry":14316,"LT":14317,"illustrate":14318,"flight":14319,"lithiated":14320,"instruc":14321,"implying":14322,"frequent":14323,"Social":14324,"1039":14325,"Rem":14326,"##vity":14327,"entrop":14328,"ultrathin":14329,"satellite":14330,"irregular":14331,"compart":14332,"##mber":14333,"focuses":14334,"Participants":14335,"285":14336,"indices":14337,"destr":14338,"##rine":14339,"##yrrole":14340,"infer":14341,"spontaneous":14342,"binders":14343,"antibodies":14344,"##odegrad":14345,"GCE":14346,"deposit":14347,"##uty":14348,"resolved":14349,"Teller":14350,"peripheral":14351,"##roid":14352,"##habil":14353,"##erator":14354,"##cean":14355,"Phil":14356,"targeted":14357,"facility":14358,"ML":14359,"pseudocapacitive":14360,"Elsevier":14361,"H3":14362,"comprom":14363,"extend":14364,"eventually":14365,"encoun":14366,"suppressed":14367,"##atigue":14368,"somewhat":14369,"objectives":14370,"cohort":14371,"matrices":14372,"propagation":14373,"##Cr":14374,"Nove":14375,"confined":14376,"Et":14377,"team":14378,"identifying":14379,"##imetry":14380,"##armaceu":14381,"amb":14382,"ratings":14383,"##ornia":14384,"##pread":14385,"molyb":14386,"Do":14387,"intermit":14388,"##anted":14389,"Ts":14390,"OP":14391,"washing":14392,"##94":14393,"intra":14394,"interact":14395,"anticip":14396,"intermediates":14397,"isot":14398,"San":14399,"rely":14400,"withdraw":14401,"crystallite":14402,"impregn":14403,"ASD":14404,"Biom":14405,"Eu":14406,"FEC":14407,"##wing":14408,"##DD":14409,"collabor":14410,"Oh":14411,"##tition":14412,"residue":14413,"awareness":14414,"labor":14415,"##port":14416,"none":14417,"quartz":14418,"##isher":14419,"greenhouse":14420,"##ien":14421,"##asts":14422,"discrete":14423,"latency":14424,"How":14425,"span":14426,"##idespread":14427,"Phase":14428,"154":14429,"##ND":14430,"unf":14431,"##ceptual":14432,"jus":14433,"Part":14434,"Py":14435,"sides":14436,"November":14437,"ru":14438,"conjugated":14439,"sorb":14440,"##2S3":14441,"Ke":14442,"conceptual":14443,"attempts":14444,"##200":14445,"organisms":14446,"dots":14447,"##rolled":14448,"##hedron":14449,"CMC":14450,"April":14451,"##TFE":14452,"##alse":14453,"DG":14454,"comprising":14455,"academic":14456,"starts":14457,"Before":14458,"newly":14459,"Alz":14460,"helps":14461,"##ystems":14462,"##O6":14463,"trifluor":14464,"impurity":14465,"Mark":14466,"stabilization":14467,"##oplas":14468,"##gent":14469,"references":14470,"abnormalities":14471,"##ghai":14472,"##eling":14473,"innovation":14474,"statistics":14475,"harm":14476,"##oper":14477,"comprised":14478,"aerogel":14479,"##aptic":14480,"Fil":14481,"reactors":14482,"##illing":14483,"microporous":14484,"Brain":14485,"explos":14486,"manuscript":14487,"prototype":14488,"wrap":14489,"ded":14490,"insulating":14491,"##amond":14492,"vapour":14493,"##DNA":14494,"fear":14495,"ignition":14496,"QDs":14497,"realize":14498,"pregn":14499,"named":14500,"8a":14501,"assuming":14502,"##lete":14503,"declare":14504,"reviews":14505,"##ERS":14506,"OCV":14507,"##idazolium":14508,"Sa":14509,"##usting":14510,"##oped":14511,"Soc":14512,"##9f":14513,"##inone":14514,"Xu":14515,"SG":14516,"California":14517,"profession":14518,"Project":14519,"insufficient":14520,"tension":14521,"Neurop":14522,"hydrocarbons":14523,"shock":14524,"computation":14525,"efflu":14526,"##echnology":14527,"widespread":14528,"subc":14529,"clay":14530,"Investig":14531,"146":14532,"##acrylate":14533,"creating":14534,"ln":14535,"anterior":14536,"promoted":14537,"schemes":14538,"##CC":14539,"August":14540,"Dem":14541,"East":14542,"households":14543,"easier":14544,"opening":14545,"packed":14546,"dopant":14547,"segment":14548,"##gas":14549,"010":14550,"##itance":14551,"incident":14552,"##entist":14553,"trem":14554,"exergy":14555,"wel":14556,"highlighted":14557,"warm":14558,"5c":14559,"PW":14560,"##aki":14561,"Shanghai":14562,"##MoO4":14563,"shall":14564,"alpha":14565,"Lang":14566,"precipitate":14567,"noble":14568,"Statistical":14569,"##orical":14570,"FESEM":14571,"glyc":14572,"sintered":14573,"1979":14574,"incon":14575,"retard":14576,"coil":14577,"fewer":14578,"##ometh":14579,"##cents":14580,"##TH":14581,"##rition":14582,"vessel":14583,"fluctuations":14584,"##light":14585,"Evalu":14586,"participate":14587,"posterior":14588,"Tg":14589,"decorated":14590,"dopamine":14591,"211":14592,".:":14593,"Children":14594,"valve":14595,"##pe":14596,"##73":14597,"immersed":14598,"hormon":14599,"##72":14600,"acting":14601,"##dom":14602,"rain":14603,"aid":14604,"1500":14605,"geomet":14606,"discovery":14607,"sharing":14608,"pool":14609,"distortion":14610,"passivation":14611,"Can":14612,"inh":14613,"##bert":14614,"WS":14615,"Lond":14616,"boost":14617,"epid":14618,"micropores":14619,"personality":14620,"afor":14621,"sputtering":14622,"helpful":14623,"localized":14624,"ITO":14625,"tab":14626,"##then":14627,"Hol":14628,"Air":14629,"inactive":14630,"Lim":14631,"##lem":14632,"naturally":14633,"pipe":14634,"##ophosph":14635,"Rob":14636,"##iral":14637,"##ulates":14638,"Lin":14639,"260":14640,"enabling":14641,"##TiO3":14642,"contrary":14643,"##turb":14644,"assist":14645,"Spain":14646,"signaling":14647,"amine":14648,"4d":14649,"270":14650,"consent":14651,"His":14652,"essentially":14653,"neurological":14654,"##orh":14655,"fusion":14656,"LP":14657,"drops":14658,"##chem":14659,"##riction":14660,"resistances":14661,"desalination":14662,"##96":14663,"meeting":14664,"Conference":14665,"segments":14666,"ana":14667,"sexual":14668,"refrig":14669,"surgical":14670,"Wa":14671,"differentiation":14672,"161":14673,"interphase":14674,"##emble":14675,"##derly":14676,"peroxide":14677,"##ungst":14678,"condensation":14679,"deb":14680,"mind":14681,"multic":14682,"supplies":14683,"interpreted":14684,"pilot":14685,"behind":14686,"##ients":14687,"Cam":14688,"World":14689,"##erves":14690,"##ulfur":14691,"SV":14692,"thank":14693,"qualitative":14694,"T1":14695,"GHG":14696,"functionalization":14697,"capillary":14698,"principal":14699,"pellet":14700,"fluidized":14701,"receive":14702,"equally":14703,"labeled":14704,"CNS":14705,"##going":14706,"emerged":14707,"SAED":14708,"##pt":14709,"225":14710,"##lob":14711,"151":14712,"##amma":14713,"reductions":14714,"Next":14715,"pyrrol":14716,"bim":14717,"inverse":14718,"Brun":14719,"Centre":14720,"##with":14721,"insol":14722,"##conduc":14723,"entry":14724,"perp":14725,"summer":14726,"maps":14727,"crop":14728,"handling":14729,"voltammograms":14730,"##energy":14731,"##Ac":14732,"coc":14733,"156":14734,"nine":14735,"##ancer":14736,"##Ts":14737,"##9S8":14738,"Pan":14739,"##eph":14740,"exhibiting":14741,"biofuel":14742,"##iy":14743,"installation":14744,"deinter":14745,"weighted":14746,"rigid":14747,"##tility":14748,"suppression":14749,"##itosan":14750,"##LU":14751,"PRO":14752,"wastes":14753,"caps":14754,"tom":14755,"accounted":14756,"offered":14757,"regeneration":14758,"protect":14759,"coke":14760,"enric":14761,"programming":14762,"038":14763,"##rd":14764,"Taf":14765,"162":14766,"##OM":14767,"IM":14768,"epoxy":14769,"prevention":14770,"Nether":14771,"##ritis":14772,"acoustic":14773,"electrochemistry":14774,"##ticed":14775,"mutations":14776,"##itz":14777,"##len":14778,"##oton":14779,"tuning":14780,"circular":14781,"requiring":14782,"##ementioned":14783,"Pos":14784,"##monary":14785,"independently":14786,"##CA":14787,"mutation":14788,"Swed":14789,"##edical":14790,"immediate":14791,"ordering":14792,"T2":14793,"298":14794,"##inge":14795,"centre":14796,"##ester":14797,"DME":14798,"English":14799,"Form":14800,"job":14801,"##elgard":14802,"ZrO2":14803,"##denum":14804,"Indust":14805,"Tef":14806,"London":14807,"Ho":14808,"##ails":14809,"gaseous":14810,"##inf":14811,"Ni3S2":14812,"diet":14813,"##urs":14814,"CG":14815,"preparing":14816,"aforementioned":14817,"conductor":14818,"##bour":14819,"prove":14820,"Grant":14821,"##ps":14822,"Hig":14823,"Prot":14824,"swelling":14825,"regardless":14826,"##asion":14827,"Box":14828,"Third":14829,"chromos":14830,"October":14831,"Sing":14832,"##mod":14833,"DMSO":14834,"Du":14835,"flower":14836,"select":14837,"cars":14838,"##ifies":14839,")−":14840,"Mass":14841,"##uker":14842,"chip":14843,"latent":14844,"conditioning":14845,"Hall":14846,"adapted":14847,"2H2O":14848,"pressed":14849,"Teflon":14850,"152":14851,"casting":14852,"stabilize":14853,"Braz":14854,"hoc":14855,"stretch":14856,"photos":14857,"demographic":14858,"##iro":14859,"Earth":14860,"linking":14861,"##acrific":14862,"##jection":14863,"political":14864,"##ANG":14865,"##ena":14866,"5O4":14867,"faces":14868,"Notably":14869,"##chrom":14870,"transduc":14871,"##Bi":14872,"Physical":14873,"promoting":14874,"LNMO":14875,"V2":14876,"compatible":14877,"enriched":14878,"Netherlands":14879,"##ifi":14880,"Upon":14881,"symb":14882,"sediments":14883,"fulf":14884,"Tafel":14885,"repeat":14886,"##hex":14887,"diversity":14888,"##1f":14889,"shells":14890,"mono":14891,"MM":14892,"scans":14893,"##struc":14894,"comprehension":14895,"milled":14896,"NI":14897,"1978":14898,"##uli":14899,"nucleus":14900,"worse":14901,"Future":14902,"Rus":14903,"4000":14904,"##ophilic":14905,"private":14906,"identi":14907,"Lewis":14908,"quantify":14909,"##eleton":14910,"paras":14911,"writing":14912,"##astro":14913,"butyl":14914,"##rew":14915,"164":14916,"158":14917,"intact":14918,"accelerated":14919,"##ko":14920,"studying":14921,"##otics":14922,"Bay":14923,"unchanged":14924,"package":14925,"##CE":14926,"TEG":14927,"today":14928,"backbone":14929,"EMI":14930,"Acad":14931,"Celgard":14932,"Calc":14933,"##comp":14934,"153":14935,"##rosion":14936,"Alzheimer":14937,"Clin":14938,"incorporating":14939,",.":14940,"##athy":14941,"wal":14942,"BMI":14943,"320":14944,"WA":14945,"magnification":14946,"##oxylic":14947,"GW":14948,"##adic":14949,"routing":14950,"Ol":14951,"solids":14952,"mitochond":14953,"Ti3C2Tx":14954,"metast":14955,"acetylene":14956,"TD":14957,"Index":14958,"sacrific":14959,"Co9S8":14960,"##structural":14961,"##anth":14962,"mood":14963,"cylindrical":14964,"##SION":14965,"cy":14966,"entropy":14967,"##ker":14968,"Na0":14969,"##ovascular":14970,"##opathy":14971,"periodic":14972,"Education":14973,"##mm":14974,"##viously":14975,"diagnosed":14976,"wider":14977,"biodiesel":14978,"Tur":14979,"Bruker":14980,"contaminated":14981,"surve":14982,"blind":14983,"ConclusionsIn":14984,"μA":14985,"slud":14986,"initiated":14987,"Accepted":14988,"documented":14989,"Procedia":14990,"rectangular":14991,"false":14992,"rub":14993,"obst":14994,"diluted":14995,"Paper":14996,"chron":14997,"##ius":14998,"tolu":14999,"remarkably":15000,"cracks":15001,"Li0":15002,"impairments":15003,"##2f":15004,"Sil":15005,"Pers":15006,"##agg":15007,"Tables":15008,"preventing":15009,"student":15010,"respiratory":15011,"Ca2":15012,"marine":15013,"induces":15014,"##QDs":15015,"Association":15016,"geothermal":15017,"148":15018,"monoclinic":15019,"cultures":15020,"##generation":15021,"##benz":15022,"Brazil":15023,"windows":15024,"YS":15025,"blocking":15026,"NOx":15027,"dens":15028,"##engthen":15029,"177":15030,"constraint":15031,"RP":15032,"##ieties":15033,"Willi":15034,"##ynamically":15035,"Cognitive":15036,"186":15037,"##ayers":15038,"conduct":15039,"lipid":15040,"minerals":15041,"aggregates":15042,"##weight":15043,"##ishing":15044,"##SIC":15045,"##etr":15046,"ester":15047,"computing":15048,"arri":15049,"##La":15050,"logic":15051,"RH":15052,"##rought":15053,"smoking":15054,"modify":15055,"End":15056,"Image":15057,"slower":15058,"MN":15059,"bearing":15060,"poison":15061,"fuzzy":15062,"lobe":15063,"zones":15064,"##alcogen":15065,"compress":15066,"##vis":15067,"360":15068,"##ticle":15069,"pour":15070,"DSM":15071,"##raul":15072,"deviations":15073,"quantified":15074,"sustained":15075,"benzene":15076,"Advanced":15077,"filler":15078,"recip":15079,"fatigue":15080,"functionality":15081,"cationic":15082,"Hal":15083,"EDL":15084,"##rod":15085,"CH2":15086,"cros":15087,"Cha":15088,"approved":15089,"##BA":15090,"engines":15091,"##3f":15092,"Hist":15093,"consistency":15094,"##licate":15095,"pyridin":15096,"name":15097,"combine":15098,"Off":15099,"dataSupplementary":15100,"vulner":15101,"Bal":15102,"LiClO4":15103,"guide":15104,"##che":15105,"apop":15106,"preference":15107,"perman":15108,"149":15109,"transis":15110,"##habilitation":15111,"Smith":15112,"batch":15113,"##rophy":15114,"Ham":15115,"partly":15116,"viability":15117,"##Cl4":15118,"hardware":15119,"##gar":15120,"168":15121,"antagon":15122,"##well":15123,"##after":15124,"vig":15125,"transf":15126,"hippocampus":15127,"Kar":15128,"##arging":15129,"adjustment":15130,"##ogens":15131,"aux":15132,"automatic":15133,"nuclei":15134,"##asic":15135,"complications":15136,"Bur":15137,"Den":15138,"##acch":15139,"tetrahedral":15140,"Warb":15141,"colon":15142,"Univers":15143,"removing":15144,"##tz":15145,"311":15146,"##yle":15147,"Obviously":15148,"##ibbon":15149,"Prov":15150,"eliminate":15151,"##GS":15152,"gradual":15153,"elderly":15154,"topic":15155,"conservation":15156,"##lobal":15157,"##ermi":15158,"ND":15159,"Sources":15160,"##igen":15161,"pointed":15162,"drinking":15163,"friction":15164,"adoption":15165,"##ows":15166,"revealing":15167,"##uing":15168,"gaps":15169,"Type":15170,"##ille":15171,"##avi":15172,"captured":15173,"gained":15174,"166":15175,"SO2":15176,"MF":15177,"##ski":15178,"stresses":15179,"neither":15180,"perhaps":15181,"bridge":15182,"communities":15183,"war":15184,"depressive":15185,"evidenced":15186,"##sibilities":15187,"cylinder":15188,"##ilding":15189,"December":15190,"enrich":15191,"##room":15192,"##omotor":15193,"##ida":15194,"Huang":15195,"adjusting":15196,"Currently":15197,"trap":15198,"simulate":15199,"worldwide":15200,"geometric":15201,"##amination":15202,"850":15203,"##ician":15204,"simplified":15205,"ultras":15206,"##aria":15207,"closer":15208,"nerv":15209,"##HT":15210,"]).":15211,"roughness":15212,"generates":15213,"generalized":15214,"Heat":15215,"215":15216,"##BL":15217,"disposal":15218,"refinement":15219,"##onia":15220,"anten":15221,"loadings":15222,"##OG":15223,"veget":15224,"focusing":15225,"figures":15226,"CHI":15227,"spon":15228,"bird":15229,"attributes":15230,"facets":15231,"Go":15232,"##igation":15233,"Care":15234,"##zen":15235,"ket":15236,"Warburg":15237,"##arities":15238,"Thermo":15239,"mounted":15240,"LiOH":15241,"fade":15242,"carbonyl":15243,"##AND":15244,"filling":15245,"paradigm":15246,"##ona":15247,"devoted":15248,"aniline":15249,"deficient":15250,"##Received":15251,"look":15252,"accounts":15253,"##hern":15254,"##pyr":15255,"205":15256,"raised":15257,"contaminants":15258,"##VO":15259,"elsewhere":15260,"##orhombic":15261,"vascular":15262,"##Pb":15263,"dest":15264,"anhyd":15265,"##add":15266,"Life":15267,"torque":15268,"WM":15269,"##OB":15270,"##ocyan":15271,"assistance":15272,"Radi":15273,"ohmic":15274,"informed":15275,"deficiency":15276,"pumps":15277,"ET":15278,"SO4":15279,"##There":15280,"satisfactory":15281,"##herence":15282,"radial":15283,"slic":15284,"ble":15285,"diabetes":15286,"Ha":15287,"bifunctional":15288,"subjective":15289,"trained":15290,"winter":15291,"alterations":15292,"educational":15293,"anchored":15294,"convection":15295,"intended":15296,"##ibrated":15297,"burning":15298,"##pectives":15299,"Zhao":15300,"##bles":15301,"adolescents":15302,"##ament":15303,"##ocyte":15304,"KCl":15305,"C3":15306,"invent":15307,"Nit":15308,"micrograph":15309,"290":15310,"illumination":15311,"satisfy":15312,"##opl":15313,"nanoporous":15314,"ventricular":15315,"##axial":15316,"throughput":15317,"prospective":15318,"fluids":15319,"agricultural":15320,"Toxic":15321,"##CS":15322,"ICE":15323,"IT":15324,"C4":15325,"C6":15326,"Ni0":15327,"##HI":15328,"birth":15329,"##hythm":15330,"aug":15331,"PTFE":15332,"convert":15333,"##sch":15334,"sludge":15335,"diffusivity":15336,"facilitated":15337,"##ogas":15338,"##dF":15339,"##dep":15340,"##ircon":15341,"##okine":15342,"emergency":15343,"reagent":15344,"ultraf":15345,"##athod":15346,"versati":15347,"##sin":15348,"turned":15349,"##asia":15350,"determines":15351,"turbines":15352,"grids":15353,"tends":15354,"modeled":15355,"rol":15356,"##ropylene":15357,"UA":15358,"##iative":15359,"multiv":15360,"integral":15361,"##ectic":15362,"003":15363,"rotating":15364,"say":15365,"linearly":15366,"dropped":15367,"##vance":15368,"society":15369,"##tability":15370,"##igar":15371,"innovative":15372,"Corporation":15373,"hybridization":15374,"##PT":15375,"ASC":15376,"##ple":15377,"169":15378,"similarity":15379,"glassy":15380,"##alent":15381,"BM":15382,"Dise":15383,"##ira":15384,"##cape":15385,"cavity":15386,"Electroc":15387,"pretreatment":15388,"habit":15389,"##obile":15390,"##ublic":15391,"Molecular":15392,"##urface":15393,"accelerate":15394,"##ipl":15395,"##nes":15396,"investigating":15397,"vo":15398,"yolk":15399,"##VE":15400,"tre":15401,"MIL":15402,"##olet":15403,"##osures":15404,"pulverization":15405,"capacitances":15406,"crude":15407,"articles":15408,"predominantly":15409,"##rophot":15410,"protons":15411,"flakes":15412,"IEEE":15413,"Step":15414,"##56":15415,"Bei":15416,"##odic":15417,"##iliary":15418,"tetragonal":15419,"CoP":15420,"##71":15421,"nur":15422,"##icochemical":15423,"denotes":15424,"##oks":15425,"saline":15426,"BL":15427,"cos":15428,"ease":15429,"dB":15430,"Admin":15431,"##atern":15432,"##ceptions":15433,"epilepsy":15434,"Cho":15435,"colle":15436,"##ometers":15437,"phone":15438,"cumulative":15439,"blends":15440,"colloidal":15441,"##ba":15442,"3O2":15443,"Up":15444,"##H3":15445,"stiff":15446,"PHE":15447,"inhibitors":15448,"##com":15449,"##imal":15450,"CSF":15451,"EA":15452,"##Me":15453,"Fermi":15454,"axial":15455,"waters":15456,"##ho":15457,"realistic":15458,"orthorhombic":15459,"semiconductors":15460,"PBS":15461,"##eries":15462,"Mich":15463,"subsid":15464,"##illion":15465,"##onomic":15466,"meta":15467,"##Mn2O4":15468,"variants":15469,"progressive":15470,"prevents":15471,"enthalpy":15472,"fibre":15473,"going":15474,"staff":15475,"zeolite":15476,"serves":15477,"obstac":15478,"interior":15479,"##HR":15480,"derivative":15481,"##away":15482,"oxal":15483,"sa":15484,"##Os":15485,"##atics":15486,"strip":15487,"Ion":15488,"predicting":15489,"noticed":15490,"copolymers":15491,"##1s":15492,"##ota":15493,"Secondly":15494,"##ugh":15495,"##gap":15496,"timing":15497,"##imide":15498,"NH2":15499,"trib":15500,"DT":15501,"−/":15502,"sandwich":15503,"Experiment":15504,"##Ex":15505,"##VO4":15506,"##losure":15507,"##mu":15508,"hippocampal":15509,"discrimination":15510,"MgO":15511,"inhibitor":15512,"apprec":15513,"Cur":15514,"##54":15515,"##idth":15516,"spot":15517,"electromagnetic":15518,"manufacturer":15519,"1T":15520,"probes":15521,"monomers":15522,"532":15523,"Her":15524,"germ":15525,"FS":15526,"##7f":15527,"discrep":15528,"thoroughly":15529,"hind":15530,"respondents":15531,"##atories":15532,"purs":15533,"##lity":15534,"jet":15535,"King":15536,"occupied":15537,"rar":15538,"recru":15539,"##unic":15540,"##BP":15541,")–(":15542,"PDA":15543,"rutile":15544,"##rite":15545,"began":15546,"breast":15547,"comfort":15548,"Gold":15549,"dyes":15550,"Dir":15551,"paid":15552,"##isely":15553,"purified":15554,"##74":15555,"depressed":15556,"incubated":15557,"socio":15558,"covering":15559,"chitosan":15560,"##ysical":15561,"contributing":15562,"##orbid":15563,"##pass":15564,"##MRI":15565,"Fu":15566,"Cryst":15567,"dendritic":15568,"isolation":15569,"S9":15570,"##Ws":15571,"electrically":15572,"felt":15573,"##Un":15574,"ke":15575,"##03":15576,"##luding":15577,"##1a":15578,"Unlike":15579,"marker":15580,"lic":15581,"##ochemistry":15582,"K2":15583,"intermittent":15584,"##SiO4":15585,"##apol":15586,"##heng":15587,"##eria":15588,"##ochastic":15589,"operator":15590,"unt":15591,"##ulos":15592,"##raulic":15593,"seaw":15594,"connections":15595,"keeping":15596,"Immun":15597,"routine":15598,"TiN":15599,"susceptibility":15600,"##henol":15601,"Instruments":15602,"missing":15603,"becoming":15604,"teachers":15605,"235":15606,"##inn":15607,"absorbance":15608,"##parts":15609,"VA":15610,"regim":15611,"highlight":15612,"arrow":15613,"propylene":15614,"##3O8":15615,"##tite":15616,"deintercalation":15617,"arise":15618,"Integr":15619,"auto":15620,"reporting":15621,"necessarily":15622,"manifest":15623,"##Is":15624,"VR":15625,"##lates":15626,"said":15627,"##gu":15628,"##athe":15629,"##elihood":15630,"polypyrrole":15631,"relevance":15632,"feedst":15633,".[":15634,"##rans":15635,"##mb":15636,"brown":15637,"hierarchically":15638,"ON":15639,"scored":15640,"Within":15641,"minute":15642,"##ensus":15643,"controllable":15644,"manual":15645,"instant":15646,"##aka":15647,"shrink":15648,"FOR":15649,"Policy":15650,"intention":15651,"STEM":15652,"competition":15653,"##endix":15654,",”":15655,"##field":15656,"contacts":15657,"Chr":15658,"correctly":15659,"MET":15660,"Mater":15661,"Li2MnO3":15662,"conflict":15663,"##iders":15664,"file":15665,"Mn4":15666,"##apt":15667,"286":15668,"stacked":15669,"achievement":15670,"exclus":15671,"perturb":15672,"customers":15673,"012":15674,"concerned":15675,"exchanger":15676,"##tosis":15677,"surprising":15678,"Functional":15679,"seconds":15680,"##Ls":15681,"discovered":15682,"7b":15683,"##fr":15684,"microc":15685,"similarly":15686,"filters":15687,"##ungsten":15688,"utilize":15689,"German":15690,"toluene":15691,"sectors":15692,"fluorescent":15693,"iso":15694,"Import":15695,"kid":15696,"leach":15697,"aggregate":15698,"##vices":15699,"duty":15700,"PN":15701,"breakdown":15702,"mechanically":15703,"cutoff":15704,"arising":15705,"##monium":15706,
[...]
