[UNK]
[CLS]
[SEP]
[PAD]
[MASK]
!
"
#
$
%
&
'
(
)
*
+
,
-
.
/
0
1
2
3
4
5
6
7
8
9
:
;
<
=
>
?
@
A
B
C
D
E
F
G
H
I
J
K
L
M
N
O
P
Q
R
S
T
U
V
W
X
Y
Z
[
\
]
^
_
`
a
b
c
d
e
f
g
h
i
j
k
l
m
n
o
p
q
r
s
t
u
v
w
x
y
z
{
|
}
~







¡
¢
£
¤
¥
¦
§
©
«
¬
­
®
°
±
¶
·
»
¿
Æ
Ð
×
Ø
Þ
ß
æ
ð
÷
ø
þ
Đ
đ
ħ
ı
ĸ
Ł
ł
ŋ
Œ
œ
Ŧ
ŧ
Ɓ
ƅ
ƈ
Ɖ
Ɗ
ƍ
Ɛ
Ƒ
ƒ
Ɣ
Ɩ
Ɨ
Ƙ
ƙ
ƚ
ƛ
ƞ
Ɵ
Ƥ
Ʀ
ƨ
Ʃ
ƪ
Ƭ
Ʈ
Ʊ
Ʋ
Ƴ
ƴ
Ʒ
ƺ
ƿ
ǀ
ǁ
ǂ
ǃ
ǝ
ǥ
Ȝ
ȝ
Ƞ
ȡ
Ȥ
ȥ
ȷ
ȼ
Ƚ
ȿ
ɀ
Ɂ
Ʌ
ɐ
ɑ
ɒ
ɔ
ɖ
ɗ
ɘ
ə
ɚ
ɛ
ɜ
ɡ
ɣ
ɤ
ɥ
ɧ
ɨ
ɩ
ɪ
ɫ
ɭ
ɯ
ɱ
ɲ
ɳ
ɵ
ɷ
ɸ
ɹ
ɽ
ɾ
ɿ
ʀ
ʁ
ʂ
ʃ
ʄ
ʅ
ʇ
ʈ
ʊ
ʋ
ʌ
ʎ
ʐ
ʒ
ʔ
ʕ
ʘ
ʙ
ʝ
ʟ
ʤ
ʧ
ʹ
ʺ
ʻ
ʼ
ʽ
ʾ
ʿ
ˁ
˂
˃
˄
˅
ˆ
ˇ
ˈ
ˉ
ˊ
ˋ
ˌ
ˍ
ˎ
ː
ˑ
˒
˕
˖
˗
˞
˟
˦
˧
˫
˭
ˮ
˳
˷
˽
΀
Α
Β
Γ
Δ
Ε
Ζ
Η
Θ
Ι
Κ
Λ
Μ
Ν
Ξ
Ο
Π
Ρ
Σ
Τ
Υ
Φ
Χ
Ψ
Ω
α
β
γ
δ
ε
ζ
η
θ
ι
κ
λ
μ
ν
ξ
ο
π
ρ
ς
σ
τ
υ
φ
χ
ψ
ω
ϗ
Ϙ
Ϛ
ϛ
Ϝ
ϝ
ϟ
Ϣ
ϣ
ϧ
Ϩ
ϫ
Ϭ
ϭ
Ϯ
ϯ
϶
ϻ
ϼ
Ͽ
Є
Ѕ
І
Ј
Ћ
А
Б
В
Г
Д
Е
Ж
З
И
К
Л
М
Н
О
П
Р
С
Т
У
Ф
Х
Ц
Ч
Ш
Ь
Э
Ю
Я
а
б
в
г
д
е
ж
з
и
к
л
м
н
о
п
р
с
т
у
ф
х
ц
ч
ш
щ
ъ
ы
ь
э
ю
я
ђ
є
ѕ
і
њ
ћ
ѡ
Ѱ
ѱ
Ѳ
ѳ
Ѵ
ѵ
ѿ
Ҏ
Ґ
ґ
Ҕ
қ
ҝ
Ҡ
ҡ
Ң
Ҫ
ҫ
ҳ
ҷ
ҹ
һ
Ӏ
ӄ
ӊ
ӕ
ә
ӡ
Ө
ө
Ӷ
Ӽ
ԁ
Ԑ
ԑ
ԗ
ԡ
ԥ
ԧ
԰
Կ
Պ
Փ
՚
՛
՜
դ
հ
ղ
ս
ւ
փ
־
׀
׃
א
ב
ג
ד
ה
ו
ז
ח
ט
י
ך
כ
ל
ם
מ
ן
נ
ס
ע
ף
פ
צ
ק
ר
ש
ת
׳
״
؄
،
؛
؟
ء
ا
ب
ة
ت
ث
ج
ح
خ
د
ذ
ر
ز
س
ش
ص
ض
ط
ظ
ع
غ
ـ
ف
ق
ك
ل
م
ن
ه
و
ى
ي
٠
١
٢
٣
٥
٦
٧
٨
٩
٪
٫
٭
پ
ڄ
چ
ڕ
ڤ
ڥ
ک
گ
ڰ
ڲ
ی
ە
ۯ
۰
۷
ۻ
܀
܃
ܕ
ܗ
ܜ
ܣ
ܥ
ܧ
ܫ
݋
ݙ
ݯ
ރ
ފ
ޚ
߀
߄
ߕ
ߗ
ߚ
ߝ
ߡ
ߣ
ߧ
ߩ
߷
߻
ࠊ
࡯
ࡱ
ࡼ
ࢋ
࢛
अ
ई
ऊ
क
ग
ड
ण
त
द
न
फ
म
य
र
ल
व
श
स
ह
॥
६
॰
ঞ
ড
থ
ব
ৠ
৥
৿
ਈ
੠
ક
ડ
ଚ
௎
ఉ
಴
೑
೼
ഛ
ඁ
෍
෎
ซ
๗
๼
໛
໣
໶
໻
༗
ཞ
࿘
࿧
࿭
࿳
ဇ
ၡ
Ⴝ
მ
ᄀ
ᄂ
ᄃ
ᄄ
ᄅ
ᄆ
ᄇ
ᄉ
ᄊ
ᄋ
ᄌ
ᄎ
ᄏ
ᄐ
ᄑ
ᄒ
ᄤ
ᄳ
ᄺ
ᅝ
ᅟ
ᅡ
ᅢ
ᅣ
ᅥ
ᅦ
ᅧ
ᅩ
ᅪ
ᅫ
ᅬ
ᅭ
ᅮ
ᅯ
ᅰ
ᅱ
ᅲ
ᅳ
ᅵ
ᅸ
ᆊ
ᆍ
ᆚ
ᆞ
ᆨ
ᆩ
ᆪ
ᆫ
ᆬ
ᆭ
ᆮ
ᆯ
ᆰ
ᆱ
ᆲ
ᆳ
ᆵ
ᆶ
ᆷ
ᆸ
ᆹ
ᆺ
ᆻ
ᆼ
ᆽ
ᆾ
ᆿ
ᇁ
ᇂ
ᇍ
ᇣ
ᇨ
ሖ
ሲ
ዄ
ጠ
ጬ
Ꮂ
Ꮉ
Ꮧ
ᑇ
ᑨ
ᑩ
ᑺ
ᒋ
ᓎ
ᔎ
ᔧ
ᔺ
ᕅ
ᕘ
ᕫ
ᕾ
ᖋ
ᖫ
ᗕ
ᗻ
ᘏ
៤
ᠽ
ᠿ
ᡔ
ᢝ
ᢳ
ᣀ
ᤃ
᥹
᥻
ᦣ
ᦦ
ᨬ
ᨽ
ᬑ
ᬜ
᭛
ᮄ
ᮍ
ᮮ
ᯊ
ᯢ
᯹
ᰃ
᱊
᳆
᳿
ᴂ
ᴃ
ᴅ
ᴇ
ᴈ
ᴓ
ᴖ
ᴗ
ᴛ
ᴠ
ᴢ
ᴤ
ᴦ
ᴧ
ᴨ
ᵫ
ᵰ
ᶀ
ᶁ
ᶊ
ẟ
ỿ
​
‌
‍
‎
‏
‐
‒
–
—
―
‖
‘
’
‚
‛
“
”
„
‟
†
‡
•
‧
‪
‬
‰
‱
′
‵
‹
›
※
‿
⁀
⁁
⁂
⁃
⁄
⁎
⁓
⁕
⁠
⁡
⁢
⁣
⁭
₢
₤
₦
€
₵
₸
₹
⃵
℘
℧
℮
⅁
←
↑
→
↓
↔
↕
↖
↗
↘
↙
↝
↞
↟
↠
↡
↤
↦
↨
↵
↹
↺
↼
↽
↾
↿
⇀
⇁
⇂
⇄
⇅
⇆
⇇
⇈
⇉
⇊
⇋
⇌
⇐
⇑
⇒
⇓
⇔
⇕
⇛
⇝
⇢
⇦
⇨
⇵
⇶
⇻
⇼
⇾
∀
∁
∂
∃
∅
∆
∇
∈
∊
∋
∍
∎
∏
∐
∑
−
∓
∕
∖
∗
∘
∙
√
∝
∞
∟
∠
∡
∢
∣
∥
∧
∨
∩
∪
∫
∮
∱
∲
∴
∵
∶
∷
∼
∽
∾
≃
≅
≈
≊
≌
≍
≏
≐
≑
≒
≔
≕
≘
≙
≜
≝
≟
≡
≤
≥
≦
≧
≪
≫
≲
≳
≶
≷
≺
≻
≼
≽
≾
≿
⊂
⊃
⊆
⊇
⊊
⊎
⊏
⊐
⊓
⊔
⊕
⊖
⊗
⊘
⊙
⊛
⊝
⊟
⊠
⊡
⊢
⊣
⊤
⊥
⊧
⊨
⊩
⊲
⊵
⊺
⊻
⊿
⋀
⋁
⋂
⋃
⋄
⋅
⋆
⋇
⋈
⋉
⋌
⋍
⋐
⋒
⋘
⋙
⋚
⋟
⋮
⋯
⋰
⋱
⌀
⌃
⌄
⌆
⌈
⌉
⌊
⌋
⌍
⌐
⌒
⌕
⌘
⌜
⌝
⌞
⌟
⌢
⌣
⌶
⌷
⍬
⍴
⍵
⍺
⎔
⎕
⎛
⎜
⎝
⎞
⎟
⎠
⎡
⎢
⎣
⎤
⎥
⎦
⎧
⎨
⎩
⎪
⎫
⎬
⎭
⎯
⎵
⎸
⎹
⎺
⎻
⏜
⏞
⏟
⏵
⏽
␋
␢
␣
␪
⓫
⓬
⓭
─
━
│
┄
┌
┐
└
┘
├
┤
┴
┼
┿
═
║
╔
╳
▁
▄
░
▒
▓
■
□
▢
▨
▪
▫
▬
▭
▯
▲
△
▴
▵
▶
▷
▸
▹
►
▼
▽
▾
▿
◀
◁
◂
◃
◄
◆
◇
◉
◊
○
◌
◎
●
◐
◑
◖
◗
◘
◦
◬
◯
◺
◻
◼
◽
◾
★
☆
☉
☐
☒
☓
☨
☰
☹
☺
☻
☼
♀
♂
♠
♡
♢
♣
♥
♦
♭
♮
♯
⚍
⚑
⚪
⚫
⚬
⛩
⛺
✉
✓
✔
✕
✖
✗
✘
✞
✠
✦
✧
✩
✯
✰
✱
✳
✵
✸
✽
❄
❅
❉
❏
❖
❚
❤
❨
❶
❷
❸
❹
❺
❻
❼
❾
➀
➁
➂
➃
➄
➅
➆
➇
➈
➉
➊
➋
➌
➍
➎
➏
➐
➑
➒
➓
➔
➙
➜
➝
➞
➢
➱
⟂
⟒
⟨
⟩
⟵
⟶
⟷
⟸
⟹
⟺
⟼
⟿
⠅
⠽
⢊
⤳
⤺
⤻
⥂
⥄
⥛
⥟
⥩
⦀
⦁
⦃
⦄
⦆
⦋
⦌
⦏
⦙
⦡
⦰
⦵
⦸
⦻
⦾
⦿
⧖
⧚
⧫
⧸
⧹
⨁
⨂
⨄
⨉
⨍
⨜
⨥
⨭
⨯
⨸
⨿
⩝
⩳
⩽
⩾
⪅
⪆
⪈
⪖
⪝
⪡
⪢
⪯
⪰
⪷
⪸
⫅
⫪
⫫
⫳
⫶
⫺
⫼
⬄
⬅
⬉
⬌
⬚
⬜
⬠
⬦
Ⱗ
ⱘ
ⱱ
Ⲥ
Ⳍ
ⶀ
⷇
⸦
⸰
⸱
⸳
⹂
⿟
⿠
⿡
⿢
⿤
⿥
⿦
⿫
⿯
⿲
⿳
⿼
⿿
、
。
〇
〈
〉
《
》
「
」
『
』
〒
〓
〔
〕
〖
〗
〚
〛
〜
〞
あ
い
う
え
お
き
け
さ
し
た
つ
と
に
の
は
ひ
へ
ほ
み
め
ょ
り
る
を
ん
ア
イ
エ
オ
キ
ク
コ
サ
シ
タ
テ
ネ
ハ
フ
ム
メ
ユ
ラ
リ
ル
レ
ロ
ン
・
ー
ㄏ
ㄓ
ㄚ
ㄥ
ㄦ
ㄨ
㑺
㒓
㒧
㔫
㗗
㙪
㛑
㜅
㜤
㡃
㣗
㦋
㦎
㱔
㸠
㸼
㹿
㽕
㾦
㾷
䅵
䅸
䆎
䆡
䆩
䆫
䍙
䕏
䖒
䖛
䖥
䖭
䖯
䗚
䗦
䗮
䙱
䚥
䜕
䜡
䞡
䞣
䞥
䩰
䪒
䪱
䫖
䬂
䬰
䭓
䮿
䯈
䰇
䰧
䰶
䴲
䴶
一
丁
七
万
三
上
下
不
与
丐
专
且
世
丙
业
东
丢
两
丨
个
中
丰
串
临
为
主
丽
举
乃
么
义
之
乎
乐
乙
乜
九
也
习
书
乫
买
乱
了
争
事
二
于
云
互
五
井
亚
些
亞
亡
交
产
享
京
亮
亲
亳
人
亿
什
仁
今
介
仍
从
仓
仔
他
付
仙
代
令
以
仪
们
仰
件
价
任
份
企
伊
伍
休
众
优
伙
会
伟
传
伤
伦
伯
伴
伶
伸
似
但
位
低
住
体
佔
何
佛
作
你
佢
佪
使
來
例
供
依
侣
侵
便
係
俊
保
信
修
俸
個
倍
們
倒
候
倩
倪
值
偄
偅
假
做
停
偠
健
偶
偷
傅
傘
備
储
催
傲
僅
像
億
儣
儿
元
先
光
克
免
兔
入
內
全
兩
八
公
六
兰
共
关
兴
其
具
典
养
内
冈
再
写
军
农
冨
冬
冯
冲
决
冶
凌
减
凝
几
凡
凯
出
击
函
分
切
刊
刑
划
列
刘
则
刚
创
初
判
別
刨
利
别
到
制
刷
刻
剂
則
前
副
創
力
劝
办
功
加
务
动
助
励
劲
势
勇
動
務
勝
勢
勤
包
化
北
区
医
區
十
千
升
半
华
协
卑
卓
協
单
卖
南
博
占
卡
卢
卫
危
卷
厂
厅
历
厉
原
厦
厭
去
县
参
參
又
及
友
双
反
发
叔
取
受
变
叡
口
古
另
只
叫
召
可
台
史
右
号
司
叼
吃
各
合
吉
同
名
后
吐
向
吓
吗
君
吞
吣
否
吧
含
听
启
吴
吵
吸
吻
呀
告
员
呛
呢
周
味
呼
命
咁
和
咗
咘
咨
咩
咬
品
哄
哈
哋
响
哎
員
哦
哪
哭
哲
唐
唔
售
唱
商
啊
啟
啭
善
喜
喝
嗎
嗮
嘅
嘉
嘢
器
嚟
四
回
因
团
困
围
固
国
图
圆
圈
國
圓
土
在
地
场
圾
均
坊
坏
坐
块
垃
型
垴
埋
城
埔
域
培
基
堂
堆
報
場
堵
塔
塘
境
增
墨
壁
士
处
备
夌
复
外
多
夜
够
大
天
太
夫
央
失
头
奇
奉
奎
契
女
奴
奸
她
好
如
妈
妨
妹
妻
妾
姆
始
姐
姑
姓
委
姣
姨
姻
威
娅
娟
娱
娶
婆
婚
婢
婦
婧
媽
嫡
嫩
子
孔
字
存
孙
孝
孟
季
孤
学
孩
學
宁
它
宇
守
安
宋
完
宏
官
定
宜
宝
实
审
客
室
害
家
容
宾
宿
密
寒
察
審
对
寺
寻
导
寿
射
将
將
尊
對
導
小
少
尔
就
尹
尽
尾
尿
局
层
居
屋
展
属
層
履
屬
屯
山
岁
岛
岡
岩
岳
峰
崇
崔
嵌
巔
川
州
工
左
巧
差
己
已
巴
巾
市
布
师
希
带
師
席
帮
帶
常
幅
幫
干
平
年
并
幸
幹
幼
幾
广
庆
序
库
应
店
府
废
度
座
庫
庭
康
延
建
开
异
弄
弈
式
引
弟
张
弱
張
強
强
归
当
形
彦
彩
彪
彭
影
往
征
径
待
很
律
後
徐
徒
得
從
微
徳
德
徽
心
忄
必
志
忘
忙
忠
快
态
怂
怎
怕
怜
思
怡
性
总
恐
恒
恙
息
恶
恿
悉
悍
情
惯
惰
想
意
愚
感
愿
慈
慢
慧
慰
憶
懂
應
成
我
或
战
戴
户
房
所
手
才
打
托
执
扩
扬
扭
扶
批
找
承
技
抄
把
投
抚
抢
护
报
抱
担
拉
拍
拎
拐
拒
拓
拔
拘
拙
拢
拦
择
括
拷
拾
拿
持
挂
指
按
挑
挥
振
换
据
授
掉
排
掛
探
接
控
推
措
提
揣
揭
搞
搣
搦
搭
搶
摆
摇
摔
摘
摩
撤
撥
播
擔
擠
攒
支
收
改
放
政
故
效
敏
救
教
敬
数
整
敵
文
斌
斑
斗
料
斩
斯
新
斷
方
於
施
旄
旅
族
旗
无
既
日
旧
旨
早
旭
时
旷
旻
昂
昆
昌
明
易
昙
星
映
春
昨
昭
是
昱
显
時
晋
晓
晖
晚
普
景
晰
晶
智
暂
暢
暴
暵
曦
曲
更
書
曹
替
最
會
月
有
朋
服
望
朝
期
木
未
末
本
术
朱
朴
朵
机
杂
权
李
材
村
杜
条
来
杨
杯
東
松
板
极
构
析
枕
林
果
枫
架
枷
柏
某
染
柠
查
柱
柳
栃
标
栋
树
校
样
核
根
格
桃
案
桌
梁
梅
條
棒
棕
棵
椅
業
極
楼
榜
樊
模
樣
樹
機
檬
櫚
次
欢
欣
款
歌
歐
止
正
此
步
武
死
殊
残
殴
段
殷
毅
母
每
比
毕
毛
民
气
氛
氢
氣
氧
氯
水
氵
求
江
池
污
汪
汽
沉
沒
沟
没
沪
河
油
治
況
泄
泉
法
泛
泡
波
注
泻
洁
洗
津
洪
洱
洲
活
派
流
济
浓
浩
海
涂
消
涉
涛
液
淀
淡
深
混
清
渐
渔
減
渠
温
港
游
湖
湾
溏
源
溜
溝
溫
溴
溶
滑
满
滨
演
漠
漢
漸
潇
潔
潘
澳
激
濟
灣
火
灭
灯
炔
炭
点
為
烁
烦
烧
热
烯
烷
焙
焚
無
焦
焱
然
照
熊
熟
熱
燃
燈
燒
燕
爛
爱
父
爸
片
版
牛
牢
牧
物
特
犯
状
狗
独
狱
狼
猪
猫
献
獾
率
玉
王
玩
环
现
玲
玻
珍
珠
班
現
球
理
琴
瑜
瑞
瑶
璃
環
瓜
瓶
生
產
用
田
由
甲
申
电
男
画
畅
界
留
畢
略
畫
異
畴
疗
疾
病
痕
痗
痢
療
発
登
發
白
百
皂
的
皎
皮
益
盐
监
盒
盗
盟
目
盯
直
相
盾
省
看
真
眷
眼
眾
着
睇
睛
睡
瞓
矛
知
矩
短
石
码
研
砲
破
硝
硫
硬
确
碍
碱
碳
磁
磊
磷
磺
示
社
祁
祄
祖
祝
神
祠
祥
福
禮
离
秀
秋
种
科
租
积
移
程
種
稱
稳
稿
穆
穩
究
空
穿
突
窗
窘
窝
窟
窿
立
竞
章
笔
第
筆
等
筑
筒
答
策
筛
签
简
算
管
箭
篇
簿
籍
米
类
粉
粒
粵
精
系
紅
紙
級
素
紫
細
給
經
維
網
緊
総
緣
總
繼
纠
红
纤
约
级
纪
纯
纲
纳
纷
纸
线
练
组
细
终
绍
经
结
给
络
绝
统
绥
继
绩
续
绳
维
绿
缌
缠
缪
缺
网
罗
罚
罪
羊
美
群
義
羽
習
翔
翰
翻
老
考
者
而
耐
耦
耳
耽
耿
聊
职
联
聘
聚
聪
聯
聽
肉
肖
肥
肯
育
背
胎
胖
胜
胡
胶
能
脄
脏
脑
脚
脱
腐
腔
腦
腿
膜
臉
臨
自
臭
至
致
與
興
舒
良
色
艳
艺
节
芬
花
芹
苏
苟
若
苦
苯
英
苹
范
茅
茉
茶
草
荣
荷
莉
莹
菁
菇
菊
菌
菜
萍
落
著
蒋
蓝
蔚
蔡
蔬
蕉
薄
薛
藏
藤
蘋
虑
處
號
虫
虹
蚀
蛋
蛙
蜑
蜡
蠕
蠢
行
衍
術
街
衡
衣
补
表
衰
袋
被
裁
装
裕
補
裡
複
襄
西
要
見
視
覺
见
观
规
视
觉
角
解
言
計
訊
討
記
設
詞
試
詩
詭
詰
話
該
認
誕
語
読
調
請
講
證
識
警
護
譽
讚
计
认
讨
让
训
议
讯
记
讲
许
论
讼
设
证
评
识
诉
词
试
诗
诚
话
询
该
语
误
说
请
诸
读
课
谁
调
谈
谐
谢
谦
谱
谷
豆
貌
負
貴
貿
賓
贏
负
贡
财
责
贤
败
质
购
贱
贵
贷
费
资
赎
赏
赖
赚
赞
赣
走
赵
赶
起
超
越
趋
趕
趙
趣
趨
足
跃
跑
距
跟
跡
跨
路
跳
踏
踢
踩
蹤
身
躺
車
軸
較
輸
轉
车
轩
软
轲
轻
载
较
辅
辉
辐
输
辛
辟
辦
辨
辰
边
辽
达
过
迎
近
返
还
这
进
远
违
连
迪
述
追
退
送
适
逆
选
透
逐
逗
這
通
速
造
連
進
逼
逾
遇
運
遍
過
道
遠
遣
遲
遵
遺
避
邀
邃
還
邊
邢
那
邻
郄
郎
郑
部
郭
都
鄂
配
酚
酯
酸
醇
醫
采
释
里
重
量
金
針
鉛
针
钛
钟
钢
钱
钻
钾
铁
铃
铅
铈
铵
银
铺
链
锋
错
锡
镇
镜
長
长
閉
開
間
關
门
闭
问
间
闹
闻
阅
阐
阔
阙
队
阳
阵
阿
附
际
陈
陌
降
限
院
陣
除
随
隐
際
障
隶
难
集
雇
雖
離
難
雨
雪
零
雷
電
需
震
霞
露
青
靖
静
靜
非
靠
面
革
鞋
鞒
鞔
韩
音
領
頭
页
项
顺
须
顾
顿
领
颗
题
颜
風
颱
风
飞
食
飯
餐
餓
饭
馆
首
香
馨
馬
驕
马
驱
驳
骂
骑
體
高
髫
鬱
鬼
魂
鯨
鱼
鲁
鲜
鵝
鸟
鸡
鸿
鹏
鹿
麻
麼
黄
黑
點
齐
龄
龚
龟
ꕧ
ꙍ
ꝏ
Ꞃ
ꞇ
꞉
꞊
ꞌ
ꞏ
Ʇ






































































































﻿
＀
￼
�
##H
##U
##T
##R
##8
##7
##4
##3
##9
##n
##a
##d
##e
##q
##u
##t
##p
##l
##m
##o
##r
##y
##f
##c
##i
##x
##g
##s
##P
##1
##h
##5
##S
##j
##B
##v
##z
##I
##D
##F
##L
##O
##A
##N
##b
##0
##6
##k
##M
##E
##X
##G
##C
##w
##K
##*
##$
##2
##γ
##^
##/
##-
##'
##V
##Y
##W
##\
##,
##+
##Q
##.
##”
##φ
##_
##J
##π
##?
##(
##Z
##σ
###
##δ
##τ
##)
##∑
##=
##〉
##∝
##ˆ
##ε
##β
##≈
##]
##−
##ρ
##þ
##υ
##ω
##р
##е
##с
##т
##о
##в
##а
##н
##"
##~
##μ
##∫
##Δ
##θ
##:
##¤
##;
##λ
##Θ
##ß
##α
##ɛ
##×
##¡
##·
##<
##%
##η
##£
##κ
##ζ
##Γ
##ı
##引
##起
##矛
##盾
##的
##[
##!
##Ω
##Ø
##∀
##↔
##æ
##∇
##∞
##ħ
##Λ
##Σ
##ə
##ʊ
##ʹ
##≥
##ψ
##⇌
##�
##¢
##|
##人
##开
##心
##了
##我
##们
##也
##Н
##О
##ø
##К
##ي
##ج
##ا
##ب
##ة
##χ
##ν
##ƒ
##ᅟ
##`
##{
##枫
##水
##库
##′
##ч
##и
##ы
##ю
##щ
##&
##⟶
##⋅
##ξ
##∗
##Œ
##≤
##∆
##√
##ʼ
##✓
##‡
##«
##Π
##•
##}
##Φ
##ι
##“
##∂
##ο
##ς
##∅
##ل
##م
##د
##ن
##ت
##⊗
##‖
##Υ
##­
##@
##⇐
##–
##§
##>
##∩
##ح
##ق
##†
##⟹
##’
##⟨
##↑
##⁢
##​
##°
##€
##ʁ
##∧
##œ
##Ψ
##∁
##ف
##ر
##„
##ˇ
##®
##▲
##⟵
##♣
##ł
##□
##ˁ
##瑞
##林
##→
##⧹
##ˈ
##⋯
##Т
##ग
##द
##र
##श
##न
##क
##त
##य
##म
##व
##स
##⪡
##∈
##⌋
##〈
##ᯊ
##ᅝ
##‏
##‘
##⇒
##‰
##↓
##≡
##ɨ
##ɾ
##Ł
##♢
##
##Ξ
##◦
##海
##—
##∊
##і
##‒
##б
##ж
##г
##©
##鸡
##ˉ
##∪
##学
##娟
##ˊ
##∏
##选
##项
##ǁ
##⩾
##ו
##מ
##נ
##י
##ת
##±
##≜
##⁭
##樹
##Æ
##轻
##老
##志
##愿
##者
##Η
##ɔ
##Ζ
##ᅬ
##ᆬ
##Þ
##∮
##催
##化
##分
##解
##产
##氢
##秀
##康
##∥
##﻿
##〛
##ɸ
##»
##ð
##←
##Ð
##¶
##▪
##上
##٨
##ع
##ى
##ס
##כ
##ם
##棒
##控
##制
##≃
##∓
##△
##♦
##С
##л
##℘
##ɪ
##Β
##‚
##Α
##过
##固
##相
##烧
##结
##工
##艺
##备
##介
##孔
##▬
##■
##∃
##đ
##׳
##・
##ꞌ
##ɵ
##⩽
##Χ
##―
##郎
##Κ
##☆
##⋄
##∼
##树
##Ь
##ⱘ
##ᠽ
##Ө
##ʺ
##⋂
##⁠
##‹
##ー
##Ε
##▶
##是
##已
##過
##事
##業
##巔
##峰
##而
##到
##該
##交
##時
##候
##雨
##⋮
##兔
##仔
##ᄑ
##ᆵ
##ᇂ
##ᆻ
##ᆹ
##₹
##⌉
##⋃
##⌞
##⌈
##∷
##ʃ
##٠
##统
##计
##含
##硫
##天
##然
##气
##田
##丰
##度
##和
##地
##质
##储
##量
##ʋ
##合
##拷
##讯
##取
##众
##证
##为
##定
##∘
##佛
##湾
##Г
##
##☺
##篇
##Ο
##¬
##
##表
##䜕
##果
##明
##保
##局
##法
##院
##何
##¥
##复
##生
##ǀ
##¿
##Đ
##⿤
##⍴
##ː
##∨
##给
##他
##带
##来
##麻
##烦
##غ
##ض
##و
##▽
##¦
##在
##以
##子
##与
##摩
##尔
##比
##Р
##色
##旅
##游
##▨
##⁎
##⟩
##℧
##∙
##火
##要
##出
##格
##≘
##○
##米
##颗
##粒
##担
##载
##于
##其
##ւ
##➊
##➎
##⊤
##
##
##
##ز
##ه
##ᔺ
##㡃
##⦀
##ك
##∣
##ˑ
##励
##机
##花
##м
##х
##▿
##個
##›
##Ʇ
##➁
##А
##ሲ
##䰇
##行
##ᄤ
##ᘏ
##ᨽ
##ᇨ
##ʻ
##▴
##样
##会
##导
##致
##
##作
##⊆
##真
##⌊
##≫
##⥟
##⛩
##轉
##頭
##Е
##ᦦ
##ሖ
##ড
##ᑨ
##◯
##з
##ь
##к
##─
##һ
##▭
##Ͽ
##伦
##她
##一
##个
##门
##文
##走
##亮
##两
##投
##绳
##拉
##摇
##马
##就
##你
##抄
##组
##平
##柱
##扭
##非
##常
##圆
##良
##春
##某
##腔
##红
##之
##前
##吐
##店
##把
##雪
##皮
##提
##广
##扶
##打
##这
##魂
##将
##六
##馆
##后
##关
##里
##揣
##写
##着
##屯
##八
##泉
##头
##山
##铺
##瓶
##缠
##让
##拦
##夫
##纸
##被
##讨
##刨
##偶
##连
##楼
##谷
##中
##玩
##从
##路
##搭
##乱
##堵
##摔
##白
##丽
##本
##签
##木
##托
##班
##桃
##拢
##右
##昨
##洗
##安
##顿
##没
##有
##挑
##跑
##窗
##抚
##车
##拔
##冲
##体
##翻
##移
##桌
##风
##场
##东
##云
##筒
##单
##点
##哄
##拐
##收
##豆
##腿
##辉
##轩
##饭
##边
##赏
##阳
##空
##书
##十
##月
##攒
##阔
##线
##踢
##Ɵ
##ʿ
##镇
##❹
##⊻
##瞓
##吓
##覺
##≺
##判
##們
##學
##知
##識
##
##⊟
##始
##自
##己
##优
##势
##身
##价
##值
##◆
##÷
##Ι
##≔
##ɑ
##市
##★
##ɐ
##為
##ר
##ב
##ל
##
##护
##邻
##系
##В
##⋆
##ᅥ
##ᆸ
##ʌ
##Ф
##ɣ
##不
##做
##ʀ
##Τ
##⇔
##ᅰ
##ג
##⇀
##≅
##ɜ
##ʔ
##ԧ
##៤
##䫖
##ѕ
##⎥
##У
##⋀
##≼
##答
##题
##п
##▵
##∖
##⇄
##Х
##ʒ
##同
##时
##发
##新
##型
##碳
##方
##面
##更
##大
##┴
##▒
##⌃
##✠
##∽
##
##׀
##‵
##颱
##風
##來
##⊙
##⊕
##≊
##ҫ
##靖
##瑜
##㒧
##ᵰ
##㸼
##ᯢ
##ᔧ
##包
##⇆
##⟷
##⌀
##Ʒ
##ɲ
##❶
##
##≪
##▫
##貌
##у
##д
##⊥
##供
##些
##资
##料
##环
##反
##击
##战
##遠
##離
##Μ
##央
##研
##究
##漢
##語
##衡
##庫
##⁡
##Є
##完
##成
##溫
##習
##考
##試
##遍
##я
##采
##用
##低
##温
##∠
##⋱
##ц
##➔
##س
##خ
##幼
##♂
##孙
##邃
##金
##星
##٣
##║
##房
##◃
##Ɛ
##社
##聚
##伴
##侣
##离
##视
##⌟
##
##建
##设
##委
##员
##申
##请
##湖
##南
##省
##境
##厅
##履
##电
##磁
##监
##管
##职
##责
##є
##Ρ
##政
##府
##信
##息
##公
##条
##例
##苹
##▾
##ᅡ
##ᄉ
##ᅳ
##ᆷ
##可
##≦
##ѵ
##段
##话
##乐
##川
##●
##ص
##∕
##期
##接
##近
##理
##想
##剂
##求
##⊐
##ش
##➍
##‌
##⊔
##گ
##ɹ
##Ш
##Ѵ
##⪯
##⊖
##♀
##∴
##►
##▼
##食
##➂
##≳
##與
##科
##技
##溝
##通
##‐
##令
##任
##加
##入
##队
##伍
##很
##吃
##力
##ǃ
##振
##华
##☐
##⟒
##✕
##还
##背
##景
##黑
##效
##较
##好
##ɥ
##只
##能
##听
##怎
##么
##说
##应
##链
##网
##络
##И
##ˮ
##益
##共
##享
##契
##约
##ذ
##守
##刚
##西
##爱
##看
##闻
##推
##诉
##讼
##ɳ
##模
##式
##三
##维
##状
##ᆫ
##ᄋ
##ᅧ
##ᆼ
##│
##实
##◘
##⏞
##Ⴝ
##⦁
##ـ
##М
##持
##续
##展
##服
##下
##霞
##年
##五
##百
##億
##計
##畫
##、
##罪
##未
##首
##Ʌ
##˧
##ƞ
##⊂
##勇
##江
##苏
##元
##栋
##⁀
##道
##择
##⧸
##⊢
##外
##见
##去
##拍
##衣
##伙
##划
##ƅ
##⟺
##⇊
##都
##周
##刊
##‍
##蛙
##跳
##跃
##叫
##什
##亞
##區
##對
##國
##口
##形
##重
##唔
##驕
##傲
##♥
##小
##孩
##見
##別
##哭
##或
##受
##苦
##會
##難
##Ν
##䪒
##א
##隶
##麼
##辦
##⿢
##ᆩ
##П
##≶
##פ
##ע
##▸
##❷
##ɯ
##≐
##女
##多
##〚
##䞣
##䖒
##长
##٦
##⨁
##昂
##З
##策
##洲
##领
##吴
##鹏
##،
##ƈ
##射
##粉
##末
##衍
##对
##经
##活
##缺
##失
##件
##器
##物
##證
##需
##「
##✦
##幹
##区
##吸
##敵
##砲
##└
##师
##⸱
##↗
##意
##付
##种
##租
##應
##◇
##废
##旧
##池
##回
##处
##函
##参
##碱
##ө
##告
##败
##➃
##І
##涛
##⁄
##▓
##慢
##性
##疾
##病
##越
##普
##功
##❺
##ˍ
##ф
##高
##等
##手
##改
##变
##构
##ᆞ
##⦆
##吉
##徳
##栃
##朝
##井
##民
##ɒ
##ᅮ
##⊺
##䴶
##䖯
##㸠
##ߚ
##থ
##⿿
##➄
##ᄆ
##ᅵ
##Ѳ
##先
##析
##石
##墨
##烯
##半
##光
##特
##婚
##业
##主
##冬
##菇
##油
##窝
##飞
##速
##˂
##ʘ
##Ѱ
##现
##少
##农
##范
##
##姨
##ᑇ
##ഛ
##ᕘ
##㑺
##⁣
##此
##䯈
##≍
##ʾ
##ᅢ
##斌
##词
##语
##❏
##级
##属
##氧
##基
##材
##进
##⫶
##⥄
##善
##虫
##ш
##家
##次
##於
##歐
##盟
##今
##超
##兩
##替
##别
##ӕ
##字
##؄
##ܥ
##笔
##ӄ
##東
##熱
##幫
##助
##➀
##衰
##雷
##針
##传
##互
##帮
##初
##ʝ
##԰
##ᆮ
##ロ
##ハ
##ル
##双
##板
##具
##壁
##序
##ᄒ
##乃
##♠
##ܗ
##ث
##翔
##宇
##⍺
##᳆
##ϝ
##較
##長
##留
##ɗ
##ᴗ
##ᴤ
##务
##纳
##ґ
##ط
##觉
##得
##存
##⌝
##位
##繼
##承
##思
##維
##Ѕ
##顺
##利
##绝
##Ӏ
##э
##送
##掉
##條
##命
##∶
##ט
##ש
##ן
##冈
##窟
##ᅫ
##ᆺ
##Ƭ
##调
##
##
##早
##曲
##肥
##ᆾ
##
##≲
##➌
##ћ
##啟
##┤
##├
##源
##
##玉
##洁
##增
##熟
##瓜
##驱
##浓
##尿
##素
##逐
##渐
##切
##及
##透
##镜
##术
##征
##律
##
##爛
##ߕ
##硬
##ד
##↿
##⇂
##ᆽ
##当
##香
##▄
##ŋ
##Ч
##姐
##弟
##各
##校
##掛
##靜
##師
##翰
##居
##程
##终
##骑
##⏟
##況
##睛
##州
##希
##望
##搞
##。
##名
##亲
##违
##犯
##教
##养
##阙
##隐
##
##轲
##照
##顾
##♯
##祖
##父
##母
##嫡
##继
##慈
##查
##土
##耳
##消
##费
##容
##吗
##晓
##
##步
##挥
##义
##谐
##积
##极
##若
##干
##≻
##卡
##ɷ
##⇝
##国
##育
##岩
##集
##层
##并
##且
##布
##均
##向
##购
##买
##影
##响
##探
##淡
##漠
##羊
##补
##牢
##故
##品
##ᴓ
##那
##⊇
##所
##紫
##Ґ
##角
##ɤ
##赣
##目
##标
##块
##贡
##献
##⇉
##踩
##˭
##✗
##劲
##松
##
##僅
##記
##憶
##痕
##跡
##薄
##满
##草
##图
##浩
##沒
##修
##ϯ
##无
##味
##䖛
##ᕾ
##像
##疗
##铁
##造
##案
##
##
##
##┌
##⎟
##⎜
##氯
##锡
##※
##联
##刑
##˗
##降
##正
##勝
##坏
##ء
##ᅭ
##∋
##迪
##司
##代
##动
##ཞ
##◗
##ה
##够
##慰
##军
##远
##⇋
##ᴇ
##
##忙
##ɡ
##施
##福
##ण
##ड
##ल
##弈
##论
##Б
##呢
##径
##根
##据
##短
##内
##≕
##ঞ
##ޚ
##䗚
##
##⎠
##趋
##使
##沉
##淀
##ɱ
##ᄇ
##❤
##ᇁ
##磺
##率
##》
##便
##宜
##指
##数
##限
##╔
##☼
##靠
##⪢
##ᅣ
##贵
##县
##⎯
##⇕
##߻
##嘢
##苟
##梁
##ᅩ
##肯
##⬉
##媽
##將
##書
##給
##妹
##崇
##ᆭ
##↽
##◊
##商
##群
##官
##示
##热
##蠕
##四
##դ
##脑
##
##∵
##京
##决
##↙
##↖
##↘
##䖭
##
##ˎ
##毅
##焙
##抱
##恙
##場
##開
##放
##片
##咬
##卫
##帶
##傘
##∡
##阐
##述
##域
##⊃
##艳
##Ƙ
##⟸
##◎
##岛
##村
##
##
##又
##阅
##读
##胜
##奎
##⦿
##朋
##友
##怂
##恿
##娅
##⌜
##部
##≙
##第
##二
##∾
##鸟
##ᅯ
##ᆿ
##倍
##⊧
##晶
##财
##日
##报
##ƛ
##窿
##吧
##弱
##精
##神
##◁
##界
##列
##负
##◀
##係
##紅
##嘅
##ᮍ
##茅
##ʕ
##٧
##习
##ᆲ
##◽
##枕
##龟
##₦
##↦
##察
##䞥
##直
##间
##因
##Д
##波
##の
##さ
##き
##け
##へ
##黄
##埔
##⎤
##德
##Ϙ
##⦵
##台
##灣
##經
##占
##總
##⚬
##济
##箭
##伤
##逼
##清
##晰
##必
##须
##伟
##‧
##城
##污
##染
##ʎ
##⇵
##盯
##肉
##種
##興
##務
##显
##著
##妨
##碍
##❖
##革
##ϗ
##ߩ
##辟
##號
##闹
##這
##课
##室
##Ю
##▯
##原
##٩
##懂
##庆
##貿
##易
##極
##虹
##ۯ
##ၡ
##┐
##执
##ک
##棵
##售
##₵
##藏
##埋
##深
##
##踏
##庭
##措
##禮
##遇
##扬
##お
##ᆰ
##播
##简
##快
##世
##鲜
##儿
##➢
##✰
##龄
##排
##⨯
##困
##难
##孤
##⎕
##否
##ی
##针
##绿
##姓
##渔
##户
##◻
##Ʀ
##܀
##
##
##ɘ
##ᄐ
##ᅦ
##ᆯ
##⿦
##␣
##⎦
##⇑
##⇓
##〜
##⎞
##⷇
##๼
##෎
##全
##球
##
##ǂ
##如
##遲
##姣
##奇
##异
##斯
##⪈
##辛
##巴
##誕
##谱
##溶
##液
##酸
##⇶
##⇻
##⠽
##≝
##⎔
##克
##眾
##往
##ጬ
##ዄ
##卓
##ח
##微
##辅
##≧
##宝
##珍
##该
##辨
##认
##˃
##佪
##规
##审
##批
##医
##适
##绩
##ᗻ
##㛑
##ᕅ
##ડ
##惯
##喝
##‟
##ظ
##狼
##钻
##纪
##旄
##再
##ꞏ
##ѳ
##哋
##佢
##紙
##鹿
##流
##ᆪ
##乙
##醇
##㣗
##ݙ
##հ
##視
##岡
##锋
##
##ᆶ
##‬
##⊣
##⨥
##裕
##芬
##河
##ጠ
##ᣀ
##鸿
##贱
##奸
##オ
##ク
##サ
##點
##呀
##万
##亿
##立
##秋
##但
##纤
##距
##健
##護
##強
##調
##节
##兴
##胖
##乎
##椅
##坐
##潇
##Ɂ
##
##腦
##層
##漸
##叼
##颜
##眼
##英
##ҡ
##括
##页
##狱
##Ʃ
##Ɣ
##姆
##厭
##⊘
##⎣
##㗗
##ᆳ
##⦙
##Ʈ
##燒
##腐
##嫩
##滑
##ৠ
##婢
##奉
##ᆨ
##酯
##最
##启
##◑
##汽
##〕
##ꝏ
##⩝
##✔
##◬
##吣
##⇅
##每
##樣
##情
##ᡔ
##ᄺ
##䰶
##Ꮉ
##缌
##卑
##≽
##牧
##鞋
##ᤃ
##ɽ
##ㄨ
##ㄚ
##
##荣
##ǥ
##ᄎ
##ᅱ
##張
##ᄀ
##甲
##丙
##附
##聪
##≑
##ょ
##た
##ん
##驳
##⊿
##裁
##注
##⁓
##⁃
##ϟ
##Ϣ
##彦
##ҷ
##⦻
##₤
##ƙ
##俊
##ᢝ
##趙
##協
##軸
##‪
##關
##閉
##稳
##算
##ꙍ
##圾
##焚
##厂
##菜
##婆
##逾
##换
##夜
##晚
##既
##嚟
##⊝
##
##武
##⧫
##⎛
##幅
##妾
##殴
##涉
##士
##撤
##義
##⿫
##〇
##➅
##⨸
##Ɩ
##ẟ
##辐
##博
##
##㹿
##䞡
##㜤
##㱔
##ᄌ
##扩
##典
##ˋ
##≒
##矩
##阵
##待
##诚
##⪆
##術
##版
##⊩
##团
##议
##⪰
##則
##ԁ
##‎
##画
##评
##炭
##总
##虑
##巧
##拙
##争
##谢
##⇈
##
##ɫ
##ɩ
##⍬
##尽
##权
##软
##尊
##怜
##垃
##害
##确
##◌
##臉
##婦
##˟
##升
##ק
##则
##莉
##专
##太
##ʙ
##架
##副
##哦
##它
##达
##玲
##谦
##❸
##蚀
##
##暴
##۰
##⅁
##擠
##堆
##裡
##搶
##啊
##➋
##參
##補
##⦾
##钢
##琴
##兰
##␢
##ʧ
##◾
##暂
##办
##密
##吻
##⌢
##伶
##追
##蹤
##旭
##圈
##破
##感
##⪅
##珠
##席
##青
##ᅲ
##ᆚ
##ᑺ
##✖
##⋁
##落
##厉
##⌷
##几
##⚫
##ߣ
##話
##
##阿
##悉
##ܫ
##际
##Л
##⥂
##类
##梅
##٥
##∢
##進
##員
##《
##Ҏ
##减
##赎
##領
##動
##⊏
##茶
##爸
##撥
##電
##⋍
##垴
##辽
##
##ߝ
##┄
##⋙
##塘
##筆
##泻
##寺
##硝
##苯
##酚
##徒
##䴲
##㒓
##ᢳ
##檬
##࿧
##◼
##殊
##↕
##俸
##⌒
##⇁
##烁
##辰
##弄
##堂
##谈
##王
##姻
##聘
##支
##盐
##怕
##連
##飯
##足
##欣
##嗮
##街
##讲
##祠
##߄
##Ҡ
##ᄃ
##籍
##袋
##☨
##洱
##ᶊ
##⌕
##∟
##历
##史
##筑
##
##‿
##濟
##體
##佔
##岳
##由
##內
##美
##退
##١
##餐
##
##ㄥ
##審
##音
##配
##詞
##樊
##қ
##仙
##⿲
##討
##邀
##請
##際
##級
##演
##講
##貴
##賓
##猫
##玻
##璃
##仪
##客
##讚
##譽
##谁
##错
##渠
##装
##ᄅ
##䆡
##⎭
##嘉
##䜡
##ԡ
##ᬜ
##ᇍ
##ɚ
##哲
##↝
##〔
##೼
##挂
##ߗ
##㦋
##ᕫ
##њ
##Ꮧ
##乫
##運
##氣
##⎩
##恶
##⌐
##還
##認
##ף
##潔
##燃
##慧
##仍
##屋
##聊
##⊡
##曦
##卷
##凝
##胶
##召
##似
##铃
##
##फ
##ъ
##住
##◂
##祥
##巾
##⋈
##
##₸
##￼
##叡
##许
##份
##≌
##氛
##詭
##異
##⊛
##刻
##ᆱ
##ব
##除
##ԗ
##舒
##暢
##馨
##独
##识
##记
##➆
##醫
##療
##發
##趨
##勢
##創
##み
##る
##レ
##ア
##メ
##タ
##溜
##穩
##陣
##尾
##羽
##毛
##詰
##怡
##问
##躺
##
##
##◄
##岁
##鵝
##趕
##救
##機
##旻
##昱
##ϫ
##⿼
##鬼
##遺
##忘
##⤳
##偷
##毕
##耽
##误
##沟
##喜
##欢
##灯
##吵
##赞
##亚
##朴
##至
##✸
##焦
##餓
##死
##祝
##杯
##脏
##拒
##✧
##港
##畴
##
##☉
##止
##偠
##ᅸ
##䭓
##凯
##϶
##滨
##髫
##输
##≷
##咗
##妻
##ĸ
##冶
##め
##に
##ᴖ
##從
##左
##逗
##☒
##ᖫ
##找
##
##צ
##➐
##倒
##态
##┼
##〖
##⎧
##䗦
##˄
##ʇ
##按
##骂
##才
##ह
##ซ
##丨
##櫚
##Պ
##ఉ
##练
##铈
##➝
##休
##⨜
##䗮
##ᠿ
##ᦣ
##号
##≿
##晖
##し
##コ
##ム
##ԑ
##∲
##後
##٭
##咨
##询
##↡
##↟
##↞
##↠
##⨍
##盗
##
##
##宾
##Э
##✩
##脱
##依
##赖
##窘
##稱
##⚪
##言
##彩
##障
##⇾
##徽
##迎
##☓
##ܣ
##丢
##坊
##劝
##榜
##䅵
##⦸
##绍
##発
##耐
##震
##設
##⧖
##彪
##悍
##露
##⟼
##族
##報
##־
##燕
##ᄏ
##
##Ƞ
##昭
##呼
##໣
##い
##钛
##钾
##哎
##揭
##忠
##纯
##蕉
##耦
##免
##遣
##卖
##導
##君
##ⶀ
##ᗕ
##❉
##延
##寿
##ך
##炔
##圓
##⿥
##ӊ
##₢
##牛
##码
##⬠
##稿
##泛
##磷
##拓
##ߧ
##
##释
##
##ネ
##キ
##ᬑ
##细
##强
##千
##═
##款
##映
##ȷ
##偄
##幸
##⊲
##➏
##跟
##遵
##訊
##網
##串
##聯
##纲
##⇨
##᯹
##纠
##纷
##另
##▷
##钱
##ᴛ
##恒
##
##ᄂ
##處
##≾
##朵
##北
##座
##Ж
##忄
##夌
##䩰
##Ϯ
##う
##协
##治
##間
##派
##
##੠
##敬
##複
##⌍
##臭
##ᴂ
##ђ
##ᅪ
##睇
##⨿
##季
##嵌
##໻
##膜
##灭
##菌
##䆫
##ᖋ
##围
##⊵
##妈
##筛
##ラ
##イ
##ン
##威
##↤
##䖥
##ଚ
##ક
##❨
##愚
##杂
##∐
##培
##训
##⊨
##ࡼ
##刷
##䚥
##Ꮂ
##䕏
##萍
##赚
##整
##減
##負
##擔
##烷
##溴
##铵
##亳
##無
##ȼ
##⪷
##⎡
##临
##凡
##ɀ
##臨
##邊
##緣
##危
##诸
##殷
##⋰
##ܕ
##り
##ⱱ
##he
##er
##on
##ti
the
##es
##ed
##en
##in
##al
##or
##at
##nd
of
##tion
##an
##ro
in
##it
##ar
##ic
and
##ec
##re
##as
##ing
##is
##ent
to
##el
##ac
##ation
##ol
##ur
##et
##mp
##le
##ect
th
##ig
##st
##ul
##ly
co
con
##id
for
##ith
##ow
st
##uc
is
##ter
##ve
##il
The
##ity
with
re
##us
##os
##ce
pro
as
##ot
##od
##ge
be
##lect
al
##if
an
##ab
##im
##tic
##ap
on
##ut
##um
elect
##ir
at
##ess
##ver
ex
##ate
was
that
##ure
##om
##tin
##ated
are
##ts
##ment
de
res
by
##am
##her
##ical
##ain
##si
##ad
##ri
electro
##ting
comp
ac
##op
##ay
##ere
ch
##00
##rom
us
en
##igh
##em
##pp
sh
dis
##tive
##ch
were
##eri
##for
##qu
wh
##iz
su
##tiv
or
).
sp
##ud
##ff
##oc
##ell
pr
##ance
##un
from
##ers
##gy
##duc
##ous
##ant
##ich
##yst
##fer
In
##se
##ies
##per
##able
##ine
Fig
ad
str
tr
inc
##ted
per
##form
met
##age
##th
which
Li
cont
##ition
can
##les
##ase
##ore
##ion
dif
##ations
mat
##ely
##and
),
##als
##ence
show
imp
par
##ak
##ou
##ag
##og
high
car
##ther
cap
##all
##hem
##arge
eff
inter
app
20
et
se
##ace
##atter
##te
##rou
this
##ign
ne
##ave
##hen
sol
19
].
ob
##ility
##ased
##ergy
##sis
##ents
##ib
##uct
##ific
##ide
##ved
##yc
materi
##str
ind
nan
##enc
10
##vel
##ans
##ally
##cess
ph
##ution
le
mod
##ech
##action
ab
##hod
electrod
stud
have
##ue
##enti
##ati
##tr
##sion
##etw
##act
##aly
perform
##ens
capac
pl
##ystem
energy
not
##amp
##ite
##ium
Th
##low
##vi
pre
##ties
me
##ort
resul
gr
sc
pol
sur
##ric
##ding
differ
##hemical
cyc
##bon
##ating
te
##so
##O2
exp
rep
##erat
##ors
##est
batter
rel
##ear
ion
system
cell
int
incre
.,
##ower
hy
##ong
##par
##ron
has
struct
also
##een
cur
##uld
it
we
##face
##our
##uch
temp
##ary
used
##ari
##etween
resp
##ip
between
##rib
carbon
un
##lic
ox
##ll
##ates
##ach
ass
rec
been
##end
trans
##ost
form
red
##tivity
process
using
than
##dition
##yn
##ork
##ill
##ability
##gh
cat
##orp
he
com
sub
##ang
electrode
##ied
201
##ble
des
##ight
##tain
##ves
##ures
ev
Co
##yl
##tim
##ater
##ene
200
##ard
temperat
##ound
##ici
val
analy
based
##erm
##ection
pres
##tively
spec
This
tim
capacity
vol
surface
conduc
##fter
dec
##out
##ep
##yp
##uring
materials
performance
##lo
##ree
det
##wo
electroly
produc
sign
##gen
cor
##iv
##der
##ia
##lu
##ass
##ange
samp
##..
meas
cons
##ym
##O4
partic
dep
##res
##unc
##ative
##ized
##arg
##rent
##gr
gen
und
more
##ser
##anc
method
temperature
their
effect
compar
two
reduc
##ments
different
compos
##ist
pos
am
mic
##ond
conc
##ack
these
##ew
other
##ros
vari
12
##rop
##ose
##ile
such
##ata
under
##ever
##ub
##ency
##ial
##ization
electroc
##unction
##ox
results
current
##ual
grou
##oth
##ential
##mal
hyd
model
##aus
low
study
over
##tical
hig
##echn
##velop
##br
li
time
cl
##ome
reaction
pot
pe
rate
##ular
grap
##here
15
Ni
power
into
cr
structure
no
##ber
after
##ast
out
11
during
disch
199
##ory
di
group
data
##olo
shown
battery
acc
all
##mon
##entr
##ues
##ected
develop
##ology
##the
contro
op
##ensity
##ail
##lud
its
signific
obser
##owever
obtain
##ectively
ar
syn
typ
electrolyte
electrochemical
mA
##ases
##acter
##olog
lay
diff
lith
gener
reg
##ollow
electron
one
##hed
but
ag
higher
##ms
function
solution
##ys
##ix
##ra
Al
It
peak
significant
##reat
##ling
##ize
min
indic
techn
##ress
man
material
due
##urther
##ides
##ined
##ould
hydro
##ention
##irst
##ane
ther
cal
As
metal
##orted
work
sim
##ha
impro
##ust
may
both
supp
charge
proper
discharge
fil
13
im
up
##perim
col
Fe
cm
spect
prov
##aracter
100
prepar
##ord
##ities
analysis
water
##usion
well
lithium
present
##ites
use
specific
respectively
num
##mis
only
##fore
##ne
##ie
density
batteries
For
##2O
sm
##trib
##echan
##itive
##av
potential
applic
##ulf
##ob
includ
##oun
concentr
synthe
##rough
bi
14
character
volt
could
obtained
bec
there
effici
25
rem
##hib
follow
However
##EM
##ective
pati
calc
##ider
ver
##ited
##ind
level
##ame
##tig
Na
observed
first
16
##amet
##ood
main
sel
##vic
cathod
stor
##one
##ulation
when
##row
anod
mem
phase
##ensi
mechan
appro
##iel
##its
##NT
cells
##sible
addition
##hene
layer
where
##lex
equ
##ax
found
polym
##ause
inf
30
properties
##cc
tes
##ural
##ry
through
po
##ences
each
##gan
es
condition
experim
mol
18
def
##iver
fact
##over
##atic
Ti
reported
##ke
##orption
##que
##eng
shows
##iti
##vestig
control
Mn
##ick
##ough
##oci
##ield
Con
most
will
conductivity
##ays
consider
prop
mon
measure
##ath
##lement
##ning
non
investig
##osp
oper
##ets
decre
so
##ov
disc
design
range
graphene
Ch
##ark
##havi
qu
storage
##led
],
##ination
##ove
##ants
samples
##ently
##ured
50
cost
##uel
##ale
conf
17
area
##tics
##osed
##orph
compared
three
electrodes
##ages
studies
requ
order
increase
##omp
number
lo
stability
##ulated
##earch
large
patients
##tit
por
id
cycles
##ult
##ects
Si
size
cryst
##ilar
voltage
##cep
An
##cop
lower
##vir
small
behavi
##up
Cu
determ
En
lead
##viron
##gg
Table
test
respon
chemical
further
##zed
about
cathode
sample
dir
prepared
24
##mission
##vious
##ological
##adi
There
nano
##ational
lim
some
##ole
##alyst
systems
##tal
mix
comb
Sn
##mer
##....
import
##ental
treat
bl
Re
state
dop
exhib
gas
##uted
values
devic
value
fr
ions
##sorption
##now
##roduc
fin
loc
while
they
##ness
cycle
composite
term
##ade
##til
##The
active
same
##edic
21
##resp
##formation
initi
acid
198
##ive
fe
##ire
new
sulf
fre
We
##hy
##other
##roscop
##aining
##vironment
##tern
anode
formation
nm
Res
enh
demon
Un
These
mul
demonstr
sugg
thermal
showed
##ism
22
ins
add
occ
exc
effects
then
solid
micro
##ful
long
##loy
year
rati
##are
##ically
optim
sec
To
Zn
because
grow
separ
efficiency
phot
##alu
aut
##ex
prec
Sc
oxid
transfer
increased
concentration
paramet
Mo
##ks
volum
St
##artic
conditions
distrib
corresp
fuel
electric
00
organ
##ild
##con
she
sever
frequ
reduction
nanop
activity
av
heat
cycling
air
treatment
type
activ
associ
##asing
40
€“
##O3
##tes
##entif
##ten
##ired
##ake
chang
##hic
our
##ount
disp
flu
##agn
similar
##ses
evalu
23
##crib
groups
improve
##omet
load
ret
##ump
##ise
del
##osition
inv
##sy
had
do
membr
important
##ines
environment
resist
should
##ics
polymer
##ains
sens
##Co
very
28
case
PA
##rr
within
flow
##ygen
##af
consis
would
##hie
##ator
##rical
performed
good
need
related
catalyst
achie
##ified
line
applications
##ible
oxide
##brid
##ances
##50
PV
##let
research
##S2
##struct
##lear
##ength
particles
##ug
##sor
peaks
##lied
##int
region
##old
sl
ref
sti
assess
development
result
##ER
##olution
press
br
##ute
##round
##ried
ratio
those
total
##rap
med
##PS
##irc
%)
##ivid
various
##onding
##gn
conver
multi
##10
change
repres
26
oxygen
##ording
atom
compon
sour
expl
graph
characteris
diffusion
##ivers
##rel
field
neg
nanopartic
##etwork
second
stand
##hyl
##ross
##12
##ren
27
transp
##ward
volume
##imum
##IB
##aper
##ores
like
##ingle
##ES
##ier
depend
film
charg
without
know
##ety
##sych
fl
ext
including
##quid
prot
##ft
##ins
lif
max
fac
adv
initial
extr
##mun
molec
##tions
##Cl
previous
##oss
##ving
capacit
set
measured
hydrogen
##ink
##verage
above
less
vis
network
significantly
morph
##ffici
emp
occur
##anes
60
##ann
proble
##attern
##Mn
##ained
##etter
##met
hybrid
##ison
resistance
super
techni
Pro
gl
##ven
29
estim
poly
mass
##ension
distribution
mAh
##ately
tran
single
interaction
complex
##lis
pattern
sugges
rever
##roscopy
bas
examp
##air
dim
liquid
methods
##ey
end
production
##und
##sequ
##ces
II
##view
##GO
##ince
aff
following
##anced
discus
associated
see
##ually
functional
increasing
behavior
synthesi
##ilic
##2S
nanoparticles
identif
calculated
ro
nat
35
strong
33
##bal
##ification
induc
frequency
##med
PC
porous
step
describ
parameters
##ock
##ynam
32
##put
changes
Therefore
##ustr
predic
direct
life
nit
transi
paper
CNT
TiO2
band
peri
##abric
larg
##ason
approach
proposed
##ture
##RD
any
##atively
nor
synthesis
ve
ser
##ression
##itor
31
electrical
Ex
presence
developed
More
transport
much
information
##oid
content
##though
presented
adsorption
##ok
##alytic
path
bu
##elect
att
pur
dr
contrib
##iven
PE
##vent
circ
##yr
considered
##aw
##tegr
##inc
ionic
response
##vention
strate
coun
bel
reduced
dem
measurements
Further
##hes
average
several
##Fe
compound
growth
even
better
mg
##aj
##SA
investigated
80
##ced
sulfur
fabric
possible
example
Ag
01
##cept
##SI
applied
subj
##ct
corresponding
structures
gre
amount
years
sites
const
allow
tests
correl
thick
eV
progr
##alth
many
ful
crystall
emission
##red
CO
36
##ice
prof
individ
util
via
nanoc
processes
##In
##NA
37
##els
##lusion
controll
free
##20
##inal
##cap
species
provide
levels
oxidation
bin
##imp
pressure
sal
lit
if
influ
##ults
##pec
reve
mean
standard
34
el
avail
On
positive
organic
##atory
application
##agne
##istr
##eter
Elect
devices
synthesized
##eed
##urn
##iversity
Comp
##rogen
wind
child
##Cs
electrolytes
##hip
At
invol
ear
period
##3O4
inst
De
##fac
stable
tas
eth
exam
scan
##itu
##ily
##cal
##rip
wt
##atis
After
##tice
vehic
##ellent
dom
diss
##ital
##ty
solar
##sed
attrib
reactions
suc
Energy
integr
mechanism
scale
collect
mm
simp
experimental
Ad
##less
excellent
doped
membrane
off
##OH
##art
mark
##app
dist
maximum
##ules
reac
still
coating
45
real
given
thus
effective
##oph
deri
##az
##lay
hum
comparison
caus
##ern
containing
loss
contin
ele
highly
being
phys
refer
increases
contr
##Ps
studied
rele
particular
##roc
situ
confir
em
##11
38
constant
##ph
ris
spectra
negative
Ph
clear
improved
##stit
XRD
##stand
##ably
##de
##IBs
composition
provid
University
##ograp
%,
##gine
hand
##omb
All
made
part
prob
capacitance
self
cogn
##ration
##anol
##ologies
generation
radi
##emb
##lor
##ina
CV
light
##fact
electronic
pow
films
fib
Su
nanos
particip
##ables
##tives
05
substr
##ogen
class
point
demonstrated
Bi
SE
##ish
neu
structural
##val
four
##osph
39
##ulations
rates
kg
factors
prim
graphite
sensi
rat
factor
Mg
curves
weight
##xim
constr
##fficient
anti
##2O3
times
diffr
##Ni
##aled
##tom
##agnetic
##gor
represent
##orm
##aking
fo
##AT
##arch
##conom
##erior
transition
complet
difference
OH
prac
ray
##abil
carried
##ateri
Moreover
characteristics
determined
##nal
##uration
morphology
##umption
auth
resulting
Thus
appear
redox
success
age
role
48
before
dimension
##tor
##ajor
##ions
models
95
therm
mo
##ering
short
Sci
sum
introduc
feat
##ymp
ul
lat
particle
##onal
products
##erg
composites
sem
##ication
available
3D
pers
##ma
differences
##sorb
decrease
##IS
##sib
CO2
##ially
silic
vi
##........
CN
seen
cer
common
ill
foc
around
mes
##rial
general
larger
described
70
mechanical
employ
##2O4
vs
##to
##merc
NC
Wh
TM
44
##lementary
major
##reated
demand
them
##PO4
42
section
##inical
##more
qual
relations
##queous
formed
SEM
02
##idence
GO
seri
great
##ings
device
CH
components
##au
conn
review
##ner
proced
bond
##mit
among
technology
post
Pt
43
attributed
ste
##co
pH
flex
##osure
est
##ian
source
##grad
##sive
MO
500
required
thickness
##anti
phen
##itation
90
room
charging
##ons
cognitive
stress
hel
focus
thin
compounds
consist
indicating
kine
##odium
Furthermore
ed
##ule
##ral
product
##iation
rGO
conversion
##ques
Results
relatively
require
interface
When
health
sw
##izing
continu
75
detail
commerc
econom
##ld
near
precur
##ither
diffraction
temperatures
environmental
SnO2
##enef
did
He
aqueous
dri
approxim
##uture
reason
plas
Ac
##osis
assemb
reversible
##orous
##SC
Met
back
##reg
concentrations
Ar
known
##aling
pure
53
##Fs
##lished
##abor
experiments
##ei
##MS
##ords
according
##ude
children
enhanced
shap
##iss
magn
##amm
##rix
support
linear
eas
99
finding
##line
##min
diamet
Ind
consumption
stim
shell
##ires
prote
##ON
who
300
##uit
##ynamic
normal
local
EC
41
relationship
##cer
coated
AC
achieved
imped
oxides
enhance
vac
##own
toward
##iform
advant
crystal
layers
46
spectroscopy
along
##EC
Tr
coe
##ler
benef
since
Sp
##agement
sup
risk
##ching
47
55
##capac
electricity
##AC
contact
O2
problem
##AN
##ots
orig
promis
##ram
##arm
TEM
##ompos
theore
conducted
expected
polar
mV
##ode
##icity
03
##pper
matrix
exhibited
Br
ability
maintain
operation
produced
act
##ferences
tox
Me
images
deposition
length
pore
iss
Cl
##aterials
induced
Se
Pb
PP
##ethyl
##istry
coup
side
nanoshe
capability
however
##erature
##TO
ultr
atoms
##ressed
##cent
cases
##ators
targ
##acy
mixture
##isms
sodium
##omen
mainly
##13
multip
wor
wid
##tine
##istic
position
impact
limited
##sp
few
##OC
ED
authors
types
dise
waste
arr
pop
cent
PAN
phosph
ep
MnO2
##ended
nec
poor
##ogene
##of
pub
physical
recover
##inated
uniform
cool
##ously
##ledge
relative
commun
Although
obj
activation
nuc
open
##any
inj
tested
day
##ret
indicates
way
speed
intr
MoS2
nanostruct
##akes
shif
##ventional
##TI
influence
deg
##ocial
rap
deliver
54
##rol
working
intercal
understand
altern
glass
##ote
top
##hest
##eration
##part
areas
added
cross
commercial
attention
supercapac
potenti
saf
memory
μm
##rum
##ision
impedance
accur
sk
decomp
alk
exposure
With
technique
alloy
No
future
does
##tered
yield
solutions
nitrogen
human
197
##ared
##omes
reduce
efficient
catalytic
spin
element
either
##li
Conc
derived
##vation
49
000
##MC
chall
##otor
decreased
Supp
diffic
##urb
quality
might
##PC
##AS
modified
followed
core
##ised
terms
inhib
##ries
below
mL
Am
##PE
typical
experiment
bar
52
sensor
##orpor
individual
bro
theoretical
##hyd
##zation
provided
rapid
##pecially
output
2017
elements
heating
))
##ouse
meth
promising
Sh
##ector
substrate
##aken
space
diameter
nanocompos
##roduction
##orts
successful
strategy
site
heter
resid
conductive
catalysts
bul
##bi
psych
patterns
buil
##ogn
mixed
again
full
defined
##tically
task
##ession
Le
##ining
exch
gene
techniques
ge
agg
overall
degrad
plate
lik
##pot
##16
##ger
##hemistry
H2
##crip
400
65
##tle
unit
recent
magnetic
nanof
greater
China
Sim
clinical
spectrum
metals
grid
measurement
whe
powder
absorption
measures
##ymmet
summ
novel
##ylene
SEI
Rec
conventional
OR
Fin
##ulate
react
##aging
67
interest
fram
hom
##ank
biom
chann
LIBs
processing
monitor
##heres
##14
##man
##aving
##ickel
doping
provides
means
##me
##enew
56
##ET
inser
depos
They
record
indicate
diagn
literature
direction
solvent
lattice
##ody
contrast
controlled
##acts
##active
retention
##ensities
##uter
bo
testing
nanot
hal
##gorith
%.
##ibility
smaller
sch
##electric
link
simple
Ne
therefore
indicated
pul
##arbon
limit
CNTs
##ritical
Ca
how
engine
ow
facil
pri
##ubes
glo
##ether
mob
capacities
err
Cr
necess
subst
##ending
generated
adj
2018
best
##ymptom
fast
oil
pack
especially
##ework
nature
subjects
##iting
##faces
config
nanosheets
intensity
Figure
highest
component
sources
problems
Sch
##medi
##ored
SC
operating
must
illustr
discharg
##ales
##SS
brain
series
help
57
MW
##read
additional
##sequently
##ze
AN
ang
preparation
##sess
##osity
##itable
coll
dou
2016
abs
circuit
assessment
##Ti
Conclusion
image
85
App
fit
bulk
determine
tri
##izes
2000
superior
##order
detection
revealed
correspond
remov
primary
2015
Li2
directly
key
discussed
algorith
##lust
##way
molecular
across
##MO
multiple
##AR
##DF
whereas
##ton
treated
curve
valid
Research
target
designed
##allic
management
reference
emissions
##15
gu
##ols
##mosp
##ensive
month
##IC
behaviour
63
##ique
##land
framework
included
##ems
achieve
read
lear
features
58
another
molecules
employed
##hold
bound
construc
expression
parti
gel
evaluated
La
prom
exhibits
disease
approximately
Eq
##itors
natural
display
##sibility
analyses
IC
1000
##Li
##xt
##ED
##ustion
membranes
scores
identified
include
Acc
mode
instr
dependent
64
down
##olar
technologies
##troduction
stage
slight
supply
##ecting
coal
##FC
Co3O4
##aced
##apor
reli
AD
estab
decomposition
sequ
##olved
often
make
drug
Ram
fail
nickel
Ab
##iat
degree
##most
selected
days
distance
corr
hydrox
fill
##enz
rang
patient
##MA
anim
degradation
##ints
##ept
strength
participants
likely
##ways
procedure
##alled
variables
##ffor
##vant
proj
##roly
ques
##ufact
consistent
##enewable
References
signal
amp
interactions
contribution
XPS
IL
symptom
exhibit
upon
##encies
.)
resour
##roph
previously
##oles
NH
go
difficult
cre
66
##Se
##ters
place
atmosp
##umin
pp
findings
##ware
mill
evolution
Cd
broad
states
internal
##reen
fraction
##CNT
##ube
2014
adsorb
py
##alysis
##30
caused
##epend
##ense
##ify
drop
salt
kinetics
59
##acted
##ta
##esting
wide
optimal
loading
dimensional
binding
##organ
estimated
evidence
recorded
experi
72
centr
least
##isc
62
exis
##ung
##iles
feed
transmission
vehicle
Pol
star
##IN
##lit
##ropri
intercalation
##son
mesop
discussion
##rochemical
repe
##ival
##lood
CA
Techn
##oxide
fabricated
extraction
mechanisms
costs
2D
NM
separator
flexible
##lying
precursor
##pr
Science
phases
social
collected
vehicles
indust
minim
dry
sci
##ument
incorpor
clust
soft
leading
From
statis
assum
equation
PD
coefficient
sus
##eived
view
##CO
safety
clearly
semic
densities
asp
vers
tet
coord
Pr
##18
Finally
One
suitable
##2O5
strateg
whether
critical
carbonate
attr
##orphous
etc
polys
almost
CC
combination
schem
cann
ide
98
avoid
Raman
early
fluid
##ird
96
program
produce
care
decreases
##rier
examined
##amine
Experim
mice
far
acet
removal
simulation
);
correlation
##iteri
2013
confirmed
##otyp
##atalytic
suggest
combustion
substit
here
able
##incip
photoc
fam
plant
implement
practical
##raw
##etric
##aff
access
polymers
##bers
ir
##ope
taken
2012
68
rather
##andom
report
leads
ax
left
market
solv
final
unique
microscopy
Key
MS
According
##hol
towards
rob
##ah
##by
photo
By
crystalline
usually
combined
building
chlor
manufact
##TA
aim
hist
regions
PS
##DS
##enari
##elling
##ortion
##omm
78
77
##rate
NPs
facilit
##17
disorder
wee
improvement
counter
bre
performances
amorphous
##PA
If
##ool
2010
USA
ORR
characterized
PANI
ZnO
artic
methyl
certain
fluor
close
exchange
renewable
hour
##ryst
##lace
##sing
half
supported
appropri
exist
slow
double
Au
##igned
index
variation
criteri
shape
stabil
later
cover
hollow
templ
##ipp
sensors
run
##thermal
##ury
##60
cyclic
poll
##ai
prior
##come
consum
analyzed
protein
##icial
iron
move
74
##astic
ur
##ierarch
##hers
necessary
##FP
knowledge
##urop
percent
##och
150
Ge
##aboratory
soil
##OL
MC
widely
independ
##entioned
nucle
hard
characterization
gap
cooling
dried
1995
right
enc
scanning
##odes
servic
five
##ternal
optimization
##anad
mel
Inter
fix
97
numer
##partment
New
Supplementary
ens
##19
evaluation
##25
##utes
economic
##uals
resolution
##rient
dam
DC
layered
Then
fer
although
cho
random
fav
investigate
GC
69
black
interp
##aches
2011
input
polic
##ring
play
##atus
log
##sequent
electrons
reflect
kW
##antit
activities
ethanol
princip
therap
##tif
##eral
Since
##erc
CD
alkal
precip
motor
grad
scenari
rad
##inter
anodes
##ffer
##inity
##onic
##earc
involved
Zh
body
follows
strategies
suggested
##ogeneous
##ef
##ceed
continuous
##sc
##know
detected
needed
separation
possess
##iated
agree
##inant
##set
##ext
sust
pyr
##ombic
recovery
##seud
):
alternative
window
challeng
copper
aggreg
plan
characteristic
disper
block
opp
##tric
##enced
onto
radiation
##istine
obvious
stimul
Des
##ometric
##ST
sensitivity
##omer
LiFe
corro
600
effectively
##oses
hierarch
ol
120
cannot
optical
##oral
##Ox
##AL
learning
polysulf
##H2O
2009
though
##RI
insertion
functions
emer
against
nanow
##ivalent
account
73
##ends
purp
medium
ever
##erization
identify
94
generally
cut
##ronic
800
become
##tis
##ash
##ders
##aching
ml
weak
Gr
##ference
##GA
##mic
appropriate
points
76
Similar
population
During
PM
nanofib
##II
##22
irr
##ges
successfully
transform
advantages
##eness
recently
##uum
##atalyst
parameter
issues
anne
algorithm
##ersed
##ising
mac
##yt
##Vs
silicon
regard
cate
suggests
reducing
##balt
carb
CF
pristine
hydrothermal
las
##orting
79
fully
m2
##ights
##EN
2006
score
87
basis
##ibr
##RT
wa
2005
located
plane
cause
represents
metallic
III
evaluate
rout
effor
visual
approaches
complete
strain
presents
NiO
##loys
##As
##ansion
adop
researc
Based
##rem
##eline
2008
So
##acing
phenomen
tog
Here
chain
received
together
surfaces
symptoms
##verse
2007
profiles
tun
##van
##acking
Sb
arch
86
Be
##io
##sk
##ultane
responses
sat
expansion
easily
bal
##40
theory
##pol
2004
ST
##itect
useful
##abol
controls
nanotubes
concept
##AB
Instit
001
charged
##rosp
##ero
pair
mut
quantit
har
##ground
cm2
slightly
##ones
plot
respect
having
vacuum
introduced
##organic
##words
affect
Sub
##ustry
cle
rich
blood
Method
polarization
pyroly
subsequent
First
occurs
##ilib
##ections
88
##TF
ess
che
composed
assis
hex
##di
industrial
Addition
bio
tiss
+,
pas
##luor
S1
pseud
1994
While
CS
recogn
atmosphere
admin
DNA
SA
force
understanding
cation
orient
tasks
accel
83
##ography
##HE
green
##use
exposed
arg
individuals
vary
external
cobalt
secondary
sheets
host
##uk
suggesting
##Al
units
whole
trad
##atial
deposited
foil
tit
profile
##vers
##oxy
##OS
recyc
51
)-
nam
configuration
PB
activated
cult
##amin
Gen
##apping
##orb
integrated
stirr
Inc
versus
variable
##lications
global
fund
##ectivity
##asc
alloys
base
##CoO2
foam
SP
1990
##zym
##ospital
immun
##iving
##eep
##inary
assembled
LiFePO4
hypot
##mental
##Hz
until
Li2S
##ulating
Experimental
04
resulted
dissolved
DM
generat
84
acqu
particularly
##EE
##cence
calculations
Com
noted
progress
##ident
impl
Materials
93
##anese
quanti
Per
rech
dig
connected
abund
dynamic
##ream
And
US
##yd
neut
inside
##facial
distin
monitoring
susp
Pl
world
##elf
89
##go
Str
making
cathodes
##ometry
##sh
##ilibri
conducting
demonstrate
summar
Fe2O3
##ounts
Pre
##oh
count
pump
ca
turn
Keywords
allows
biomass
Med
Electrochemical
screen
wall
article
##................
next
concern
##erate
shift
##arding
##23
autom
H2O
##ered
zinc
##PF
SiO2
den
IR
##ead
reports
plasma
+/
Jap
error
wave
isol
symmet
##RO
equivalent
##ographic
hypothe
NiCo
Fr
dose
defects
confirm
##ancy
##onduc
Such
simultane
##usc
Conclusions
##inning
##Ds
##MP
question
ground
2003
Mod
S2
Engine
##atives
placed
##xi
months
mentioned
mesoporous
##urrent
fem
detailed
turb
les
##angu
industry
accuracy
##iesel
##atically
architect
##andid
##TS
Col
2001
impair
##esides
1996
2002
plants
LiMn
##ae
resources
tra
needs
Our
MA
##lish
##ands
##ulombic
Fe3O4
supercapacitors
release
potentials
agreement
##arc
2p
emerg
##ynthe
##avy
pores
dend
Psych
draw
gly
Ther
find
##ynamics
now
##ont
##eloc
fixed
National
alumin
fabrication
##ano
##pite
##ye
appar
prevent
distributed
affected
Among
MWCNT
criteria
chrom
Bec
adjust
hem
bonds
EIS
intermedi
lab
##aster
his
1992
##den
aer
atomic
System
imm
mid
##aged
ii
relevant
offer
92
inorganic
interfacial
binder
adap
kind
##ality
discharging
##ded
enti
##inate
##ibration
##structure
requirements
Mic
pass
remains
last
independent
networks
shar
##luded
neur
rot
##ammet
angle
alco
toxicity
##ometer
##IT
nanocomposite
channel
original
UV
##alvan
##ournal
price
pain
assessed
equilibri
PVDF
Cent
Germ
candid
MP
neuro
Stud
tradition
excess
established
investigation
defic
##time
longer
mig
veloc
##ik
nanostructures
##EL
edge
SD
##FT
sil
##eth
250
1997
Imp
corrosion
hetero
bot
Pd
requires
82
sustain
##orders
enzym
utilization
importance
HC
Hz
##allel
##EG
what
sizes
##oted
1993
##NS
nanor
sensitive
##urope
assigned
##rehen
protoc
six
strongly
##water
##back
##bo
##aries
toxic
training
##ert
110
Section
advantage
Ru
pen
proportion
##Bs
SOC
Ce
LD
stret
software
bor
SS
##ople
existing
forms
damage
##ime
##cription
showing
##ocy
1999
Department
##king
voltammet
plat
##isp
displayed
severe
depth
##vey
Engineering
##32
Technology
recharge
developing
##erv
special
Both
1991
irradi
fiber
interlay
Institute
MOF
la
##tt
##temp
Also
##itic
collector
##tors
2019
expressed
##oint
ann
OER
context
hierarchical
##otion
minimum
1998
Two
##izoph
metabol
fron
##outh
N2
pyrolysis
##where
##uction
neurop
lack
##atin
irre
microscop
Chemical
duration
equal
belie
Europe
pan
##arily
lig
dissolution
absorb
educ
##ayer
MD
103
##cribed
LiCoO2
basic
Hence
satis
improving
##overn
agent
##enting
##izophren
Wang
vir
dys
##Si
consists
##ostatic
devi
swit
substanti
accum
Mar
failure
little
steel
steps
anion
spatial
address
typically
modification
##IL
##isation
take
##esis
gluc
%),
emb
laser
central
##lier
maintained
Or
equilibrium
supercapacitor
##TC
##ods
infr
##certain
##bor
##othermal
nanocomposites
observ
variety
fig
parallel
assembly
published
wire
##anguage
animals
##entific
hor
06
plots
PEO
##rup
solvents
heavy
property
bus
entire
##na
repeated
##OR
clean
##Ni0
done
Trans
policy
KOH
CP
Mean
every
occup
##Introduction
zero
lines
fibers
##td
node
methanol
AB
##ergies
Journal
##ists
subject
seg
##gression
third
called
61
semiconduc
Additionally
RGO
becomes
##aps
##reshold
wet
Intern
traditional
alcohol
PPy
##3C
comprehen
squ
challenges
dispersed
ceram
magnit
food
nodes
##24
##osen
##lin
compe
oct
polymerization
axis
##olec
advanced
aspects
196
##ception
absence
tube
##zer
researchers
Recently
##AD
anodic
ppm
##SM
##ready
predicted
porosity
reactor
countries
dispersion
##riers
ratios
explained
Besides
people
##CP
fuels
contain
computer
700
##3N
##anganese
##ochemical
ap
##ino
public
Sm
El
##bient
Cont
da
##rim
greatly
##ula
irrever
##roup
silica
template
objective
V2O5
##atom
spectrom
location
##ices
Fuel
##ifically
event
dat
route
Rep
AL
nanom
IV
detect
##arb
Japan
##ithium
Im
##ocks
##arr
already
comput
cations
Some
##econd
restric
baseline
corresponds
completely
partial
head
Because
sensing
focused
spinel
status
Eff
others
comparable
Cor
house
##odynamic
tend
mixing
##urity
prefer
issue
substrates
##OT
tw
beg
NMR
subs
##Th
depends
##ecu
reach
vit
commonly
Using
Te
chemistry
intervention
##nov
appears
Other
domain
energies
CR
##umn
remo
selection
##apac
transformation
08
beam
rece
considering
extent
remark
71
coupled
utilized
##itives
##ulose
makes
percentage
accept
##rich
##Ms
High
lithiation
amounts
##ills
##MI
cour
feas
##ormal
powders
reached
flux
##iatric
velocity
vanad
##inyl
##45
##sors
disorders
##CO3
grain
Dif
##hedral
diagnosis
##tures
items
SO
##aph
words
hyper
mobility
Par
ambient
Sur
##atch
threshold
Due
biological
clos
##agonal
##ipment
owing
rats
conduction
##ynthesis
providing
port
Methods
channels
smo
##ride
mobile
ammon
instance
Ltd
precursors
magnitude
schizophren
sufficient
microp
1989
family
nanowires
Nb
##TP
compr
Zr
interesting
##ior
reliability
attemp
categor
project
)=
sex
optimized
essential
forming
own
##wh
PO4
past
alkaline
##polym
##tex
Phys
CB
07
voltammetry
hours
pred
##33
Compared
evapor
distinct
##otrop
bed
°,
##oy
##otox
Cal
interlayer
break
galvan
##bit
tetra
Op
##aired
illustrated
dependence
hear
Man
assumed
occurred
visible
wr
bacter
communication
correlated
microsp
origin
nanofibers
OF
Gu
PO
AS
titan
constrain
laboratory
estimate
feature
removed
##onom
students
##ening
favor
##ogram
rechargeable
##acr
imaging
tissue
language
sed
PL
##irect
##try
constit
##IF
complexes
trend
onset
##Se2
delivered
##NC
##ancing
##ives
annealing
CT
matter
led
Vol
##ovol
latter
##RA
ball
robust
##pl
##function
therapy
experience
events
##ID
choice
Power
calculation
Another
##till
buffer
conclusion
##lacement
##ading
currently
##ises
delay
91
NS
generate
ascribed
additives
)/
##oelectric
Chen
filled
Aut
plastic
##uble
anxi
displ
NP
accomp
##rome
##otic
LC
box
purpose
Disc
genes
manganese
correct
procedures
integration
##etal
##ili
daily
mM
trials
dil
cham
signals
ranging
tool
musc
includes
desorption
##21
sequence
filter
decision
balance
chosen
##thal
81
Ob
CE
##abilities
ensure
lowest
105
ideal
irreversible
platform
govern
hydroph
bands
##role
quite
uncertain
##otype
Spec
defin
Germany
##ecutive
refl
possibility
visc
flexibility
stored
fields
cathodic
Data
existence
##ilities
barrier
Is
relation
Sw
agents
station
parts
gradually
ethylene
##rous
radical
divid
always
kinetic
proton
give
actual
color
diag
##oly
##uting
observation
##be
contribute
quantif
##vated
##upp
injection
##ests
recep
##tile
workers
pathway
equipment
##ched
##erative
anal
##urg
##ME
##ars
##fol
instrument
regarding
enhancement
##while
Mc
action
version
##theless
contains
##uments
bonding
linked
elemental
women
fluores
##take
cruc
phosphor
cancer
intrins
glucose
##ortun
Hg
##ovolta
##35
##//
Each
##LC
Introduction
111
technical
maxim
causes
amplit
##80
##iness
##zing
##ids
coupling
SW
depic
cyt
driving
blue
her
EV
AP
##equ
##bility
Zhang
enough
efforts
dendr
Di
perme
doc
##ogenic
los
hot
nearly
synthetic
##etry
dynamics
assay
CuO
##tiveness
upper
##enge
##lation
additive
##oung
nanocryst
##hing
1988
Neu
##ked
depending
consequ
Health
facile
association
extrem
estimation
salts
medical
beneficial
##).
history
But
##iline
heated
boundary
.%
##ached
##ather
my
ESI
grown
electrosp
##PF6
highl
plateau
diesel
mis
##ats
benefits
##27
allowed
depression
pathways
##ender
prol
recycling
NF
slope
microscope
##meric
##ley
benz
phy
extended
##imetric
bottom
embed
##90
limits
column
intermediate
probably
gradi
impairment
just
Ste
##inder
sampling
Mul
stack
IN
module
##hel
throughout
Min
##ember
dielectric
##col
LTO
week
rise
##ynd
hence
survey
Similarly
contam
polysulfides
media
OC
coordination
selective
Over
RF
##26
loop
900
abundant
regression
elim
easy
##AP
adsorbed
washed
service
##vely
phenomenon
180
diagram
##Sn
get
##standing
prepare
array
yet
Second
too
Figs
fir
International
vanadium
old
##Mo
instead
reading
guid
Bl
Ass
displays
noise
TC
cardi
##istration
deriv
remain
Ga
Reg
uses
##tration
probe
Chem
mach
##ient
responsible
##des
##44
##ostic
considerable
vapor
monol
observations
invest
home
Dr
simultaneously
neutral
Cell
Abstr
simulations
Americ
##dle
respond
varying
penet
errors
numbers
migration
personal
proteins
reson
medic
suspension
exceed
setting
relax
stri
chloride
##Co0
engineering
##isted
Al2O3
##RS
nanomaterials
isother
##RE
##orth
facilitate
demonstrates
introduction
##ttp
##wise
sheet
architecture
##fficients
DO
homogeneous
://
thereby
##idity
predict
driven
.-
##70
scatter
##ull
statistical
precipitation
RT
challenge
nuclear
##ellig
##Cl2
S3
consisting
summary
sedim
##conn
rapidly
recomm
schizophrenia
1987
earlier
##ubic
##2SO4
purch
Qu
ec
spheres
behaviors
taking
##inted
%).
Never
Cons
##IV
##era
UK
movement
##has
scheme
ring
##electron
starting
coefficients
satisf
smart
genetic
weeks
return
##Mn0
##err
2a
##lim
behavioral
Test
stimulation
CI
temporal
equations
##sibly
collection
##comes
electrocatalyst
center
trial
user
http
meet
construction
##ature
Sol
Car
crystals
##rief
outcome
scenario
##DA
Nevertheless
analytical
stages
##oring
transferred
gives
##eu
remaining
##ades
except
tum
tail
cere
##assi
identification
residual
irradiation
don
anions
slur
animal
##exp
details
ent
conj
drying
chains
##off
bur
start
summarized
LDH
FC
mi
variations
practice
examine
deficits
compare
chamber
anxiety
Li4
capacitive
##normal
Ev
morphologies
##herical
raw
community
land
##side
cycl
opportun
prediction
course
cluster
overpot
##O12
keep
Sever
funda
(∼
width
zone
octa
modes
microspheres
##ban
##leep
##29
##arrow
##ened
coulombic
LiMn2O4
##28
split
##aneous
##itory
reveal
clim
elevated
determination
##omers
09
NO
uptake
##VA
##2C
seems
substitution
##otes
aluminum
antib
protocol
##34
bare
hyp
alter
lifetime
##olecular
molar
μg
##atal
##entially
white
##romatic
spacing
grade
reduces
1a
rou
##ichi
asymmet
explored
receptor
104
)).
divided
##obic
##zz
##65
BP
chem
separated
motion
eng
search
transportation
intrinsic
decreasing
##lig
tin
AF
3a
photovolta
##ci
stretching
Most
Center
##erve
interval
nanorods
separate
soci
##NF
##tivities
rough
represented
adding
chronic
interconn
reactive
adopted
growing
TMs
##carbon
trip
Hu
domains
remove
##las
3d
healthy
contents
inner
ES
##raz
chemicals
online
transmit
##inking
##ee
molecule
constructed
modeling
alone
LS
losses
involve
remained
Compar
TH
##fort
pip
amplitude
European
##aces
##EV
neuropsych
125
##tance
##ged
##ressive
male
wavel
probability
limitations
##asting
immedi
Ba
dur
faster
##emic
scenarios
##ray
analysed
##TIR
accurate
##lies
##ethylene
solub
reveals
Four
cubic
pollution
competi
deep
##ery
law
clin
dioxide
cellulose
org
##GC
earth
##ady
LiPF6
Hyd
protection
changed
cond
fract
tion
fri
##ascular
stirring
education
manufacturing
moderate
##75
##ished
dual
graphitic
desired
copolym
Ref
clusters
extremely
regulation
140
Develop
concluded
##ancies
melting
synd
##oxid
benefit
innov
correlations
lign
ordered
##opath
LL
background
galvanostatic
##knowledge
decay
decl
embedded
pulse
##roll
sharp
106
crucial
numerical
ones
users
##ulsion
implemented
selectivity
photocatalytic
expand
reliable
vitro
##ocapac
oxidized
1C
sand
)]
101
assisted
impacts
electrocatalytic
##BS
functioning
spe
Meanwhile
##ovsk
repl
planes
emotion
trig
inhibition
carrier
precipit
harves
overl
##istered
##idal
kept
Ni3
##tivation
Typ
microstructure
Dis
potentially
##caps
note
##),
##lamm
##erated
services
net
hydroxide
vibration
outcomes
##hal
comparing
AND
BC
##hood
hypothesis
generator
Note
##resh
LIB
##tingu
1s
PF
discharged
reasons
works
height
Und
school
##truct
##85
HR
FTIR
Ni2
mental
leg
variance
perf
slurry
isolated
ether
##ograph
MX
160
overcome
cust
##TFSI
capture
stream
RE
undergo
MOFs
orth
marked
promote
Non
##izations
household
SIBs
namely
##ustral
involving
rest
reproduc
cycled
aggl
adults
##urated
PI
abnormal
shut
put
##36
Ed
science
sized
130
##oichi
Ro
bios
attractive
implementation
spherical
sustainable
appeared
##H2
##cin
frequencies
dimensions
methodology
##ky
##DC
##yclic
mmol
##oll
Dec
CM
partially
phosphate
suppress
extracted
completed
##rees
gain
##ying
##ommod
NA
Batter
km
establish
crystallinity
distill
exfol
stimuli
sector
listed
##pro
word
##37
extra
Rel
delivery
##ulph
¬�
mal
Mon
4a
financ
--
describe
structured
##oking
pseudocapac
##orter
##licated
takes
analog
valence
dominant
arrays
##ping
##static
fold
gases
cortex
##alline
flame
Rct
##gery
##Supp
DFT
LFP
##azard
##valent
figure
##Es
measuring
##han
face
dimethyl
Several
Austral
availability
defect
involves
##Elect
wavelength
##reatment
differential
square
##enes
350
implant
Progr
fall
BET
##RF
synerg
tetr
covered
1986
apparent
##irable
##ectiveness
##oma
uniformly
1D
quick
Carbon
##38
mar
discover
polyp
SI
orientation
milling
Liu
##orr
##RNA
varied
accommod
compositions
relationships
##heric
EM
Even
##H4
viscosity
Partic
volumetric
goal
Pati
gradient
##This
carbons
significance
ra
skin
reversibility
Environment
smooth
electronics
neigh
##3N4
verbal
neural
ms
discre
controlling
fa
##ulus
##antum
contained
dark
Hospital
Therm
MWCNTs
##Fig
periods
candidate
numerous
skills
IS
##ensively
##39
##aid
compens
##Mn1
curr
##EA
optimum
iden
nanostructured
au
soluble
##ocal
capable
interpret
S4
PCM
simulated
fundamental
aggregation
AR
sleep
author
photovoltaic
HP
changing
differenti
##estic
Bo
thermodynamic
pell
EP
aud
date
ceramic
deion
itself
Int
screening
##ighted
##berg
positions
mapping
survi
HCl
##lication
-,
physi
calcination
vertical
NiCo2O4
silver
mixtures
##cepted
##uary
sulfide
##oline
##ateral
Medical
##HC
##bs
fine
enab
ID
scientific
deviation
##ociation
##ico
quantitative
regul
chec
acute
whose
dip
##Supplementary
##encing
gold
resource
##ada
##armac
##orn
comprehensive
inform
toler
definition
##cale
##inations
annual
programm
narrow
acids
Li3
##amide
encaps
##ossil
phon
##tenance
outstanding
Model
coatings
favorable
##ams
norm
investigations
fresh
consisted
##NPs
operated
plays
liver
##pon
Of
flat
sin
grav
##gel
inset
horiz
Ir
Under
##anged
recognition
mom
vibr
##we
Vari
middle
furn
binary
##yond
##ipped
State
##rowave
friend
coin
beyond
extensive
inver
prices
deploy
##5O12
##alk
configur
##ivo
effectiveness
Control
environ
sched
FE
AA
Schem
compati
semi
majority
leaching
##LE
lip
outer
condens
ign
mostly
formula
solubility
##raft
-(
pollut
dye
##F3
##max
regular
Exp
Despite
injury
create
operational
##rence
constraints
identical
##uctu
##licit
cyl
semicirc
questions
May
##unctional
reactivity
proved
EDS
Analysis
H2O2
HT
TF
tools
explain
urban
expect
Medic
##odies
modelling
Group
Solar
regen
hep
currents
explore
##ounted
PVA
ultra
situation
mild
##paration
overpotential
##rown
categories
HF
##ste
attracted
stain
##hysi
purity
aver
primarily
stoichi
radius
##NO3
##ao
Consequently
Es
mediated
surfact
1985
steam
NW
##aterial
underlying
sections
Ox
emphas
frag
##tices
FT
HRT
principle
##epti
Jun
TGA
##assium
##55
adhe
oven
##obil
##oming
fluctu
neurons
##86
Micro
fossil
##itively
surround
##ippoc
incorporated
pairs
LCO
Laboratory
pic
inher
##elled
enable
volati
##idaz
C3N4
vivo
Em
##49
NO3
cold
##ued
##pective
107
steady
##otal
shaped
created
unc
##ylate
##ask
##nel
largely
109
syndrome
computational
adequ
converted
...
applying
wear
reag
##ippocamp
hazard
treatments
polysulfide
synergistic
heart
##31
fitting
##ussion
defici
drugs
locations
NH4
##uck
##Ns
enter
estimates
largest
perovsk
semiconductor
portable
mer
hospital
female
argon
maintenance
remarkable
Ald
mort
##NP
elastic
oxidative
##mium
fish
##Ti5O12
##isition
Applied
mail
PED
##sian
subsequently
##osing
##oir
culture
separators
NCM
##SO4
##letion
EG
##rea
liquids
5a
450
producing
financial
NaCl
deionized
##Br
substantial
distingu
scattering
Nan
aging
##HD
interfaces
specifically
administration
##py
##tension
incorporation
United
##RP
microgr
configurations
intellig
CNF
representative
##ush
planning
rein
##structures
Eng
C2
relaxation
Grap
Val
crack
men
determining
datab
hexagonal
sets
symmetric
older
worth
rating
built
bind
PEG
scales
ultrason
+)
##idin
Det
season
muscle
##oids
..
hydroxyl
##rile
infrared
hydrocarbon
tel
bil
2b
##ious
##entric
refr
bip
uns
2020
operations
bias
Interesting
##olute
spectrometer
Pa
Character
van
##ognitive
ethyl
##ifications
ranges
empir
##3C2
##IA
reviewed
retained
turbine
Differ
##ww
photoelectron
##iff
##ev
##46
##ging
acidic
standards
Not
delith
Found
controller
fluorescence
HRTEM
##ING
##ii
Naf
spent
mouse
supporting
methane
EL
seem
##Rs
TB
became
members
##F4
loaded
aromatic
##UL
##entral
##IP
serve
Inf
Abstracts
neuropsychological
##ernary
consideration
conv
graf
108
voltages
##47
brid
##acting
neglig
perspective
Interestingly
117
##ively
Many
##EP
##ION
Ser
##atinum
transpar
Consider
Lix
##sw
environments
##OP
115
##ellow
yields
diffus
##To
##esium
contributions
kV
Na2
TP
Aldrich
manner
carbonization
Nafion
DA
calculate
Ta
classified
prosp
##rec
NG
demonstrating
##mann
evident
##vier
boil
South
som
stainless
referred
efficiencies
GA
variability
offers
list
##ips
once
explo
meaning
equipped
##ectors
##ested
improvements
3b
Mat
spray
##Fe2O4
anch
PH
hole
Scale
##idine
panel
##ifying
resonance
PEDOT
Bar
##rolog
acquisition
Pe
Ti3C2
intern
##oxic
stimulus
functionalized
electrostatic
induce
##sia
Adv
accumulation
ZIF
microwave
beginning
##ney
AM
##aight
MB
electrodep
extract
examples
description
recon
##We
resis
improves
##intering
nucleation
##ches
##pping
sent
quantum
pi
SL
##inting
diagnostic
inflamm
##An
enzyme
specim
finally
##sen
predom
reasonable
##cepts
pay
principles
classification
amino
adjusted
HER
American
forces
lateral
share
horizon
effort
Lithium
distributions
//
geometry
Three
PR
##enn
carriers
attached
##apers
##NG
limiting
220
impaired
fitted
School
aspect
adult
Joh
statistically
administered
rare
influenced
person
Li4Ti5O12
death
discrim
conductivities
interview
##US
www
##ervoir
hydroly
penetration
capacitor
135
##otropic
despite
##000
centrif
disapp
Jan
straight
mitig
SB
possibly
vacancies
minor
rig
reaches
Bas
195
electrochemically
enhancing
ternary
##ject
##Sb
object
##ergic
Systems
##ads
H2SO4
initially
##itten
incub
nanotube
furnace
##igma
former
##antic
##tificial
##87
Their
interconnected
algorithms
##mark
polyc
Super
allowing
Current
hold
released
##42
Indeed
fluoride
bis
ways
purchased
##NTs
Park
frequently
aerog
true
PEM
##roscopic
titanium
sulph
serious
+.
##ologic
absolute
2C
immobil
outside
##ensor
big
##asi
brief
kWh
Development
polymeric
technological
##ocl
evaporation
##eting
2θ
serum
##VP
LiNi0
concentrated
##lands
heterogeneous
##iez
Ear
hippocamp
label
##tent
bending
examination
##astruct
##ESS
##erved
CNFs
explan
LM
Num
you
negligible
NaOH
asymmetric
kinds
##get
##gory
Struct
.;
Dep
Sr
wireless
GP
Information
potassium
HA
##scill
SPE
Hum
complexity
##ominal
##ocation
stirred
reservoir
##DI
forward
##iop
##entia
stronger
effic
Samp
MoO3
continuously
dysfunction
##fin
##osite
nanoparticle
investment
rod
occurring
##ellular
JCP
Foundation
depicted
##TM
item
exerc
polyan
deformation
orbit
closed
enables
glove
plates
ben
capacitors
climate
VI
capabilities
dram
Far
##kin
ce
recording
##atase
##anger
extensively
Kα
India
decline
computed
##like
conflic
1984
mathem
##oor
##agen
##adily
reverse
affects
##pm
##uly
##admium
sediment
standing
Li2O2
simply
LA
##95
uncertainty
TG
##48
SH
sintering
##67
EVs
promo
contributed
##SP
Ny
minimize
Nat
DMC
vector
##--
concerns
##43
vide
safe
Medicine
nanostructure
severity
dev
Study
excitation
disappear
conjug
eight
usage
Sciences
electr
forec
mineral
tor
exact
##bial
moment
ze
solve
accord
ampl
manif
##mitted
morphological
##3O
formal
##rie
saturated
##ardi
##osal
text
CVD
cellular
surgery
##yan
gender
Comb
doi
##olic
##henyl
requirement
##ocytes
document
##41
)(
Battery
VO2
JCPDS
Vis
ing
fading
##udes
leak
4b
##apped
##fully
arrange
TO
##itrile
analyze
1b
rev
Red
dehyd
##inement
der
reinfor
�‘
Acknowledge
Patients
young
medi
utility
phenomena
##ict
closely
Synthesis
##factory
##quist
Pub
##IR
##eptors
PT
explor
Effect
1980
Thermal
##itis
exists
cam
acquired
validity
##aker
##aim
##acent
##ighting
emit
feasible
##att
##linear
##aring
synthesize
Australia
Electro
170
platinum
wood
AT
Ah
modules
quantity
##V2
Child
centrifug
fire
tex
GF
machine
##isions
install
TA
disturb
##stream
##elet
##izer
blocks
late
##vals
carcin
##iatry
Meas
oscill
##lude
##oster
connection
possesses
supports
Li1
derivatives
##omy
Ver
##aceous
##umines
frontal
Kim
antic
demands
nanocrystals
ash
MnO
candidates
##aine
Sigma
targets
lignin
manufactur
loads
##ped
indirect
agglom
##yg
##erge
cataly
construct
Discussion
ligand
1983
nanosp
respective
infection
trace
national
##urally
RO
stop
##elt
##uge
##eller
glycol
oriented
PG
France
ILs
flo
thor
##omal
##rav
pseudo
1H
]:
experimentally
tub
minutes
subjected
##99
TE
##ogenous
102
##riting
exception
##ided
table
confirms
##illary
Chemistry
desirable
electrocatalysts
semicircle
females
moist
suffer
living
perovskite
##ford
drive
Bu
security
##HO
consequence
##erally
simpl
matched
S5
GS
Co2
splitting
kHz
insp
passi
127
capital
##oving
er
Clinical
males
terminal
##ATION
spectral
##cl
transient
ligands
##ricult
alkali
digital
##ilep
##urities
##LA
LiF
Cs
comm
##chlor
induction
##ignific
sorption
nitrate
##uan
##Te
##elines
##oto
Acknowledgements
lesions
##ENT
efficacy
empirical
government
RA
ammonia
None
instit
Spect
magnet
adoles
P2
exper
##ato
##ograms
##essions
powered
##Cl3
modulus
attack
Ma
permeability
RC
##umb
integrity
carry
##load
##yster
##ru
recovered
implies
##eta
abilities
##utter
DS
Nyquist
electrospinning
##ds
addressed
##bral
SU
##cript
observe
recomb
valu
concepts
alloying
vess
mit
installed
##ara
distilled
wastewater
##ulties
belong
eq
LiTFSI
intervals
##ij
expensive
atten
##inating
directions
comparisons
annealed
145
parent
attain
considerably
ER
business
##arn
pret
##LS
operate
TR
plus
Ul
##66
executive
LiPS
dendrite
R2
denoted
##naire
##ony
##lege
decades
Af
John
##atical
static
infrastruct
passive
seed
substances
sweep
manip
friendly
ANO
##ercury
thought
pat
##ectives
IG
healing
propag
achieving
designs
monolayer
##ories
mil
##inese
##imer
accompan
Tel
Organ
reform
combining
##ulin
##wards
marg
million
piez
employing
##MT
protective
option
bath
delithiation
Yang
written
##onitrile
##oti
Hy
##hyde
prolong
ten
radio
burn
contamination
chemically
pet
feasibility
##cepti
##ymph
objects
HS
GH
)+
##ette
difficulty
(>
Fe3
DSC
##dehyde
durability
##ani
##oscop
emotional
##cell
137
##etary
##ived
##iang
(−
EF
supplied
Prof
category
##Na
tax
charges
Process
MRI
Mg2
##UC
Instr
##went
disrup
programs
front
##uclear
##uth
populations
Chinese
constitu
impurities
##otoxicity
synch
Act
inters
magnesium
##otherap
country
mW
efficiently
fabricate
FA
LiCl
Wu
sun
influences
##uits
feedback
shifts
seven
##iring
##known
asked
compression
voltamm
][
Lu
##echanical
Zn2
States
##vari
biof
128
##advant
char
call
strains
Scheme
##pher
detector
cortical
##acc
MT
switching
dementia
IQ
spread
aged
session
proceed
##ackground
quickly
124
epit
buildings
##rot
randomly
002
illustrates
##esthe
##ife
acetate
York
etching
##anning
MPa
Considering
chromat
ammonium
##yes
Sal
Mem
occurrence
rock
##FS
##elg
causing
GD
HIV
adapt
Multi
predominant
diseases
learn
##mentation
cm3
Only
database
116
replacement
options
119
Kore
CL
##war
NH3
##57
basal
118
calcium
receptors
fat
bacteria
1016
shorter
HE
substituted
Soci
129
##uling
##times
##IM
minimal
moisture
board
##f2
tap
##ogeneity
hop
adjacent
##uous
##lets
##................................
LN
nut
plating
##HP
Fl
dense
)–
adverse
papers
##roke
viol
Follow
##vinyl
carbox
validated
boundaries
artificial
immediately
190
code
virt
pollutants
sound
coverage
Coulombic
catalysis
sulfate
interests
mesh
edges
difficulties
BD
##ceived
selen
##operative
ICP
2H
2c
nanowire
happ
PCR
Subsequently
##antly
Given
policies
##eck
6a
##alc
++
##ymer
build
transitions
μM
##yrene
crystallization
trends
positively
delivers
believed
track
alkyl
Lee
sulfides
spont
emerging
Del
##estern
answ
cooled
SM
started
characterize
transformed
Fe2
Equ
##version
tip
##S4
nitr
proportional
##othermic
transparent
March
constants
projects
Overall
distances
Generally
accordance
monitored
shifted
jud
cadmium
She
##Zn
##...
humans
##ensile
##ysteresis
Fre
mess
##night
##ipants
inclusion
EDX
epis
##Re
economy
rpm
frame
##illi
tank
adequate
accompanied
NE
obviously
##S8
PVP
iii
SnS2
##valence
unknown
##agon
Design
fed
unst
trade
hydr
vinyl
##house
store
compan
Bio
interpretation
diffract
##ils
##used
suscepti
##mitte
CoO
Proced
##uss
purposes
moving
##angular
volumes
scal
Er
readily
##MnO3
Gl
representation
generating
€�
##itud
setup
monomer
deterior
collectors
assays
regarded
why
##__
hous
validation
Comparison
##Mg
##uzz
substance
##amb
transl
Electric
barriers
affinity
produces
1st
une
teac
##inson
hol
##rox
##pped
##ster
atmospheric
lob
EU
##PO
Low
##89
##umina
octahedral
acts
road
##ott
5b
evid
SR
##aters
nanosheet
##ono
joint
Statis
portion
separately
anis
##yb
##oup
substantially
##eutic
insight
isotherms
Assess
##auer
autonom
##62
Mn3O4
What
##Rec
organization
instruments
WO3
NT
##ervation
utilizing
clar
valuable
##iaz
HO
##ham
112
anatase
simultaneous
humidity
rect
developmental
MXene
neurolog
abundance
hysteresis
##iol
implications
##ielding
gave
cyclability
pressures
satell
psychiatric
recall
##Co2O4
##F2
bone
##day
maintaining
mission
purification
areal
cit
##phase
Specifically
predictive
sense
clo
root
VO
Different
C1
coh
favour
assumption
##ources
converter
##53
median
upd
##hi
240
carbonaceous
hydrophilic
1982
That
##eli
##ifier
systematic
couple
##ione
hab
famil
##tinal
recommended
##ademic
##63
##ura
arter
pepti
Program
tissues
RS
diverse
fracture
Li2O
##luid
preferred
away
##anada
rule
complicated
experienced
##rystalline
infrastructure
3c
rank
brom
##inates
##lus
walls
tag
doses
disordered
Sept
decor
Press
IP
qualit
institution
750
piec
##Cu
displacement
dispersive
horizontal
##ames
exercise
realized
flows
rotation
compact
005
tendency
sandw
replaced
##oked
##aves
##ogenesis
appearance
normalized
Ep
restricted
actu
Auth
disadvant
##down
representing
July
intensive
##pha
cardiac
concer
prelim
##olve
affecting
##Nb
##TION
negatively
idea
Cop
resultant
performing
##ucle
abuse
centered
adsorbent
##MB
155
spac
##unced
##fs
intelligence
surfactant
(<
BN
verified
##ini
remote
exfoliation
##61
express
Aug
Herein
priv
physiological
##timate
##itudinal
round
Psychiatry
ADHD
139
molten
Environmental
adhesion
Pres
##terior
hybrids
doub
magne
mesopores
550
stabilized
describes
dro
affor
varies
mercury
schematic
Studies
opposite
grains
Sun
CH4
opportunities
criterion
plotted
ANOVA
RNA
inert
113
tracking
interference
Econom
Time
##ulator
GN
designing
frameworks
electrom
lymph
ranged
tubes
##ritic
never
alle
nanoscale
calibration
Cu2O
consumer
inserted
companies
CH3
competitive
perfect
##ume
tensile
stations
μL
pulver
##eding
robot
beh
claim
AFM
##ignment
parad
##rog
glut
##88
nanospheres
holes
LED
AG
enzymes
Canada
zeol
traff
conven
RES
##nan
See
SCs
Fourier
hydrolysis
gran
challenging
commercially
##idene
##HA
underst
##umm
##tial
consumed
##mittee
S8
##mented
##oprop
′-
limitation
interpre
symmetry
polyaniline
##ait
##ellar
respir
Cu2
promin
##artz
planar
##tization
##atalysis
##formance
excluded
Rh
##rof
expon
enhances
deficit
##isk
aˆ
*,
##lon
quasi
Na3
mortality
##BC
trigger
##ella
else
S6
map
dendrites
domestic
drawn
##umptions
MHz
hinder
EEG
##inger
cognition
https
environmentally
5000
drawback
Natural
210
LI
tumor
Afric
DI
boron
encour
olig
##anks
indicators
Solid
popular
deposits
isotherm
replace
Pet
September
##YP
art
aims
metric
stacking
##97
acceptable
##ele
circum
##osa
video
metabolism
agglomeration
Fund
##emia
calcined
##lant
regional
##NO
survival
define
##vice
Behavi
shapes
Water
communic
##hat
##msel
HD
bioc
neighbor
mathematical
Review
5C
accommodate
##**
peripher
come
inlet
residential
prev
huge
##FCs
routes
Preparation
introducing
GCD
Italy
Scientific
THE
PET
##PP
”,
RuO2
diffuse
June
fractions
shuttle
held
##trans
recognized
diab
NR
contributes
Temp
##III
ultrasonic
Characterization
sequences
##gress
Altern
##arant
SF
phosphorus
semantic
2d
##ograv
##idation
.),
North
##Lithium
covalent
##otypes
correction
solvothermal
agricult
letter
enl
stoichiometric
LiNi
##reme
Management
PMMA
photocatalyst
MH
slowly
JE
paths
##flow
participant
epilep
macrop
arm
##1A
MoO2
##fortun
Wil
divers
##ZO
quad
nonlinear
overnight
+-
##activity
##omic
bub
MR
##titude
extension
trif
datas
##iet
##work
##64
Mal
thorough
diameters
electrodeposition
Dav
assume
Po
##ulfon
preliminary
IF
piezoelectric
regulatory
increasingly
situations
##LP
dominated
138
P3
suffici
indexed
Li2CO3
actions
4c
##2S4
psychological
shear
attenu
seiz
147
discuss
risks
attempt
##otherapy
surrounding
filtered
Following
stroke
##actor
markets
Oct
reflected
Mac
concerning
travel
plateaus
165
1981
ment
subt
bit
consequently
aqu
understood
analyzer
facilities
SN
pit
harvesting
gasoline
Commun
capt
reaching
hemisp
Korea
card
ant
ALD
electrolysis
Poly
distinguish
continued
175
Conf
copolymer
assessments
ceramics
processed
##acellular
ice
protocols
##ett
##iding
2e
embr
speech
VC
vap
)),
residues
##ran
121
optimize
Co3
unstable
##etes
123
aligned
##rin
GPE
served
bacterial
Ber
collo
international
exec
industries
leakage
normally
Apr
eye
##idazol
##Zr
##oustic
BA
Post
intake
133
Initi
templates
##apse
Sel
giving
##2O7
alumina
urea
advance
BE
took
orb
perception
##hyth
illness
##ken
##otoxic
traffic
lung
Previous
incidence
junction
LO
son
melt
polyvinyl
accurately
January
income
actually
##uminescence
hydrophobic
pil
##head
##TR
insu
##iltration
sphere
spectrometry
Ig
##istics
regime
Chang
##adaic
##hedra
Its
presentation
##anch
FL
persist
##fortunately
twice
apply
##versely
connectivity
filtration
Neuro
fore
injected
##emi
allevi
##irr
nerve
parents
prevalence
##ova
alg
284
126
##77
##UR
##haust
LMO
movements
biomark
##oo
deal
##St
##onn
receiving
oral
Optim
rings
##fluor
136
##ana
DB
thermally
yellow
##ylation
sessions
##struction
advances
General
##inding
##Tx
sealed
EN
##ls
arrangement
heteroatom
##idone
Society
propose
ast
indicator
intercalated
du
guarant
Graphene
ventric
##akers
inherent
##ulative
developments
Effects
nanofiber
rated
##CH
114
importantly
##lined
Ann
modifications
##ka
Mor
PAn
dust
traum
rural
prem
rules
assessing
arc
##98
##ki
##oz
DE
threat
match
Inst
##rices
specified
BS
##point
1c
FES
##ymb
instability
immune
##Ph
od
Pri
compet
accepted
expanded
aimed
##Ch
##unt
switch
resin
Accordingly
Cyclic
proven
explanation
saturation
−,
hydride
ME
Gene
centers
comes
nominal
matching
##02
Recent
running
##rose
Analy
##All
tolerance
company
##acet
##hao
neutron
metabolic
cylind
3000
autocl
classes
resistant
monoc
roles
##ignificant
bif
colour
##sip
GR
##ivity
modern
##oding
iod
LE
angles
##uced
Ve
believe
precise
650
##awa
auditory
check
Nano
cerebral
transcription
gasification
imag
##ita
bir
sputter
acceleration
##key
pharmac
kin
##vol
resistivity
Stand
intensities
Incre
hydrogel
##station
Electron
finite
##bre
therapeutic
CeO2
involvement
##mselves
##ensors
themselves
fair
longitudinal
exploration
vul
pig
diffractometer
applicable
Eth
paradig
##ners
slop
sav
jo
firstly
Long
NMC
consequences
##omas
Rs
alternatives
encapsulated
Nor
solving
ng
ink
131
Har
kJ
circuits
reflects
prominent
##anned
##For
′′
bonded
tight
##anium
##eff
Kr
intense
rh
##ache
BT
stated
conclusions
##emp
Educ
poli
144
/(
exhaust
##GE
##ounting
retrie
city
##tra
coordinated
##imethyl
##Hs
otherwise
m3
SWCNT
eluc
Phot
architectures
Shan
lesion
Green
verify
##occ
placebo
##itary
Total
(~
159
157
markers
132
FeS2
pellets
NMP
repair
##itability
Assessment
decisions
##01
##ction
Metal
##prising
##aze
DEC
Material
cloth
thermoelectric
gravimetric
prono
shr
sulfon
sectional
##stein
##PD
extreme
recommend
PSS
lost
sufficiently
blend
##tivated
##erating
LV
##ama
perceived
tar
##haps
virus
suff
consumers
panels
supplementary
lengths
calor
picture
pronounced
vacancy
approximation
Gas
aluminium
preven
incomp
eqn
##athin
##otive
##regn
Lab
A1
##bl
167
##ards
##ift
guidelines
mRNA
reagents
comparative
gate
##TT
micron
polymorph
##undred
specificity
conclude
mas
evaluating
##asive
fault
7a
thermod
firm
vibrations
Surface
classical
obtaining
inferior
altered
JEOL
”.
camera
SiC
PU
##alination
rational
##amic
descrip
stock
AI
edu
explicit
.(
overview
assumptions
donor
##cm
##Co1
##NFs
DMS
##81
combinations
6b
printing
##First
interventions
##83
0001
##ogravimetric
participation
LiB
##HS
Eqs
failed
surg
accessible
antibody
Max
quantities
saving
2nd
cereb
];
##arged
introduce
questionnaire
conform
opportunity
##aseous
farm
stem
##tein
Where
##lest
cloud
Lew
142
##uzzy
sea
##tism
absorbed
illum
enabled
confirming
nanob
reflection
NWs
##jing
.”
biod
##sm
GNS
radicals
122
Van
irreg
phenyl
scaff
280
weather
##jects
dich
##ohyd
dimin
##electro
##atig
##odiation
microm
mother
orders
bipolar
##draw
recombination
somew
glasses
##oon
Electrical
anth
crossl
lin
##ivision
solved
cum
##82
##iophene
##DE
Firstly
##ochond
macro
##rontal
134
families
formulation
141
##EEE
dissociation
insights
143
DR
graphiti
##gence
mining
##can
Work
stripping
inhibit
neuronal
printed
prolonged
##opol
dissip
Performance
MI
vital
associations
Mn2
regulated
volatile
directed
medication
6H2O
apparatus
##Con
##ergetic
antim
##92
scope
##93
compatibility
lot
##orld
##ister
TFSI
continue
disk
dramatically
hundred
savings
##wareness
cav
wild
##ediatric
##roleum
corrected
##va
##wide
ster
multil
chromatography
##Ge
practices
terr
])
##knowled
##ria
yielded
lam
##ica
2p3
##group
##100
ter
Pot
sensory
pent
##AA
##erson
traj
confidence
##olk
##ariate
WS2
##liance
tree
Else
synchron
##cont
##ga
##olving
Nd
##ming
##4f
##aven
##ias
##icians
overlap
##lan
LiPSs
electrospun
orbital
##timately
##achment
generators
bring
PAA
Human
Through
abstr
considerations
autoclave
##icular
Pat
distr
night
185
inflammatory
degrees
Lo
facilitates
member
Av
enthal
predictions
prolif
deployment
WT
##illed
viable
##heimer
adaptive
##osan
settings
##lat
notice
depletion
fly
bench
Hydrogen
kn
decade
1200
incen
Measure
Ze
TS
backbon
electroactive
refers
delayed
weights
##actic
iter
shared
vic
indeed
underwent
Mn3
##ixed
##En
nitride
neglect
##iller
carefully
230
##po
##gl
dispers
##ald
Fac
wearable
##hu
##De
covari
##icy
foot
systematically
microf
S7
Yu
.).
163
waves
venti
##6f
sp2
##91
experiences
excessive
##osol
##ostat
MG
cast
AgCl
##aceu
##tron
##linic
Young
Out
scaffold
##calation
##helial
az
##ycle
consecutive
powerful
inputs
Proc
##ober
sustainability
##actions
Nb2O5
firms
ha
##iliar
ren
pref
EX
standardized
DOI
Rev
Case
##BM
microbial
Background
DP
##erals
College
stationary
##rete
##aku
sometimes
DMF
void
contamin
Unfortunately
NPC
##istrib
Once
Calif
polyethylene
metall
##tized
##84
acetone
##orporation
goals
tunnel
Various
diges
##olin
MoSe2
HFP
oh
##ares
CPE
precision
##train
##ource
manus
dos
##pati
specimens
workstation
proxim
averaged
##8f
signs
Port
##aˆ
elucid
permit
supplement
##IG
modulation
Id
unch
soils
187
miss
##sized
##charge
feeding
##ala
embry
LT
illustrate
flight
lithiated
instruc
implying
frequent
Social
1039
Rem
##vity
entrop
ultrathin
satellite
irregular
compart
##mber
focuses
Participants
285
indices
destr
##rine
##yrrole
infer
spontaneous
binders
antibodies
##odegrad
GCE
deposit
##uty
resolved
Teller
peripheral
##roid
##habil
##erator
##cean
Phil
targeted
facility
ML
pseudocapacitive
Elsevier
H3
comprom
extend
eventually
encoun
suppressed
##atigue
somewhat
objectives
cohort
matrices
propagation
##Cr
Nove
confined
Et
team
identifying
##imetry
##armaceu
amb
ratings
##ornia
##pread
molyb
Do
intermit
##anted
Ts
OP
washing
##94
intra
interact
anticip
intermediates
isot
San
rely
withdraw
crystallite
impregn
ASD
Biom
Eu
FEC
##wing
##DD
collabor
Oh
##tition
residue
awareness
labor
##port
none
quartz
##isher
greenhouse
##ien
##asts
discrete
latency
How
span
##idespread
Phase
154
##ND
unf
##ceptual
jus
Part
Py
sides
November
ru
conjugated
sorb
##2S3
Ke
conceptual
attempts
##200
organisms
dots
##rolled
##hedron
CMC
April
##TFE
##alse
DG
comprising
academic
starts
Before
newly
Alz
helps
##ystems
##O6
trifluor
impurity
Mark
stabilization
##oplas
##gent
references
abnormalities
##ghai
##eling
innovation
statistics
harm
##oper
comprised
aerogel
##aptic
Fil
reactors
##illing
microporous
Brain
explos
manuscript
prototype
wrap
ded
insulating
##amond
vapour
##DNA
fear
ignition
QDs
realize
pregn
named
8a
assuming
##lete
declare
reviews
##ERS
OCV
##idazolium
Sa
##usting
##oped
Soc
##9f
##inone
Xu
SG
California
profession
Project
insufficient
tension
Neurop
hydrocarbons
shock
computation
efflu
##echnology
widespread
subc
clay
Investig
146
##acrylate
creating
ln
anterior
promoted
schemes
##CC
August
Dem
East
households
easier
opening
packed
dopant
segment
##gas
010
##itance
incident
##entist
trem
exergy
wel
highlighted
warm
5c
PW
##aki
Shanghai
##MoO4
shall
alpha
Lang
precipitate
noble
Statistical
##orical
FESEM
glyc
sintered
1979
incon
retard
coil
fewer
##ometh
##cents
##TH
##rition
vessel
fluctuations
##light
Evalu
participate
posterior
Tg
decorated
dopamine
211
.:
Children
valve
##pe
##73
immersed
hormon
##72
acting
##dom
rain
aid
1500
geomet
discovery
sharing
pool
distortion
passivation
Can
inh
##bert
WS
Lond
boost
epid
micropores
personality
afor
sputtering
helpful
localized
ITO
tab
##then
Hol
Air
inactive
Lim
##lem
naturally
pipe
##ophosph
Rob
##iral
##ulates
Lin
260
enabling
##TiO3
contrary
##turb
assist
Spain
signaling
amine
4d
270
consent
His
essentially
neurological
##orh
fusion
LP
drops
##chem
##riction
resistances
desalination
##96
meeting
Conference
segments
ana
sexual
refrig
surgical
Wa
differentiation
161
interphase
##emble
##derly
peroxide
##ungst
condensation
deb
mind
multic
supplies
interpreted
pilot
behind
##ients
Cam
World
##erves
##ulfur
SV
thank
qualitative
T1
GHG
functionalization
capillary
principal
pellet
fluidized
receive
equally
labeled
CNS
##going
emerged
SAED
##pt
225
##lob
151
##amma
reductions
Next
pyrrol
bim
inverse
Brun
Centre
##with
insol
##conduc
entry
perp
summer
maps
crop
handling
voltammograms
##energy
##Ac
coc
156
nine
##ancer
##Ts
##9S8
Pan
##eph
exhibiting
biofuel
##iy
installation
deinter
weighted
rigid
##tility
suppression
##itosan
##LU
PRO
wastes
caps
tom
accounted
offered
regeneration
protect
coke
enric
programming
038
##rd
Taf
162
##OM
IM
epoxy
prevention
Nether
##ritis
acoustic
electrochemistry
##ticed
mutations
##itz
##len
##oton
tuning
circular
requiring
##ementioned
Pos
##monary
independently
##CA
mutation
Swed
##edical
immediate
ordering
T2
298
##inge
centre
##ester
DME
English
Form
job
##elgard
ZrO2
##denum
Indust
Tef
London
Ho
##ails
gaseous
##inf
Ni3S2
diet
##urs
CG
preparing
aforementioned
conductor
##bour
prove
Grant
##ps
Hig
Prot
swelling
regardless
##asion
Box
Third
chromos
October
Sing
##mod
DMSO
Du
flower
select
cars
##ifies
)−
Mass
##uker
chip
latent
conditioning
Hall
adapted
2H2O
pressed
Teflon
152
casting
stabilize
Braz
hoc
stretch
photos
demographic
##iro
Earth
linking
##acrific
##jection
political
##ANG
##ena
5O4
faces
Notably
##chrom
transduc
##Bi
Physical
promoting
LNMO
V2
compatible
enriched
Netherlands
##ifi
Upon
symb
sediments
fulf
Tafel
repeat
##hex
diversity
##1f
shells
mono
MM
scans
##struc
comprehension
milled
NI
1978
##uli
nucleus
worse
Future
Rus
4000
##ophilic
private
identi
Lewis
quantify
##eleton
paras
writing
##astro
butyl
##rew
164
158
intact
accelerated
##ko
studying
##otics
Bay
unchanged
package
##CE
TEG
today
backbone
EMI
Acad
Celgard
Calc
##comp
153
##rosion
Alzheimer
Clin
incorporating
,.
##athy
wal
BMI
320
WA
magnification
##oxylic
GW
##adic
routing
Ol
solids
mitochond
Ti3C2Tx
metast
acetylene
TD
Index
sacrific
Co9S8
##structural
##anth
mood
cylindrical
##SION
cy
entropy
##ker
Na0
##ovascular
##opathy
periodic
Education
##mm
##viously
diagnosed
wider
biodiesel
Tur
Bruker
contaminated
surve
blind
ConclusionsIn
μA
slud
initiated
Accepted
documented
Procedia
rectangular
false
rub
obst
diluted
Paper
chron
##ius
tolu
remarkably
cracks
Li0
impairments
##2f
Sil
Pers
##agg
Tables
preventing
student
respiratory
Ca2
marine
induces
##QDs
Association
geothermal
148
monoclinic
cultures
##generation
##benz
Brazil
windows
YS
blocking
NOx
dens
##engthen
177
constraint
RP
##ieties
Willi
##ynamically
Cognitive
186
##ayers
conduct
lipid
minerals
aggregates
##weight
##ishing
##SIC
##etr
ester
computing
arri
##La
logic
RH
##rought
smoking
modify
End
Image
slower
MN
bearing
poison
fuzzy
lobe
zones
##alcogen
compress
##vis
360
##ticle
pour
DSM
##raul
deviations
quantified
sustained
benzene
Advanced
filler
recip
fatigue
functionality
cationic
Hal
EDL
##rod
CH2
cros
Cha
approved
##BA
engines
##3f
Hist
consistency
##licate
pyridin
name
combine
Off
dataSupplementary
vulner
Bal
LiClO4
guide
##che
apop
preference
perman
149
transis
##habilitation
Smith
batch
##rophy
Ham
partly
viability
##Cl4
hardware
##gar
168
antagon
##well
##after
vig
transf
hippocampus
Kar
##arging
adjustment
##ogens
aux
automatic
nuclei
##asic
complications
Bur
Den
##acch
tetrahedral
Warb
colon
Univers
removing
##tz
311
##yle
Obviously
##ibbon
Prov
eliminate
##GS
gradual
elderly
topic
conservation
##lobal
##ermi
ND
Sources
##igen
pointed
drinking
friction
adoption
##ows
revealing
##uing
gaps
Type
##ille
##avi
captured
gained
166
SO2
MF
##ski
stresses
neither
perhaps
bridge
communities
war
depressive
evidenced
##sibilities
cylinder
##ilding
December
enrich
##room
##omotor
##ida
Huang
adjusting
Currently
trap
simulate
worldwide
geometric
##amination
850
##ician
simplified
ultras
##aria
closer
nerv
##HT
]).
roughness
generates
generalized
Heat
215
##BL
disposal
refinement
##onia
anten
loadings
##OG
veget
focusing
figures
CHI
spon
bird
attributes
facets
Go
##igation
Care
##zen
ket
Warburg
##arities
Thermo
mounted
LiOH
fade
carbonyl
##AND
filling
paradigm
##ona
devoted
aniline
deficient
##Received
look
accounts
##hern
##pyr
205
raised
contaminants
##VO
elsewhere
##orhombic
vascular
##Pb
dest
anhyd
##add
Life
torque
WM
##OB
##ocyan
assistance
Radi
ohmic
informed
deficiency
pumps
ET
SO4
##There
satisfactory
##herence
radial
slic
ble
diabetes
Ha
bifunctional
subjective
trained
winter
alterations
educational
anchored
convection
intended
##ibrated
burning
##pectives
Zhao
##bles
adolescents
##ament
##ocyte
KCl
C3
invent
Nit
micrograph
290
illumination
satisfy
##opl
nanoporous
ventricular
##axial
throughput
prospective
fluids
agricultural
Toxic
##CS
ICE
IT
C4
C6
Ni0
##HI
birth
##hythm
aug
PTFE
convert
##sch
sludge
diffusivity
facilitated
##ogas
##dF
##dep
##ircon
##okine
emergency
reagent
ultraf
##athod
versati
##sin
turned
##asia
determines
turbines
grids
tends
modeled
rol
##ropylene
UA
##iative
multiv
integral
##ectic
003
rotating
say
linearly
dropped
##vance
society
##tability
##igar
innovative
Corporation
hybridization
##PT
ASC
##ple
169
similarity
glassy
##alent
BM
Dise
##ira
##cape
cavity
Electroc
pretreatment
habit
##obile
##ublic
Molecular
##urface
accelerate
##ipl
##nes
investigating
vo
yolk
##VE
tre
MIL
##olet
##osures
pulverization
capacitances
crude
articles
predominantly
##rophot
protons
flakes
IEEE
Step
##56
Bei
##odic
##iliary
tetragonal
CoP
##71
nur
##icochemical
denotes
##oks
saline
BL
cos
ease
dB
Admin
##atern
##ceptions
epilepsy
Cho
colle
##ometers
phone
cumulative
blends
colloidal
##ba
3O2
Up
##H3
stiff
PHE
inhibitors
##com
##imal
CSF
EA
##Me
Fermi
axial
waters
##ho
realistic
orthorhombic
semiconductors
PBS
##eries
Mich
subsid
##illion
##onomic
meta
##Mn2O4
variants
progressive
prevents
enthalpy
fibre
going
staff
zeolite
serves
obstac
interior
##HR
derivative
##away
oxal
sa
##Os
##atics
strip
Ion
predicting
noticed
copolymers
##1s
##ota
Secondly
##ugh
##gap
timing
##imide
NH2
trib
DT
−/
sandwich
Experiment
##Ex
##VO4
##losure
##mu
hippocampal
discrimination
MgO
inhibitor
apprec
Cur
##54
##idth
spot
electromagnetic
manufacturer
1T
probes
monomers
532
Her
germ
FS
##7f
discrep
thoroughly
hind
respondents
##atories
purs
##lity
jet
King
occupied
rar
recru
##unic
##BP
)–(
PDA
rutile
##rite
began
breast
comfort
Gold
dyes
Dir
paid
##isely
purified
##74
depressed
incubated
socio
covering
chitosan
##ysical
contributing
##orbid
##pass
##MRI
Fu
Cryst
dendritic
isolation
S9
##Ws
electrically
felt
##Un
ke
##03
##luding
##1a
Unlike
marker
lic
##ochemistry
K2
intermittent
##SiO4
##apol
##heng
##eria
##ochastic
operator
unt
##ulos
##raulic
seaw
connections
keeping
Immun
routine
TiN
susceptibility
##henol
Instruments
missing
becoming
teachers
235
##inn
absorbance
##parts
VA
regim
highlight
arrow
propylene
##3O8
##tite
deintercalation
arise
Integr
auto
reporting
necessarily
manifest
##Is
VR
##lates
said
##gu
##athe
##elihood
polypyrrole
relevance
feedst
.[
##rans
##mb
brown
hierarchically
ON
scored
Within
minute
##ensus
controllable
manual
instant
##aka
shrink
FOR
Policy
intention
STEM
competition
##endix
,”
##field
contacts
Chr
correctly
MET
Mater
Li2MnO3
conflict
##iders
file
Mn4
##apt
286
stacked
achievement
exclus
perturb
customers
012
concerned
exchanger
##tosis
surprising
Functional
seconds
##Ls
discovered
7b
##fr
microc
similarly
filters
##ungsten
utilize
German
toluene
sectors
fluorescent
iso
Import
kid
leach
aggregate
##vices
duty
PN
breakdown
mechanically
cutoff
arising
##monium
branc
##onary
tubular
##critical
reasoning
2p1
receiver
acetyl
Use
familiar
Now
##achi
impul
petroleum
particulate
consistently
GM
Gre
presum
Network
4e
##iling
chick
sulphur
##logy
scheduling
compares
##augh
hearing
CYP
meter
##aked
HM
leaves
##oxicity
1970
photon
ecological
clinically
unclear
Zhou
##ustain
μl
integrating
Numer
inhibited
Conversion
LPS
##MnO2
paste
##MSE
LiC
played
##titudes
nanofl
arsen
speeds
##width
##umar
−)
optimizing
microstructures
inexp
,,
deterioration
wettability
##essor
275
Impro
fluorine
examining
motivation
productivity
FP
Supporting
AU
##ulty
spring
207
ord
responsibility
native
polycrystalline
##04
harmon
310
Summ
meso
##lik
nervous
##nat
LU
preserved
dead
Wind
outlet
CdS
records
Dig
deform
randomized
Beijing
persons
competing
##endicular
automotive
##edicated
##2Se
Arr
##icro
cred
Cells
##iable
212
##VI
Saf
cage
Treatment
advantageous
bright
ZnS
dilution
##wood
disadvantages
sink
transplant
Evaluation
Memory
breat
##unicip
Committee
##urance
FeO
##TSD
specimen
5Mn1
##ansi
cry
##ocard
glycer
THF
##acryl
perm
proliferation
Prior
Sample
fillers
counterparts
camp
lies
entr
detecting
pal
Number
173
smal
quen
coinc
afford
Self
Cost
##olid
ongoing
##opic
Def
Coll
roughly
beta
century
packet
wheel
drawbacks
Japanese
poorly
##ernal
Hit
justif
##urgical
O3
Computer
Gib
dc
ultimately
288
Gaus
colleag
Corresp
Tor
smallest
CuS
°.
5d
West
indicative
##odal
##uate
372
skeleton
Pb2
maximize
%;
Rig
Typically
antioxid
DL
1977
hemisphere
likelihood
childhood
bodies
consuming
##ees
subgroup
River
##ortions
##cement
univers
##orthy
##EK
cleaning
scientist
completion
homogen
indication
+(
##functional
foreign
cracking
aerogels
Arch
decomposed
hazardous
##itt
reforming
automated
##wan
noting
progression
diox
cul
Additional
cas
floor
##elts
##retion
1100
intersti
restor
theoretically
My
HPC
BESS
mention
025
SoC
Cer
attachment
##gressive
(%
Lik
##uff
##lux
fol
exfoliated
prefrontal
perpendicular
PDMS
creation
lamp
crystallographic
##ounds
phonological
hepat
ech
cn
correlate
##erates
molybdenum
A2
Psychology
peptide
Swit
asc
##activation
Good
189
promotes
fourth
carboxyl
FR
##eto
successive
##emy
avoided
##ami
suic
shifting
##sistent
Che
approximate
##late
neuroc
lact
##aires
organized
flamm
undert
1d
gels
strengthen
171
##eld
SnS
analyse
greatest
Jiang
convenient
Western
##elle
pitch
##ager
retain
demonstration
##oxidation
Os
links
orbitals
nico
NFs
REE
##OD
INT
message
##Fe0
Univ
##ionic
##EMS
##la
exothermic
maintains
cigar
localization
183
acetonitrile
6c
Mil
Author
tuned
convergence
##inges
##52
anionic
Central
thermo
angular
##ontin
##razine
egg
finger
##BI
Jo
disability
Polymer
##uper
fung
DIS
rarely
indoor
choose
##hysiological
OL
cutting
Fisher
Ec
renew
tow
tract
Building
##ethe
coast
aerosol
##tage
Xia
acr
characterizations
centrifugation
exchang
runaway
NiCo2S4
physics
unexp
manufacturers
nanorod
Owing
conductors
##romagnetic
Syn
SPS
##acer
pyridinic
properly
ecos
proof
colleagues
DF
concrete
256
biomarkers
Hybrid
inev
##gestion
packing
##rosis
172
3Mn1
decon
precisely
##yne
##uncil
##51
dataset
SOFC
##ima
scalable
PVdF
##grade
##box
compensation
custom
selectively
discussions
forced
##osh
migr
reflecting
##ulatory
coli
ischem
inverter
behavioural
boiling
222
##sover
##Pa
##workers
calculating
Martin
##neum
UC
Pal
excited
Brown
##rocy
biogas
##06
neurot
catalyzed
spaces
weaker
420
174
complementary
insulation
217
##ref
NY
economics
param
Republic
symmetrical
adsorbents
maximal
diethyl
sn
infants
rend
predictor
##ewise
LLZO
##alg
electroph
Though
insoluble
Instead
hypothesized
micros
##kyo
##thern
##ounger
funding
##ago
Neuropsych
broader
##istribution
applicability
flood
describing
promise
bank
excit
mitigate
walking
Io
006
##aste
203
vision
grant
cultural
aden
dot
##etallic
depicts
analyzing
topology
176
##board
scaling
perspectives
freeze
rights
##amping
uncertainties
accounting
##vision
bandgap
hydrogenation
D2
Temperature
replacing
permanent
stochastic
benchmark
##ission
dors
##licity
##azine
strict
Structural
##olysis
hydraulic
181
##amate
commercialization
trapping
202
hydroxides
193
##ez
MAT
maze
##tid
limb
carbonized
recruited
**
feel
diamond
##iqu
rins
inexpensive
Bro
Physics
##outhern
Standard
##tium
plug
##ahn
1976
##avage
##rolyte
fairly
Waals
Hong
answer
downstream
carbonates
WC
##ux
dataThe
##enter
##unte
physicochemical
##psych
##ographical
coex
thi
Ministry
brought
amin
sequential
robustness
##rowth
##eine
predictors
Path
spectrophot
sud
anatom
SCE
stay
##ogeneously
gather
incubation
comprises
phenotype
Samples
Appro
182
RB
contraction
determin
ATP
severely
380
undes
##Materials
Class
eco
Mur
turbul
coordinate
reactants
(+
NCA
segreg
anisotropic
passed
initiation
fluorinated
Subjects
MCI
##eper
Higher
unable
##oman
##enger
cities
Febr
diver
Brief
river
##ompati
seawater
##alt
lamin
zircon
213
compressed
statement
biop
330
##mid
##5f
eut
##Al0
##iction
sulfuric
accumulated
spinning
##Electrochemical
manufacture
Land
179
##UN
ventilation
staining
conductance
confinement
Oper
customer
nanocrystalline
functionalities
##ophy
191
Abstract
que
206
Nuclear
remed
inhibitory
192
exponential
##ilst
CTA
regulations
273
crossover
drain
microgrid
February
microscopic
imide
sodiation
exceeds
suspended
lighting
urine
287
Open
3Co1
leaf
##ifer
CoS2
Dan
Renewable
empty
tempor
Vehic
pall
##ault
entirely
ves
fibres
coworkers
’,
Fax
traits
virtual
maternal
fatty
##muir
your
HB
aggregated
droplet
bioch
bilateral
genotype
facilitating
hydroxy
emphasis
oxy
Ak
Zhu
runs
Qual
adaptation
pathology
Emmet
sampled
RHE
SiOx
##P3
forest
##arse
thermogravimetric
immobilized
1975
Fed
##izers
rice
Ben
227
marginal
agon
PTSD
ESS
bund
untreated
##LY
##veld
younger
insulin
intes
Main
FF
prevented
209
##brane
yielding
##ashing
sales
##acchar
##unch
blank
##romb
dedicated
KB
lens
##assemb
Obj
uniformity
cot
##etra
emulsion
ole
landf
pulses
slu
Diagn
Respon
##aday
physically
stere
##junction
possessed
Council
yr
needle
dehydrogen
Ku
##atum
Scanning
231
historical
equival
possibilities
pin
sudden
Combustion
2500
usual
Produc
hydrog
Corresponding
Mental
implantation
Gaussian
heterogeneity
Hor
##Gs
gyr
TMS
chromium
##erman
enrichment
relie
229
pressing
##ulfide
##entials
Span
guarantee
interfer
Line
reader
dissipation
H2S
Simulation
fragments
presenting
absent
Eg
##GT
Specific
FeP
##liers
ΔE
identity
trauma
wires
##agm
##ional
mole
ultrasound
walled
discusses
satisfaction
shale
##angl
responsive
2A
infections
returned
quantification
mAhg
attempted
##ecraft
##ingu
surfactants
moved
tunable
dopants
Lev
dosage
Rb
avoiding
encoding
stimulated
housing
##atif
fMRI
vibrational
fluency
continues
Apart
polyvinylidene
##actors
elabor
##care
004
elong
##atite
##Ga
extracts
##utation
antibi
alleviate
Regarding
ROS
hydrochlor
Johnson
droplets
boiler
##It
cf
NO2
##79
##odec
##ek
303
Gd
multilayer
recycled
##het
pseudocapacitance
188
bent
##ietal
burden
##RC
Company
##4O
cri
placement
Graph
increment
##ATP
##shore
antigen
204
178
Cap
meaningful
##76
Cardi
modelled
collapse
(-
til
##likely
NiS
tungsten
format
##zh
Rich
pa
tot
184
##eworthy
PDF
ΔV
seizures
mS
Clear
NB
Flu
##pan
FD
216
1A
alignment
constrained
sizing
##ented
validate
renal
221
##tm
mirr
##ema
fired
acceptance
##ammonium
mutant
##atitis
stoichiometry
##affin
avoidance
sonication
destruction
FG
graphitization
##uries
DD
medicine
outputs
polypropylene
flowing
protected
##PH
Global
drivers
##hr
##hysiology
allocation
circumst
##sivity
##forms
reacted
##itting
Langmuir
interstitial
SnO
branch
Mechanical
Ka
2Mn0
progn
##ications
##TE
ages
termin
inflammation
##obacter
Anti
quenching
GE
208
gall
##oethylene
lowering
##ools
economically
ple
incomplete
circle
##abin
unlikely
##bur
acknowled
volunte
carbide
##electronic
##VD
individually
arbit
EDLC
##adian
##ns
assign
Rad
233
reward
Economics
biochemical
differed
Africa
Cong
##WH
##AM
340
publications
carrying
##enedi
Black
Hitachi
highlights
grafted
manage
moieties
artery
il
quatern
FM
##unicipal
notable
summarizes
13C
nanosized
##oney
holds
deployed
HNO3
wrapped
##anthan
calibrated
platforms
considers
245
muc
dog
parietal
Bel
tur
immobilization
unlike
gray
Structure
aware
arises
metrics
##rep
unus
PCMs
subtr
Summary
paired
trapped
titanate
think
Innov
reflections
attained
##ya
Tokyo
affective
530
ns
##ience
##ishes
abstract
##bar
##ulfonyl
interd
##idents
Significant
Sha
194
unp
Lear
020
minimizing
hourly
faradaic
##ori
DSS
##roelectric
homogeneously
web
combust
PEC
265
232
293
##ystyrene
acted
##roy
intercept
bars
nanoplates
Visual
spectroscopic
agglomer
bandwidth
##cience
##ought
##ola
pix
##orage
margin
Disease
ideas
foams
photocurrent
aph
diagrams
behaviours
##ailable
lys
Pi
libr
##asis
Brunauer
325
cheap
leaving
coming
apart
compartment
1600
guidance
groundwater
bromide
##gative
briefly
priority
cardiovascular
seasonal
correlates
JEM
smoke
Sk
Shen
VRF
2100
##Department
NCs
pouch
choices
rising
##imension
Appendix
##dis
publication
exposures
collis
elimination
219
economical
##therm
##SICON
fle
Log
##aft
Small
##ustainable
lag
transmitted
cotton
island
##hybrid
neurode
owners
streams
Us
analogous
Agency
accelerating
cocaine
##band
##entation
Autom
lib
undertaken
corresponded
SDS
Industrial
##poly
LF
biodegrad
##herent
Application
evaluations
complement
die
255
thicknesses
##za
systemic
phonon
cyan
peer
SY
##isting
phenol
Tod
clustering
neighboring
schedule
Emmett
289
##ortic
concurrent
octahedra
Al3
##related
Space
370
arbitr
vertically
##Figure
birds
dipole
hydrogels
##ratic
Processing
Han
##ologists
piece
rhe
couples
##rylic
OA
Galvan
influencing
flash
3rd
##bridge
broken
recommendations
GI
Pur
Riet
rehabilitation
##cing
cores
ASS
223
Academy
Conduc
Law
Paul
rubber
mutagen
##tending
mism
##erial
ethn
##ellect
##chromic
##HCF
##hydrate
stiffness
COF
emitting
##etheless
White
Tai
ensures
promp
automatically
##oglob
fur
div
##oidal
overlapping
instruction
spite
returns
balancing
favourable
##finition
distric
vigorous
##ectory
treating
##scale
##rac
rs
scientists
enlarged
gains
detrim
Predic
infin
##ulum
##ensitivity
ration
##Res
City
##rophic
##idazole
531
glycerol
214
',
acknowledge
digestion
tremend
tape
quar
LaNi
pulmonary
balanced
##elli
retrieval
compliance
EB
##CM
375
##ophil
persistent
heterostructures
voids
247
Indian
hair
genome
=(
manipulation
trajectory
pharmaceu
weaken
HU
iv
vast
tumors
refined
spinal
##fall
amyl
lex
disappeared
##6O
arranged
sequencing
GPS
heterostructure
##electrochemical
314
infiltration
gait
kidney
Exc
mature
##idge
237
Ill
Mad
disturbances
##operation
Technologies
conflicts
ends
aquatic
mitochondrial
asth
SSA
selecting
301
##vest
Ea
bud
228
exploited
AV
Especially
crosslink
exploring
##argeting
LB
sing
bron
Gal
##ycl
modifying
Prop
##mersion
−.
entered
Sweden
discontin
noteworthy
Mi
chloro
interviews
##tests
specifications
##electrode
Tan
reproducibility
hosts
FTO
Taking
10th
fringes
sie
shrinkage
attitudes
book
triggered
magnetization
accomplished
exceeding
undergoes
ly
spacecraft
##fa
Dop
Ren
originated
fif
##estim
begin
parametric
chalcogen
##owder
diode
incorporate
reinforced
Sant
facing
formulated
constituents
Rietveld
impos
Charge
##otropy
##ognition
PhD
##forward
circulation
shielding
##lementing
226
roll
citric
Conflic
gyrus
spots
stabilities
##References
mand
##ycin
grafting
markedly
##genic
Ques
implanted
3e
ton
neurocognitive
pros
##GP
attribute
Rigaku
##orbidity
Intellig
osm
I2
gest
##ECT
columns
Drug
FU
south
naming
PEMFC
=−
dm
Field
##imeter
##alloy
mim
M2
Na2SO4
distinguished
DES
jump
hydrate
Char
##ANES
simplicity
certif
David
opin
##annel
Correl
coordinates
distinc
poisoning
relies
manufactured
anticipated
outd
Single
Fer
pumping
Electronic
MPC
gravity
fabricating
infected
ju
##gments
##ashi
##erobic
synaptic
##ado
nanoflakes
AcknowledgementsThis
creates
[(
pregnancy
ni
##abrication
pieces
America
dramatic
imply
##athode
MAC
nicotine
##rig
##asal
##perties
expert
##bed
clarify
##kel
nitrides
subset
##Pro
Bor
benign
TL
##sal
P4
tions
3C
Da
viewed
billion
nav
253
enzymatic
EDTA
scaled
##points
LDHs
game
Na2S
Theore
##XRD
##phosph
attenuation
ensuring
quin
interested
##quency
218
Polym
##ours
partners
reconstruction
Unit
Pear
##Pre
Importantly
Switzer
283
234
##edia
squares
thinking
foils
apoptosis
naph
LSV
##omethyl
phones
Ur
miniat
Camp
pestic
employment
merits
##MENT
Tri
Hear
expressions
RD
string
exactly
Faraday
serial
disturbance
Pharmac
##78
EE
##orphyr
vacc
224
Hel
HV
coding
container
Mel
regulate
##prec
slopes
##edom
Age
NVP
fertil
##economic
cord
Parkinson
glob
##ilateral
##EMs
acceptor
methacrylate
autonomous
##etic
RI
OS
prost
243
live
Neuros
##amper
exclusion
##Sr
focal
anomal
lined
teaching
295
FEI
ic
Fren
universal
worked
263
oxidizing
##luence
Ray
NSs
##uled
encountered
##Ad
##tling
312
lands
333
offset
305
Whereas
Switzerland
LiNO3
##heter
##V2O5
Nax
([
##esthesia
infusion
##enty
Early
oliv
Commission
##oresis
UN
soot
anthrop
##coming
legal
##AFS
bic
hopping
nanobelts
##romet
##ycling
invasive
Cle
Transi
conjunction
versatile
Contin
pollutant
Mes
4f
ionization
dyslex
##hn
cyst
RL
##tious
chance
##cr
gamma
poorer
alternating
tons
monolith
auxiliary
dans
interrup
##ailed
quantitatively
238
apparently
propulsion
distress
fro
constructing
bott
236
train
¬€
funded
paraffin
##lab
institutional
admission
transformations
015
crystallized
carboxylic
E2
pneum
eliminated
driver
##opro
damaged
holding
##ilicon
superconduc
BF4
Comparing
VS
##angle
visu
noticeable
##ulsive
440
goes
solvation
Les
239
##ji
failures
##astically
MFC
biocompati
execution
##molecular
Safety
gir
thanks
BF
##utable
harmful
roof
##GG
##ermal
tailored
obes
P1
thio
##patient
defective
percentages
##ogel
Direct
mine
Applications
.................................
Morph
GPa
##ashion
accident
heterojunction
antenna
theories
##ando
monthly
compensate
##aux
covers
wells
tomography
detrimental
##ocrine
cues
##imaging
##aneously
##brevi
Again
iner
electrodepos
##rotron
Je
encapsulation
stake
variant
##titive
##acterial
Common
falls
##erately
slag
reven
007
¬‚
thresholds
##aldehyde
Individ
feedstock
##afluor
monoch
rocks
Shim
sucrose
shed
##ggish
##acco
##ygd
doing
Short
oxidant
241
estimating
nitric
African
##ander
ore
partition
##Im
lightweight
##Synthesis
researches
hardly
operators
##aryn
LCA
##ZS
centrifuged
Bus
ESC
reflectance
##amples
Williams
soon
isothermal
##odi
##uity
##reed
##atology
PAHs
counts
pulsed
subun
##iter
reactant
casc
request
##oscopy
impossible
photocatalysts
##ulators
integrate
immersion
participated
electrolytic
teacher
appe
chlorine
Symp
elucidate
##gi
Transport
fashion
GL
north
NL
velocities
metabolites
tariff
LiNi1
mor
##idden
thicker
3H
coronary
Gibbs
##urized
amplification
reversibly
##erized
schools
Wood
##olester
##teen
strategic
robots
##oli
opto
##ERG
##elles
kinase
##craft
Kal
##ael
EDLCs
##Wh
##olytic
##lock
biosensors
sinus
semiconducting
Emp
expectations
discussionThe
##ora
GAB
##ellectual
##zone
Lead
##ortical
##totic
intracellular
prone
flames
CVs
##through
Acta
Level
relate
259
subtyp
planned
fluctuation
instructions
undergoing
F1
suited
oils
reserve
promoter
Increasing
neighbour
##ocab
knock
Investigation
Circ
sluggish
surveys
Washing
##olecules
##metallic
antioxidant
Division
targeting
Mas
Depression
locally
disl
398
breaking
styrene
suffers
##adays
Asp
clinic
Mn2O3
buff
constituent
biochar
TI
EO
vectors
ethical
constitute
##ashed
Six
##Comp
MXenes
Cambridge
isoprop
inducing
TEN
MAS
PK
vill
soph
##ectomy
DH
CoS
##itan
exceeded
ven
##ike
277
begins
950
formaldehyde
."
dietary
activate
silicate
cop
lar
lists
1974
spati
undoped
vessels
Cre
##oke
psychosis
Authors
elic
##haus
##utions
argued
GQDs
Nr
##lich
Article
Ko
Those
257
Mechan
consensus
##BT
polarity
oste
Tw
Therap
alloc
gradients
Ins
##68
outlined
compressive
Cp
CAS
CR20
solely
Yam
LATP
inspection
G2
Govern
##onent
##SO3
abd
CTAB
proposes
besides
textile
trust
reasonably
unexpected
explains
-/
HI
extrapol
##thiophene
249
derive
transference
RM
pup
grinding
Ext
267
upstream
hydrated
heater
causal
bag
Transmission
starch
circulating
Cheng
##isis
supercritical
pyrrole
Tex
Lou
mus
Flow
disruption
exceptional
BR
##rospective
Plas
illustration
##uchi
##ocardial
modal
Service
##UT
##MnO4
##ulary
micrographs
Ultr
lowered
profit
Internet
##naires
terminated
motiv
fitness
Sl
480
bow
##ilm
##da
##quinone
pyrrolidone
promotion
rinsed
rotor
anhydrous
TES
##ettes
Contr
Geor
##ynthetic
248
buck
outper
##osin
##balance
dissolving
SIB
SiO
Tc
evolved
Prim
careful
polystyrene
Bul
##uce
Writing
8b
thal
preferences
plasmon
Yet
##itant
RFID
271
266
views
NaB
##sist
probable
##Sh
EMC
projected
335
rods
reserved
##A1
264
hormone
##eor
resting
PVC
cleaned
accordingly
initio
Alternatively
methodologies
##V3O8
Cancer
reflux
PCE
blade
254
texture
Clearly
master
arsenic
Conversely
##aturated
originally
Volume
279
tremendous
incentives
circumstances
##fficiency
##elets
EPA
heteroatoms
315
Obser
substitute
##ruit
tended
inferred
forecasting
Gmb
hr
Liquid
,...
reflex
designated
Cu3
##ahigh
differs
forecast
##bach
fuller
row
##XS
vox
pictures
ocean
programme
reservoirs
seizure
detectable
deeper
operates
Monte
##ibbons
ty
##MM
Learning
##otors
##Poly
sensitized
##JH
##____
##inguistic
##cher
##avily
enorm
perceptual
extending
Aβ
patent
##onium
2400
##ocabulary
uncon
kil
##ship
MV
##cetic
letters
sophistic
straightforward
##eters
unless
inhom
macroscopic
professional
representations
alb
positioned
##LT
hardness
660
orange
transmittance
connecting
delivering
accessibility
##eat
arti
##ancre
touch
##tination
packaging
S10
relating
explosion
##tier
##DM
restriction
Washington
aggressive
##rob
milk
injuries
trees
microorgan
XANES
##losed
handle
deduced
##FA
susceptible
consci
Kir
percol
distillation
##ample
##ittle
supernat
##obenz
ageing
medial
office
Nov
cultured
244
purchase
eg
whilst
##structured
##ypt
nozz
##ycomb
heavily
War
thermoc
##ops
neon
Yan
massive
Sand
BI
##YS
##69
##CO2
cable
##C2
compl
Five
##ICAL
mitigation
##enda
Arab
Ti3
R1
appli
exclusively
##vities
transported
##print
macroporous
pric
Determ
Last
251
olivine
Carlo
LiP
readers
passing
inventory
turns
##unched
Equation
Soft
counting
##otide
##henius
loops
Gi
Bon
Strate
##immun
ΔG
gross
viral
tell
smartph
satisfied
grate
Mont
GmbH
1973
rearr
atrophy
machines
totally
COOH
##cales
LR
photograph
voltammetric
Tra
homogenous
victim
mF
##LD
χ2
lesser
storing
dt
experts
Food
##olesterol
##iques
##yroid
540
Wall
precipitates
freedom
Merc
##mol
Organic
lifes
communications
specification
272
##kins
multifunctional
places
replic
##Ni1
##ellulose
##QU
261
PEI
pill
seeking
OM
Mid
warr
##fusion
##::
##iner
provision
##iplinary
municipal
##grap
Alternative
Cohen
supposed
##COO
came
dilute
dele
Tian
evenly
hydrazine
dependency
schematically
Identif
Mex
ferrite
subtests
coals
242
Office
6d
##Ag
’.
anisotropy
checked
packets
digit
##uls
dib
##aser
##adium
quaternary
reality
401
moves
Briefly
365
276
MSW
LVP
Report
Multiple
MnOx
##oneycomb
Tak
390
bimetallic
##emed
V3
amygd
hepatic
410
GHz
denote
neglected
E1
thermodynamically
Sustainable
-.
##quef
##okines
##CN
##unk
308
offering
perc
cement
2050
arous
##tise
recur
visit
##depress
plastics
wound
##EI
precipitated
##tia
confound
comparatively
precious
minimized
hypotheses
Rod
Δt
Later
synthesizing
399
biosensor
Australian
Smart
##chool
instances
Sec
##Grap
##UD
IoT
Paris
scav
effluent
Na3V2
unusual
##ectional
dodec
lanthan
microb
chemis
stands
occupy
endogenous
university
looking
drastically
trait
proceeds
##lemental
adopt
bigger
316
Thomas
Arrhenius
##ismuth
##luidic
##UM
learned
##nee
thous
electrone
Very
PIL
gal
biomedical
258
##kl
##ischer
leuk
##elfare
medications
FePO4
##ava
skill
adhesive
##sorber
##adder
304
fibrous
plaus
Nonetheless
323
fluxes
Portug
Galvanostatic
Large
##ammal
Typical
##anding
constructs
PF6
##tinction
allele
reacts
7c
##itated
ultimate
008
shel
whom
residents
emitted
CF3
##ularly
##oluminescence
opposed
attributable
endow
ker
269
9a
decided
prospects
514
benzo
##timedia
##osilic
triple
Let
null
certainly
suspensions
##elastic
characterizationThe
addressing
imposed
voltammogram
shoulder
absorbing
hazards
degraded
military
exemp
##formed
Basic
(“
302
Magn
Guo
acetic
warming
pac
facial
Normal
coolant
stabilizing
selenium
M1
##uz
##keting
Hen
##burg
Question
duc
broadening
titration
argument
crystallites
##oscopic
gastro
attentional
SWCNTs
mini
freezing
252
DV
##NI
fixation
legis
##ELS
anaerobic
Mol
aircraft
anchoring
ultrahigh
Jones
##dy
garn
intelligent
(%)
rab
combines
modest
plans
MMSE
shallow
268
274
##ston
French
topics
Batteries
tried
NCO
Faculty
interlayers
evoked
ye
McC
##henium
##olds
ma
##men
homogeneity
Dou
beads
313
chromosome
RG
resistive
occasion
##PR
occupational
DSSCs
scrap
messages
##zhou
dup
((
penal
episodes
Anal
##opathology
destroy
transistors
corner
ery
##azole
hybridized
278
291
DTA
fibr
traces
exer
scoring
hindered
repeatedly
spik
##ABs
multivariate
##amethyl
##lings
520
CMK
opened
Wat
Li7
Behavior
Cd2
incin
##alian
Franc
institutions
~,
##avor
invari
coexist
wetting
spectrophotometer
##mg
residence
Ele
explicitly
##Hyd
thermodynamics
Invent
syngas
investments
##aded
questionnaires
sandwic
Storage
##2Sn
##oni
detectors
danger
thromb
##cephal
reproductive
nutrition
proves
bilayer
filtering
electrochromic
alteration
##agent
gets
430
Sin
energetic
impregnation
C0
grey
PbO2
ps
asthma
agreed
Likewise
##urea
peptides
district
recordings
##FF
isotropic
penetr
Professor
Magnetic
Ap
willing
##pecific
flask
##ifiers
##Hg
Top
Day
Notes
##ln
drawing
neat
herein
bubbles
TNF
opi
Bol
organizations
##oxane
Wei
Mann
beliefs
sonic
Schematic
ConclusionIn
##rick
Quality
cyclo
sentence
inte
()
strengths
##ensing
intellectual
disassemb
honeycomb
##lated
Faradaic
notion
discrepancy
worst
##uent
##ayered
##ERI
##omial
urgent
BEV
tune
ESR
##ethanol
##sler
overpotentials
##----
##ufacturing
##ophage
##opartic
Full
##Ther
si
things
##CI
mismatch
pick
weakness
Miller
youth
5th
##veness
existed
P0
elevation
##itably
mothers
irradiated
categorized
macropores
polarized
##ulfate
reserves
shorten
##testinal
##spring
imidazolium
inversion
##ACT
ont
ship
PCA
##PL
##ART
permeation
presumably
##ectin
##violet
##CB
violence
lifespan
Hep
epithelial
tightly
kb
Prec
rises
Technical
Sea
episode
##uctive
##iffer
resemb
Function
dihyd
Gra
proximity
retains
tang
stratif
antipsych
3A
TT
Cz
Light
##osocial
FO
makers
Card
sperm
L2
Tay
decompose
353
Associ
volatility
reversed
Perkin
codes
dehydration
sure
##tina
Oxford
281
##ilton
Chi
VRFB
practically
organs
distorted
##liness
##59
originating
##oul
computers
##abolic
246
Organization
VN
let
titania
VB
sorbent
circles
##Carbon
scar
pediatric
##reet
Today
eti
##otechnology
##rometall
##P2
tens
##eman
Motor
corn
##gal
##metic
antimony
JSM
ramp
kit
nM
##IntroductionThe
nanohybrid
##onite
syr
IA
Ra
participating
outdoor
##ilane
cleavage
Att
Ax
##adequ
ine
viscous
Formation
##urate
ti
lexical
##quit
##rotic
updated
muscles
pathological
##ecom
nearest
sophisticated
VG
Scher
Hill
dissolve
##lerosis
preferentially
dichlor
Hand
disadvantage
##ophen
V4
Cross
##process
Ci
reacting
Kn
2030
Measurement
Labor
##ulti
curv
emergence
collecting
pyridine
##lating
##ilarities
##ville
basically
KO
extracellular
sandwiched
##gers
373
implementing
##iration
297
psychotic
##idinium
expressing
sep
##HV
##utaneous
##Ss
methylim
##ISA
chi
Special
IB
1400
liter
##alytical
slab
307
##With
##oys
Province
2B
dorsal
withdrawal
##kes
4H2O
irradiance
Vi
enormous
cytotoxicity
##oxides
helped
Sodium
Mos
speaking
Nic
elementary
sponge
liquef
endot
implicit
##anner
impressive
##olf
establishing
##WS
permission
ZnCo2O4
termed
##rust
##hols
multid
nitro
ablation
282
parental
electrification
##ophosphate
##vo
Vir
breakthrough
##Pol
##RAM
##otions
classroom
fleet
Estim
unre
envelop
MJ
##itely
##fl
F2
commit
##onate
##tisol
##osomal
generic
##PV
##su
Nitrogen
permittivity
Ret
##echsler
299
Testing
Theory
##asses
macroph
VS2
sought
##inance
##Energy
##hatic
Appl
Appar
volunteers
Factor
##oven
Ros
rotational
blocked
D8
##apore
Mit
##arith
##tiles
managed
gastric
introduces
Copyr
262
connect
##ypical
bases
potentiostat
defining
345
=.
Nickel
switched
guest
autism
smok
##har
Complex
SSE
##ritish
##AG
modular
rays
294
want
modulated
doctor
achieves
##vin
##vable
converters
]),
belonging
Coal
attitude
conserv
##holders
neck
##entration
style
infinite
DLi
##RR
chose
##ENC
bubble
##ensen
SPEs
##uming
hall
crisis
##ecn
server
ell
extinction
Ti4
DBS
##urable
##istries
YSZ
##book
preferential
monoxide
510
fetal
dic
##rystall
counterpart
regimes
##bing
1300
EPR
##uman
##ANS
Optical
Copyright
##bra
amygdala
##tian
2Li
bridging
Access
I3
,...,
absorber
Task
Kong
##MOS
intens
470
ped
wafer
##ENTS
blended
BB
symp
lacking
##kal
##heat
firing
##MW
inhal
salinity
hundreds
humid
##yte
LLZ
bad
##Ru
009
tanks
adduc
na
##uses
manag
##F1
##attery
##generative
trifluorometh
heur
##ologist
##usp
##Ne
pharmacological
LiM
contract
assembling
perceptions
##FR
costly
Chap
##ammalian
df
##aned
him
pyrro
##opes
lives
Simp
##NWs
iodine
phthal
Union
bid
PCB
argue
segregation
performs
##une
##oric
Inventory
Proceed
fragment
8Co0
calorimetry
scr
##2S5
##orrect
Experiments
Instrument
swim
controver
OEC
crust
Web
Tu
choosing
##ario
##Nan
amyloid
##FER
actively
saw
emphasized
contex
ISO
clock
ASA
para
##ushing
Toxicology
antidepress
NaBH4
attacks
suppressing
arms
versions
dissoci
rejection
##iltr
reinforcement
nons
Road
regulating
460
soaked
electrodeposited
recognize
pricing
Corp
Taiwan
##usive
Wechsler
Singapore
",
compositional
##phal
##Ti2
Cas
compute
1e
border
##ighed
flue
##rov
##ushed
ago
Heart
hypertension
2O2
Enh
##inator
##roportion
##ogether
sew
oc
Measurements
gear
agrees
capsule
Pearson
engineered
##oct
consult
citrate
##zes
k2
TX
Li6
concom
proportions
linkage
entering
##pi
drift
##H5
##utch
HPLC
Intr
##actory
registered
Capac
angi
Jac
Michael
dispatch
analyte
reuse
tone
Nak
eyes
FeCl3
trop
##UP
upgrad
offspring
Merck
appliances
]+
ubi
##stone
##58
Neurology
centres
##osium
scaffolds
##siveness
harvested
##icrobial
Solution
iodide
′,
##INE
epidemi
instantaneous
cortic
biofuels
##TIC
vent
##phthal
Ni2P
submitted
recruit
Ky
Protection
undesirable
GSH
Pack
linguistic
512
relay
TiC
Initial
inadequ
hydration
Nature
chest
Biological
insert
##irectional
oscillations
geometries
##pyrrol
directional
notably
differently
##ubric
GB
thinner
##lyc
##utor
μmol
Nag
critically
##FePO4
microsphere
whereby
##umental
##Pt
ΔH
##FB
implicated
indium
crosslinking
##itr
##definition
CAR
Lind
Tim
##oe
retail
endothermic
summarize
British
IgG
##fold
sharply
TMDs
redund
##athione
Tm
##lection
Pen
CO3
tob
isolates
western
NASICON
imaginary
surrounded
Intelligence
##dc
intermetallic
Government
Patient
AE
##hua
intestinal
cup
##811
HEV
##ophageal
controllers
guided
Belg
##orescence
FeOOH
Average
##ylated
317
responding
Conn
momentum
Arg
etched
##itoring
336
##aint
RR
converting
fasc
inclined
logical
##ivil
distinctive
distinction
##idium
distal
recycl
metastable
Kingdom
##iber
Real
##edance
##ITH
100th
309
dealing
Meth
dashed
##rett
Aff
2f
##otypic
##aints
321
cited
##Am
obstacles
fruit
psychometric
rectif
Depending
haem
Song
remediation
##Partic
offshore
contexts
##ighter
DMA
##aign
welding
Est
microstructural
027
laboratories
layout
”)
sunlight
1972
inhibiting
##using
AQ
##unn
rib
claimed
investigators
seroton
Influence
occupancy
331
routin
##ocyt
malign
accompany
suicide
ECG
##orphyrin
296
##lyl
hydrod
frames
Mr
##orosity
monod
operative
extraord
appearing
eutectic
ICD
blow
editing
Taylor
##zu
collaboration
cod
Reaction
Hun
LG
Verbal
interacting
��
relates
branches
A3
##NN
##ibrill
##ulomb
unw
Particularly
predicts
##imensional
##dam
##ogenicity
##inetic
##otation
##enses
bat
try
Roy
##ece
##ectories
##cohol
diagnoses
Mill
expend
##600
moderately
update
laws
breathing
Risk
Behavioral
nozzle
hope
##utyl
latest
corrobor
till
acquire
##Sp
plasticity
girls
##uki
##ersonal
discharges
343
##abilistic
##arbox
committee
Sign
infant
secure
seism
##tebr
coded
parasitic
##mia
ahead
##arcin
catheter
combustor
stained
##istance
##uthenium
##N2
Hamilton
facet
conscious
Potential
##ostics
Sn4
infiltr
strongest
serving
olfactory
351
B2
##gment
revised
##iab
microorganisms
##rocytes
Jin
BEVs
Az
tags
perfectly
##mim
hydrides
diminished
##eras
tobacco
##High
##ensitive
NV
raise
##oston
pipes
WHO
acceler
reductive
dealloy
##arbonate
macrom
methylene
,"
Theoretical
superf
LiMnPO4
355
425
bore
synthesised
10a
cages
Spanish
Chair
##ophysical
STM
Hem
Kh
mirror
retaining
Sat
misc
##ui
emotions
PAH
pumped
encomp
borate
evaporated
cigarette
wise
tent
##MR
292
alcohols
##hentic
ultrafine
polyacryl
Initially
GABA
polyd
interplan
electrocatalysis
Term
brings
Proceedings
garnet
logarith
Biomass
##ailability
Vehicle
DW
Oxygen
visits
phosphates
myel
assignment
Hay
department
##IO
HOMO
##aque
La0
neuron
assemblies
rearrange
Sup
cholesterol
##DUC
PZ
Tb
50th
##ucl
Economic
Hyp
Paramet
electrop
318
datasets
##ispers
biomarker
fifth
##uran
##mercial
DOS
monolayers
##izable
cathol
deconvol
blending
superoxide
]−
Well
forecasts
instrumentation
##produc
mechanistic
unav
Analytical
Afterwards
trimethyl
##omon
geometrical
careg
Dynamic
##overy
CAT
Ye
##ropriate
wavelengths
sug
passage
coarse
seeds
Changes
minimization
##oglobin
##via
##rically
Sb2S3
##rad
race
##aro
Alex
incorrect
programmed
337
databases
Prac
frozen
library
##inery
Numerical
Ln
LUMO
CoFe2O4
photocatalysis
adherence
##ationship
Any
##S3
compromise
acryl
plausible
##utational
##ido
actuators
Linear
calls
aryl
Mer
##yday
Qo
intu
##umber
vicinity
Local
beha
026
##Background
buses
##ugg
mediator
asymmetry
##rone
virtually
dyst
cooperation
Turkey
Zheng
biology
529
##intestinal
016
sacrificial
##achlor
##104
385
AZ
knee
Sect
S11
##hole
##agulation
OECD
supernatant
healthcare
OCD
subtest
resolve
lasting
Aer
##hard
inspired
sentences
attraction
##look
Public
Pul
abdominal
definitions
Figures
Free
k1
pipeline
tunn
Bre
carbides
##B2
assemble
ferroc
sen
Dri
reduct
XAS
restrict
Kumar
##2O8
additionally
weakly
STA
trim
luminescence
##Ab
lie
characterised
spr
##ourse
DOL
ferroelectric
##ETs
Mach
##CT
##azing
FeS
##Li2
altitude
##othe
fermentation
CaO
##electronics
weighed
concentrate
motors
placing
##eterm
escape
tough
restrain
##bul
ascertain
button
coastal
##On
cue
Li2S2
NiFe
BH4
resili
Without
##plus
eating
##term
welfare
##EF
##ench
replication
Ell
profound
##vial
crops
polyn
##urnal
thermocoup
stopped
Letter
paramagnetic
##yll
1960
Ionic
I1
H3PO4
HL
repetition
Wal
TN
##2N
PHEV
##2a
happens
deconvoluted
Shar
IrO2
Simultane
trajectories
##ih
SBA
Resources
seriously
graft
gangl
Color
differentiate
belongs
NIR
wherein
friendliness
##lam
##rupt
crosslinked
##regulation
##istrator
Boston
surge
##arian
##ethane
Bi2
MDD
KMnO4
Properties
##ios
induct
perturbation
verification
phosphorene
coping
##CL
ascorb
##erators
##extr
vor
differentiated
nanometer
rup
##antitative
##lar
Proble
)[
##arded
von
adren
##overning
##rote
NIBs
##onc
Adsorption
patch
##ombo
##idel
Survey
tau
##gred
Infr
20th
triangular
306
Reference
##thane
pyrrolic
stic
Whit
(±
JA
327
##gin
017
hydrop
]-
Lor
hydrochloric
lubric
physician
reconstruc
511
##iax
##ITY
1B
disproportion
analogue
nutrient
sugar
Kap
NiMoO4
boys
##ovalent
VIC
really
405
329
amide
adolescent
Optimization
energe
##pen
originate
##onym
locate
##DME
resonant
IEC
logistic
Vo
PAM
319
ou
Animal
##controll
coval
##vironmental
CoNi
##amus
disulfide
610
restrictions
Qi
enrolled
tac
actin
pm
excluding
screened
pren
McG
##amily
OD
harvester
incentive
Que
##apine
superi
##WA
Industry
LiCo
transgenic
cerebellar
##ELL
assumes
DN
basin
LiNiO2
vulnerable
BJH
Pop
pancre
Tang
analytes
mammalian
##hm
##orrh
ozone
Communication
born
files
##TiO2
faults
PFC
cDNA
expendit
microfluidic
originates
arbitrary
positioning
vitamin
Wi
translation
##zers
##OLOG
Don
formulations
##estanding
##ymethyl
##omething
story
fits
estrogen
compressor
C5
##ynch
motivated
bismuth
exchangers
C1s
adopting
Gao
##Preparation
Tech
10000
dx
intimate
C60
landfill
masses
exchanged
approaching
repulsion
switches
Source
##iety
##sky
radii
governed
€¢
##eless
inhibits
roots
Stro
tiny
VE
Dong
biore
Positive
prism
Psychiatric
##ensory
Between
blot
operando
Reyn
progressively
##atit
slices
##eratures
Published
arrows
##atos
Texas
##kt
1971
algae
echo
Spring
412
##facts
seemed
##NAL
##rid
releasing
##adec
##taining
##isciplinary
##rer
isotope
334
enterpr
adequately
antis
problematic
addresses
proximal
Blood
Ger
-'
cortisol
indirectly
actuator
Differences
PAR
Response
shield
<.
##ellum
Reagent
strand
Innovation
gau
anthropogenic
pione
Nam
##ZSES
subtle
engagement
CONC
Flor
subscales
##atric
L1
Progress
ANZSES
Die
Plan
##Ar
yeast
uneven
encourage
##amines
prevalent
Rap
budget
.....
##luids
NAD
reversal
suffered
##obi
##xiety
##clinical
##uated
##osine
CHP
##ITT
Poster
northern
measurementsThe
impregnated
IO
goods
islands
395
suitability
367
##last
018
##aud
030
Bragg
glutamate
##ophag
NCNTs
transparency
Extr
similarities
Personal
##toch
##3O7
##oplastic
gro
357
hexafluor
349
Pure
repetitive
##iton
Environ
chemistries
##ticals
##itals
straw
attend
397
Cy
cing
##treatment
ignored
TAB
Ten
##IST
pyram
##itus
palladium
Beck
tidal
establishment
##eyer
##Mn2
Transition
##gene
##abis
##ethoxy
403
Denmark
##LL
##jected
destination
personnel
hidden
asymp
##arin
##ulosic
##Sc
cooperative
##2Si
AO
infarc
urinary
complexation
moiety
Li3PO4
Peak
Production
CoSe2
getting
methodological
Chrom
intensively
collision
Hf
nearby
##rolysis
polyt
ventral
Evidence
##WL
interactive
congen
PbO
perfor
##AST
everyday
regenerative
ingred
Italian
328
declined
shuttling
approval
granular
Disorders
leave
mask
##iment
pacing
something
##lass
marketing
renewables
traumatic
bypass
harmonic
##mn
##wenty
##right
thrust
inoc
Dept
erosion
10C
unco
striking
aw
damping
Russia
Cycle
533
Li3V2
debate
##CNTs
tester
stepwise
stretchable
Emer
merely
Conflicts
Arm
ferric
Annual
##uminescent
divalent
physicians
synchrotron
5e
##sour
Occ
##Ta
floating
560
mutual
wake
##aminergic
ecosystem
Electrode
tack
411
402
analysisThe
Bi2O3
Hard
secretion
flake
##acial
PAS
##iphatic
Coun
##cripts
BY
Questionnaire
permits
VT
entit
client
##methyl
comorbid
##Da
percolation
3145
hands
transmitter
Know
Ocean
516
labelled
Cox
Spectroscopy
##F6
Portugal
matches
amplitudes
Pac
norms
Bern
curvature
324
division
photoan
acrylic
##oa
##owski
Ly
interplanar
##ipping
##atures
morning
rail
keV
characterisation
walk
pesticides
##oparticles
##etting
solute
comprise
arrangements
Isra
expanding
##cast
potent
Impact
##lines
XRF
pacem
campaign
Pit
Benef
PMS
CCS
breaks
authentic
pharmaceutical
361
##TOR
4A
engaged
354
stakeholders
Stan
nanomaterial
##ospatial
363
braking
Bir
##omics
Hydro
513
##abe
orientations
nanoflow
ZnFe2O4
332
nation
##uto
subscale
##ymmetric
responded
elongation
##umen
##oot
weekly
##andem
Kel
##oned
phenolic
##oule
Methodology
##iley
ultrasonication
Tecn
Flame
##resent
##Us
Patent
spark
insulator
Mexico
recurrent
##borne
Whe
realization
Anderson
decompos
PM2
transplantation
applies
Examples
spatially
locus
Ni1
defines
RMS
Wilson
Acknowled
##jin
COFs
Mu
carcinoma
Great
##assay
vice
rolling
investigates
Stim
##ichlor
Modeling
Cat
pose
Li2Fe
TV
subgroups
Novel
##respective
belief
##asted
passenger
polished
##EB
manually
suspected
corpor
377
##win
providers
evolutionary
Meeting
Administration
393
vulnerability
vocabulary
seek
346
integer
vag
amplifier
habitat
meteor
##eric
flammable
wrink
dynam
##ogy
##eives
commercialized
##non
780
##C1
Ever
meters
southern
NRs
xen
twin
HG
369
genotoxic
##lick
normative
379
##affected
##oic
##oil
keeps
oxalate
3f
catholyte
##enton
ethylenedi
##rug
##arth
-)
##bris
Morr
##erium
powers
##lers
##atalysts
delocal
##ULTS
##uccess
missions
##general
##iazep
exploitation
quadrup
##je
Add
##xy
##tible
Assuming
elasticity
diodes
Caulf
Pyr
grew
##behavi
##DCS
opinion
psychosocial
preceding
migrate
governing
drastic
alternate
visualization
##Table
Primary
freestanding
##Pr
368
cheaper
emerge
ELISA
515
##haw
344
347
6000
VM
cooking
Iron
drag
##mes
necessity
##URE
receives
mag
processor
canc
Amp
ultraviolet
##opy
'.
sib
tro
Belgium
##change
smokers
Lam
##esar
***
nic
##ussian
##assing
vinylidene
##burgh
SOH
##lisher
Ang
##anate
command
accumulate
fan
accidents
depths
inadequate
phenotypes
322
reproducible
Mun
##partic
chambers
OMC
cavities
Xi
lapt
##eletal
ambig
##benzene
EES
NSC
##ospitals
##ailing
AES
yarn
Lower
postoperative
dii
METHO
elast
EXAFS
##ipitation
curing
352
acknowledged
ConclusionsThe
##beck
##ludes
lev
suppliers
uranium
##LAB
engage
Pu
extends
photogen
aiming
eggs
4C
alginate
classic
preced
339
RV
)].
Major
lamellar
homes
descriptions
fu
agriculture
##atz
sham
anc
SnSb
endpoints
ACC
##mar
supram
D1
save
##nia
##rey
fractional
517
##illance
SPM
specialized
Tom
##iversi
names
Imaging
Rating
580
##uation
equals
##cope
Dy
myocardial
##HU
Microm
NN
SO3
lymphocytes
Board
##oupling
Plant
##vex
##800
##osting
Alfa
376
delays
examines
incremental
Block
##Gen
Chic
freely
History
Reynolds
hus
##no
Acid
##relim
Mats
##illin
amines
Like
Sequ
exploratory
##I3
Aust
341
revolution
##untary
dogs
supplemented
CONT
##chi
##lose
##idyl
=∑
##iser
##anguages
BG
reliably
356
tric
exploit
brine
SnOx
Funding
Garc
calend
turning
Louis
faced
##oded
##hist
~.
refractive
Mo2C
arth
ss
HN
K3
nanotechnology
371
arterial
##123
PANi
OB
overlapped
WITH
Graphite
##estrial
competence
##osilicate
wax
##MAN
money
ISE
draft
pec
##ulture
802
Guang
projection
crim
Christ
##anial
##heating
##At
organism
journal
Cro
Marc
##osterone
clinicians
326
NCS
numerically
##ohist
Detailed
prime
tensor
structurally
##osphere
viz
occupation
implants
##mem
expense
patterned
Hi
schizophrenic
##olip
SHE
holder
##high
backward
pulverized
##place
chap
485
##imals
hexa
cytokines
college
scattered
sp3
##gic
embryos
compete
##vate
neurotrans
decentral
##ogenetic
carbohyd
ferromagnetic
##rocess
##lasts
mutants
partner
CFD
rigorous
##Pc
TMD
valves
CH3COO
Biol
Symposium
Kle
Fluor
##ipolar
##patients
Ri
falling
##ephone
ischemic
admitted
TiO
Ok
pointing
graphs
Methyl
biocompatibility
party
producers
TOF
coherent
NaClO4
APS
Negative
sewage
dict
##OE
happen
episodic
preferable
4H
unaffected
possessing
Los
GPEs
shocks
EMS
selenides
Pseud
449
consume
019
aphasia
enlarge
biopsy
Bell
S0
revenue
zig
moments
LiFSI
TBI
##aya
Phosph
##120
Mag
donors
##dings
Available
probabilistic
entities
Internal
+),
sulfonic
HEVs
Island
leaders
TiS2
Emission
export
Lat
smel
Disclosure
laminar
concomitant
338
Li2S6
.'
telem
##haz
dism
##YL
##astern
attenuated
##ned
templating
##ws
##iguing
transverse
407
##okes
launch
kPa
navigation
##pre
Waste
##sel
4th
MAN
Growth
activating
suffering
##SIS
opens
MAR
situated
MgH2
##cor
immunos
383
Working
##KA
ordinary
##character
##alling
490
Remark
387
executed
entries
genomic
covariance
versa
##BN
##metal
convective
APC
mechanics
WSN
initiate
abrupt
exciting
mortar
octahedron
ut
8c
PSO
observable
Pf
dealloying
answers
symbols
7Li
oscillation
antagonist
##sively
Shi
burst
Tests
##raf
Chemicals
Change
write
##ycles
##ogonal
##iciency
##iler
Nrf2
525
aggression
signature
spontaneously
exclude
348
##oxidase
##FO
Software
harsh
##rients
extraordinary
GGA
359
′)
Finland
Philips
fundament
Co0
filament
inconsistent
##ront
AST
surplus
358
##ublished
geographical
Frank
sloping
LH
##tiary
−/−
##shop
therapies
got
sliding
pg
##icc
grows
broadly
##aqueous
378
regards
##P2O7
##imilar
homolog
magnets
##born
buy
utilizes
NAC
adul
synergetic
##izophrenia
averaging
##p2
tables
##ois
analysing
phosphorylation
2S
Sem
handed
shortened
instrumental
perovskites
374
judge
Combined
grouped
Hyper
##reliminary
SAS
Disorder
##illus
conservative
forth
##adow
implantable
##tochrome
sput
quenc
aq
Mars
nom
equivalence
shaft
##itness
intrinsically
VOC
exit
encouraging
analogues
Fried
innovations
merg
turbulent
borohyd
chemotherapy
364
glutathione
LEDs
RESULTS
##zens
submic
photogenerated
ready
##ASE
Princip
rhythm
wing
obstacle
separating
Lake
##H6
Chlor
polyimide
Poland
##gia
cascade
Impedance
remember
##oxygen
proc
##Ca
Flex
inevitable
V5
423
Usually
....
OT
shares
Caulfield
chelating
prescribed
##rates
##opolymer
unity
butanol
##uminous
NJ
LAND
Powder
motif
depri
percenti
##bauer
weigh
mamm
MCM
##vement
recycle
protecting
thiol
##DP
tris
packs
##onation
Transfer
##anda
favored
##hor
pixel
Insp
melamine
Tit
halide
##etz
##leted
##ependent
farms
rhombo
optimisation
develops
ingestion
sided
7d
Stress
din
modulate
constitutes
##vasive
recruitment
##aved
foundation
inapp
##111
##4N
570
DSSC
##SE
##ountain
amongst
##orbed
chemisorption
##leting
BSA
LiAl
CW
Ip
PLA
evac
##Electronic
qualitatively
Aim
emphasize
##Chemical
nanocubes
linearity
anatomical
glovebox
utilities
chart
smartphone
cis
475
achievable
Angel
630
##mA
magnetite
DOD
corrosive
steep
Ash
PBA
##Participants
MEA
GT
##KI
Star
Administrator
Fabrication
##octor
##NSs
##oling
inevitably
Err
FeCo
debris
##loading
##capacitors
Iran
Frequency
CDI
prohib
Sam
Anxiety
probabilities
##iled
termination
T3
sulphate
retrospective
nonp
ΔT
prenatal
##ardia
##biological
obesity
+).
wors
##rated
strictly
##integr
transistor
inhalation
Freund
##odied
Russian
##olation
##graph
##anz
inequ
synt
##lycer
defense
##ela
demanding
AuNPs
syringe
voice
exempl
CD4
amplified
languages
instructed
eryth
projections
FSI
##oub
colored
##illa
Davis
720
vein
Richard
5Mn0
Ter
Contrib
Ultra
entre
Objective
H1
Jos
620
Maximum
##lie
explanations
seques
##ovine
415
##quis
##iger
Twenty
elig
##ochem
TEC
simulator
382
ensured
gauge
NiS2
inherently
nanometers
administr
xS
disconn
Hop
##axis
9b
Luc
unrelated
PCL
##iao
perfluor
##ua
S12
##400
agonist
Therapy
'-
Mini
Aud
antibacterial
Neuropsychological
Scherrer
BDNF
cytoplas
disappears
Stroop
purely
fractures
Hb
SPSS
axes
genotoxicity
##One
tal
##usions
342
overcharge
##Mg0
396
shelled
Condition
##iotic
ANN
Sensor
##aments
augmented
##oamper
bol
Fc
##lag
Gil
conducive
ruthenium
degrade
Congress
##keys
CPC
##Metal
Algorith
(.
cone
##University
TU
dimensionless
ROC
conditioned
COD
CON
##WHM
LOD
elicited
Individual
##helium
366
avoids
=-
Composite
Asia
409
eliminating
sold
isolate
striatum
acidity
claims
conditional
##PS4
contemp
##ococc
##hetamine
##rium
centralized
supers
accompanying
lake
QD
dehydrogenation
Symptom
TEMPO
Carl
inversely
##ivariate
##omethane
mouth
CK
inductively
384
##opo
Compounds
Ant
##atomic
relig
anchor
chair
##ulfonate
##ket
##OU
slot
House
Porous
inability
Peri
graphen
KA
##TIVE
cameras
##amino
Values
gathered
LNC
Moss
##wall
##chin
Glass
underground
##ectious
670
##analysis
comments
overhead
Mw
pulp
cerebellum
send
arrest
explaining
IFN
Iss
gram
Protein
copy
##osities
desodiation
SOD
bear
geological
interf
juven
TW
##omeric
1990s
##ibly
penetrate
fragmentation
##MD
facts
Eb
##hosph
junctions
drives
1969
relatives
occip
resistor
##igan
Kit
SnSe
ABC
r2
Universit
Kang
toxicology
sonicated
scanned
##erving
AlCl3
harvest
motions
Mut
tDCS
Singh
##ello
literacy
##urization
EQ
aliphatic
##STR
lose
heuristic
Berg
stimulate
tandem
SES
B3
morbidity
bleeding
agencies
##urgy
381
differing
symbol
##itrogen
##ENCES
ellip
##ophyll
arrival
Vic
3B
##fig
389
##bound
##ygous
neuroimaging
atrial
tumour
trifluoromethanes
B1
ll
##anine
formul
1Supplementary
legislation
semicircles
ov
##ondens
##mo
rhombohedral
AH
Men
Voc
subsidies
Fe3C
nd
##luster
##uma
grass
oxidase
##Cor
alarm
##irty
##bors
SSEs
Pediatric
leachate
MWNTs
covalently
optic
Thermogravimetric
pathop
reproduction
##MH
disks
Supported
##adition
##iabatic
Chicago
membership
regularly
Tol
##otyping
perchlor
Penn
stacks
##itol
##elior
Fischer
##eb
ascorbic
mHz
##ociative
kern
##encephal
polyelect
Nix
displaying
##osomes
constantly
Pas
mediators
Gon
nanod
regenerated
tour
Hg2
payload
hypoth
enfor
##lements
Computational
##architect
irrigation
##zag
syndrom
tilt
delet
carcinogenic
##Inter
managers
Ball
traps
##onucle
Sar
accomplish
bottlen
thyroid
continuum
biased
##dt
premature
Approxim
NASA
observer
##3a
##chemical
Bios
transducer
Rag
Language
irrespective
##iate
appropriately
compensated
skeletal
UAV
RhB
grades
retest
391
##anic
counted
merit
generations
##olarization
##R1
nH2O
Roc
Feng
convers
394
visually
640
endothelial
Peng
404
leth
intercalate
tetrahyd
esters
OES
Ont
COMP
tort
organizational
5A
footprint
dl
760
Acknowledgments
##hell
actors
.%)
Plasma
Hans
WAIS
intermolecular
PSD
Identification
photod
Genetic
##oxin
##brain
replicate
028
unsaturated
halogen
solidification
##rocal
Federal
page
simpler
##asp
photons
##uo
tempera
Detection
MIC
jour
convex
Lastly
VL
helium
Tal
verb
6e
ischemia
##acerb
tach
zeolites
Bayes
descriptive
##opolym
Electronics
FWHM
cingulate
Electricity
Rank
practition
vegetation
Asian
topography
##ylamine
Bra
##mers
delithiated
##uents
362
##word
rainfall
##bye
deletion
eigen
quinone
atypical
##athetic
antimicrobial
carboxylate
dial
##KO
vesic
Li2Sn
scarc
Israel
PTC
Integrated
researched
)/(
dyslexia
##icate
##utional
scarce
Sen
hexane
024
analytic
dex
intraven
Abd
Area
386
##T1
slide
flammability
templated
##echol
NiFe2O4
cantile
NCNT
stores
##beit
methylimidazolium
MCMB
##LUSION
MAX
##olith
435
vocal
economies
Multimedia
##eles
powertrain
1800
I0
##insic
HgO
accommodation
1980s
voxel
(–
dividing
neonatal
Harr
TABLE
UP
##MER
electrophoresis
Sex
agglomerates
##Graphene
##quin
##fuel
##rometallurgical
##STAT
covariates
decide
##umer
collagen
##basic
lean
EDA
1M
486
citi
Consistent
agglomerated
inves
sorting
##olab
WE
optoelectronic
HZ
scaveng
Rober
injections
nanofluids
##eptide
##LO
degeneration
625
expertise
crea
Services
##xia
##ryp
Jacob
buffering
dispersing
Hart
About
solvated
adjustable
FB
##Des
tetrafluor
Gel
polymerized
SNPs
Elmer
nanoribbons
raising
Models
014
POC
LiN
##oval
bowel
##xO
coat
statements
panic
##oning
pole
neuropath
388
DAT
##onents
polluted
webs
substituting
##atterning
RFB
LSBs
propane
sulfonated
Norm
406
nanopores
amelior
##comings
freshwater
ownership
Student
##Sub
2i
##coal
xi
##omorph
Zinc
Sulfur
CR2032
KBr
Francis
ri
##iversities
kDa
houses
Atomic
GDP
##aman
boxes
slice
regulator
imper
422
players
NCM811
##ucks
autonomy
BV
ClO4
##ithmetic
##addin
SAR
pend
branched
433
##La3
ACh
loose
subsystem
durable
473
Differential
inertia
Physi
##zi
Optimal
##itone
requests
Sn2
coexistence
##obicity
##velopmental
EMG
MnCo2O4
atm
Tun
GFP
exacerb
##anadium
ure
Rate
##uda
##echarge
458
5O2
PSA
Hub
coaxial
sensiti
cs
##Le
##ecess
AcknowledgementsThe
Preliminary
##ja
##otomy
##HF
ended
Prussian
closure
Selection
SERS
nasal
raises
push
NK
η2
zirconia
R3
LiPON
lac
##adzu
print
initiatives
518
Infrared
graphitized
445
orthogonal
encephal
##Ce
##rian
shortcomings
hematite
Ach
magnetron
condenser
523
aberr
##ague
autonomic
meanwhile
##WO4
deemed
micropore
Programm
wheat
Aesar
vas
patents
Electrochem
Bh
hinders
iteration
Ven
2x
Word
blast
Barrett
satellites
##bu
##log
##date
adver
417
029
serotonin
preservation
porphyrin
##R2
civil
Rever
Robert
adiabatic
Rand
England
usefulness
CONCLUSION
##olves
##link
##enberg
dominate
cohe
allergic
CT200
refractory
turbulence
tailed
##uns
formic
superiority
##erant
##apsed
ads
microch
##ANI
durations
evaporator
##thood
Fan
dangerous
##ococcus
cannabis
##500
Norway
fores
Orig
##rystals
##umes
Event
##aden
##iaxial
sont
osmosis
Tin
PCBs
literatures
Columb
dV
resins
observing
Scenari
##hydrogen
anomalies
exhaus
unsatis
PMIA
m2g
wash
Combining
##ensic
BAC
ments
programmes
408
transformer
Are
convention
gastrointestinal
chips
##omponent
refrigeration
Psychological
TENG
maturation
Berlin
readings
ecosystems
##factor
JP
schiz
pseudocapacitors
envelope
recharging
##isson
pretreated
altering
Nanos
lift
##101
inference
##ahl
Expression
##ief
topological
##orters
psychopathology
insignificant
stom
##rice
##ERGY
Jack
-[
succeed
declines
macrophages
##hibition
ci
##ocations
Signific
hydropower
##rant
##Ind
derm
CNC
##S1
##ilization
fouling
prognosis
##jo
##hester
##breviations
conformation
phosphides
nonaqueous
Jr
TEA
steric
MSC
3DG
toxicological
hydrodynamic
depleted
drainage
##olinergic
413
outlook
presently
Increased
supramolecular
##iratory
##Conc
supplying
microt
Diagnostic
independence
PHEVs
periodically
joints
##heim
balloon
Prob
COP
##uminum
ka
highlighting
##B1
automobile
dispersions
surviv
died
implied
dosing
##fi
clients
Hou
Shimadzu
464
Active
Kan
##lyme
##ca
##was
searching
Commercial
##chair
BMS
sulfonate
Brit
gelatin
visuospatial
slip
NTs
corp
photovoltaics
Aladdin
multim
##obor
##berger
##DR
pathogenesis
equilibria
rabbit
Back
delta
depositing
playing
peel
incineration
##asure
linker
Core
quarter
xC
##660
##ematic
uncoated
naphthal
RTI
KI
##enders
Liang
intriguing
bronch
##itter
endocrine
##wa
Researc
electronega
mentioning
conserved
495
##bell
Related
professionals
breeding
photoluminescence
went
##FE
interfere
##FERENCES
arousal
theor
sequentially
aven
determinants
associate
behave
shelf
999
MAP
aprotic
##otrans
CZ
characterizing
Academic
caud
##kinson
scheduled
##fulness
##ACC
NiOOH
seismic
E0
mesopore
Basin
MOS
##inally
passes
managing
##ishi
destroyed
Determination
$/
1O2
capturing
##una
cyclohex
spun
##ape
##vised
Metals
Along
drilling
enclosed
##lattice
Copper
Mah
Rf
creep
tertiary
techno
proposal
convenience
flav
phyt
subtypes
psychology
GST
micelles
upward
t2
default
engineers
toughness
Examination
terminals
Yuan
Canadian
cerium
locom
diabetic
Wen
radiative
lon
imperative
465
##assays
487
Schott
commitment
antibiotics
##ogr
Tris
IFAC
Ji
coherence
##Acc
depended
landscape
SZ
VAS
refining
427
stressed
Attention
##irrh
spike
##ny
cess
##Although
Regional
albumin
penalty
710
hierarchy
transcriptional
James
PES
epitaxial
##05
screw
door
Eds
controversi
catalyze
##adiene
bp
##ycardia
examinations
Numerous
condensed
electronically
graphical
GNSs
defibrill
aper
##gest
climatic
Dat
+]
Station
Silicon
N1
431
Freundlich
Cyt
##predic
##icking
LiBOB
NTO
##urethane
visualized
##amoto
Laboratories
##iability
Buildings
lived
488
experiencing
011
BO
lap
housed
surveillance
##regulated
##rystal
neighbors
°)
locomotor
NIH
fullerene
exogenous
429
##jet
VP
##iatr
TOC
syst
fi
##Ti0
burner
biodegradable
muss
##127
REM
##isch
1N
##balanced
##meth
SMA
pine
bottle
contextual
Lag
lights
##Struct
Reading
seasons
##QD
##Or
collective
##idemi
effluents
FI
455
yl
thousands
seal
##oxia
##ometallic
linkages
credit
Cui
##elson
392
CPs
kcal
Jahn
QT
dopaminergic
transfers
##linical
cc
Surgery
Choi
##PO4F
deterministic
nest
##Sr0
##esthetic
a1
AEM
T0
conjugation
scholar
hospitals
Fa
Exposure
densely
##enetic
##atching
identifies
##obium
quenched
micrometer
elucidated
##uscular
##bic
Stock
Understanding
HAA
Rog
NZ
Thin
reciprocal
underestim
interestThere
Debye
##T2
SO42
##etts
CTS
fulfill
sole
disappearance
Boltz
EI
odor
##002
supplier
##omposite
421
electrolyzer
##Since
ts
##hl
PBI
perfusion
##aught
##uron
##ni
Tecnai
pts
Schw
##nt
melan
safer
##oda
cysteine
Particle
duct
##2Se3
inhomogeneous
##Be
communicate
jobs
exert
##oupled
Aspects
−→
catch
Na2CO3
##oC
##obenzene
ionized
+[
portfol
##ostasis
Dub
CSP
adulthood
##aton
crossing
preparations
Distribution
DMFC
doubt
Xiao
##algae
manifested
Tradition
##natal
electropl
##4a
##size
crucible
relief
dy
overexp
EPS
Grid
researcher
Grad
methylation
marrow
##volution
##akis
inn
Contact
antipsychotic
##ila
wrote
Pain
nc
dispar
##rometer
Gall
Util
reus
##Py
##thing
compromised
##roscope
withstand
twenty
TEOS
||
platelet
##aptive
Wuhan
premixed
##erme
eds
MEMS
##occup
##modified
##LI
##roni
013
##nea
TCDD
rodents
monkeys
hept
##eritics
##canic
radioactive
Southern
WO
tive
Quantitative
compartments
Taken
thiophene
##omel
terrestrial
advancement
zigzag
foods
Rub
SK
ethnic
somatic
chalcogenides
Czech
PER
installations
indisp
slides
comprehensively
preserve
temporary
Morris
##ireless
approximated
Tianjin
hip
Membrane
##research
speciation
##itch
.~
sputtered
##utrition
pond
boilers
##2O12
biosorption
Dom
dominance
##fish
mm2
APP
##orary
CoFe
transc
recirc
discriminate
##****
Amster
Crystal
trou
Voltage
Electrolyte
Hir
converts
Relationship
fell
specially
releases
sensitization
bundle
plated
Fern
continuing
Inv
Ps
##lot
airway
##rolytes
quadratic
Garcia
##ensable
ICU
ExperimentalMaterials
mur
prospect
east
priori
synchronous
utilisation
Except
##EX
##osols
nond
##aline
##acetic
methoxy
hydrophilicity
bioav
Head
Ti2
IntroductionThe
Actually
expectation
##ilation
computerized
ect
dL
##Show
##tib
Resp
textiles
allocated
Apparently
rupture
mos
photographs
##lusters
Photo
STAT
##f4
##udi
Silver
privacy
Nav
trav
##onald
steels
inductive
urg
##ska
bundles
##I2
F3
searc
nutrients
sheath
nanoflowers
occipital
VF
rearrangement
##Hy
Digit
HK
Ct
Correlation
BW
dw
curric
subcortical
##HER
##odegradation
##EDs
poured
LNG
##mospheric
deactivation
1968
##oclonal
pyrite
##eptor
Laser
ZH
sounds
refine
~-
Schizophrenia
432
Role
Ped
##asse
ethers
Amsterdam
PBE
1967
Bey
buffered
indications
MMT
##opathic
albeit
##rogate
##vae
congr
416
mimic
xer
Fuk
ip
##atization
complaints
routinely
IgE
Heter
##du
Wales
globally
##real
peers
##hydrox
appreciable
myc
meant
exploiting
supervision
##acic
Cao
##agmatic
chiral
Kur
Activity
419
Sum
lignite
590
Quant
Fe0
deals
Stage
maximizing
Rather
##Met
POM
Pic
459
putative
balls
438
##uy
endpoint
Measures
trunc
dissem
PY
Gro
Fd
V2G
photosynthesis
Ple
chloroform
neighborhood
##verty
discern
employs
monochrom
electronegativity
##RY
NTP
##aland
encouraged
bovine
##oporous
##arboxylic
portions
Ms
uk
infarction
##iva
illustrating
approached
brand
000a
phosphoric
##utors
Rot
ZnCl2
5Co0
fused
unid
##ocol
tunnels
phil
employees
SEs
feelings
##cs
##O1
##otherm
fibrosis
443
ECM
Thermodynamic
1f
autop
680
##DUCTION
##aut
##pert
filtr
Malay
beams
S1a
573
EK
thym
unn
##arget
align
##amen
discarded
##vical
fabrics
Blue
Il
dimer
bulky
##elen
symptomatic
Discharge
##vian
1970s
plain
thread
spreading
moral
ham
##F5
##NR
ATR
macroc
##west
displace
waven
457
Raj
Much
##VT
CDC
Cobalt
necrosis
Fast
x2
viewpoint
arguments
curved
Esc
Relative
Anton
consequent
genotypes
correspondence
dropwise
lots
silicone
hyperactivity
ubiquit
signii
MFCs
##reek
chronoamper
clearance
labeling
439
##ospace
brack
respiration
##qui
##erephthal
##Super
##worth
CT2001A
Gar
imbalance
##ovoltaic
Products
##ellite
poverty
Na2Ti
sion
##etti
##tinence
Boltzmann
##lip
##uric
clarified
recombinant
antidepressant
agar
Conceptual
inappropriate
Ross
classify
##ophys
inverted
418
trading
waveform
##After
LiO2
ganglia
##itations
GaAs
##burn
##udy
##aphyl
In2O3
producer
brains
463
platelets
Ken
453
sclerosis
ASAP
rodent
##formamide
##rosc
##ocyanate
##whe
primers
414
bridges
Ful
fails
etiology
chol
##Pd
##ACH
wrong
##enic
##obility
maxima
Mary
RFBs
LAGP
##Te3
eastern
Micromeritics
cantilever
##etrafluor
Clean
documents
suggestions
##ogels
Acute
Elemental
clamp
appealing
transforms
##NE
subunits
Objectives
##oshi
##velopment
percentile
pad
G6
Adult
DiscussionThe
trying
C57
Genetics
Mn0
##rosine
cigarettes
coagulation
unwanted
HCV
attract
##electrodes
trips
constituted
Vit
575
Sak
turnover
sett
polymorphs
##vie
##sil
deeply
REEs
820
Rosen
##olyb
neurom
447
vortex
transferring
Dam
PbSO4
ranking
peroxidase
remainder
west
backup
##FSI
gland
##controlled
##oprotein
##eme
##echargeable
##oping
relaxed
##chen
disabilities
modality
William
adip
##wald
suppresses
adds
palm
5H2O
supercell
conting
launched
Electrochemistry
transit
Wis
Band
persistence
##VO3
hemat
aerobic
Irel
Surg
Schottky
Alcohol
circuitry
Advance
TMOs
polynomial
##opa
Interview
beds
Business
##pyrrolidone
photodet
recrystall
witness
437
difluor
tunneling
destructive
SSC
mediate
cant
##EMA
MMP
woven
offs
spelling
##obia
Hom
Screen
##micro
##kg
retrof
automation
byproduc
ESCAL
HAADF
##opot
RDE
odds
dislocation
Fi
Set
(=
MWh
##ATIONS
dotted
##accharide
451
neuros
kernel
Peter
##TMS
##2A
##EST
pyrolyzed
organics
MPPT
adher
contaminant
Sensitivity
weighting
tonn
##ultural
##BR
##acin
paint
catal
agitation
FeF3
Spin
antibiotic
Pacific
snow
##f3
Clim
xO4
Algorithm
traction
iƒ
syndromes
steadily
##opamine
fcc
minority
Mo6
oblig
dump
earthqu
commod
-+
micr
Swedish
WL
##ians
colony
sorbents
##nings
Schmid
coch
##mond
coils
CRT
beaker
restored
cholinergic
thereafter
Synd
Details
indispensable
inac
##jiang
handled
##thermally
folding
MATLAB
magnified
Series
##Ni3
NSA
##uez
Near
Pressure
Clinic
ECs
isotopic
polymorphism
##Di
BiO
##biology
decentralized
##rance
pregnant
governments
##prisingly
Bonfer
##avorable
##He
Standards
-~
patterning
Lett
definite
render
##ocardi
Ib
Poll
benzyl
##ilent
##isperse
prere
O1s
mud
ANA
##pler
Chris
talk
satisfying
##octoral
##ras
LiBF4
##UV
##SD
stimulating
633
V1
##reens
pressurized
NMDA
award
McK
oligomers
441
C8
latit
##woven
Resource
dynamically
##yclo
rose
crown
geographic
##fc
fibrill
lighter
WP
##ball
freshly
##Trans
gi
deaths
planetary
incorporates
Clo
Animals
Procedure
##enzym
##mas
cervical
Remarkably
telephone
hypers
MK
reman
Koh
##aturation
##strom
reconstructed
containers
potentiostatic
Peer
cirrh
EH
##behavioral
##ethox
Making
sort
##cribes
471
Support
501
519
P2S5
embodied
metam
##enyl
stems
Year
##chim
Va
manifestations
Characteristics
##rological
LiI
thiourea
##ophore
##estone
restr
outpatient
VOCs
ACS
DOC
scanner
11a
##ynchron
Dur
##2SnO4
467
referring
##opropyl
##immune
428
##echt
PSCs
Density
461
rotary
Validation
SNP
Generation
Guid
surprisingly
sty
##enia
Pel
iterative
retro
intram
Chronic
lipids
##uro
POL
gut
synergy
thoughts
indexes
cytokine
##ocene
##Two
lying
424
pacemaker
SOFCs
jp
1966
Luo
judgment
energetically
##ishment
448
SAC
##Fe2
squared
Letters
Evolution
Ontario
0385
Bank
Analyses
lowers
436
Ireland
##pine
neurotoxicity
##apses
hepatocytes
##typ
robotic
adsorbate
mC
neuropathy
##a1
dominates
426
Tar
secre
CH3C
cytotoxic
unilateral
FDA
##tinent
ho
444
##outs
##oft
yearly
prismatic
latencies
Rp
shortest
downward
restoration
Biology
Oz
GU
friends
fungal
requested
Pin
Agricult
LaNi5
Gh
##BE
Metall
amper
terephthal
−(
Prom
##array
Zeiss
encounter
./
##f1
Mt
##ICS
##efined
maturity
assesses
breath
daytime
Manufacturing
##amura
spinels
##ologie
REFERENCES
bend
extracting
consumes
##iod
convey
nanofluid
experimenter
Reduction
embryonic
456
ECNFs
trifluoromethyl
##UST
##test
photochemical
priming
cards
##ilibrium
Mathem
##irus
##El
mist
##zhen
##anche
Daniel
Roberts
##othing
##uria
##4C
CYP1A
rhod
caution
cohorts
modalities
##tigens
POSS
Pharmaceu
UL
dith
surpass
memories
annular
os
Statistics
gm
##ynaptic
Conventional
LLTO
BTMS
cytochrome
socioeconomic
borohydride
AMP
##ersen
Bow
Newton
spp
tips
##raph
diets
730
##GCC
Glu
Bonferroni
empirically
Eco
##characteristics
D3
Factors
expenditure
intravenous
##Sm
profiling
wish
Jul
ith
spill
Comparative
IMP
litter
trivalent
##elve
trucks
perce
brittle
##ureus
prompt
tert
impacted
##anal
Left
overt
##avier
MnS
".
##olym
Neut
##heast
closest
polyacrylonitrile
##Qu
##105
Lit
OCP
fever
Continuous
8000
shortage
disag
##Sn2
##lization
venous
cope
materialSupplementary
pathogens
Kaw
seam
teams
LIC
Comprehen
prosthe
HH
##Tr
waiting
paradigms
bladder
subsidy
615
535
superficial
HY
Spear
477
lifest
lect
subd
Whitney
AlF3
0D
nanocarbon
ferrous
linkers
PAni
gaining
Refs
##ISC
labels
Simultaneously
##asm
2032
additions
hub
liquefaction
3d5
##2O6
finds
responsiveness
METHODS
##tedly
opioid
entity
ISC
flooding
DER
ultral
disperse
##enzo
immuno
finished
nevertheless
ZCO
chlorides
proxy
potency
##ylon
##baum
subsystems
505
reproduced
Pere
S13
##ocon
Cate
favors
Squ
MnCO3
meteorological
arrhythm
##rites
Limited
labour
transcript
EELS
442
glycine
##loyment
##ressing
478
desire
Fuj
##Fe1
Lip
CCD
tellur
CMOS
##otemp
computations
truly
punc
histological
coni
##aks
bioenergy
tower
Capacity
Agilent
Mari
Sep
gov
sealing
CDs
woman
thermochemical
uniqu
authorities
artifacts
Rou
LSC
tapping
##ecommun
555
reproduce
dodecyl
xLi
##ostatically
##idental
catechol
perchlorate
Phen
##emulsion
subunit
Bot
inks
retrieved
THC
larvae
##polymerization
##m2
copolymerization
##assed
##PM
actuation
differentially
##oka
Kol
traditionally
plasticizer
QOL
hamp
##300
454
##idential
Ot
evolving
##HAD
postnatal
ppb
gy
DISC
##ocket
controversial
t1
##vating
stringent
rip
##SO
##rinted
simplify
ceria
##orptive
proving
AhR
GDY
cube
arithmetic
says
photoanode
unfavorable
Fif
simulating
MMA
photoelectrochemical
analges
cables
##ailure
centred
oxygenated
Greece
voluntary
residuals
Beyond
##unar
##onto
soy
pathogenic
446
interacts
Bad
Son
##acher
##applications
Mice
##ographically
biggest
483
##aphr
##rogenic
CHI660
AAS
Ost
simplest
notes
tolerant
meV
039
silicene
embedding
tailoring
propyl
discussionFig
mile
neurotransmit
eosin
##F3SO3
dental
##ocr
A1g
ation
incoming
Above
unmodified
inflation
headache
##zyme
ferrocene
##aric
critic
Li2FeSiO4
2021
pixels
theta
agonists
statistic
617
ath
Dev
NPV
Ethics
ERP
Daw
bene
##hydroph
##acon
nucleophilic
characters
iterations
479
##WT
##bin
normalization
conce
OV
##organization
Explor
You
##omfort
##izability
Zealand
hepatitis
##pose
confirmation
##uded
HQ
sublim
##aran
##olor
Technol
MED
assets
711
replicated
ensemble
antagonists
ORC
##accharides
corporate
novelty
poses
proceeded
peculi
prerequis
Spatial
probed
Wolf
Monitoring
swimming
confounding
Enhanced
tech
monoton
Tow
silk
desc
fluorides
##hiph
Liver
##t3
spine
##eriatric
G1
rew
mathematics
##Eff
553
Austria
discs
##life
##itron
##kle
charger
attracting
adolescence
M3
MWNT
LTP
Mobile
1n
##just
HOP
anger
528
weakened
Until
O1
##space
1965
##yner
HSC
Mis
zeta
elu
SWNTs
People
BAS
Fem
preschool
481
Evans
Dutch
INTER
Bayesian
##osome
##vations
##plant
um
##DT
transduction
binds
lever
%-
Nowadays
loci
initiator
Pn
nursing
##upta
4800
financially
4B
tetrahedra
oxalic
mari
conference
462
DOE
replicates
impulsivity
Hung
Subject
asymptotic
gasifier
C14
Ide
enj
##irm
aureus
retic
##ompson
469
swarm
distinctly
germanium
pooled
psychomotor
Women
ga
lattices
intersection
##ecal
Anth
heteroc
##olateral
##NW
##Data
LiMn1
##Direct
lactate
anesthesia
justified
diagnostics
fluoro
##environmental
soc
striatal
TEGDME
,~
##oubtedly
##PI
survivors
##eh
Plus
Diffr
ity
FAC
Session
CAD
pyrene
##gone
Charles
μW
nont
##viation
489
progen
hemorrh
1S
SLI
repeating
biofilm
imagery
hur
493
disab
Rapid
434
apt
completing
selenide
syll
volcanic
translated
fires
SCI
collaborative
mapped
##oting
realizing
##phen
Together
primer
##stituted
537
advoc
achievements
Disp
CPU
##quir
superconducting
##fect
Clark
Pap
melted
ubiquitous
imported
inacc
##H2PO4
##CD
grants
detox
##braf
buoy
nucleotide
##001
##bean
##Thermal
doll
ESCALAB
##feld
unnecess
Editor
malignant
.’
Mossbauer
microgl
hydrophobicity
Approximately
Kam
IPC
##annels
resc
ALS
##orf
##gressions
evolve
permeable
delib
##icious
##iston
484
##ilin
brake
503
##oms
##t2
FFT
segmental
Activation
resilience
protr
Royal
507
coales
fringe
retardation
soaking
capping
Scenario
##amental
##ROM
Region
nutritional
micronucle
GITT
liqu
ingredients
##icz
underwater
Thompson
charcoal
music
##ERT
Gram
##OLOGY
substituents
##membrane
measurable
scalability
##lov
caff
##mi
##orus
Mir
##agel
exponent
violent
enters
hypothetical
rationale
tailor
##particles
secret
AlPO4
GeO2
Dar
aperture
##oscope
hypothal
497
ups
PCP
successively
conflicting
SOL
##ARY
##FET
##etine
staging
##atched
minimizes
2025
supplementation
##atio
Neural
##atement
##brafish
colors
##loaded
AIDS
lasers
Haw
SWNT
ZnMn2O4
delamination
prognostic
##eland
Competing
STR
storm
+–
guideline
##............
Received
Neuroscience
mesoc
Sz
466
uncover
Coulomb
Rele
pel
interfering
genetically
algal
congenital
##ocatalytic
annually
Panel
##power
μs
p53
468
472
hydrothermally
##isal
##urred
WSe2
hap
rigidity
afforded
##entricular
Kaz
conformal
nanoarchitect
spacer
##Ba
village
FW
##eq
parking
discrepancies
metaph
KL
Subst
Big
##ali
Ic
Mix
kinetically
Roman
courses
protonated
##verbal
Chinaa
##emiconduc
fungi
##entz
Bart
APOE
audio
joined
tonnes
##preced
##vard
##enchym
##ulfonic
inefficient
KeywordsLithium
curt
FIB
##ENCE
##When
##eur
FePc
spir
immunohist
mitochondria
Lap
lasted
Soil
capita
Trop
##entate
endurance
Researchers
##m3
metabolite
tagged
1050
WH
zirconium
spiral
##Our
Stein
ture
##eno
eligible
telemetry
Doppler
##adel
posts
mang
##Si2
leached
GDL
Nx
##ocell
Od
permitted
fatal
##anean
query
##ymptomatic
5f
##rex
Fenton
##ito
##airs
Salmon
##lusive
V2O3
WB
##perimental
pneumonia
presumed
##ensed
3H2O
interpersonal
CALP
##uccessful
##EMENT
Joyner
Few
synchronization
scarcity
##G2
Rhe
UR
Xie
Yosh
TNO
##ulfurization
1964
Training
ceiling
Kag
##class
##liest
fractal
parties
##precedented
##Conclusion
oxidize
##opathological
1350
impulse
##C2O4
##umatic
diphenyl
##omonas
referenced
contour
tether
extrusion
Otherwise
helical
##prop
upgrading
##imotor
heights
longest
##rost
Arc
tan
certified
##Disc
Microscopy
GPC
inconsist
##erebral
TMA
sensible
shop
Knowledge
Simon
vaccine
)·
##OA
reused
redistribution
Radiation
hypert
Distr
PEV
##From
Rodrig
##lastic
Family
499
synth
monolithic
##Cd
476
observational
##Per
534
judged
x1
##cano
microcontroll
Spearman
UT
##nas
Pitts
Oil
Diego
Yb
agency
polyurethane
prioriti
folded
Britain
unsatisfactory
halides
trifluoromethanesulfonyl
Matthe
##diagn
syntheses
509
CaCO3
##asks
pyrolytic
##forming
grand
Latin
Ki
565
613
##andez
##NbO3
##jective
Inorganic
plasmid
##zo
cleaner
alert
clad
##bro
##A3
submer
Still
##erious
narrower
belt
PSC
xyl
Highly
Fo
##RODUCTION
Morphology
452
Surprisingly
necessit
Nig
##utely
##attering
##ochrom
continuity
##jun
Digital
complication
##enges
Halenda
##self
contrasts
LiCoPO4
##etrafluoroethylene
Sah
Whether
##olyte
listening
rows
##rene
dish
545
Argon
CX
##ayed
Fort
##wind
monoclonal
disaster
##VS
looked
##sted
elec
lanthanum
ketone
posed
philos
642
DQ
##opharm
Product
MgCl2
Stability
preserving
Alpha
unprecedented
Shenzhen
viewing
CALPHAD
productive
aliqu
Oxide
nod
sinusoidal
##body
N2O
encoded
Poisson
nurses
##aga
undergone
cryogenic
811
##leen
##bec
Shin
biologically
powering
RN
##bow
antigens
##cerning
##iterr
Ni4
BiVO4
vanadate
aortic
##PB
CAN
PPI
confer
616
##ysilane
Body
payback
segmentation
EtOH
TBA
vd
coordinating
piv
##rell
photodegradation
Sti
Describes
sten
##etermined
##PS5
gratefully
##ergen
rear
deline
##alateral
527
WANG
Bioenergy
anom
scrip
##ercul
caro
analyser
optics
##ulting
)],
foraging
whenever
6th
Rock
citizens
##DO
P25
Formal
fellow
##sertion
Community
hormones
wheels
UPS
##X2
naive
Devices
Ish
monitors
##sies
biases
guaranteed
willingness
criminal
Nern
exercises
Ow
phosphide
##oborate
USD
##ierarchical
##Electro
Pak
moreover
triangle
##pa
##i1
grained
Controll
AEMs
insulated
Ragone
affordable
CdSe
Cole
Turn
tant
##meter
cultivation
##oL
pollen
##ondence
glycos
strips
Kl
infectious
##acillus
##olane
Will
bits
cu
612
desicc
miR
surrogate
Sed
stably
Alt
##ideo
ideally
funds
Barc
##polymer
##alkyl
plenty
BH
Dys
license
Nur
qe
nanoplat
MU
P3HT
stomach
qui
KIBs
redundant
Northern
035
605
interestThe
Spe
rendering
Bud
games
phenotypic
micrometers
KF
tropical
K0
Force
Subsequent
repeatability
Prevention
PZT
ask
##ambig
virtue
BDI
##phot
anthrac
Hab
ei
##hav
Sher
unders
skew
CEI
dehydrogenase
##oyl
congestion
##uts
611
?”
FET
##branes
practitioners
Strong
happened
Hoff
spraying
P450
##ilt
Middle
Fluid
hit
juvenile
##GF
Zw
SPEEK
feeling
postulated
Filter
Right
”).
List
−+
VDF
##roton
muscular
##growth
Random
##ju
cogeneration
enterprises
##arity
spind
registration
atmospheres
intrac
Lis
##fen
##vs
swing
disagree
proposition
factory
tetramethyl
ie
##ete
scrub
##tique
aband
signed
chicken
earliest
neurodegenerative
CER
##osely
MOD
miRNA
avec
S14
TMT
mandatory
slurries
Cdl
Walk
##amil
524
valley
progresses
MoOx
rejected
screens
##press
##KE
reper
Award
win
matters
Barb
##azol
tremor
Eight
##ONG
Spr
653
##lishing
CuCo2O4
521
mutagenic
##achus
multicomponent
provider
~'
641
##HN
REC
##kh
##ubation
xH2O
retinal
CaCl2
La2
482
##onder
omitted
Cn
GEN
DU
Burn
Cron
ba
Cu2S
tracked
CY
reporter
Bull
##amon
LiMO2
##heated
##ATE
Cour
Ferr
cured
Nothing
Malaysia
##ris
NCF
##FeO2
stre
##atized
rheological
##La3Zr
##Mod
##ankton
576
##stem
commission
owned
##rofuran
CharacterizationThe
ultrafast
Marine
##acyano
Toy
translational
Thirdly
deuter
504
##Solid
bab
##A2
solder
ytt
epithelium
origins
Blu
Diss
##isen
Sund
##uri
##onomy
##onical
obstruc
accelerates
Represent
specify
Less
rst
##istan
##syl
##allow
522
ICT
##These
##holm
clinician
632
Modelling
helping
618
Mus
DCD
era
Ket
sad
shadow
##umbic
##110
transporting
Cm
fractionation
Zhong
(≥
##esh
1950
2s
585
lifetimes
acad
farmers
polyhedron
epileptic
##oves
occlusion
unpublished
degen
discount
heaters
stretched
uter
shortening
##nik
graded
aided
Chall
answered
##idelity
Anne
604
1Mn0
acrylate
Mosc
##ungs
rolled
prep
distortions
##waters
chapter
bomb
##total
demanded
LiBH4
Every
pursued
496
bounded
versatility
##oes
##Instit
##path
##kr
Weiss
carboxymethyl
phenylene
##layer
catalytically
cha
regulators
STO
BTC
##particle
Acet
worker
BaTiO3
Na1
onc
restacking
Miy
preclinical
Petroleum
Li2S4
2N
Bab
##imetic
##Character
Gonz
dialysis
##PFC
embryo
##terase
Revised
cattle
mold
graphic
minus
GAD
discourse
##dehyd
exclusive
sacc
##blast
673
Syndrome
##ependence
fate
lump
Urban
appra
evaluates
##iterranean
IE
invariant
portfolio
Dai
PXRD
interdig
G4
Sleep
alleles
##otrophic
502
physiology
propell
Point
##afers
dispos
##IE
grateful
CU
distribute
ROI
($
CBM
Vien
##lox
Ast
sap
enjoy
luc
##pn
##ogly
safely
widths
bipyr
491
dimethylformamide
ENERGY
presentations
##Li2S
recurrence
Enter
##opyr
Planning
]/
Sinopharm
Vul
pun
immunore
esophageal
negoti
speculated
##gies
xe
Error
3m
microalgae
##SING
LLZTO
heteroz
##BO3
##ATT
SPR
Reports
QU
relapse
506
contralateral
trough
injured
R0
xylene
3DOM
##Based
##stan
Xin
##effective
##ensis
##opent
10b
propri
viruses
ΔS
street
spacings
Atl
##115
capped
##ambo
##ANCE
reti
elicit
Cr2O3
##p3
Concerning
deprivation
Por
diagonal
urchin
873
##eder
uncontrolled
combus
pyramidal
##nm
familial
Gol
sciences
8d
multist
calomel
ASCs
apoptotic
neurologic
Sb2O3
Ui
HPA
##K1
SYST
fet
##achusetts
##TES
LCOE
%–
Critical
##gs
neighbouring
corpus
.................
corrections
af
outline
Seebeck
Toronto
hemic
##Phot
epig
##accum
calendar
BPA
##inki
news
##arrative
##enza
SHS
LAB
antifer
interplay
transmitting
##acks
averages
KS
Cr3
estr
Secondary
GaN
##Sodium
Seoul
##ascul
Fib
T4
##cos
##ucose
Behaviour
##bat
damages
logarithmic
spor
polymerase
492
airborne
##wer
dimethoxy
Jung
trigonal
sake
Joint
salient
wrist
##f5
prey
bubb
fundamentally
ESM
lamps
Abr
deficiencies
##anediol
Ster
hospitalization
boat
Industries
Diffusion
flotation
Pareto
overestim
##ACE
meal
4g
##ocyst
Strategy
airflow
victims
crime
##tibular
regressions
Kalman
Male
SIMS
TiNb
Whatman
REL
Td
##V2O8
Dunn
George
nitrite
dismant
##ocor
truck
##olite
polyhedral
##inflamm
##OO
responders
712
##kov
Compliance
Cast
##loid
Santa
fascinating
microph
526
naphth
Occup
decomposes
dendrim
FeSe2
Vienna
557
LiMnO2
sedimentation
phthalocyan
3d3
’)
monochromatic
fluorination
Coord
Pittsburgh
diaz
directing
840
inverters
Others
amorph
HOPG
675
knockout
##TCC
##eg
Fundamental
Manual
Rankine
looks
INTRODUCTION
Abs
Tf
whisk
hydrochloride
clu
##epartment
O4
##rock
TNT
Moh
##ingly
pull
##heet
##agraph
023
##p1
ores
methan
Site
561
Yi
remission
MDA
shunt
Math
##amiliar
##consin
Cycling
Fg
##agnetism
monetary
ZT
##lia
645
##onymous
Ron
PQ
##analytical
##osene
##okinetic
tooth
Personality
carcinogens
caregivers
Fram
Kenn
Ry
Reliability
reconfig
##VAs
Vers
overw
Thereafter
cancers
unnecessary
Carol
Pier
illuminated
##According
##iana
Li6PS5
stabilizes
electroplating
##uana
superimp
##102
##ortive
Suz
cytos
494
wafers
lethal
gelation
adjustments
nitrop
aerosols
##enet
scene
physis
WK
##T3
##aniline
##roblasts
locomotion
Moore
Hummers
laptop
Kon
pave
Allen
grip
773
##lite
##vens
##ophila
diffused
inclusions
##amagnetic
keys
L3
##umi
adversely
tyrosine
slowing
wealth
ToM
Wireless
##,,
##Over
Efficiency
magnitudes
##C6
retin
##abs
Fe1
##wt
Overview
##emens
##grav
canopy
isopropanol
Joule
##ielect
508
ACN
5Ni0
##P1
nanocrystall
ZABs
confocal
Tl
##oretic
lumin
tional
mats
homoz
ReferencesElectronic
15th
Alloys
WI
Executive
3500
Perhaps
##Psych
epidemiological
##arger
functionally
785
PbS
confine
colonies
ARC
##itoneal
warning
boards
##induc
Florida
Improved
Nicolet
##human
##asant
restricts
polymeri
},
ZnSO4
##Op
619
estimations
deformations
prod
homeostasis
##During
##idi
var
distant
epoxide
Swiss
curriculum
contacted
exposing
571
##sub
aspir
insurance
559
PAC
microgrids
536
extrapolation
miles
##ectal
2g
sail
conceived
tackle
INS
inequality
dQ
legs
Baseline
##Kα
drink
##cp
##otides
bioavailability
polyester
reflective
Previously
Hels
sccm
##incial
logistics
gallium
##V1
##ocytosis
##ck
718
##unting
##opter
XC
715
nanohybrids
##arms
Findings
FIT
Vehicles
hors
614
learners
selling
##COOH
adducts
,(
siblings
##ystic
partitioning
Foc
Rao
Mediterranean
AK
Yong
MSA
relying
SCA
audi
##tening
21st
perox
saved
thermocouple
pigment
##paramet
influential
accessed
imidazole
Li2Mn
signalling
Gupta
transients
Inspired
sequestration
nonc
##abolism
ranked
474
Contributions
##eterans
Fab
##synthesis
borehole
BAL
chromosomal
utilised
startle
Polymers
tracer
schedules
Networks
transporter
sig
galvanic
##GR
subsurface
SPC
hereafter
nanocrystal
HLA
parabolic
packages
713
##agger
SiNWs
##instein
idi
revision
Nanoc
##203
exponentially
hindrance
CSA
�‘�
pigs
Fellow
##yen
geochemical
622
Sab
math
smelting
allerg
biomolecules
PCS
Down
disintegr
anomalous
mammals
##atid
595
infiltrated
pale
##geal
transcripts
sensorimotor
##yel
725
federal
AgNPs
Lund
thalamus
Wisconsin
Catalytic
##utt
Sche
subtype
EMD
pyro
niobium
disassembly
disinf
##icially
##OLD
Mixed
MY
541
##ese
oxo
##graduate
Biomedical
neph
depar
pups
caffeine
##osphaz
##prene
diurnal
stratification
801
Nord
##luorescence
tracks
P300
Trial
Adoles
mT
##TING
gun
##2D
equilib
detachment
549
mines
##tw
diffusive
##partments
lifestyle
physico
##hasic
Variation
Manganese
##Micro
exterior
PPY
MIN
##riz
CMS
Som
zebrafish
BZ
isopropyl
habitu
Repe
Tes
Scott
diaphr
carcinogenicity
vial
Wiley
weighing
JM
WCST
##SnO3
##occupied
714
nanogen
gent
gum
JC
cubes
GNP
##mel
##BO
##encil
##orec
Corrosion
interle
correspondingly
Bet
barium
543
Jensen
obstruction
recovering
governance
fulfilled
NiCl2
enthalp
dwell
Tab
Sn4P3
inhab
lithi
seman
amphiph
analogy
Load
technically
Problem
SEC
498
computationally
CPT
##levant
entrance
Stanford
chickens
idle
##uler
539
Bi2S3
##idase
30th
tolerated
unambig
hemoglobin
mutagenicity
Stern
meat
incompati
microcontroller
##ielectric
Massachusetts
stratified
manipulated
12a
##tebrates
polyether
Atmospheric
gar
C7
Emerg
anodization
##ilica
judgments
coking
Separ
premis
derivation
steroid
heads
photores
lessons
ethics
shutdown
Wilc
Co1
##Conf
obli
781
urgently
CoMoO4
speculate
deflection
Phill
float
Ding
##00F
##Non
##atever
marginally
unavoid
##ustin
##inetics
predisp
Korean
##Power
##athan
multiplex
##IntroductionIn
disproportionation
MEC
542
signatures
exceptionally
police
##opolymers
##ffee
##nam
##otom
##nessite
Baker
Kyoto
Reproduc
disrupted
##istributed
Chan
CRP
tariffs
title
RCT
810
Failure
PCC
mediating
##ML
suicidal
##204
##ogue
Pc
Version
Francisco
Oral
melts
disassembled
Graduate
told
##nals
triggers
##ells
EC50
Jackson
##uosity
##table
esophag
magnetically
competitiveness
LiV3O8
##missible
Artificial
Bis
sensation
##sylvan
Volmer
usable
K2CO3
623
habits
##edy
##agner
convinc
textural
Co4
hexahydrate
survive
profitability
Angeles
##exc
nucleic
sends
distinguishing
joining
etch
##iophen
resident
##erian
meets
approx
anxious
Var
##itative
Mg2Ni
CFC
##gering
##ante
##622
Tre
##oken
entang
##axy
2π
##neys
##inski
t0
ECL
circadian
consciousness
##omycin
polyelectrolyte
winding
##s2
luminescent
Cathode
advice
extrinsic
filaments
bran
Developmental
mu
mineralization
unreacted
##tl
HTC
##hydro
AAO
mitigating
checking
Rat
cartr
##onuclear
overcoming
Extended
ips
##igration
740
LY
immers
##enh
##tc
silicates
gated
carries
##oxythiophene
cash
emis
##Bu
583
##ishaw
phr
##acid
ultrac
Aging
##umed
Fur
SCS
##tistic
undesired
685
##iffusion
##App
pathophysiology
##illers
elaborate
rivers
##Hydrogen
interpreting
doublet
captures
FIG
##x1
3S
bromine
bulb
MSCs
Pennsylvan
##ramine
Communications
Gastro
Ames
##aques
internet
PCN
Helsinki
##hend
encryp
''
NTf2
MIT
eleg
unequ
recirculation
690
begun
bioassays
cylinders
##KS
Institut
deformed
definitely
N3
withdrawing
lobes
Silva
modulating
##lett
##acranial
)}
Correlations
alternatively
##V0
##requ
toxin
Fortun
##ofl
guarantees
Thor
surveyed
unpaired
##otactic
columbic
envis
Siemens
C57BL
dissimilar
clones
stops
Schmidt
timely
pap
attach
2Ni0
N4
immunity
##PCR
Roth
Emotion
heavier
Deep
Applic
tabulated
Synch
CdTe
bounds
Joseph
fidelity
purple
cyanide
Sections
XL
aerodynamic
renders
excretion
##Battery
.%,
devised
##aryngeal
bile
spl
Kirk
##Imp
##oreduction
Benefiting
##ener
psycho
##mix
exerted
incl
RED
RSC
##3A
##hannel
567
569
vaporization
contacting
symptomatology
refrigerant
granules
nothing
Quantum
elaborated
##amboo
familiarity
a2
vin
trunk
Andrew
initiating
##ilance
featured
tactile
Recovery
smoothing
occasionally
Victor
attending
polytetrafluoroethylene
CAES
CFs
contemporary
Zi
##cation
PANSS
ot
asymptomatic
##odiazep
Hisp
Sus
##oden
##imine
##edicine
Significantly
##adesh
·(
665
Bat
decoding
##170
eliminates
##atile
CEs
##ollen
yes
022
##ethoxysilane
##erile
601
Heavy
##plasia
##HL
635
punched
corners
##ondensation
=[
##asions
explosive
KE
Interface
##icard
pC
cognitively
bottles
lid
bottleneck
Street
contradic
##Key
qualities
dipolar
agglomerate
##kinetic
EMIm
experimentation
Regulation
NaNO3
Jiangsu
Possible
nt
multiplied
Salmonella
Directive
dynamical
##imb
##actone
577
Barcel
##icin
AgNO3
Amin
##choline
propensity
Classification
Having
DISCUS
##ferase
calorimeter
/.
equivalents
Climate
Mik
2600
551
amperometric
rhyth
concludes
accelerometer
##ECTR
tem
amnes
1038
##alum
nanoclusters
558
pigments
~~
##GM
##phad
anesthe
photonic
##oderm
McD
reef
supervised
AChE
##antif
rationally
Speed
Developing
ECT
prevailing
Lem
morphine
submicron
##arose
volcano
scavenging
UF
aids
mp
D0
covariate
htm
Double
6A
##auf
informative
##Coy
modifier
(≈
PCs
broadened
##doctoral
expose
machinery
Reason
attended
teeth
TGF
860
##esterification
##adict
ocular
socially
,*
##owa
##ophenol
province
hypoxia
stressors
##ophenyl
bituminous
dominating
narrative
##arium
##charging
ECSA
resection
IU
depress
Blo
EW
Suppl
Flexible
CSI
Electrochim
leader
bill
Yao
dang
informal
##olidation
##PbI3
Has
##aryng
Nelson
##org
##icher
bringing
##PN
Der
##etooth
Ana
biomaterials
challenged
##agi
##dehydes
hens
ZHANG
##gram
roads
nose
sulphide
polymorphisms
elsevier
infancy
MeOH
harness
plasmonic
evidently
2h
resembles
##imidazole
Alg
538
Kin
cabin
subtracting
PATI
dropping
Bos
##140
formulas
invention
WW
:(
##edge
##orbent
Hod
Concentr
odd
ionomer
Dry
TCP
priorities
catast
Integration
##4O7
2100F
##orient
monodisperse
##rogens
##illo
WR
LFS
##urning
##uracy
pivotal
professor
ran
##ipe
Brazilian
Das
furthermore
855
regulates
##Red
1250
optimally
endoscopy
designers
systolic
Recycling
threatening
sterile
##ipore
##205
##calc
##nanoparticles
7th
##odynamics
kerosene
PID
Andre
Ju
##phrine
manager
opinions
890
##stant
prototypes
accommodating
LPG
paragraph
silane
Rhod
TRI
Li3N
plume
irrelevant
donating
Neur
##ouin
Substit
tetrab
trache
Master
ripening
dumm
##but
accommodated
latex
retardant
##omnia
##ALS
spikes
##ichia
##LBs
comment
genetics
warrant
CDCl3
Hot
unpredic
insensitive
LK
constitutive
Lorentz
SnCl2
dislocations
clarity
RW
mt
twins
i1
Syd
Nanjing
##idinone
halluc
9c
##SEM
Tiss
##anne
##holder
triggering
##bio
conjugate
##eton
Simple
spanning
xCox
##VB
643
ethnicity
dissociated
Fle
hydrogenated
reliance
losing
Campbell
v1
Selective
##IAT
##wang
advancements
crow
ConclusionThe
##ographs
##Au
taxes
collisions
##VER
(+)
##oside
impede
official
HCS
Pattern
##700
sparse
homogenized
obese
Wagner
##from
nowadays
##appings
protonation
Parameters
Assemb
CoOx
8th
609
##ulmonary
Spectra
Order
naphthalene
##atinine
Yin
mmHg
9H2O
Cluster
##ulant
##obut
Na2O
##eem
##oresource
Corr
anomaly
Concentration
NET
##WER
2200
apical
committed
villages
syntactic
##fe
##alls
##ICE
emerges
speakers
electrophysiological
AUC
univariate
peroxidation
asser
Online
laminated
##uer
slit
Wilcox
optimised
Plat
arthritis
CONCLUSIONS
prerequisite
casing
Cauc
##map
Curie
##ropol
strengthening
religious
AB5
estimator
Move
dichalcogen
##Results
Dynamics
brush
040
Estimation
QoS
descriptors
pace
##Surface
deproton
confusion
fluctuating
Conceptualization
##lee
configured
bidirectional
fibrillation
647
evening
ketamine
stenosis
##emat
2Na
worry
,-
Nernst
##osel
superb
leuc
607
coerc
##sey
Autolab
topologies
PJ
beneath
##mechan
##HCO3
##Pub
Little
waveforms
containment
contradict
Improvement
##cepting
Qing
developers
606
acknowledges
##ommon
ripp
isomer
##osum
1962
PM10
casp
sympathetic
Cronbach
NPS
Ern
Deng
568
##xp
##ushes
Feed
contributor
Percent
CBD
mucosa
##tre
Decre
sports
illumin
0386
Diab
##kar
predefined
liquor
BES
banks
rooms
591
unoccupied
Scot
Gross
##long
##adiation
digits
phyl
Markov
Mode
broadcast
##faction
##amer
##RDE
persever
reinforce
ISS
##ausal
truncated
Brad
##cy
##M1
flywhe
Cry
procedural
artifact
tachycardia
discussing
PCT
COO
##117
relied
je
##FD
##odiated
Atlantic
Ban
administer
Screening
Lb
wanted
Job
feedstocks
profits
ships
##izz
##rides
sul
lock
sprayed
##ss
1486
Solartron
updating
wavenumber
Springer
fis
pancreatic
couns
Individuals
544
buried
##phia
Nu
Newman
Nucle
programmable
##graphy
##Mic
initiative
##Te2
##voltage
FCC
Conductivity
Sud
bpy
##enetr
authentication
patches
sponsor
##pret
##Ob
##IntroductionLithium
##2000
Neither
habitats
interfac
concord
advis
##309
719
##azep
cardiomy
chitin
##xOy
##apure
intrusion
permeate
PHI
explanatory
behaves
evaporate
inherited
cass
##VPO4F
birnessite
VD
##rotective
lithography
Renishaw
maneu
##ickness
Pad
galvanostatically
Status
##iers
LZ
pathogen
nanoch
##ternational
superhydroph
nanosphere
##ocortic
closing
##chl
##surface
##hire
##Ni2
thing
frail
cirrhosis
563
neurotoxic
##dd
multivalent
terephthalate
##orms
Crystall
featuring
carbohydrate
tortuosity
Lar
vegetable
spaced
expands
##103
Hazard
rela
bamboo
zo
fission
extern
causality
triang
Hug
##t4
EFF
vdW
##________
##ingual
Chile
##adiol
manifold
elongated
Pennsylvania
mappings
tier
standardization
bridged
Michigan
##inea
pairwise
triboelectric
anhydride
canonical
sweat
##mediate
##ocarbon
##oxetine
##ologia
WSNs
Li2SO4
businesses
thinning
digested
grounded
##yanide
##ituitary
Bed
##O5
aerial
##gly
societal
##metall
workshop
Serum
desulfurization
epoch
##ogical
preferably
occasions
)×
OX
sending
partnership
Matlab
astrocytes
interestingly
supportive
##x2
neutroph
Contrary
pharmaceuticals
niche
Jia
microparticles
landing
Egy
##PEs
Columbia
PPV
Americans
abbrevi
770
abnormality
##juana
LiMn0
CoN
Leon
##conc
commands
PVT
breakage
DISCUSSION
spiked
##130
powdered
723
manure
threats
crypt
flank
approximations
discriminant
Fang
discomfort
MΩ
MnFe2O4
sof
Zn2SnO4
##phy
##position
##Multi
##WR
##alone
##oxyl
##amid
##900
##enth
deconvolution
ambiguous
chars
##text
LNCM
GJ
afterwards
Fourth
##fins
Reduced
ineffective
Reviews
stabilizer
depict
reformer
fibroblasts
Dros
Take
##ispersed
WEEE
##otemporal
##orically
supervis
85Se
transforming
##erculosis
Trail
acac
quantifying
MCS
/$
detonation
SAM
Corn
website
Philadel
Benz
##relation
pertaining
mechanochemical
addiction
sieve
RAM
Certain
Lan
13a
##6O13
inserting
Li3PS4
gramm
conversions
immersing
NRF
##itational
displacements
##anging
Biochem
anno
guiding
Osaka
OFF
GNRs
enthalpies
CAP
terrain
##acyanofer
##ermann
popularity
PLD
remarks
Butler
##electroc
Supercapacitors
nonverbal
Experi
voxels
Tmax
##parin
##oleaching
724
PEMFCs
multidimensional
Jian
##CR
categorical
##stra
1700
suggestion
damaging
disturbed
implication
589
scienced
795
Sor
interpretations
vestibular
(‘
thousand
Transportation
octane
overwhel
Score
Discus
Price
Diff
d6
anolyte
prompted
5B
Rome
endoscopic
NHPC
probing
782
ted
workplace
##eptides
##omerization
Range
Moscow
allergy
definitive
830
Equipment
mussels
##jen
strengthened
irritation
spleen
##yk
sciencedirect
opt
Na4
diatom
diminish
inactivation
556
Schiff
polycyclic
Gly
654
ance
.................................................................
axons
prostate
##NB
tryp
Thirty
547
##ugated
##letes
LiC6
##iba
Net
determinant
VRB
Marsh
latitude
Printed
MCA
biocompatible
densification
AW
Electrodes
667
balances
MHC
electropolymerization
centrifugal
warranted
973
##airy
Barcelona
##aba
emitter
Mechanism
Wong
##DH
Vac
##Par
P2O5
clustered
655
Advances
suggestive
engineer
BDC
Video
LSB
Na2Ti3O7
Loss
##net
554
nanoplatelets
forensic
3600
552
581
Present
Og
603
##125
oscillator
Prote
Harris
copies
##icht
singlet
Comparisons
##ocellulosic
Meyer
VGC
aster
dn
##UDY
Cognition
osmotic
DEG
edema
concurrently
GG
)|
Decision
AHR
nal
NiSe2
regimen
##Due
sag
##sa
inpatient
pertinent
propanol
596
Philadelphia
Ethical
##fur
generalization
restore
EXP
satisfies
Phillips
##uously
nerves
##ipline
fastest
##ocarcin
pioneering
Cos
activator
formations
##olefin
pipelines
Mend
Hend
alongside
Orth
protects
ZIBs
##acrylic
Sug
FAS
##agic
MCF
Calphad
jointly
##level
disclosed
##umor
2M
##sessive
Bluetooth
##ilized
decis
ADC
register
587
Bioresource
##116
tic
primitive
579
7000
##ucing
alters
LSM
scin
Stokes
abstraction
Size
exchanges
LQ
diast
meetings
Sydney
##ongru
Kob
membered
##lementation
biorefin
deleterious
586
CFA
pK
##urch
biosynthesis
##ENG
fuelled
offic
Conflict
Raw
qualified
Constr
##rocyte
##PEG
##lict
Triton
trivial
Compos
postural
xenob
colorimetric
MnSO4
wait
Terms
reinforcing
##hand
Abb
050
##illy
arte
notation
##idad
##Polymer
mitigated
pursuit
relieve
S15
##enoid
purchasing
Win
histories
pd
##SAT
Institutional
News
Grade
Li2S8
2300
cru
644
##ailand
retentions
Read
Tukey
##gebra
##eti
coffee
588
CO32
MRS
##ciences
vesicles
##106
##cinol
senior
597
Ti2C
SCN
interconnection
Interaction
isotopes
Nik
Approach
erup
Clar
entreprene
RMSE
profitable
C12
lone
organisation
subsets
Wright
crushed
sugars
propos
agarose
LixSi
##aco
578
##150
##oxication
Csp
##itted
##ARC
weaknesses
##iri
adsorbing
SBR
Marg
Mart
Kog
##tica
interestsThe
Home
##grid
##FeO3
##roxy
ovari
decarbon
##inesterase
ties
abr
transfected
fracturing
nylon
tablet
##ukin
1963
perceive
CAM
Escher
gon
Kinetic
##osia
fertilizer
Aqueous
##weg
Xue
isomers
Suzuki
##aceae
pink
##opper
nations
##XR
##alez
##omposites
eigenval
multichannel
##FM
##asticity
separations
microns
determinations
593
##otonic
##icillin
neurodevelopmental
inflow
546
nurse
uniquely
swe
MnOOH
fax
substitutions
pages
Euro
##108
Pharm
Diagnosis
rotated
825
##itro
Catal
##opsis
USE
B2O3
onboard
Cooper
justify
TSC
polaron
allergen
Link
##Organ
Just
roug
Mak
nig
sustaining
recrystallization
3M
Cab
##kines
037
impression
authority
##umbar
loosely
disabled
##ocic
preventive
##mill
equil
608
GAP
HRD
Ef
underp
cyano
PROC
##roxide
firmly
missed
wavelet
##inosa
##ospor
mortem
Category
Representative
evidences
lacks
875
glycop
Gab
boosting
electrolyser
cantly
Sie
##No
Proton
##L2
decoration
##AMP
mercap
##Corresp
recyclable
##heets
BPD
Base
CBT
endowed
hexacyanofer
justice
Esp
##asian
Students
Criteri
##iplines
##Where
unres
owner
##isations
Epidemi
thermocouples
3g
mountain
flag
lymphoma
mast
Eh
880
Modified
Millipore
assure
cet
##strate
##ulse
##ardless
integrates
##onance
underway
Volt
NVO
shaking
bronze
Russ
12th
##overs
esteem
telecommun
Hex
€/
584
sulfone
790
harvesters
intestine
QC
##urgery
piper
5D
investors
Programme
giant
Ay
Supervision
summarised
c1
##oud
Maz
c2
transitional
mbar
19th
SPECT
pesticide
choline
SiOC
Notice
dimensionality
##prot
##orods
##VC
Co3S4
exon
Eu3
##idol
##multi
plotting
predictable
piston
721
Result
sensitivities
polarisation
scalp
ashes
627
##under
Sav
checks
##edi
##oneed
Sharma
spindle
cp
themes
Turk
undoubtedly
##ancial
PDDA
unfamiliar
Montreal
##ritten
Almost
870
capsules
moduli
atomically
circumvent
Fish
SQ
Deri
translocation
holistic
##LV
##sol
##rus
granul
602
outliers
SCH
*)
ct
Holland
##aryl
backsc
verbs
Eastern
##ologically
Recall
ports
Interest
puls
Khan
declining
creatinine
abatement
Yes
advancing
cochlear
##criptive
631
Pil
valent
##Here
687
interpenetr
dwelling
associative
##iveness
VAC
Loc
avenue
compulsive
phosphorous
faradic
##cat
8e
##kyl
asymmetrical
6Co0
ExperimentalSynthesis
Photovoltaic
Symb
books
recre
Diffraction
fing
036
concentrating
##ecycle
issued
##cz
##hagy
Fortunately
resor
refuse
::
PRE
ZSM
ZnSe
##aporation
elution
##quiry
alcoholic
##cha
BMIM
Burke
TCO
779
athe
##yph
ds
externally
LiNbO3
##MOF
segmented
enclosure
Perg
evacuated
034
divergence
Torr
##ricks
548
##ospheric
##mentioned
##hill
Weight
Director
Layer
ASR
miniaturized
##auses
##aws
##ultry
imaged
irreversibility
wrinkled
Fe7
mediation
Brand
634
##mat
pairing
Scholar
intermitt
recalled
##GN
##graphic
revenues
Eur
Martine
interc
637
ICC
##emann
transesterification
attentions
Coating
bimodal
##LPFC
##mons
complexing
PPC
adhered
Mort
chlorophyll
hindering
##ophores
##emission
Gonzalez
564
HW
##cemia
Paulo
Buch
feet
nmol
nanoneed
ulcer
surroundings
K1
fins
##250
##licates
572
creative
burned
usion
wrapping
Deg
##cm2
vigorously
predetermined
Robinson
murine
Problems
6f
716
##formations
ta
compli
shaping
aerospace
Klein
maximized
##enan
tubing
CHO
peculiar
##Recently
obsc
formate
dian
equity
##ereb
##eside
621
ban
SNR
##inatorial
Thailand
Tag
leadership
toxins
antennas
LLC
##itions
LiCF3SO3
electroless
mAg
passivating
Titanium
##physical
##Neu
##health
comorbidity
ventricle
caudate
##v1
shot
Ek
##requency
##iae
IBM
Processes
reductant
Carolina
7e
truth
respondent
receivers
digestive
bead
galact
inclination
hydrometallurgical
chicks
##loaddition
NFC
blades
pasted
subcutaneous
husk
pencil
657
##appa
##lishes
1m
mening
biphenyl
disposable
805
##otti
echocardi
##elin
703
%/
Absorption
Li2Sx
magneto
##JEC
##processing
ai
##orill
11b
##asy
intuitive
preoperative
Conver
Emergency
Gulf
Technological
##opez
1150
polydopamine
liability
tetrachlor
microscale
)—
documentation
INC
##idges
##TG
##phalt
Recognition
assistant
unavoidable
suction
717
](
Composition
neuropsychiatric
##holes
dates
PCI
taste
Annals
lakes
sheep
Achie
920
Sb2Se3
spend
CuHCF
unsuit
manipulate
Discusses
repulsive
626
microbi
Doping
1960s
Zeng
Onc
##fan
destabil
##Publisher
SAT
H4
Mm
earthquake
---
MAL
##H1
6Li
1010
##ako
Grand
consolidation
Prediction
')
enroll
visualize
recommendation
damp
fulfil
Helm
ancillary
ASTM
##anna
Solutions
Pow
sale
CNCs
Auditory
excitatory
spong
abovementioned
##Et
MES
explores
pillar
imine
##okinetics
tetrahydrofuran
Raven
##ums
Chand
Scores
sell
##zapine
##soft
Rab
Alexander
cohesive
Axis
Fine
Nar
outward
finely
##obacteria
transducers
CHEM
ALT
VAR
Thanks
812
enhancements
Meng
669
##cu
Saudi
stick
comfortable
Anode
Jans
##oad
Device
25th
##hea
increments
Rehabilitation
Vanadium
##160
AAV
imports
butadiene
##ZZ
tumours
Call
sitting
hyg
compiled
coral
vacant
chez
Being
Rein
coprec
PYR
##ophene
##romal
canal
##capacitor
homologous
Drosophila
##hexyl
contracts
Chung
Pathology
hos
Bond
##180
Wo
##estimate
IGF
stone
796
Wein
##western
##ocytic
##igr
enanti
displaced
##Li2MnO3
Dal
underlie
##ische
##plan
Nish
biphasic
RAPS
bread
NaPF6
doubled
relational
Neurol
Papers
##coelastic
##oblast
CES
Delhi
fibro
ANT
Framework
##razole
deteriorated
Hein
CD8
##acetamide
gli
Films
##ionucl
Analog
consultation
Upper
fueled
valued
clot
648
ejection
outflow
574
598
##iron
ferrites
cessation
compost
1g
566
##onsider
Lopez
##FOR
disciplines
superstructure
Tob
##optim
Adding
##chol
posture
ICA
A5
DEM
arrive
##lymp
maize
##electrical
/~
regress
Why
AcknowledgementsWe
Cardiac
+∑
##omaterials
km2
Costa
phospholip
multilayered
##keletal
##tip
##oder
6C
B6
Operation
JS
##BB
antiferromagnetic
##angi
interpolation
##uronic
compromising
##edo
fun
transm
spoken
aquifer
Practice
SIL
nar
##istor
Madrid
hull
##fo
tetrafluoroborate
##Water
manifests
SrTiO3
##cock
SPI
##lature
synergistically
CFP
Cadmium
PASH
comet
Rah
##P2S
LiS
SAXS
bioleaching
##otoxin
Pharmacol
marks
libraries
##held
McM
Regardless
mell
disposed
##post
Code
TPA
splic
##EVEL
redundancy
kaolin
Sensors
atax
lenses
9th
sit
##techn
Nos
##arrays
reusability
twisted
payment
MPP
LOC
Brill
impose
075
Vill
ft
stories
Fox
##ilms
GNs
##hens
dependencies
Alloy
##arcane
Opp
crossed
##ROU
nu
spectro
##ocaine
##avour
Keith
GER
Ali
##tebrate
Mack
licensed
##atteries
Does
UiO
PPS
##gren
4Li
##emographic
compaction
buffers
Starting
##IVE
##NCO
submerged
amphiphilic
cub
##igenous
JL
PEVs
Attrib
##Anode
miniature
grating
earnings
refrigerator
journals
attempting
lignocellulosic
clothing
hon
incongru
##sulfonyl
NiMn
legi
hexafluorophosphate
ARE
arena
Ethanol
exciton
interruption
##orphic
5406
##veolar
pituitary
Aqu
##urer
neurobehavioral
follic
##itants
mutually
seldom
Mess
coincide
Sir
coop
Seven
##Three
landmark
Lawrence
stocks
nanocages
##ASS
Jeff
asset
##acies
599
frontier
colorless
sarc
##obalt
701
639
Nations
RRDE
ruled
Partial
Spectrum
Dick
CoOOH
peat
Transactions
##aterally
Pert
Walker
##izon
superimposed
+=
amend
occupies
##N1
)-(
deaf
##isa
Groups
exceptions
flowers
intoxication
envision
maybe
Neware
converge
Bou
PSY
macromolecules
##xin
Kas
Presentation
buckling
hardening
rendered
##anyl
Argen
Below
##imoto
nas
NaTi2
649
683
galvanostat
SBET
##lep
NU
Peters
594
##aldine
2E
PGC
##yer
nonwoven
##orphology
filtrate
##ifluor
652
sky
##ISTR
15a
##RG
electrodi
mounting
enlargement
Li2MnSiO4
Derm
court
##acetate
Bangl
##asonic
eventual
inertial
barely
competit
##elow
GIS
##olated
decel
testosterone
unconventional
NTA
pron
Harvard
Construction
Li5
assayed
HVAC
##a2
TiNb2O7
##anatom
Diesel
G3
pu
CPS
##arison
##126
705
H20
interviewed
msec
13Co0
Jord
armchair
Moon
##vascular
##ochlor
Late
##uber
catalysed
##anched
##Institute
resemble
##ogl
sampler
##inois
SCR
PSI
mainstream
inductance
ABS
looping
Gord
##ticism
Ward
Symptoms
olds
562
tetrahedron
651
Martinez
allotrop
emphasizes
nA
Institutes
1961
insect
plex
sight
Jing
detached
Broad
##imm
##otechn
##ycline
magnetism
motivational
##initi
##pic
aberrations
##bits
dryer
malfunction
668
acrylonitrile
curtail
Target
axonal
DET
Tp
##hai
classifier
referral
dummy
##asaki
##operatively
Rodriguez
knowing
ANOVAs
translate
##Nano
19F
Separation
Bak
processability
##iphenyl
##istar
Team
##garten
informationSupplementary
##NAs
CNG
##iasis
Gy
##state
##oler
gathering
##bb
antipsychotics
unsuitable
Sched
colloid
variances
MCC
rhin
##Co2
phag
logarithm
X2
cellulosic
##ocking
##ARS
suite
MeV
kinematic
Rud
FeSO4
##biom
weld
autoimmune
BIP
CuKα
internally
Kre
##ATING
925
phonons
Diseases
xerogel
CoCl2
hydrous
favoured
##orse
nanofibrous
Maria
##IAL
##sim
polyanion
##tri
697
ultracapac
709
Trip
Rats
##109
ChinaReceived
Pergamon
##utures
DIC
preterm
skilled
TFSA
La2O3
##ammatical
PNC
deteriorate
SER
disclose
##trimethyl
##Ul
parenthe
Protocol
BMP
μF
microemulsion
Ag2O
resusp
carotid
Requ
Finn
decisive
Henry
Rc
activates
Heating
hypothesize
Kor
monovalent
sulfoxide
##ARE
Trust
conformational
departure
fs
ethylenedioxythiophene
summed
snap
incidents
delocalized
cytoplasmic
689
LixSn
subtracted
033
advent
AIM
VII
Tong
cook
##estation
withdrawn
forests
amen
graduate
PMA
##BD
##leigh
##eps
Mg0
Carb
multiphase
moles
##phenyl
posi
##122
fullerenes
anatomy
fluoroethylene
crump
##t1
decays
HPS
alkoxy
slabs
778
ACE
##orillonite
Schne
Ni3S4
Mand
980
divide
Wol
equiv
caspase
equip
Controlled
##Structural
difluoride
##ZrO3
shake
mould
##PAM
EMIM
Mercury
##sof
Applying
ecotoxic
sket
lungs
##aminated
Yun
##WE
PDI
##MPa
Dual
VMP
##ositive
frustr
extremity
Shah
lep
father
tolerate
-→
##PCM
Nich
##neur
steering
hemorrhage
calculates
editor
##alsy
ultrapure
##Correspondence
636
##bury
Manc
783
Bin
##Co3
##MoS2
MIP
##hof
##Com
##arine
Muller
microglia
centi
##heme
Chu
##Characterization
##din
##abase
ACT
Skin
##cycl
perturbations
sulphuric
limestone
##ahr
finer
mm3
ART
racial
582
##Material
##N4
detoxification
oligonucle
ERO
promoters
KC
strugg
##ophase
Gard
calcining
Cl2
recognised
Value
##jee
Rey
alloyed
Escherichia
FLG
Sei
##s1
##VES
624
witnessed
Gur
##gradation
LMBs
VBM
Li3VO4
Fire
C2H5
tradeoff
oblique
colloids
Watson
NOS
##jk
##Ass
Morphological
Gender
kΩ
Adaptive
compensatory
alleviated
spins
Automatic
##indergarten
retr
persulfate
##ontium
PND
##School
highway
##pop
seeded
subtraction
vertex
##::::
##IND
cooler
Excellent
AlCl4
##OX
18650
Alkal
stirrer
Supplemental
Traditional
##best
##onen
xN
BOLD
##atosensory
Musc
aldehydes
practic
substitutes
phosphatase
##riqu
##0000
clinics
God
##inatal
mating
pile
Shu
Implications
Thom
Turb
flexion
S2a
Neurological
ascending
Vs
agenda
Action
intramolecular
adenosine
Tox
TOP
algebra
##potential
##vern
motility
tea
Educational
migraine
supercapacitive
661
career
soybean
PWM
convergent
click
tib
Adams
View
##oba
triplet
##anck
nonf
famous
Radio
##Xi
##opoulos
Catalysis
telev
Intervention
##ROL
##idae
7MnO2
–(
##ioc
degrading
##utz
teles
Dow
Illinois
Wel
##description
lysine
##stad
##3D
spur
COS
##oncentration
16d
##132
960
##LB
magnifications
Daily
=∫
rTMS
indentation
vegetables
′(
##OVA
uncommon
ESA
lymphocyte
commodity
NIC
B12
multidisciplinary
##EH
##iong
blinded
Hypothe
NMO
##bourne
announced
carp
##don
reorganization
assignments
unified
##ynes
##acute
##pv
IPA
ces
brainstem
PIC
##gevity
Likert
Pakistan
decent
Electrosp
helix
fractured
electromechanical
Kaplan
resusc
petrol
neutrons
pillars
MPS
##accumulation
659
##OF
##nic
asphalt
##see
##H8
##PER
##wal
Signal
##ea
Gray
acuity
021
dysph
xO2
Polyp
fragile
815
A4
neurotransmitter
##mAh
acyl
##iano
Oxidation
HRP
pyl
Princ
invasion
diastolic
liquefied
Final
##].
Run
lactic
##how
feeder
UPD
SVM
Kun
Vulcan
ribbon
progressed
Past
uniaxial
686
ini
stressful
7H2O
2F
HEM
##PG
endows
diaphragm
##eda
Contents
Ja
##dec
assembl
##erent
##190
attainment
gating
manipulations
divergent
omission
##walled
.................................................
##jury
##ardo
insects
flocc
3R
grouping
diarr
##178
995
amphetamine
##entin
Selected
Security
merged
compre
dioxin
Wave
##National
##M2
##idual
HESS
chalcogenide
LGPS
Structures
marijuana
'~
##lug
NaF
823
Cav
735
occupying
Jsc
##odym
radon
##BG
797
benzodiazep
cannabin
688
##Ti1
##aning
emeraldine
nanofibres
##adeh
recyclability
##inine
epigenetic
universities
##DFT
Facility
dibenz
kr
sorted
worthy
adduct
Ras
##obiles
##riage
insets
Kw
standalone
##ISH
##hom
Ming
663
pest
broadband
VOL
1675
PGSTAT
##ISS
##MAL
chl
##eties
628
corroborated
Outcome
dissipated
synapses
Tok
demographics
Danish
gestation
##ococ
Shap
positron
lifecycle
##LYP
##ATA
##pentine
Indones
grounds
descending
RU
PO43
intentions
player
eddy
watch
nZ
tLi
Effective
rt
##pressure
Calculation
swollen
679
overexpression
alph
Accel
HIT
Turner
physisorption
Dun
analogs
President
resorcinol
##irical
hν
adatom
ict
##enclature
Jean
736
Hispanic
6H
592
##acion
##COVA
Alber
708
Quantif
laying
Conser
visited
benefited
normality
##olybdenum
4S
##ocellular
distinguishable
silent
absorbers
polycarbonate
Lanc
##adiaz
outperforms
##acker
##uthors
returning
classifications
##ranial
4D
HCC
Agree
##prise
District
biodegradation
gravitational
theme
cytoplasm
meanings
principally
restricting
someone
Bangladesh
intent
##chell
denser
rearing
ipsilateral
##NQ
##obarb
borne
638
asking
coalescence
Tissue
813
transporters
PILs
receptive
##Conflict
ber
mixer
workload
spher
dealt
##INS
navig
,'
Y2O3
##idd
molybdate
WISC
aber
Brook
refuel
edition
Fuzzy
Feb
671
CSC
##Zr0
rater
##mort
formulate
noticeably
lanthanide
LbL
