<unk>
<s>
</s>
t
##he
a
##in
##re
##on
the
##ti
s
##er
o
c
##en
##ed
of
##al
##at
p
w
##tion
##or
f
##nd
##es
in
##is
##it
d
m
b
##ro
##an
and
##ic
##le
##ing
##ar
##as
(
e
##ct
re
to
##ation
T
##ly
##ent
##ig
th
##et
##mp
##ol
l
n
##us
##ul
##ve
is
##ac
##ure
for
h
##ur
##st
1
##ith
##ow
##id
con
st
##el
with
co
The
##im
##il
g
##ra
##ec
##ot
##tic
##ere
##ce
##si
v
at
as
be
pro
##ter
C
A
##ff
on
ex
##ity
S
an
##um
##ate
F
by
that
##om
##qu
##od
2
##os
##res
##ated
I
##0.
are
al
was
##ri
##ab
##am
##ut
##ge
##ect
res
##rom
di
##uc
P
##un
sh
##ver
de
sp
##tive
##lect
##per
##iz
##ain
##),
comp
H
M
##).
##di
##ir
##her
##pp
##ran
from
us
ch
##igh
N
##und
##se
wh
##op
3
were
##nt
en
##uct
##ment
##00
##oc
##ay
ac
##ical
i
dis
##ine
##ich
##yst
or
##ag
##ts
##ess
##ore
##th
su
##ase
elect
show
po
##ers
##if
##ell
ob
##ations
which
##ant
can
[
E
##tions
##act
inc
##orm
In
##ature
diff
##ace
we
##ad
B
ph
D
##sion
##up
int
##em
##ave
cont
par
##able
##ous
4
##ond
##ron
##all
##yl
sol
##ater
##red
##les
R
##and
##ted
r
##igure
this
##ak
5
##duc
##lu
##cul
##ruct
mod
##ap
ad
app
inter
##ence
##emp
##ib
mo
L
##ide
##ved
met
##og
##ne
it
##ial
##amp
##erature
##ph
per
##ution
se
##ance
0.
tran
##form
=
ab
##ch
##ens
##de
temp
eff
##ue
sur
##erg
W
resul
##ion
##tial
pl
##action
me
##face
##ates
##.1
##sis
##−1
##ther
##here
G
##low
##ructure
temperature
differe
##ction
##end
pre
form
##etw
##ign
##ight
##ug
Th
pres
##.2
##rib
##tain
k
ne
##ric
##eld
##tiv
nan
##age
val
incre
##ies
##ield
##ting
have
ra
##hen
not
##ties
O
spect
##aly
high
##ased
##ound
##tical
using
rep
##een
##so
energ
##etween
##yd
##hem
##10
between
gro
6
un
imp
exp
##eter
tw
##ill
resp
poly
surface
structure
##ree
##ser
##ite
samp
##ents
##ating
Fig
sc
##ative
le
##ility
##.5
low
##vi
##vel
meas
##.3
##ective
tim
two
char
##cent
also
##ization
sub
trans
used
##ves
##ros
10
cor
##cess
measure
has
energy
##uch
##ub
##ystem
##ary
he
This
than
7
##sition
##ugh
fil
obser
rel
cur
##enc
dep
##ach
cal
K
electron
##han
##ydro
##ized
system
##uld
##mo
different
##ort
##perim
been
qu
##ven
ro
stu
##ding
car
und
##ensity
##sor
shown
obtain
##ration
nm
##ific
V
##ms
##ied
cr
##unction
sim
##.4
dec
##ally
##str
equ
##ose
mic
##aterial
cell
##mer
##hod
##12
°
##gen
##.0
##ari
##ong
##ip
electro
mag
##].
##ass
##ax
##der
experim
time
gra
results
dist
##tivity
sign
##lecul
##fter
8
des
(1
##ll
under
im
##ues
cl
model
##tim
partic
ind
sy
##te
##ix
ox
##oth
##ined
analy
all
##ared
these
##yp
pe
##co
calcul
##ene
##ard
process
effect
material
##dition
hydro
reg
##ack
field
ion
##lic
chan
##ors
##ges
##ases
##ox
function
##ici
##ist
U
##aus
observed
##ential
##ile
lar
##ork
##rop
##2,
##The
##ectively
lay
##ry
μ
method
obtained
##2)
one
##ments
##rent
##gth
into
##ption
proper
##hed
##out
##ever
##ble
##our
##.6
op
cryst
##ep
comple
solution
##atter
##ener
##ize
concent
##acter
##1,
respectively
where
hig
reaction
phot
peak
other
such
col
more
perform
cat
phase
y
##duced
##ency
min
9
##.8
##ability
over
##50
indic
##20
ev
##Fig
##mon
##ata
num
molecul
##.7
##resp
et
##owever
due
ar
##ection
ag
vari
##ast
##ered
ass
##ame
##ber
Figure
both
##olog
water
##ium
atom
spec
##fore
sm
##yc
properties
gener
For
values
##par
##cur
det
##mb
##1)
group
their
no
##hemical
vol
##ollow
density
##netic
##ane
##.9
line
ref
pot
small
##iqu
Z
data
##respond
only
##als
##ie
##ular
its
##rm
bec
##lo
##range
##bon
##nthe
flu
X
cm
##irst
We
ext
shows
higher
experiment
correspond
after
non
##ected
param
##mis
##est
##met
appro
##ensi
well
const
gi
##duct
up
##urther
samples
J
##ces
cons
##echan
ver
As
dire
##ded
##EM
out
character
##eterm
##11
##uring
potential
exc
##3)
It
##sorption
##Cl
state
##0,
present
##ick
##ture
follow
polymer
sample
but
##cop
rate
decre
##orted
##dy
##duction
spectra
when
##Figure
##ould
##.,
##ness
therm
conf
##iO
band
determ
##atic
##ength
##ome
##15
##rough
##ited
current
##ress
value
mechan
there
##ust
bi
simul
##fer
##formation
##cor
addition
same
##olar
20
layer
##ail
first
Al
##ilar
Co
found
each
##nce
##ex
att
##ear
def
##3,
##roscop
our
However
##ause
depend
##elect
##ia
##requ
##ke
##lec
size
studi
##yn
mix
z
case
synthe
order
complex
##actions
##tig
##iv
cap
##int
mon
concentration
##ination
##osition
12
through
rati
##mission
##ines
region
range
bond
##amic
analysis
##14
study
mm
##ites
##ribution
typ
sing
grow
could
magnetic
large
signific
##ditions
micro
work
do
then
##ins
##usion
number
(2
##pl
pow
##ced
##one
formation
##raction
##ys
loc
##hib
##vious
wave
consid
##ole
##ension
ter
materials
##ages
three
fin
##tit
increase
frequ
##itu
##eters
measured
significant
fact
##16
##old
##vic
##hyl
conditions
tre
may
##av
##alyst
single
am
##ral
acid
##vestig
reported
fe
##13
##zed
##ling
##ross
##are
##rid
investig
carbon
film
prop
##ha
substr
##asing
##icient
##oly
×
##ator
##ilic
films
##ma
lower
##gan
##osed
##sure
##ike
plas
##NT
cells
##uted
similar
during
calculated
devic
##In
desc
##omet
cyc
##0.0
##ides
pos
##con
##)=
will
##econd
set
so
##orph
stre
ini
es
##own
##sible
##ech
level
prov
##ger
13
##2+
thick
stron
pa
##istic
while
lead
##me
pr
##its
##25
corresponding
based
mat
bl
ratio
##gra
applic
##tif
experimental
##ual
contro
##ef
yield
supp
Q
100
beha
##ove
##ise
further
nanop
##ough
radi
##ically
##CH
##ract
oc
sl
light
very
repres
metal
charge
##olution
±
##],
##artic
##18
relative
Cu
because
behavi
ins
##velop
##ord
##echn
compared
disc
man
##flu
##round
structures
##utions
parameters
pressure
lim
particles
##17
##figure
main
##ores
result
transition
flow
##unt
thermal
##ains
most
catalyst
x
##MR
corre
measurements
##med
##imum
eV
mul
##mmet
above
carri
lo
##ath
These
##ural
##MS
states
There
##emb
##ati
##to
product
given
describ
constant
##ray
##Ps
Fe
prep
##ism
##oci
−
performed
##lear
cent
##omp
+
crystall
##4,
develop
chemical
compar
presence
molecular
##ynamic
ang
prob
##eff
##30
inclu
coup
##ood
##rain
15
solv
Table
frequency
previous
Si
##OH
##pend
distribution
about
##des
##ified
molecules
compound
##sc
she
##PE
exhib
long
0
##pt
##lement
##MA
##fac
##lied
j
mL
##ays
%
##ark
some
##led
##CO
second
##ost
##ock
##IG
##ft
length
red
strong
atoms
##2(
##qui
##attern
##.(
To
techn
spin
import
Eq
##ind
fl
##val
α
sti
super
##ume
demon
0.0
sug
##rum
##ory
nanopartic
##ink
solid
groups
##roscopy
##ton
##tal
absorption
cross
##ogra
##verage
max
las
emission
der
increasing
##xim
##where
##Al
##4)
volt
within
##ale
impro
gl
ions
systems
polar
increased
##nel
demonstr
##II
consis
##ology
##ince
##PS
pattern
use
##19
gre
##cence
separ
figure
growth
##phe
initial
thickness
sugges
##ible
spectrum
mean
determined
rem
tak
##embran
compos
Zn
##alized
##ob
##imp
prepared
along
ir
change
##eg
##ward
vis
intensity
mixture
##ities
applied
##NA
##Fe
##40
multi
substrate
##ning
##mers
##imension
dom
##electric
oxid
occur
##ching
##tice
free
##Si
optical
Δ
behavior
##000
step
bound
com
##22
##ygen
mass
interaction
power
##sed
##ently
hydrogen
laser
CO
direct
##get
those
##5,
respon
linear
magn
tr
gas
Hz
area
∼
compon
membran
(3
##ute
“
effects
##ang
amo
transfer
##ately
##other
electrode
el
approxim
without
point
organ
studies
##SI
##itation
diam
should
##cording
30
experiments
equation
##based
conver
requi
various
##sequ
represent
##ample
##rix
##uce
##Hz
neg
important
peaks
##ctions
showed
plasma
oper
larger
aff
contain
##iquid
##vol
NMR
characteristic
comb
##ving
##ult
shif
##sol
increases
##60
##omer
##see
##SC
bel
allow
capac
##sive
images
̄
##As
would
silic
nanoparticles
total
oxygen
PE
##line
fib
tra
##iden
new
##FIG
performance
near
simp
conduc
##ulation
posi
they
pred
##rate
Å
##(1
##ison
ser
Therefore
pur
Ni
following
50
Na
##lor
##23
consider
prof
dri
##tically
particle
##ule
crystal
##hes
temperatures
discus
cop
Ag
##min
inde
optim
bin
pul
##phene
dynamic
plot
##3+
##uration
δ
estim
iden
much
##0.5
matrix
##abric
thus
##erest
bar
##bility
##tern
##ulf
stability
nit
ach
CH
maximum
Y
##sorb
mode
kn
1,
average
14
##enz
##lected
##aling
coeff
tri
##sp
200
bas
##)2
##osph
An
top
##PA
effici
##6,
achie
transp
voltage
thin
any
beam
clear
##iod
interactions
prote
β
##cer
mol
liquid
mg
curves
interface
times
II
##heme
via
##ants
expl
##of
good
##ged
fit
##attice
volume
##=1
##24
difference
stand
##ulk
##bit
##uster
##rated
displ
Li
##2.
##faces
##ump
direction
##rical
formed
sour
species
room
##elf
Sc
described
glass
##80
disper
##cept
stress
##alytic
##over
nuc
##ually
approach
##itude
resulting
techniqu
activity
##gre
##lis
##ayer
Au
stren
##stit
emp
possible
rec
less
##ethyl
##ression
even
##app
dop
around
pH
fluores
mechanism
##cl
fabric
##row
##21
applications
star
av
treat
electronic
med
control
##ten
##rations
contact
##til
norm
##ier
changes
##oss
nanoc
##ects
investigated
##ograph
correl
ful
##ryst
vel
effective
design
graphene
ent
##ributed
##antum
##igand
content
synthesis
image
##PC
##inc
resist
remo
quan
efficiency
signal
After
reduction
coupling
confir
bulk
studied
amp
rele
##/2
##5)
vac
adsorption
##ational
morph
activ
functional
integ
load
if
strength
predic
amount
##sized
##ets
methods
calculations
##ological
inst
##ructural
##mit
##aled
Thus
##oid
example
reduced
scan
##0)
##SA
device
16
##ful
decrease
ge
##length
##ons
layers
##though
##FT
detail
seen
##ification
##pendent
reson
##27
##ring
added
##RD
##like
drop
##active
##ging
back
sens
lattice
##char
symmet
##ably
##28
##less
ill
specific
phen
##erence
##els
shap
##2-
reve
quantum
ax
strain
photo
devices
feature
significantly
##medi
##ade
compounds
sw
tes
cluster
hy
##29
##MO
solvent
##inu
lines
active
expected
standard
At
particular
##pm
comparison
diffusion
##ive
cir
angle
ligand
interest
25
sever
end
conductivity
influ
wt
coord
presented
intro
contr
##alu
##ances
anti
##radi
electric
rot
several
##IR
(4
evalu
##uble
##ple
limit
local
force
##ocity
four
##az
1.
##idth
##ode
[3
factor
##ilib
dependence
associ
##2/
More
geomet
differen
considered
loss
##que
organic
act
orig
reactions
sum
##upp
solutions
##ON
11
parameter
config
##omb
##ero
##6)
##arget
##inetic
Further
##−1)
19
##ian
mmol
smaller
electrons
Mo
side
below
##orous
velocity
space
sem
gap
distance
UV
close
related
fra
path
##Cs
simulations
before
##cos
Pt
##abil
##%)
nucle
pure
treatment
carried
weight
##sh
##Ds
position
theore
##attering
##−2
ampl
response
0.5
##Co
##unctions
##8,
period
##–3
##–1
appear
bro
##olymer
##ived
energies
consist
##ype
##urb
origin
##ote
oxide
PL
stable
##astic
channel
like
##err
phys
membrane
containing
oxidation
acco
need
bu
curve
diameter
##rient
highly
wavelength
cer
observ
##brid
##7,
##ake
##vir
here
sites
ring
##vant
##ibration
weak
terms
diffraction
self
part
##lue
resistance
##ental
heat
##0.3
##ses
negative
measurement
##cedure
alk
structural
##chemical
recent
ed
##ored
##hydro
prec
##26
Mn
sensi
##ention
anne
u
##CN
del
On
tun
concentrations
binding
spectroscopy
##verse
target
core
theory
mechanical
indicates
##onduct
##lecule
orient
transport
caus
St
##the
including
poin
surfaces
##viron
many
##Table
##onic
enhan
##py
does
fluorescence
##ner
##eed
##ality
##PP
conduct
##TA
section
acc
excitation
##ty
positive
##put
##anc
##etwork
source
scattering
##ilibri
##lex
##)]
##ott
##chan
All
##ov
phosph
Ref
relax
being
wide
invol
type
##semb
slight
procedure
composition
##very
##atis
kinetic
##ES
##ogene
##tional
unit
##loy
paper
continu
contrast
since
##onal
polymers
den
proposed
##ided
TiO
Ti
agree
composite
##Cu
simulation
photoc
(5
resid
complexes
##lled
##etra
##urn
demonstrated
##Mn
mom
associated
Comp
##70
##apor
air
##orting
eth
##oph
known
##otrop
nitro
processes
λ
network
defined
suc
inf
chain
##0.9
##ilibrium
real
##)(
##agnetic
##ritical
##lecular
complete
allo
##imensional
synthesized
lit
modul
identif
##umin
environ
##stand
##Se
σ
##more
##omes
employ
hand
##ither
fraction
##%,
##ET
##sitions
Ga
##most
according
dynamics
24
##PD
γ
toward
broad
diag
When
heter
40
##queous
##TO
selec
ke
test
2,
##−1,
##75
general
hom
attributed
ε
##iss
developed
##ject
PA
##ead
##-1
models
modes
irradi
##type
eas
<
sus
improve
Con
##greg
##ening
PC
dielectric
deriv
shape
ppm
##33
still
##erm
deposition
components
whereas
##(2
molecule
react
bet
##art
pair
avail
##Ga
equiv
relatively
##ensities
coefficient
coating
condition
again
##cm
##45
Moreover
##9,
indicating
##CT
##BS
short
fac
see
morphology
##hance
therefore
conversion
##grad
2.
provide
reac
##×10
##ire
reas
zero
numer
##Pa
aqueous
products
foc
dr
plane
scale
acet
##ily
##ime
cases
efficient
shift
enhance
substit
##aging
functions
characteristics
##CD
Ac
decreases
##ributions
##oxy
previously
##1−
had
##neti
protein
barri
however
##2−
hal
Mg
width
##Ni
leads
sulf
##ew
MHz
indicated
accur
electrical
points
agreement
##iform
heating
consistent
critical
illust
circ
ult
ele
##cal
err
recor
hybrid
##);
##PO
better
proton
levels
##Me
electrodes
ZnO
##):
60
##clusion
information
made
ve
Ch
role
##CS
##ii
upon
indi
typical
##ymmet
nitrogen
boundary
detect
proble
influence
##Zn
##pre
flux
##lection
polarization
respect
##ressed
fix
atomic
indicate
mel
##ially
taken
##amine
electroly
available
patterns
py
catalysts
wa
##DA
##fact
##ained
##SO
SEM
Me
block
##Sc
##ice
##35
generated
NPs
orbit
depos
ep
##duce
##let
exhibit
hel
##NTs
Furthermore
basis
##charge
series
##GO
evolution
##iew
##ER
##por
conven
##anol
bonds
##adi
##0.4
theoretical
0.1
##(1)
##change
cool
Re
pulse
##aneous
simple
##paration
##7)
equilibrium
vers
vacu
environment
φ
either
##izes
##ety
substrates
separation
##lying
neut
enhanced
achieved
##vers
Here
CD
##sequently
##aman
aut
##FM
catalytic
plan
dispersion
##0.6
##dimensional
TEM
##NO
##ram
##ostructure
capacity
clearly
##for
##dop
resear
##90
##encies
electrochemical
##osp
followed
##0.8
θ
double
τ
18
slow
phases
17
##iles
view
##aced
follows
##)+
##32
With
Supp
##ics
##link
hydroph
technique
composites
fields
##100
rates
focus
axis
XRD
##alle
detection
##zation
Ar
sequ
##ogeneous
Bi
summ
additional
bre
##aj
##izing
##pti
element
##pped
component
Ph
##ED
moment
##scill
2(
equations
(10
##ogen
##ext
300
configuration
regions
prot
##ots
>
Information
fer
off
##31
discussed
recorded
sal
##gradation
##pec
probe
induced
few
Pd
required
decreased
situ
evid
semic
conn
##Br
mes
##ition
##)-
##order
carb
oscill
relaxation
intermedi
##omers
profile
chains
##aps
Ex
produced
##CP
ρ
##aw
10−
##8)
approximately
##not
##allel
reference
##pro
crystals
slightly
##dical
##–4
almost
term
gel
grain
rat
coordin
application
stir
reduc
##ators
PV
correlation
class
deg
##ottom
##cursor
polymerization
##mal
site
##99
microscopy
##resh
expression
directly
##ient
normal
domin
features
modified
##34
##orpor
means
fluid
vibration
them
nature
##CA
##hile
##henyl
lif
vacuum
Raman
##linear
##ulated
##read
chlor
dimension
cre
##inity
##ud
##TiO
##tives
lab
##amin
fixed
understand
reason
variation
##sing
##rich
uniform
##electron
3.
##time
nanos
1.5
Then
.
##1(
DNA
center
##allic
##work
bands
1(
assum
precursor
##BT
##racted
##GA
estimated
##PL
sat
##ze
down
physical
becomes
##ish
spectral
magneti
##3-
ω
fill
##III
ground
edge
##inally
##−1.
##lig
nano
prim
blue
leading
success
##ynthe
blend
##umn
##vid
##BA
##rystall
##ajor
##layer
##NH
dip
aggreg
tetra
##Con
##ols
irradiation
##,(
stret
##ompos
##ube
Since
wall
symmetry
adj
##))
atm
##ellent
find
29
adsorb
inj
##pid
##tially
ear
suff
contribution
incorpor
vect
##ography
##molecular
##OS
barrier
final
80
##max
##ering
mM
##mic
3(
stra
drug
Ca
onto
loading
resolution
##dependent
determine
##structure
##Ti
way
radical
chem
occurs
transform
##HF
:
##right
rapid
corresponds
##oles
dim
##ables
[4
silicon
employed
common
Pro
##ched
From
##cat
plate
##We
deposited
excellent
diss
##Ac
PD
relations
shear
exchange
##igned
continuous
graph
characterized
##ternal
##state
##aking
##PT
annealing
extend
confirmed
##arent
mainly
degradation
anion
##by
Sn
excited
##3.
activation
##orts
##isotrop
full
##36
nec
mac
##omen
By
magnitude
##uter
inhib
hard
yields
stabil
##ication
devi
##exp
q
##way
parallel
medium
improved
coun
##0.7
amplitude
##aving
mixed
##au
##acking
impact
##Ag
pore
##2),
radius
PS
Ad
radiation
##2–
##och
resonance
##)/
chrom
quantit
major
##39
Although
geometry
domain
soft
great
##obic
##ometer
intern
degree
mA
exist
profiles
versus
##­(
dy
##ope
minim
##ining
##rin
crystalline
phenomen
development
##umines
intr
strongly
transmission
calc
π
column
absorb
##istry
ran
semiconduct
differences
1.0
##hest
derived
(1)
##ndom
##taneous
##ries
##car
fiber
literature
solar
give
elements
silica
##(2)
display
production
rest
##hyd
powder
anisotrop
spa
##mol
frame
might
squ
500
##zy
##ired
isol
##yt
external
##Mo
Sim
##To
detected
hex
rather
##TS
microscop
successful
Supporting
##Ph
dra
life
##jug
##set
##sk
carrier
##rel
propag
##Ex
cycles
##lished
provides
##ij
MA
random
##isms
##man
##itor
##hematic
##NPs
##DS
##emperature
##ryl
units
decomp
##=0
provided
nanocompos
treated
caused
##1.
##dis
abs
defects
##wave
comput
util
##osure
color
decay
problem
##ylene
highest
motion
multiple
##%.
##doped
##vis
##4-
error
##65
##bal
(20
##=−
cle
##bor
index
research
signals
fo
photocat
best
##CM
##ults
hydrox
visible
##9)
,
##loc
initi
types
calculation
speed
sil
##38
##1–
electrolyte
limited
##Fs
individ
represents
nat
##ST
methan
equival
atmosp
clusters
##acy
orientation
must
vary
swit
##inal
##tering
membranes
gradi
ionic
##′′
controlled
Ab
##ences
fast
equal
##rateg
techniques
exhibited
necess
rough
##ks
release
##induced
preparation
##ody
##orphous
superc
inside
cannot
{
4.
–
##methyl
##Te
scanning
##rene
##oxide
##ways
##aries
dissol
right
alloy
##rans
##wise
doping
account
##MP
benz
excit
##OD
SA
##uctu
##hip
##tered
##ensive
##ergy
##tained
imaging
showing
##1+
##pping
##vent
##=2
generation
Cd
hydrog
##imet
factors
##ceed
investigate
intermediate
impl
##alog
##olds
##rit
##mod
ord
##MF
another
hum
strateg
internal
##perimental
dried
analyzed
##oxyl
conventional
fabricated
combination
##Th
SiO
turn
advant
fluctu
cycle
|
##eration
shell
III
##romatic
##ashed
IR
flex
3,
transitions
cathod
90
##1/
em
remain
##assi
modulus
far
##po
grown
##37
diffic
##ify
28
left
##incip
revealed
conc
spectrom
##Au
NH
ste
##ymmetric
porous
allows
##=0.
GO
numerical
##cosity
##ections
##turb
##alysis
Un
##icients
monomer
independent
link
buff
##esults
##with
##organ
##NC
(0.
did
overall
fav
hyd
possi
sufficient
selected
amorphous
reco
##off
##entioned
easily
half
exhibits
frequencies
##ior
##ris
magnet
##48
##romagnetic
vs
##)−
pan
coefficients
##For
har
oil
##plane
##kn
regime
##2]
minimum
##Sn
(6
##alled
precip
ide
4(
##aged
discharge
Ge
##phase
gives
later
pump
open
If
nanostructure
ability
##ractive
bias
##hy
mobility
##merc
pepti
##LA
##itable
fully
least
gly
methyl
altern
nonlinear
evaluated
##aff
assemb
##Scheme
bottom
likely
pop
##2‐
steps
##orption
cation
located
specim
gold
FT
incid
He
(2)
constants
nanow
magnetization
##atives
collected
##LS
formul
400
against
deformation
sensor
##44
##wing
##WC
##pect
suggests
introduced
##ansion
##band
##ique
##.15
now
→
##atively
recently
hole
##col
##ok
Finally
##static
ratios
greater
densities
approximation
trend
##field
transformation
##CF
coupled
relationship
repe
##Pt
individual
bonding
mark
##uminescence
##ubes
##-2
absence
elastic
##strum
##bl
##NI
produce
viscosity
##atory
longer
##3),
##olymers
##–5
##TEM
One
Br
##estab
##Int
MO
##cup
how
##95
cost
depends
##ensile
nanot
##hex
sensitivity
##uction
alumin
don
dry
ligands
spatial
##Na
##osen
##lit
copolymer
promis
lith
##benz
Se
Our
##eren
ν
##=(
##lets
##aterials
##–2
fibers
require
##but
ethanol
##iral
##LD
According
copper
green
vector
prac
##acing
##gment
expansion
##icity
PP
positions
##IS
##acement
alg
##facial
accel
##SiO
fluor
##tics
difficult
conducted
neutral
##..
exposure
##tri
##taining
opp
capacit
##ler
among
finite
discussion
counter
enhancement
ESI
##MC
##utes
noise
##orage
support
##.10
##table
##Li
η
crystallization
##ND
##amil
##gether
together
##roduction
cho
base
evapor
although
output
##ters
black
fitting
across
become
##bil
cut
##ortion
construct
##free
##sequent
scal
##ingly
relation
##igen
chosen
##NP
##xt
dependent
thresh
##bers
cooling
enzy
##–7
##odium
mechanisms
sizes
##comp
##DF
##)‐
≈
reduce
##ticle
inset
latter
diffus
stage
tiss
tested
Note
##fluor
incub
##3/
##1.5
suitable
certain
##pecially
##tr
identified
lip
##air
buffer
natural
##tre
probability
lowest
analog
##98
make
depth
##equ
##unts
perturb
##wh
##ologies
observation
tip
monol
##she
commerc
charged
estab
##IM
##PR
##sist
details
Cr
##ense
arg
##akes
##dd
adhe
2.5
interfacial
##ynthesis
selectivity
expon
##73
predicted
##ires
reflect
demonstrate
##ending
obvious
##be
They
##0.00
exam
buil
Similar
gradient
height
1).
decomposition
exis
##tle
##amples
conjug
##64
##ured
repl
##arrow
1.2
placed
proteins
break
70
Such
##owled
35
Ω
##85
##ino
biom
##tonian
dissolved
towards
##vered
post
##oted
sin
remains
detailed
##3(
##rating
combined
unique
ess
doped
Ind
##uit
distributions
##ION
split
tend
dil
##ck
hydrophobic
5.
achieve
##rap
dark
##atom
key
eigen
ceramic
derivatives
##coh
contrib
especially
##DO
equivalent
necessary
wind
affect
rever
HR
##mun
metallic
##EA
princip
Pb
removed
valid
##ceptor
fabrication
novel
noted
##ecause
##rior
approac
PM
note
satis
Ce
storage
microstructure
quality
angles
mV
van
tensile
overl
having
##lision
loop
rotation
##0(
Di
isolated
Cl
##avity
##ears
interesting
completely
Sec
##CC
##IV
##itro
##monic
statis
La
##wo
##apping
atmosphere
appears
phon
usually
##oun
##sess
essential
confirm
plots
Rec
##ermi
##yan
five
promising
##allen
defect
stretching
##herical
##anti
assumed
optimized
normalized
secondary
150
methanol
##sian
##bond
1)
diagram
able
##cont
amb
‘
Int
##ground
##BM
gu
explained
primary
plotted
##late
4,
CA
often
log
tum
##+1
threshold
coordination
report
pol
tit
##phenyl
thermod
exact
perme
[1
simultaneous
microscope
suggested
solvents
##insic
Hence
##ky
recomb
NO
run
nanof
subst
##ovsk
##ropri
prom
##roscopic
\
##sin
eq
occup
##valent
While
resulted
##1.0
observations
##Introduction
possess
##erate
homogeneous
suggest
##hedral
shar
Figs
bor
##66
syn
kinetics
##section
−1
##−3
XPS
dissoci
0.2
grad
##PM
##icular
collision
until
##PV
##43
generally
resis
##ches
framework
selective
##ulsion
45
smo
areas
##)).
##ancy
[5
emit
##ird
subsequent
mixing
challen
approaches
sequence
distin
narrow
##owledge
reach
##TM
##sub
##lementary
##rif
upper
##ask
experimentally
##eful
##ometric
original
##orith
##hal
starting
injection
glo
conduction
##urations
##EC
##umption
37
##.1,
##:1
property
iron
summar
electrostatic
Hamil
##42
MS
sodium
##ik
processing
tube
excess
##pension
##certain
##.25
##rystalline
appropri
vertical
##enes
aromatic
expressed
ultr
##herent
##Ws
##ash
##ducing
comparable
cyl
tests
##46
synthetic
gate
avoid
useful
##axial
##urated
quas
square
AFM
coll
sensitive
##imin
##ights
nearly
alcoh
##rup
days
##any
##gl
impur
##NS
##inyl
(100
##°,
chemistry
vibrational
##.)
enti
Both
##78
##hence
coated
simulated
##pendicular
perovsk
conclu
algorith
successfully
washed
removal
##IC
##41
seem
varying
##iding
##ulture
##Mg
modification
tor
partial
##NR
adsorbed
finding
2-
Hamiltonian
iss
##duces
potentials
##aster
##.16
chromat
Using
##ibility
Zr
##assemb
##clusions
##ience
suspension
##rared
SO
vapor
##.20
waves
quite
cathode
##-3
place
##ellow
extended
##ones
solub
##ready
orth
though
##Pb
##10)
melting
correct
##electro
##Bi
##lective
##49
cham
allowed
##IP
thi
).
Ba
##]+
##olved
First
detector
extracted
deviation
widely
##47
molar
Because
capacitance
##inning
##temperature
##amide
Γ
##alyzed
DO
central
estimate
recon
##0.2
hence
##water
whe
fund
##imethyl
feed
include
strategy
scre
##odes
flat
0.8
examined
identical
No
χ
dye
##St
perpendicular
##.1.
whole
##aussian
nucleation
##An
##ubic
##.2.
repro
orbital
salt
already
forms
##orth
##elling
##′,
##cyc
Fermi
incident
background
extre
Ru
stirred
depic
##uture
DFT
##.18
fract
rise
##energy
cavity
assigned
##uk
##ads
##view
distinct
##)3
##organic
##4.
spectrometer
understanding
##.5,
crosslink
contributions
implement
input
##ride
5(
##–6
enough
##SION
desired
isother
facil
##ivers
(7
Section
crack
##Results
##ription
##gine
designed
conformation
scheme
apparent
vi
entire
amounts
##.17
play
forces
take
decreasing
##2).
mentioned
describe
##LE
##Ge
uncertain
##phot
appropriate
(∼
anisotropy
MoS
composed
##nm
discre
heated
##urface
##lysis
##Ms
table
supported
sharp
##atin
##zo
shifts
##isc
percent
##arch
alloys
(3)
##ware
computed
refer
Sch
hot
Addition
##alk
separated
##olor
biological
relevant
batter
##10,
##rot
intrinsic
##TR
dipole
next
##af
ultra
suggesting
residual
spherical
inner
pass
recombination
array
Four
assess
##ylation
turb
configurations
##Ch
Elect
1000
(8
go
numbers
online
accuracy
operation
dashed
##MSO
panel
capture
##struction
distances
##ometry
##ps
dam
aver
##.14
##.2,
semiconductor
bran
interpre
##Zr
human
prior
ferro
##acet
##.4,
##97
satisf
ambient
##isted
copolymers
##tile
##(3)
contains
##solute
included
##(−
Sr
##CE
culture
##ned
generate
##ramolecular
involved
fundam
CV
##cular
##jected
calculate
2.0
momentum
##.13
##ories
##ids
che
adop
CDCl
##ept
App
##ignment
##67
white
illustrated
chamber
photon
##othe
channels
intensities
##light
##0.1
##Sb
PEG
six
##hyde
##Pd
bacter
##PI
6.
##dehyde
instead
enc
##55
##ographic
maxim
##eady
neigh
sources
precipit
years
22
##zer
##rol
requires
inser
ns
lifetime
##ta
##reg
Gaussian
imped
auth
analytical
disloc
donor
##2=
##land
##4‐
##osite
remark
##gments
##BE
valence
##carbon
##lier
##Experimental
tunnel
host
##3‐
attention
add
existence
typically
##TP
##prop
##stract
##inement
scaff
##acryl
##ensor
##HE
investigation
1.3
##)].
optimal
En
redox
accum
needed
interact
Am
formula
acids
##tific
cyt
##gram
0.05
emb
evidence
##SS
IV
##ened
corro
smooth
##shell
##4+
pairs
displacement
directions
5,
##1),
##(1−
nanocomposites
##ised
0.00
regard
##EG
domains
displayed
commercial
De
##LU
facilit
##load
##arm
##lin
radial
##96
propagation
symmetric
thermodynamic
observe
metals
QDs
##cc
Eu
connected
##trans
reached
deli
anode
##atch
phenomenon
fluctuations
HA
instrum
##FA
kind
amino
last
rig
cond
grid
48
##DT
##.11
##xy
##–(
OH
tissue
orbitals
THF
##ositions
##version
slope
poor
120
##-5
##(0)
annealed
grains
HO
##.12
##.6,
nanoshe
##scale
az
wet
extreme
lengths
termin
##rays
##ESI
brid
reag
$
##idal
law
600
quantif
future
solubility
##pite
##vari
setup
0.3
##.3,
consists
1/
##rary
##enet
##coated
##osity
asymmetric
##graph
##SM
PT
cycl
27
(12
third
##Cr
controll
##polar
favor
##tz
##agonal
MPa
0,
propor
##.8,
perovskite
##′)
forming
underg
##ynam
##enced
ones
photocatalytic
##It
led
switching
outer
bene
##IL
nanor
lithium
triple
Chemical
##def
por
sensors
ionization
MD
##.19
mid
always
bio
##axis
Scheme
Also
indust
zone
##6-
effectively
agent
makes
dimensions
pse
bil
##rown
affected
pack
##gest
κ
kV
##tition
antib
carboxyl
absolute
fu
##=0,
10.
reactive
⟨
##arily
depending
##ference
##68
variety
sets
droplet
sensing
##ours
fundamental
fitted
cause
stri
##yrene
bending
##eled
traject
angular
dominant
done
##amely
##van
exposed
ca
move
Abstract
##urrent
ether
surfact
2).
nanostructures
##ystere
##licit
classical
ret
##function
br
just
##ares
##ayers
##inite
##Ref
gain
dispersed
FTIR
cancer
get
##SEM
Sub
accurate
reflection
window
CNT
##rim
cyclic
olig
condens
peptide
##–10
bub
evaluate
##ressive
integrated
##ligible
mixtures
phonon
##.7,
clean
##amer
steady
##HA
##zing
ideal
##1).
boundaries
1.4
operating
##tes
##IT
silver
extensive
whether
reducing
##side
carriers
oct
##1-
algorithm
##otes
chloride
authors
analyses
tumor
stronger
pores
chiral
bal
cubic
##63
IL
##MT
saturation
##RA
##fold
every
operator
##12,
engine
Be
##ina
scaling
##2.5
##ridine
##containing
##atically
##dle
prog
##riction
oxides
##PEG
read
##rect
considering
entrop
plastic
ensure
sulfur
earlier
roughness
graf
##oprop
opposite
Eqs
mill
##LC
##rystal
Pl
sput
##ached
holes
pulses
hyp
##FE
Res
##IB
##rac
prevent
##XRD
sto
Based
[2
practical
##dt
derivative
gradually
##rile
##sat
possibility
purch
##.9,
##.0,
##oxid
Inc
differential
undergo
23
circuit
localized
##Re
Car
(%)
##olic
##3−
seed
##ancies
nanoparticle
pie
particularly
variations
advantage
tolu
surround
basic
hystere
##point
hyper
flexible
planar
250
Fourier
##),(
##–8
GaN
##HT
##cale
benef
Two
##nder
purchased
proportional
0.7
constit
graphite
writ
blends
pub
##4]
toluene
cations
##HM
adhesion
##kin
remove
media
##Color
hydroxyl
periodic
rece
consequ
26
insul
##lectivity
purp
whose
implies
conform
##istine
takes
##Bu
little
nanowires
substitution
impedance
kcal
filter
##Comp
fail
##Nb
dissociation
fr
rapidly
##pheres
established
nanofib
substan
draw
##4/
Per
##cell
parts
##1.3
represented
##anes
##-(
kept
##ien
dot
chromatography
monolayer
improvement
quanti
focused
negligible
##lation
monomers
too
resistivity
interfaces
presents
population
##ellar
##Ru
##mes
7.
dose
##ano
##rangement
charges
##ders
##eared
var
computational
##step
etching
help
extent
assume
responsible
importance
##PF
75
alkal
explain
upt
representation
##izations
sheet
description
##6]
quen
dimer
##treated
software
fron
compositions
Due
##Ca
stim
alternative
##1]
equi
##ichi
extraction
accomp
determination
compare
##vation
collo
##down
##Ox
MR
##pe
splitting
##oriz
##known
##shap
hydrophilic
working
##1/2
quantitative
integration
##crib
mig
0.6
hydrogel
##UV
##rates
##yond
##orter
identify
coordinates
mem
hysteresis
99
pathway
##1.4
##AS
##ulose
cruc
scales
assay
yellow
except
nanom
Pre
nanotubes
sphe
800
obj
##Elect
listed
##.28
##gap
##DC
##rystals
##IF
##inary
straight
aris
aggregation
##Et
damage
Met
##200
##aces
##ethylene
ammon
tail
foam
##tices
micros
incorporation
alkyl
CF
simultaneously
Equ
ranging
##andid
microwave
changed
precise
##width
pristine
##well
expect
ther
PBS
##theless
##orizon
##ou
transmit
rings
##erge
tox
1.6
##%),
##0.05
##abilities
microp
Tg
monitor
spacing
proceed
instance
transi
##×10−
0.4
specimens
variable
##lood
DI
turbul
##Ar
vib
##This
NP
reports
##phosph
reactivity
6(
Mic
##drich
steel
CN
fluorescent
##io
quad
##BC
enanti
reveals
pseud
tension
Cs
GPa
inverse
addi
##esides
map
##itrile
reveal
transferred
reli
optimization
melt
phosphor
##.27
##][
probably
integral
evaporation
##azole
##.26
##rial
infrared
owing
Additionally
##sip
extract
##BP
reduces
stirring
fracture
faster
Diff
namely
##.3.
consisting
varied
##ules
##shif
DSC
resin
uptake
##RR
##GaN
beg
##ln
exponential
summarized
##gu
global
##∫0
##ror
##ogn
CT
epit
qual
##.24
##inter
##fect
##stituted
mesop
##US
##ars
instability
reactor
embed
##ref
ster
CS
candid
During
pic
##ished
ps
pers
##ini
bath
measuring
##ocal
sections
##fluid
##stre
Indeed
##AC
rigid
TM
alcohol
##blue
expand
##aring
##ions
##ronic
##(3
planes
event
ml
##.23
concer
shifted
CNTs
##tingu
easy
equipped
##′-
##FC
conclusion
ordered
changing
Rep
##solid
remaining
macro
elemental
##agn
summary
##iter
##den
taking
##′(
networks
ultras
Schematic
nanosheets
3).
piezo
bioc
reversible
choice
static
involving
variables
##ils
etc
##iii
ester
Recently
knowledge
marked
##1‐
shock
distributed
##oidal
##oral
assembly
So
coatings
##cribed
activated
##erated
##back
##uting
triang
##Es
1.8
crystallinity
##mm
mut
PO
location
##amm
##requency
##ivo
##erestingly
##adily
##ds
arrow
##CTION
inhibit
applying
acetate
##Ce
##ifically
##spec
Each
##llip
000
##=3
##RS
##sm
Φ
sheets
21
Sh
TA
##.35
##otropic
##SCs
##crystalline
##thal
##ude
##oses
55
wire
testing
Poly
horizon
##+2
##igma
##endi
trig
##fill
gave
causes
nanorod
kHz
penet
droplets
≤
rob
adjus
##acent
occurred
##11)
##.22
##.30
what
##+(
cycling
##aracter
ED
2)
##oustic
hydrogels
compati
hist
##arison
delivery
hetero
(4)
Figures
principle
Er
acqui
##15,
program
coordinate
##umination
##ortex
correction
##sem
arrays
incl
##anium
powders
body
amine
article
##jection
technology
entropy
##94
##dyn
contribute
##RT
dissip
##endix
nanocomposite
4-
##+,
##opy
displays
adding
energe
beyond
binary
##omin
RT
permit
encaps
##dx
exists
##ste
rotational
Rh
respective
exceed
##which
##ferred
Ta
USA
##3).
vivo
initially
consequence
Pa
edges
##ucose
quasi
1-
advantages
restric
##ital
##we
gal
elong
##bone
ξ
##iety
##EX
##La
aluminum
##ulate
stack
epoxy
seems
nuclear
hollow
written
##com
purified
##0=
partially
explo
behaviour
(200
utilized
##EP
instrument
conductive
##chit
ceramics
##CV
luminescence
depicted
resonant
##LY
cylind
protoc
##evertheless
delay
superconduct
ellip
##5-
residue
phosphate
##rite
China
recogn
recovery
called
##chlor
driven
enzyme
##metal
##BN
isomer
emerg
dig
##Pro
##CL
##Conclusions
##thermal
##otential
##onitrile
modeling
qualit
3.5
##62
induce
residues
maintained
&
regular
moiety
##elles
tunneling
issue
10%
ferroelectric
##hane
attractive
##RNA
ψ
simpl
##53
aim
repeated
##93
##NTR
filled
Cal
minor
##position
cooled
bright
##gence
special
attached
bo
##stable
##nary
1.7
stain
##iph
micrograph
kg
##come
##shaped
##aph
##hing
polymeric
diamond
superior
pron
commonly
centers
##(11
protons
explicit
##pared
##1.6
neighbor
version
quenching
illumination
thereby
##aldehyde
hexagonal
cas
##WCNTs
##+1)
subsequently
abund
##UCTION
refractive
absorbance
greatly
keep
vir
adjacent
fuel
wavelengths
compression
##12)
##tide
making
specimen
lateral
substitu
fa
percentage
##−(
##.21
early
##EL
##onsid
Sm
introduction
belie
stream
Nb
transverse
damp
rub
closed
##while
##)|
bare
precursors
define
centrif
##mobil
##osis
errors
fine
calibration
##ODUCTION
corrosion
##AL
AND
##tivities
template
statistical
##gel
##NTRODUCTION
##BF
shorter
Under
##workers
##size
Nevertheless
Interestingly
33
comparing
##fol
##BD
incubated
vacancies
##osing
##ortun
modulation
onset
agents
meV
Im
representative
##4(
2.4
##...,
extremely
##1.8
perturbation
SC
Et
6,
deep
interpret
##apac
##.29
##semble
##1.9
assumption
disapp
sphere
QD
##VO
##1=
##isation
##Cd
interval
yet
##itudes
route
LC
dem
away
DMSO
##bly
##ung
##ann
disti
NaCl
reasonable
##modified
uncertainty
argon
128
blood
porosity
dynam
##BO
readily
grav
front
##dynamic
vortex
attemp
meth
##ickel
##BH
largest
95
driving
LS
##ilm
Among
Phot
ques
brom
##mann
constructed
lack
##dimethyl
##EO
##ZnO
##lim
##3–
##Supp
##anth
Compared
DM
##mL
##hom
(9
correlated
separate
stoichi
sufficiently
action
##rices
sintering
perfect
examples
quantities
fragment
Consequently
demonstrates
Mon
review
evident
8.
currents
circular
##arb
alignment
##td
transient
##4),
##illary
##elastic
tex
7.4
##inder
inorganic
filtered
manner
kJ
##DM
36
cellular
balance
##,2
##).(
##88
phenomena
2.1
distingu
##{\
duration
dual
##top
##raz
##butyl
spheres
dots
acceptor
̃
anions
##1.7
##oratory
schematic
axial
##cing
compact
aer
##imetric
##DNA
Des
visual
Po
##ulomb
##%).
##Ns
overlap
##76
circles
pathways
iod
##WCNT
##ichlor
Ir
##ild
reaches
dend
32
clar
##ighted
##00,
##54
crucial
stiff
problems
dense
environmental
piezoelectric
GaAs
HCl
junction
denotes
aggregates
linearly
iner
phenyl
spread
ms
vitro
bis
concentrated
##tration
##DH
purification
##catalyzed
%)
##ecture
##ufact
bars
radicals
##ira
##inition
Gd
##SH
trap
##ns
##antly
capability
##pr
##rief
##assembly
##hene
##resolution
##cepti
Te
DMF
##echanical
Op
##)),
saturated
##UL
blocks
##)],
##ordered
investigations
##56
box
findings
ze
3-
##ape
spon
##Pr
limits
intermolecular
surfactant
##br
##vature
disco
surrounding
ly
throughout
##apped
##TT
complic
##FP
coverage
tensor
centrifug
considerable
backbone
harmonic
pressures
##DOT
aspect
contents
(0
cos
1:
1.9
actual
symb
##ID
neutron
##ank
##pon
ball
##prepared
##57
##=1,
##Bs
created
zinc
##adium
rpm
orders
GHz
##activ
hypothe
##/(
##diff
robust
div
##times
disorder
care
##ellular
##FS
octa
##-4
##2.0
##.33
##(1+
[11
oxidized
##part
##alysts
##yclic
simply
incorporated
plays
supplementary
rare
immedi
TS
##inated
EL
implant
##roup
##14,
itself
##ision
oriented
##azol
High
##ull
##ionized
##rosp
##58
explored
##hole
stere
finally
works
lipid
PLA
##otox
##avy
micelles
predict
gene
anisotropic
##phen
spectroscopic
concept
##chang
0.01
##no
Similarly
bilayer
SiC
##cessive
##.38
##iated
favorable
##itive
Sol
appeared
affinity
MW
0.9
##ious
##norm
##assif
10,
immobil
archit
monit
ML
prin
figures
permeability
##irc
curvature
##77
##ditional
##left
activities
##MnO
converted
##frequency
segment
PMMA
suscepti
thermo
PDMS
##3]
criter
##poly
See
acetone
##′‐
embedded
38
##Here
impurity
##particle
##oh
evaluation
##Rs
##arding
manufact
code
cellulose
acidic
forward
CP
intense
migration
photoelectron
involves
contacts
arbit
##orb
plates
##iscus
(−
##eu
##romo
metab
manif
elimin
averaged
##sisted
##icial
morphologies
##itud
spot
##imer
(50
lens
photod
loaded
[18
memory
##VA
ded
quantity
matrices
##enari
polarized
includes
mir
##AM
diver
events
wavegu
tool
situation
##lab
prepare
ITO
34
ascribed
pyro
glucose
Vari
##na
walls
hem
##ffect
cover
##ley
##-2-
picture
providing
let
TE
conser
immun
31
prol
Sp
referred
reverse
##=4
PI
##52
subjected
sup
stacking
##NG
Nan
trace
true
7(
##=∑
ap
architecture
##artz
##hers
##uation
ordering
moments
##Synthesis
##bi
confinement
180
monitored
extension
exciton
purpose
##ierarch
##ivity
0.25
acoustic
##ograms
##obenz
calcd
##pH
(5)
##iting
procedures
##black
##eck
volum
Nd
Mod
horizontal
allowing
##exc
##ounced
received
denote
spectro
swelling
##lies
##atform
eigenval
remained
injected
geometries
acquired
̇
##dri
clos
isotropic
##las
Let
plasm
island
##AA
[16
##itudinal
cold
access
packing
##.37
thermally
invari
functionalized
##oct
semi
##20,
##OAc
##.36
desorption
engineering
##abatic
##86
##ulations
sampling
nickel
Mean
catalysis
assuming
##feren
mapping
released
constra
HF
aligned
salts
##–12
friction
scenari
##ogenic
aryl
##respon
[7
isot
##achment
##DI
##bs
purity
AC
fractions
keV
dislocation
##osan
##NCLU
building
probes
Experimental
##oluminescence
##bin
hydrolysis
3.0
classif
##atus
interference
##rink
##.34
day
##bra
##9].
CB
##PLC
##ying
##stream
appearance
##izer
##Sr
inters
##°.
##SE
##ni
##DFT
##itting
conductance
##.4.
##yr
accumulation
unstable
[17
##urally
##ZT
discuss
##6‐
nanowire
##RO
context
Qu
##ae
Spec
##defined
##02
Spect
7.5
##rec
##lohex
Besides
##ission
pent
HOMO
DA
carbonyl
ferromagnetic
nanocrystals
slowly
gover
##-8
boron
65
(0.0
NCs
adopted
former
##amino
introduce
##oids
5%
##2+,
cour
underlying
conclude
SE
behaviors
indeed
trapped
physics
mice
filam
##vated
ethyl
VO
mono
Flu
contained
pronounced
dissolution
mW
past
##imide
##.32
Pr
##cep
proved
∂
matter
deform
AA
batteries
reflected
##[(
Hf
700
disk
worth
##tention
pix
ris
##inate
diameters
Consid
##ENT
heterogeneous
##homb
##ysical
##NCLUSION
compens
##tance
##hemistry
PET
[10
##iley
analyze
##termin
jo
##inf
heterostructure
denoted
##HO
check
##sulf
##zz
##(4)
jet
responses
SI
##atile
(00
correlations
thicknesses
parent
transparent
predictions
oscillations
##ionic
##ymp
##orbit
##87
start
incubation
diagn
##substituted
PVA
shapes
prediction
hierarch
##–20
##used
degre
##=12
##ieties
##tage
sputtering
[19
zeol
##eth
##unted
##upling
Equation
moderate
glasses
##hydrogen
##hel
##92
##log
enthal
Ltd
became
4).
And
##ren
scaffolds
3.1
ket
arrangement
ice
needs
beams
##Vis
##styrene
##DP
##eq
##LYP
longitudinal
TO
platform
DC
permittivity
TC
##Eq
##junction
##aracterization
[(
construction
covered
##5‐
##balt
##−1).
impurities
operators
definition
2‐
##GC
Tc
##uclear
til
##cord
station
##otal
viewed
mach
mesoporous
confined
peptides
retention
##uran
photocurrent
ranges
create
capillary
photons
damping
mostly
##omal
##disper
topological
remarkable
##,3
##PSS
degrees
##72
maps
moieties
colloidal
terminal
flows
differenti
##uli
fits
pi
##INTRODUCTION
##HD
##ompati
##GS
cis
Cor
nanorods
PB
##angle
Another
ole
##−1),
segments
##ientific
##ifications
determining
##olet
electromagnetic
Gener
reagents
##alth
MC
##ocyan
SS
net
##licity
##bar
##rically
##asure
closely
extra
synch
##.−
##oung
degen
characterize
##6].
extr
[8
outside
Some
published
##sibility
emulsion
##.40
##iation
##role
compris
leak
cylindrical
labeled
##74
PF
quick
SF
##.31
##XS
##edge
Coulomb
##othermal
##term
SW
benzene
SnO
fre
coinc
bur
Synthesis
〈
-
dominated
##tetra
(30
##ymmetry
antic
##changed
##oper
##conn
##)–(
transist
singlet
cationic
trapping
##Pre
~
Cell
afford
monitoring
replaced
EC
##0+
CC
voltages
##level
course
electrocat
stored
explore
spontaneous
realized
bios
nanofibers
giving
##lyl
##space
triplet
distilled
screening
diffuse
intramolecular
conve
centered
essentially
##entation
hours
humid
schem
##=5
quartz
##FET
texture
##hydroxy
##ee
traditional
oxidative
infinite
##VI
##TC
broadening
dynamical
##61
##RES
SP
##gg
Data
##related
##from
##lates
permission
##apan
plasmon
##stood
[12
growing
##2].
##omic
##ochrom
acryl
##ophene
##pos
occupied
##heric
4.5
DS
inclusion
##BR
compe
pel
mesh
##arbon
##oform
Hg
ethylene
attracted
efficiently
##matic
rear
Other
##etric
layered
chit
##uker
failure
protocol
vectors
heavy
##orr
##4−
##erc
##flow
predomin
##lar
##WHM
##mode
middle
##carb
##thick
concluded
##.99
##iscussion
##ULTS
camer
##ucle
belong
implemented
bind
##uff
exper
##quin
##Pc
##amination
##.75
##avage
##oltz
##intered
##bound
rubber
fresh
##Aldrich
deionized
NC
##.[
7,
Second
##erent
##idine
conjugated
##acrylate
maintain
vibrations
employing
capable
dyes
loops
##oy
barriers
precipitation
##Di
coherent
PU
conducting
##orescence
##can
deple
adap
NWs
##ochemical
Hall
##(111)
amide
##Eu
vacancy
##ocities
integr
accord
understood
##eta
##CONCLUSION
##kBT
furn
fam
confirms
##MD
overcome
##standing
covalent
bacteria
Refs
##iversity
imag
electrosp
##3):
considerably
drift
inhibition
stages
##irable
immediately
interpretation
##69
trajectories
##ower
wafer
##infor
9.
FA
arbitrary
##assive
discrete
##vere
##everal
##0.25
NA
##ings
beh
##NMR
asymp
##onent
##HS
velocities
multip
Meanwhile
bubble
##71
losses
##urea
resonances
##iver
inhom
diluted
350
##.39
liquids
##ld
dust
##green
semiconductors
interlayer
##,1
##bis
substituted
[13
accept
examine
hydrogenation
divided
collect
acceleration
hardness
##hang
##uced
constrain
enables
drying
2.6
FE
Sb
##ester
TGA
adjusted
enab
nuclei
But
##polymer
systematic
battery
##TF
##.45
##-1,
Therm
##-7
##84
swe
entry
##glomer
commun
##-6
fs
lam
laboratory
##opolymer
varies
carbonate
setting
3)
cobalt
77
ensemble
GC
##ensitive
85
##ishing
acces
##iline
##orient
complicated
demand
grating
##body
question
describes
approximate
beads
vor
selection
##atinum
##)­
##TE
##Ir
##resolved
largely
##dr
produces
crosslinking
CdS
##3.5
RF
##cin
industrial
##Im
extensively
rect
formal
##SCUS
ln
##son
##saturated
##ERS
Materials
##SCUSSION
##site
Techn
[14
##IE
##–15
establis
##PU
moving
##itic
subject
##0/
visc
hydrodynamic
##–9
##pris
controlling
exclu
head
##Ta
NaOH
Japan
temporal
adi
complement
##rapy
preferen
##CSD
##sil
affects
##relation
##lections
##=7
clin
##volution
##ades
##unctional
progress
analyzer
facilitate
##ouse
resolved
atten
##vanced
##PB
nanoscale
##DE
once
Germ
##vinyl
stiffness
notice
##NF
105
##voltage
##umber
feas
others
bone
regen
Their
##ophilic
##earch
possibly
Ob
##SR
careful
##Am
pin
##AG
promote
apply
formulation
disordered
coil
shall
existing
##1].
diffract
2.8
##transfer
immers
potentially
##PG
phy
##culated
##li
##linked
performances
gaps
##called
##1.2
##oxane
insight
NIR
strategies
##night
##At
microspheres
##rence
##Rh
##mentioned
glycol
(15
(6)
##00)
hydrothermal
supports
##ogram
compressive
Results
##surface
##volta
##king
gases
irradiated
intermediates
absorbed
DOX
consumption
calib
##iving
##4).
##ulti
Hydro
125
anod
occurring
##crystal
[15
##ket
450
arrows
NiO
##gonal
##ogeneity
family
intercal
##wit
Par
##olding
manip
127
##He
##amb
##iol
amplitudes
constitu
##onduc
##QDs
##AB
text
arc
metast
##auge
alone
5.0
##OR
(0.5
##tok
Over
50%
plasmas
Λ
##anning
deviations
##uest
steric
despite
filler
##15)
##mediated
dise
MB
##igu
##+)
##nc
optimum
oscillation
##usive
∣
soluble
##vance
[25
ign
quenc
weaker
preser
neighboring
Sigma
waste
##gebra
##Tr
camera
word
##VP
##specific
fall
##ether
chip
##EMA
condensation
otherwise
insertion
129
convergence
##ously
##bottom
alumina
grafting
IC
micrographs
microscopic
##oped
dissipation
##‐1
##vo
##agen
stabilized
cleavage
Even
4.0
asympto
##opropyl
2000
minimal
explan
SL
##ollowing
reliable
row
##ecting
##ressure
collection
sintered
##PER
3.6
referen
MgO
dat
wor
weights
##89
##has
##channel
pseudo
University
serum
##uming
(400
intra
##83
##su
nom
##oll
affor
##14)
influenced
inversion
modeled
##lication
##har
Ne
challenge
Comparison
address
ternary
verified
##2:
LU
##ended
gels
generalized
PH
overnight
stars
agglomer
irre
##bonding
##AN
##ducts
turbulence
sweep
facile
reasons
solved
spectrophot
Typ
##ibrary
##ush
##6.
limiting
primarily
2.7
mirror
absor
rGO
1.1
kinds
hind
##lock
scans
stabilization
FIG
Or
sand
##WO
##ZO
##meth
##inations
distortion
##LO
rod
##Ba
##high
##−,
##ception
autom
enable
accompan
emissions
2.2
##10.
cylinder
)
##iven
##11,
native
stationary
##(4
##2.4
face
tuning
##hand
mer
superconducting
offer
##16,
cutoff
ultrasonic
##SiC
##–11
##ript
Research
Imp
randomly
vic
stresses
rib
8,
monoc
subt
##79
Dep
susceptibility
computation
multilayer
Not
dotted
##attered
chitosan
penetration
8(
bonded
diode
gauge
Most
##oring
Ass
##ei
geometric
ves
##etry
##zero
exactly
metall
substantial
##GaAs
neat
##CB
##)2]
##acer
##CNT
##ss
##//
##agneti
##atment
##berg
dc
##dec
##aryl
asp
dopant
excitations
bandgap
numerous
(>
##ammet
[20
improving
symbols
##imid
waveguide
##ativ
##oline
entang
closer
##−12
scaffold
titanium
##ern
##oselectivity
stretch
##riefly
##AP
##eV
modify
Germany
##GE
##sectional
fragments
##mat
##chers
##300
Cont
##forward
cytotox
pulsed
acceler
flexibility
roughly
AM
solute
##linic
##4.5
##Ts
expressions
put
calcium
transformed
illustrates
##3)2
##bilities
electroph
##eling
acetonitrile
macroscopic
flask
ur
currently
3.8
coal
##imes
##vities
pati
nanotube
ferr
Gre
slip
##rolled
fluctuation
microm
##(0
LE
serve
crude
##struct
##yne
##dashed
transmittance
portion
suppress
NS
EM
efforts
Young
##RF
##59
collap
initio
##50,
##arg
estimation
continuously
PCL
uniformly
producing
lign
trajectory
##GF
1%
##onate
linked
breakdown
accordance
[27
##TAB
##icles
sequences
platinum
electrolytes
reagent
drawn
##RESULTS
supramolecular
##oselective
##rance
PANI
accompanied
why
involve
oven
##vals
suppressed
5).
##82
##yrin
foil
majority
trends
weakly
cantile
substituents
Instrum
consideration
elongation
##HR
##shift
##chain
accurately
PEDOT
##ophen
##assium
Tb
900
##fluidic
##pyr
##squ
raw
##2[
##omial
polycrystalline
mis
##FF
THz
##rams
NW
toxicity
photovolta
imaginary
leakage
consequently
dislocations
##rip
Upon
##5.
metabol
##tein
##aratus
##3/2
minutes
evol
analogous
##ken
filtration
##AT
alkaline
tendency
##dot
##},
##edom
##fluoro
##rapol
tan
##eness
72
Bruker
verify
##arest
##strain
##electronic
1),
##=8
match
acts
Despite
additive
110
##herence
##odal
strains
conformational
reflections
wee
environments
beneficial
virt
inherent
treatments
##potential
Gra
coex
proof
##rapeu
##lattice
emphas
viscous
vinyl
objective
0)
viability
epitaxial
numerically
##what
160
##irac
BF
reinfor
##arith
Several
FM
##lecules
##alladium
##lux
##}}
saf
ammonium
atmospheric
##quis
drive
polyn
##ca
candidate
##tigue
##(5)
##ector
passi
##ativistic
Yb
##irical
highl
mi
continuum
drops
galax
introducing
identification
aging
##16)
built
[28
shield
##App
reproduc
##From
Red
##versal
skin
sequential
##Tf
##nan
tin
methodology
##alc
differ
##matically
CR
curing
##ists
freedom
mask
##ultim
substantially
##ameter
Different
degra
drugs
##omeric
uses
Subsequently
##Met
##ucid
##fers
HPLC
##discharge
##knowledge
Wa
##orphyrin
7.0
plateau
words
##othermic
issues
big
##forming
rule
Bra
yielding
##odies
Tm
recyc
##Py
immersed
##angular
LUMO
##stra
##hanol
Samples
ho
imid
##pi
fusion
twice
Considering
bridge
##–13
##En
diagonal
locations
##arse
bearing
##DMA
##110
arises
inte
challenging
quickly
##omethane
##++
##.3.2
HS
localization
PVDF
orientations
starts
artific
Tr
##photon
adjust
Det
agre
isomers
##cool
##3].
CM
##tt
miner
MOF
##after
successive
##continu
enthalpy
##120
mism
carry
constraints
PES
oscillator
ζ
##ider
targets
##4].
chemicals
rhe
##ewis
##imetry
NR
##rGO
severe
##)2(
BP
squares
tetragonal
##20)
SH
##rochemical
[22
slower
researchers
##perture
##ery
39
##Cp
reconstruction
##IMENT
chemically
##assisted
radii
##PERIMENT
##1.1
dest
98
somewhat
Trans
panels
##pol
metric
transl
preferred
bacterial
Analysis
##unc
orthog
theoretically
##.44
obviously
##ev
bubb
##hydride
desirable
resultant
precision
##NIPA
root
indirect
##opyright
hierarchical
##loaded
elevated
##3.0
transformations
voltammet
##oltzmann
##block
precipitate
CL
[21
visco
eight
[29
HD
##ifier
elucid
chloroform
induces
##ux
(<
partition
##isper
##normal
PEO
##)4
thiol
hydrocarbon
assembled
cyan
hypothesis
isotherms
arising
MnO
intervals
##3+,
##uth
##gly
cry
pyridine
clay
contin
##esium
##Ther
##liquid
RA
##=6
##RE
##istance
Theore
Copyright
sides
extrapol
##olysis
late
Three
operated
developing
New
##osomes
stem
jump
##5),
hydroxide
proportion
MP
nanomaterials
That
##MM
[23
reflectance
##Ad
meaning
limitations
##sistent
##,4
##On
Dy
##actic
0.15
tunable
connection
TD
##Er
bip
inver
##atomic
coordinated
humidity
≥
##Is
##acchar
DISCUSSION
excl
corrected
##6),
##isson
##)–
opening
##500
recovered
enzymes
efficiencies
##spin
##=0.0
biocompati
##mark
tissues
Found
##circ
interacting
##TG
##-1-
##fl
##13,
spots
toler
##2.6
RNA
contour
regarding
demonstrating
Cur
##vial
spectrometry
doub
dischar
##lay
explanation
depletion
energetic
##derived
grafted
##aching
slab
(99
##,,
carboxylic
minimize
wear
scope
Only
##tides
arise
eqn
algebra
estimates
generating
antifer
grade
switch
Su
shrink
##atase
104
calor
theorem
fatigue
##ans
##.48
[24
##ortunately
exponent
dimensional
Lab
nor
solve
clinical
##kl
tubes
traces
particip
exfol
reser
caps
scenario
straightforward
##wall
##.95
##beam
sorption
movement
restricted
coli
advanced
##SP
vicinity
##rinted
#
##obenzene
Max
*
negatively
modifications
unchanged
ammonia
lamp
Wh
spins
HRTEM
##ophore
##lications
##articles
Lewis
##PbI
##.50
applicable
Compound
stoichiometric
##4–
%,
(7)
bif
3.7
##rant
accessible
KOH
clo
Ox
harves
diagrams
charging
##COOH
LA
##AFM
##.42
##current
##iton
propose
dramatically
10−3
univers
bandwidth
diagnos
100%
##Conclusion
illustration
distinguish
autoc
monot
fabricate
ST
##∕2
specifically
unlike
##hedra
10−1
rotating
supercapac
tuned
##elled
##osecond
##.47
discrep
dichlor
##density
##essel
##pended
combining
regimes
##)−1
offset
##bile
##0−
##rad
instant
##Gd
##go
incidence
##xx
invariant
sense
0.02
##0.15
##.2.2
gray
actu
corrections
##assembled
##-10
2.3
round
##2.8
##.46
##.43
##ulating
date
illustrate
Science
SD
aspects
patterned
enco
##orent
##tran
photos
hopping
exception
CuO
breaking
collisions
potassium
Following
dimensionless
##electrode
attrib
Temperature
##iling
polynomial
morphological
requirements
##EXPERIMENT
processed
##orentz
roll
##mu
cataly
indices
occurrence
##idin
Bl
##imal
polarity
interfer
##ylated
helical
Waals
alter
separately
##mix
tet
##XPS
else
anionic
pyr
##ishes
photonic
thor
AR
apparatus
##=10
actually
acting
describing
equilib
sonic
##−2)
44
uni
##astere
##icro
##17,
aperture
##cerol
nearest
mild
Appendix
##BL
##–16
298
radiative
computer
attachment
##±0.0
##formance
gy
beginning
##ai
##eline
##omethyl
SERS
DE
orange
piec
argum
Py
##group
health
fibro
20%
##benzene
##There
DMA
##–18
##Supporting
polystyrene
yielded
irrever
##thi
##αβ
Reaction
##.60
##viously
##posited
nodes
140
ultim
##HP
prove
evaporated
##Figures
unknown
WO
candidates
##tokes
##dom
##.90
Dirac
ORR
reaching
National
representing
##hombic
[26
BSA
1‐
##Gs
##odec
Col
(40
independ
track
photovoltaic
technologies
qualitative
##Preparation
EDS
neglected
look
CeO
##RI
segreg
##imination
isothermal
##equilibrium
##)[
##istence
##−2,
##article
anomal
##ustion
microc
##‐2
scalar
quenched
compute
##electroly
##SD
##→∞
106
initiator
phenol
##peak
3.2
##linking
volumes
##xi
##filled
Sample
##uck
##–14
holds
##2.7
##opt
##coord
##)=(
Le
##resent
periods
lies
repulsion
rich
##−1(
ME
BN
Monte
(111)
##otic
##arities
Green
precisely
##vity
microfluidic
offers
tight
##‐2‐
lumin
comes
commercially
##-3-
quantitatively
strengths
SM
HRMS
paths
Measure
HT
additives
Micro
opto
plasmonic
decades
##–30
Cat
4‐
maxima
Carlo
##∂∂
simplified
helium
##oxidation
methane
happ
therapeu
axes
insp
possesses
47
obtaining
SR
logarith
ske
stainless
collagen
8.0
furnace
runs
matching
diffractometer
EF
LD
tends
##]:
##)=−
systematically
receptor
##eptide
##dra
filling
ends
##gered
reflux
satisfy
refinement
emitted
intrac
##elen
##/3
##hydrous
deuter
explicitly
hydration
##51
moist
benzyl
##roph
##bial
calibrated
##400
fluids
derive
flame
##attices
qualitatively
turbulent
afforded
##VT
eventually
rectangular
acquis
##violet
##MoS
##dc
nominal
(°
##opes
Polymer
zeolite
##=[
##ircon
##wn
##PES
9,
Inter
##-,
simplicity
projection
126
promin
Poisson
RO
quadrup
supply
##With
##then
##iring
##pa
establish
cantilever
##tized
##nat
##titial
wires
bromide
solids
alcohols
##ureth
metastable
nitrate
junctions
interconn
##don
lasers
ten
eigenvalues
polariz
convenient
artificial
smallest
pharm
##anar
adiabatic
physi
tough
##2.2
##NN
fibr
##.41
sulfate
sec
##lined
$\
##MoO
performing
##TOF
##oming
##.65
Herein
##.49
masses
##.00
conclusions
Boltzmann
##*(
implementation
motif
##functionalized
who
([
##pin
Electron
##voir
##ynolds
MT
octahedral
supporting
elsewhere
RE
##.%
believed
drain
confirming
##driven
reacted
##ius
resol
diastere
search
##oyl
geometrical
##alt
surpris
Accordingly
6).
5-
##enyl
Energy
neur
ET
asymptotic
##sten
scattered
Next
##treatment
##FeO
printing
##responsive
uncertainties
references
##culation
expanded
##)}
lignin
##onductivity
AB
complexity
dic
replic
magnification
##17)
##CONCLUSIONS
entries
Non
##monium
synchron
##Be
##pressure
turned
##controlled
determines
##ench
##titive
##wt
amines
ann
gradients
compet
retained
causing
dimethyl
Pe
recrystall
ALD
##ensors
##hydrox
##Rec
##|2
##ottky
##fin
4)
##iphatic
##4.0
##tex
criterion
##Electronic
##component
##emission
CCD
##CI
AlN
anten
broken
Ψ
##Sim
##rection
Inst
##ulsive
Discussion
combinations
his
pit
##.98
##7].
##ociety
56
insulating
proxim
##ochastic
objects
##4:
circle
orthogonal
##No
etch
tung
68
##ringe
##film
##QE
Σ
calculating
abundant
(8)
strand
synerg
anch
##stim
palladium
##onical
nucleus
##lass
captured
prolif
Its
similarly
elast
clarity
elimination
43
thorough
object
know
##-0
mismatch
Specifically
##upled
##idence
studying
DOS
Lorentz
##umer
sn
##Finally
##/2)
Given
specified
usual
mim
##tra
catalyzed
##silic
food
powerful
##ml
Reynolds
##hiph
influences
complementary
##ingle
AuNPs
isotherm
nM
##usc
##uminescent
branch
focusing
inert
synthesize
1:1
radio
comm
##enti
ker
##non
asymmetry
MeOH
##18,
idea
##*,
hold
##mitted
##vect
acquisition
consisted
##THF
coerc
reservoir
2015
##hydroph
##acterial
filament
##)=∑
assessed
46
machine
believe
km
##ratic
selectively
RH
64
##coupling
##wards
System
strip
##Tc
##uniform
dimers
cyclohex
##knowledgements
encapsulated
microstructures
spatially
moisture
##25,
##bonded
anodic
FR
##)⟩
96
para
positively
DP
##ograv
te
130
Molecular
reconstruct
##lamm
##.(3
##hire
fore
##BI
contrary
##rehen
voltammetry
##istribution
diffusivity
10−4
##imeter
##MI
##roc
##vey
Reg
mobile
combustion
##,5
cracks
homogen
ast
STM
electronics
Rel
##–17
##orhombic
##2;
##ologically
##edical
(1),
(25
diverse
solvation
##scheme
evidenced
reflects
plant
5.5
traps
##rowth
##6).
enlar
recognition
##−0.
prepar
recip
MOFs
550
##ogel
mT
regarded
##lastic
##fortunately
land
casc
package
##ME
##Ne
##91
##bre
Once
##MW
##.80
dioxide
##FTIR
##.67
##...
Structure
Yield
##supp
therapy
cytotoxicity
Ri
FWHM
SU
##)∂
phosphorus
accelerated
gran
deduced
methacrylate
57
ZrO
write
agrees
nitride
cloud
##vice
##Yb
living
##hydrate
quantify
pixel
exhibiting
BT
##Da
assign
##anthan
##NRs
neighb
(1.0
GA
##9]
induction
##.70
##8].
anhydrous
##Characterization
##ifies
##.85
##mersion
##arge
fulle
milling
BH
fluence
##apphire
##fit
interstitial
##meric
scaled
TG
styrene
enhances
industry
##LP
feedback
##Figs
count
goal
constraint
MF
Bragg
##arboxyl
##ints
collapse
behind
##/2,
##diffusion
ɛ
##alkyl
recording
9(
LED
variance
##strate
stochastic
##idene
weld
lifetimes
requirement
##formed
conformations
iter
toxic
leg
##oting
##LEDs
##activation
lamin
##2.3
compatible
##(6)
##tity
columns
digital
67
##urg
##hedron
chir
##cetic
##Mod
trib
sealed
unre
utilizing
suppression
Val
choose
deco
OF
##neg
guest
##stein
[30
glassy
##oxygen
spray
##.96
∈
##8]
interpreted
solving
module
Before
##Ls
reader
statistics
##Per
##morph
Instruments
Surface
alkali
naturally
HP
6.5
couple
Cp
##cd
ri
##2@
enhancing
contributes
attack
protection
precipitates
##pent
toughness
challenges
##ophores
prominent
(300
started
repeat
undoped
return
##′=
MWCNTs
washing
TR
empirical
##pass
##ocyt
minima
islands
##ye
##ulse
dispersive
urea
bubbles
##binding
##Ka
bring
##Acknowledgements
hybridization
widths
10.10
disappear
##EOL
comprehen
ee
##onon
##ateg
carefully
##SF
methylene
signature
ways
Com
differentiation
2014
##When
##0),
select
##rig
waven
immobilized
[1,
HER
capacities
held
##}\
cit
mathem
ferm
functionality
FF
Dr
implying
dB
##azine
##−4
supplied
mounted
Ini
##local
##synthe
##olu
crosslinked
Generally
motions
independently
generates
(100)
##umm
##3:
hol
transistors
equip
never
rins
##ammonium
Scientific
##process
calcination
biomass
increment
##lemental
##.68
##illar
seven
bund
##.97
elu
##EXPERIMENTAL
travel
##elle
ablation
Inset
BC
inhibitor
78
HE
EPR
universal
gravity
##ranged
##Sh
##ented
DOI
incomp
##inger
mole
disrup
diodes
tungsten
##Effect
##ili
subs
SDS
##iminary
pip
pyrolysis
moves
58
principal
##DMSO
##symmetric
Society
11.
retard
##inction
53
##ectic
PVP
##39/
##abor
##‐(
suspensions
perturbations
quantified
##gthen
sound
oste
##De
(0.1
antibody
Many
magneto
##enter
ID
##⋅⋅
sheath
detectors
valu
undergoes
therapeutic
##initi
span
conjugate
##embered
adhesive
##cation
aliphatic
##4@
##aves
##undred
##600
sandw
##Materials
topology
intracellular
##0.10
##QD
association
permeation
##MB
##factor
10−5
##bye
Detail
##–19
disturb
torque
inhomogeneous
nanod
##cf
##hexane
##PH
##Since
etched
[6
anatase
bridging
build
crossing
2016
prev
##eper
##‐1,
acetic
Ul
proven
zircon
##polarized
199
##−1;
##unting
##umptions
##By
##kg
##5).
conjugation
maximal
##5].
Form
##COO
refined
##Tm
crystallite
##deposited
10.1039/
##.66
##ange
Optical
earth
##direction
##att
dehyd
relativistic
##planar
##{1
centrifugation
##tified
##,−
port
Effect
paramagnetic
thermoelectric
cores
tetrahedral
polyethylene
significance
##2.1
dilute
49
dro
ink
EG
fluoride
highlight
##itrogen
##sen
econ
improves
##7.5
measures
fat
##ogels
##7),
##Hf
stated
comprehensive
propagating
##angmu
##regular
dichloromethane
Schottky
##henium
Proper
##ignific
##athin
##do
##}$
simulate
entanglement
initiated
∼10
PCE
##μν
##zen
er
##angmuir
##aphthal
irreversible
effic
##uling
shells
##vs
Sci
##Vs
proj
##HC
cone
##111
mangan
percol
coherence
pointed
##0.12
##conjug
notic
immersion
peroxide
opportun
aggregate
macromo
cage
averaging
CE
coarse
Notably
103
##roton
twin
orthorhombic
categ
adequ
##Cat
ii
##idation
PZT
survi
66
Do
mAh
focal
collective
cha
Torr
suspended
tub
torsion
cyclization
##bits
ATR
monolayers
noting
##18)
nucleophilic
##ostatic
##grown
contamin
##AR

shad
##asured
surfactants
##⋅⋅⋅
##PMMA
(9)
cultured
%.
resins
proliferation
NI
Method
staining
cavities
##Sm
remarkably
##solvent
phonons
fluxes
colour
2013
##inte
monoclinic
##−2.
Is
glycerol
Aldrich
toroidal
alternating
liver
inserted
##VD
##layers
Ho
##atical
fem
##.94
##vin
Time
20,
##3.2
..
##electrolyte
##.78
##such
oligomers
##umed
##.5.
##utive
##-2,
emitting
##ogravimetric
amphiph
##rotron
directed
Gr
reflectivity
hundred
triangular
##ensif
ribbon
couplings
##gas
Gib
downstream
quin
titan
assumptions
##ym
antim
10−6
distorted
EDX
##det
##through
##.55
42
##HCl
##tly
##IN
##CPD
templates
##licts
##ather
##.88
reactants
##*)
fractional
##SCF
calcined
##nit
##cap
Eg
##IA
realistic
(0.3
instantaneous
modulated
##‐3
multic
fair
##ife
arm
mineral
##1%
##aver
##ah
analogues
MeV
##–100
keeping
ultraf
Model
gradual
##′),
mot
GPC
sole
drag
ILs
##conversion
targeted
Oe
hexane
afore
interior
##ticity
realize
come
trunc
##Tg
plus
##cp
Ze
##.64
##RP
3.3
science
assays
##rose
##lete
54
Experim
iso
##cope
determin
inhibitors
##-20
wetting
##graphene
##5]
##itors
pumping
extinction
##(0,
Stu
uniaxial
##uctive
biof
##reasing
Thermal
slic
##Note
achieving
cooper
IP
##membered
##urity
formalism
Water
cum
4.2
##,6
##pyrid
vesicles
##CDCl
coales
unus
##fib
singular
similarity
##.76
repulsive
##nes
odd
importantly
turns
6.0
##hmic
regardless
dimin
∑
indium
populations
unity
amplification
##Let
dev
photodet
attenuation
recover
(2),
encapsulation
discontinu
contamination
##ba
aforementioned
##rier
(001)
##roduced
reversal
MoO
30%
OER
##urethane
CdSe
##8),
##minist
kine
##labeled
InAs
facets
##Comparison
practice
flash
##CVD
AG
##SZ
porphyrin
##mass
sustain
highlighted
##150
relaxed
##aken
approximated
Debye
conservation
##icle
PG
##ogener
##])
##visible
##7).
abundance
##new
circum
fluorine
##astically
Americ
##TION
rational
ultrathin
dendrim
generator
wider
creation
reproduce
cast
explor
stabilize
##ameters
project
photocatalyst
##If
carbons
dipolar
passive
##EF
proceeds
##.93
integrals
train
accom
patients
##tor
PEI
##anted
LDH
##All
regression
joint
herein
express
RGO
insulator
Instead
degenerate
node
ultraviolet
criteria
feasible
##ource
##activity
brain
##alent
cured
accommod
##ident
##omm
trigger
##cr
##El
##etermined
physiological
##Op
##ese
##tification
##eller
pellets
##LG
refers
nanostructured
2),
##Ab
El
##0.75
##benzyl
biode
##ecutive
##NCs
integrating
##.63
ICP
##–25
##iro
##avi
NF
135
isolation
##sity
##Phot
##entry
##desorption
##0.13
tools
##dehyd
lanthan
##wavelength
efficacy
rearrangement
prel
##lip
##uits
newly
monod
##ido
90°
##OC
resistive
assemblies
69
quater
indicative
schemes
discovery
enabled
##DSC
Of
6-
stud
##osa
stellar
##anine
1200
##.56
Langmuir
ce
##cycle
satisfies
##cut
frequently
thought
removing
hydroly
marg
##emitting
empty
##aked
##amma
eliminate
CHCl
controls
my
##||
##.1)
EX
##]−
GB
compatibility
CG
governed
##using
##cycl
##atite
##.77
##bo
##ci
substituent
##VB
##Cal
effort
targeting
casting
adv
##.69
azim
passivation
##rected
##One
##encing
implantation
rf
##reep
heterojunction
noticed
cros
papers
mediated
##pot
##inset
decon
##structural
purely
exclusive
90%
thicker
##(5
##ey
discrepancy
magnesium
(10)
##iaz
##sw
addressed
leaving
Maxwell
##ethe
##GD
AF
##earing
initiation
mart
##aid
##MOS
spring
motiv
quadratic
antenna
viscoelastic
purposes
valuable
exceeds
limitation
Instit
97
reactant
lithography
arri
printed
##phonon
##hil
##.86
##opent
##benzo
meet
##MOF
inequ
vortices
##omorph
##umably
Current
##zzle
CVD
##19,
cycload
Mw
incorporating
proximity
##ycin
0.5,
locally
month
sun
##sitive
mold
##elves
promoted
filters
biomedical
##PEI
halogen
##sities
imposed
##bert
hydride
excluded
##performance
Now
(500
Eff
##(11)
##/[
titration
Unfortunately
resonator
##ming
optically
synergistic
7).
guide
lie
confocal
predominantly
##Pl
##0.000
survey
##.87
##uge
##PCL
##illed
##QU
##average
##ZrO
age
##13)
weeks
∇
perman
##9).
utilization
branches
##synthesized
##pyridine
decays
serious
wells
ortho
##9),
lamellar
contributed
bases
apprec
##isting
##Ln
bic
##parts
##tiveness
gen
excitons
##2∕
ferrite
competition
PBE
vessel
Mat
##Schematic
##7-
##——
VI
##ione
displace
aldehyde
galaxies
capacitor
attract
analyzing
moduli
##alytical
cathodic
regeneration
maintaining
650
batch
centre
##ductive
##tan
##Sample
took
##luding
dilution
poll
##8).
##=∫
theories
trip
##ncy
canonical
formulations
anticip
decor
##Un
intercalation
fourth
##Our
##5.0
##kT
##PPh
##ocat
consecutive
PAA
mention
##–1,
segregation
(11)
##cross
experi
supernat
##.3.3
##uated
##112
disease
##olin
functionals
##illi
irregular
Measurements
accep
lys
insights
##bpy
standards
1.(
2012
mathematical
HM
transc
observable
equipment
corner
##auer
##lines
##apsh
##mg
Technology
Supplementary
##hydrophobic
retain
PPy
##ossible
##kx
##.89
classes
untreated
wafers
versatile
##urable
diethyl
##onium
##3.3
##.74
##onlin
struct
projected
##rhen
flo
##doping
##rs
identity
anomalous
0.03
##°)
##thyl
dispersions
##Further
##⟩,
##tabletable
deproton
dehydrogen
Wiley
Rem
absorber
##elibrary
##onlinelibrary
illumin
2%
wiley
translational
##–50
##ald
%).
##.54
powers
photograph
skele
##SW
##.92
neglect
LO
##xO
Fluorescence
##-15
lost
##.84
passing
blocking
##furan
##12(
##pha
##ipher
AT
Chem
manufacturing
(±
inferred
Properties
DR
inlet
12,
115
zeta
transmitted
##da
##1000
##.(2
optimize
##dehydes
precipitated
cleaned
stric
stoichiometry
packed
prolong
##EK
supercell
·
##After
0.12
semiconducting
76
creating
##azolium
##ki
Tran
enzymatic
HC
59
##mn
pyrid
##cine
WS
##sample
##core
12.
##ocyc
##Sol
##amed
##Hs
spacer
##rozen
photocatalysts
Prop
##yste
##/4
linker
##ML
biomo
EA
##rhenius
##∂2
rods
Tables
donors
##Qu
lowering
triangles
spinel
RS
expensive
Stokes
world
##tization
##till
Curie
##states
Land
##onically
BET
##4)2
attempt
hydroxy
bench
ng
alkyn
broader
##arn
##−)
##uthenium
counterparts
##MMA
PLLA
CCSD
##RGO
Gibbs
completed
optoelectronic
strengthen
##Based
Lag
void
discovered
ramp
##ouin
##zone
Θ
##vas
##2%
5)
##iciency
relationships
##NW
##.).
rhod
##FETs
##19)
easier
tilt
##.79
aug
##functional
Ln
shielding
##tally
##1,2
[1].
##sover
##independent
creep
##illouin
##1,...,
##pc
stic
replace
replacement
##atoms
63
##princip
##tBu
deliver
##=0.5
##centration
imply
##3·
multif
AD
##shifted
##ashion
##://
##abrication
emitter
##dotted
##cel
deformed
##atches
BM
3‐
Sur
##,7
constrained
ZIF
Previous
Overall
##hfill
##)6
##=−1
Reproduced
topography
hybrids
##axy
routes
reconstructed
##HB
##factory
##={
reliability
##TGA
##.73
##DMF
##ued
##7]
quantification
##>0
##learly
##−5
##consistent
voids
##Hg
##ynthetic
eigenvalue
##JH
folding
##AFS
pixels
shoulder
antibacterial
recognized
flowing
MI
indication
##−0.0
HfO
##AgCl
##CPDS
thermodynam
##dW
blank
##OM
QW
basal
##correlation
cascade
baseline
Phys
##CNTs
iodide
selen
##01
##actone
3.4
Typical
##hai
dopants
progressive
117
fashion
preliminary
Solid
predicts
##brom
manufacture
##aceu
##.83
normally
##nov
slur
pinning
##sivity
hydrochlor
satisfied
Gal
drawback
noticeable
intensive
analytic
##metallic
MM
inverted
polymorph
voltamm
750
protonated
##oluene
nanob
88
##IBs
##-4-
##radiative
reasonably
overlapping
schematically
##.62
reproduced
%),
##Nd
##These
photogener
sliding
bead
##aste
heavi
Taking
##RC
##SnO
##ners
##sensitive
administ
##(7)
datab
##–40
genes
##7.
absent
##.),
##tability
explains
##adiene
FC
##Equ
Xe
JEOL
glut
##oxo
BA
##/∂
##)2,
envelop
binder
favored
stacked
validity
Dis
##terminal
##)1
kDa
##aters
108
adjusting
##arency
(+
##pective
freeze
##­[
##idden
waveform
PAN
physically
mechanics
perfectly
##itron
bounded
##riend
##mid
(1.5
##ising
##rocal
##orn
##umb
##tert
polydisper
amplifier
##magnetic
##alcogen
dup
perm
assessment
##netically
##reson
##ette
##06
##Supplementary
crystallites
##activated
##ophysical
##roll
stained
##Although
##ectiveness
##illing
matched
170
##embrane
##molecule
soil
124
probabilities
neither
Brillouin
##fion
conductivities
safety
adopt
##lexes
##nihil
##silyl
##rer
##:1)
Ste
##ativity
##imetallic
approximations
##2)(
##ppm
necessarily
##etri
own
Various
ZnS
##bip
MWCNT
##anne
EP
brown
##ulator
##ulfide
ROS
##LUMO
veh
thoroughly
##3.1
##TD
##inear
graft
##-12
##Tb
##anced
2.(
##head
##10]
RMS
##ESEM
transduc
##(00
notation
accounts
##ematic
diagnostic
##ona
##sur
Far
attraction
##0.11
),
##riched
_{
##usters
##.2.3
##agnet
roles
dominates
originates
##responding
PDA
spreading
##arc
competitive
fcc
revealing
exer
##terminated
(60
applicability
annihil
outstanding
##,8
complexation
##aniline
##SL
mJ
kernel
unusual
esters
Through
##ras
##hanced
##adec
[%
##iner
##ethanol
structured
##iable
crystallized
##ilane
depicts
nozzle
##utile
fragmentation
##inding
220
affecting
##1:
##.(4
##orene
SN
linewidth
noble
##elow
87
##)2+
vanishes
##ritic
assignment
task
##oluble
starch
107
##emma
##,10
##matrix
##ivered
##}.
##icated
algorithms
pitch
##hood
dos
##Temperature
##domain
##Eg
coexistence
Scanning
Single
omitted
##tin
##NiO
immobilization
scatter
micelle
physic
difficulty
PVC
74
energetically
##ilms
##mim
##mi
wood
classification
##dz
##orthy
Top
interpol
##lon
##hybrid
##%;
percolation
HeLa
considerations
statistically
frameworks
##Res
fairly
bifur
goes
displacements
##LDI
##vac
##onyl
##Using
hour
mbar
##layered
##iliary
##PEO
##-9
##.58
continued
##raph
FET
##razine
architectures
apt
American
transparency
##etting
##–22
bos
##2⟩
merg
preferential
fillers
silicate
(0,
overpotential
Nano
bed
grows
##0.99
##However
##spect
##ada
isomerization
seeded
2011
##averaged
collector
foams
##ectivity
vertically
##ceptors
equally
##ophosph
metam
AP
##len
##optosis
colors
crossover
OD
##zag
##hard
abrup
##asic
Arrhenius
elongated
condensed
##LED
##aceutical
##NIPAM
##ITC
cumul
EB
molten
electrically
##NWs
presumably
entirely
la
##elt
replacing
PR
luminescent
##isomer
transistor
exothermic
jus
unc
guar
10(
preferentially
##urability
##0.14
benefit
##ufficient
rules
##ucleo
enabling
##asma
##∫−
##ips
volumetric
mit
shrinkage
centrifuged
##sts
slit
##idel
Unlike
delivered
##cas
##.53
concerning
##.]
##hanghai
Within
2010
##ectors
##propylene
##OCH
0.04
##PVA
weighted
##iltration
##weight
capacitive
##–1.
peripher
branched
Multi
##180
IT
year
polished
Ear
satell
needle
##tiary
##rides
renew
##aser
##lated
accumulated
##uv
##athe
##otype
##ilent
graphitic
Briefly
##aker
Where
##regn
109
##OMe
##.05
##oma
##drawing
##+12
##ensing
photogenerated
iodine
aux
reductive
CI
ND
resemb
##vision
translation
deeper
Import
dropwise
ni
##ka
string
integer
infer
136
##parallel
classified
reproducibility
rinsed
##ramatic
##idium
contraction
increasingly
unf
##base
##aven
coval
##.57
0.10
comprising
intact
dich
##open
##integ
scientific
##andem
##beck
##Sub
4.1
240
##urate
warm
##cooled
##ested
HB
serves
optics
##going
##aved
shaped
Low
##osilic
DT
supernatant
##2.9
(≈
##800
ta
originating
##0.16
##)=1
properly
stimuli
fullerene
##IX
##gent
undere
sapphire
Chan
##osome
Wang
EIS
##8-
##8.
##0.02
kPa
hyperb
logarithmic
mechanically
variability
##anion
##orbed
##SB
nonzero
differs
tolerance
stretched
119
79
rew
##coating
calorimetry
##dV
##3.4
##–1)
operations
adsorbent
arranged
decomposed
ER
##orientation
##ochond
Lu
##dip
carboxylate
ionized
##IO
##PDMS
##PDA
##circuit
##trivial
##.72
improvements
##3.6
dramatic
##ices
Again
##Appendix
##opic
##CeO
##)5
ferrom
attempts
##CR
3000
pen
manifold
fused
86
##‐5
##probe
frozen
degener
##SU
##−3,
##Oe
##oxides
rend
##aim
Clearly
screen
3.(
##ato
##period
effectiveness
Prof
Obviously
amphiphilic
accomplished
master
thio
mouse
##negative
##](
##infrared
Cross
Organ
spaces
Altern
##(13)
DB
stabilizing
Assuming
connecting
15,
##vable
Theorem
slopes
95%
##+1,
TB
prefer
##gradable
##restim
##2|
Comb
fol
instabilities
114
##rang
##stage
##1;
Recent
protected
(1).
80%
facilitates
CZ
##NB
sulfide
surprising
micron
##iers
exploited
##isp
analogue
##noise
misc
tens
guarant
vacuo
anhydride
##,9
emerging
137
Hydrogen
##ociation
si
filaments
halide
positioned
derivation
bim
##STM
##verestim
say
zones
Reag
circuits
##exchange
##irect
Hig
##2],
stock
thems
1100
drastically
themselves
supplement
11,
##,0
overestim
##org
perspective
CoFe
##sim
##acted
##ulph
gelation
inflamm
helix
lock
eye
finger
##atil
holder
##roid
##harmonic
##opolymers
##.2)
rheological
89
chirality
##day
##conjugated
##ury
1500
##⟩=
detectable
pollut
##acceptor
##Method
TFT
experience
virtual
superposition
pend
neu
going
uniformity
stop
##(∂
##fa
rutile
lamell
##cost
##ford
##agnetism
briefly
##zyme
costs
sac
Ly
##nu
##CoO
##HV
unexp
##0.01
##ignificant
##ubb
##.52
##quist
Carbon
originate
spinning
##agon
##rep
designing
Foundation
combine
underestim
##uthal
tune
##[−
nanospheres
colorless
##0.17
FL
##izable
fulf
Fl
students
##.”
##tot
##−1]
structurally
##ont
principles
repetition
SB
partly
##obut
##atorial
##,12
##utral
aust
##ClO
##olester
planet
adduct
##ondens
tryp
analyte
pock
capping
manganese
exponentially
##gate
organized
##2)2
DF
##rangements
apoptosis
motor
##eli
##ysteine
enter
protonation
##‐4
##ading
##ulus
##heter
Chemistry
electrospun
##gs
nematic
acrylate
tumors
aldehydes
surrounded
appearing
00
bilayers
facet
functionalities
unless
##81
##edim
##xN
##itational
eut
##enedi
8).
zig
##(8)
##MgO
contours
##,11
TP
ellipso
##accharide
tertiary
reciprocal
##oil
©
compares
##ttp
##zu
lung
##(1,
##fine
computing
Cells
electrospinning
compres
history
##umar
0.75
532
ketone
##fig
##coupled
duc
mechanistic
##/6
STO
DLS
steep
##icrobial
##0.03
regi
tang
##rought
##Gener
##play
implanted
##∫0∞
anth
##oom
##5+
##Sigma
##iso
technical
argument
clim
##haps
branching
##tid
##.(2)
isotope
##VE
##.82
##cury
116
##quiring
##versely
Voc
inject
Polym
(13)
(3),
##thiophene
proceeded
##lower
convert
elucidate
##OTf
vial
agglomeration
##fluoromethyl
discharges
deflection
##ophenyl
##ifying
##imals
analysed
counterpart
##centered
##dies
Institute
##area
Prior
##30)
##squares
Exp
accepted
loadings
flakes
(1,
syringe
##0.20
receptors
##Yield
##25)
##achi
elementary
##−3)
mini
ES
wound
((
wavenumber
probed
##KBr
TF
accelerating
altered
##2
Ny
##lyb
nanocl
triggered
##ocyanate
availability
pellet
checked
insufficient
##antom
distinguished
##ancer
TOF
exclusively
##cast
dipoles
##tosecond
##ITO
##eflon
##–21
investigating
##xp
permanent
##oriented
feasibility
assist
prevents
##sted
84
TN
compressed
##((
138
##”,
austen
##1′
##aseous
Ser
##.59
##ostat
##=9
##urning
quaternary
##ster
##acene
imper
elasticity
cycloaddition
Nat
convection
##.61
rout
adequate
KCl
harmon
##.08
solit
medi
##EN
##130
strongest
decl
##PANI
##0.04
inhibited
##CdS
saline
##use
##haus
dehydration
##ligand
##selective
notew
risk
wettability
slurry
doublet
ruthenium
rock
autocl
align
##NbO
noteworthy
Ther
##only
##ru
bulky
solely
Min
begins
moved
##instein
TL
##Cont
Super
SOC
Calculated
LEDs
hardly
notable
##quality
biot
colored
nanofiber
mal
alb
Nafion
TiN
##occup
covering
label
indentation
##Sp
ATP
enlarged
VB
1–3
azimuthal
##GG
pet
glycos
interested
Da
##lating
##isher
##Mw
##,”
disks
windows
phenolic
##)∣
##assed
##optical
(80
##NIR
##onductor
Seebeck
##0.06
##phthal
##‐1‐
male
##cape
triangle
112
specificity
hexa
##.91
##/10
##^{
##]=
Values
##lest
lig
germ
lowered
##PLA
##ker
##LDH
dodec
latex
practically
(12)
heights
##ources
Preparation
##According
lipids
##riendly
tert
shallow
##+.
dropped
signaling
##retion
##oresis
##target
stands
##Time
_{\
insoluble
##volume
##enn
##ntry
brief
computations
Ts
RI
##positive
134
##box
THE
drawing
benchmark
##3.8
##cyclic
tips
##resentative
##principles
##ocyclic
sedim
##ometallic
reversed
##PET
deter
##(100)
Norm
durability
parab
symmetries
capabilities
scenarios
plants
##oco
sampled
monochrom
antibodies
strained
coalescence
labeling
##]).
##soluble
##esis
equivalents
Typically
imaged
faces
cyclo
##mean
##27,
RC
##about
electrom
divergence
phosphors
##2}
hydrated
##response
6)
Period
snapsh
preparing
database
azide
devoted
##aned
switched
Perkin
deposit
##GM
absorbing
multipl
allyl
##bromo
hydrate
##0.18
alkyne
ranged
##BCO
ultimately
speeds
oscillatory
DW
controllable
aid
[9
##bes
##ski
sacrif
disappeared
Cy
##→0
microchannel
##color
##avor
##ascular
Rb
##KS
Group
viable
patterning
94
gets
Thermo
##igorous
vap
##aug
(14)
begin
degraded
7.2
sonication
BO
tandem
##depend
SrTiO
brit
spher
screw
monolith
##effect
satisfactory
enrich
##AD
##ighter
##6/
##esters
US
magnitudes
detecting
0.99
##heses
Importantly
realization
##aphthalene
synchrotron
fibre
NRs
##ises
decade
##28,
mil
diseases
molyb
gaseous
bit
simplest
DL
Up
##jk
popular
protective
##itachi
nanometer
Gu
##expon
##temp
##andard
mitochond
52
inductive
antioxid
thinner
impregn
carbide
extrusion
manipulation
118
3),
##PAA
##effective
symmetrical
exit
##excited
datas
‐
##×10−1
communication
##3;
named
tris
##apl
lattices
##emulsion
comparisons
poloidal
##.10,
##Par
silk
Mer
nanocrystalline
##,13
relies
##methoxy
deterior
##,17
perovskites
promotes
##amides
exfoliation
##0.95
4000
galvan
vorticity
##exponential
##eptides
extending
##power
##illars
##.06
analytically
##EDS
##renes
5000
expectation
(110)
Ber
thermop
da
apart
glob
SPR
##.07
##ui
creates
escape
##yle
##prot
##mented
training
gravitational
destro
280
##MeOH
##icine
##3.7
MG
##covalent
insets
##owder
(75
subun
pointing
confidence
2017
BaTiO
AO
##excitation
##oxyp
microstructural
##irradi
apparently
##=13
played
##HCO
Electrochemical
capacitors
##trimethyl
CdTe
Chen
doses
##0.08
kW
skeleton
Ray
tric
pig
evaluating
##+/
attain
##140
unsaturated
##scattering
SPE
benefits
##ilbert
contributing
hydrocarbons
unexpected
call
photoan
##··
intersection
MCF
nonlinearity
brack
cust
##ubric
avoided
auxiliary
##rö
emerged
TI
hardening
nond
normalization
(0.4
fatty
quadrupole
bott
##imad
coercivity
MOS
web
competing
dominate
oligomer
Ea
##sif
0.06
##occupied
##Vari
(0.2
##roleum
lear
Comparing
pyram
accounted
tap
##olyl
##5(
##roxim
compensation
40%
CDs
##NM
##−6
##PBE
gall
30,
##STEM
SAXS
##diphenyl
vigorous
claim
##glass
##racellular
##went
##war
covalently
##Thus
##ummary
medical
Dec
##)∕
supercapacitors
vul
##imadzu
record
situations
##functions
acidity
hindered
homopolymer
indexed
dependences
constituent
##ylon
stimulated
tape
##vironment
interconnected
acetyl
massive
##inium
protocols
destabil
outlined
spite
##160
indicator
BD
chemis
Magnetic
hydrophobicity
respond
advances
validated
MV
musc
##hertz
Like
##+∑
incomplete
GS
gelatin
##hydrofuran
[40
benzo
##substrate
buck
##–28
shot
##aromatic
(2.5
recomm
##ycl
Aug
validation
periodicity
antibio
curved
##law
assisted
DCM
acceptable
AgNPs
##,18
TMS
controller
##rapped
##′−
Teflon
potenti
pharmaceutical
NT
##umerical
magnets
##ohedral
##WA
ultrasound
##(2),
##dinger
diffusive
adapted
##];
##ringes
13.
##3[
##rangian
##001
impacts
##Poly
olefin
clarify
zigzag
113
bigger
undes
coils
substances
glove
##radical
upd
##ystems
polarizability
##DOX
vanadium
##RH
broadband
war
acceptors
sputtered
cardi
##LT
Scale
##kz
2.9
##ticles
counting
(15)
cleaning
operate
Pan
vertex
examination
technological
##Dy
73
emis
Nyquist
##acetyl
Landau
reinforce
##Nx
##gn
lot
##+3
##Elmer
stimulation
##.51
disulfide
possibilities
assumes
##acetic
##quinone
##Max
chaotic
##oint
occupation
silicone
brightness
densif
oxidant
STEM
phantom
##PCE
deb
##gels
femtosecond
##,19
##pair
100,
10−2
145
[18].
##apsules
QM
##.71
conjugates
##typ
reflecting
##ovine
death
antimicrobial
##pic
##0001)
##dden
##–27
##PbBr
[16].
designs
mobilities
##amate
##JCPDS
envelope
##ensite
excessive
sudden
##High
##.,,
zeolites
##supported
##.09
##cis
##isen
##MMT
##aylor
##ls
##phenol
##shown
rhomb
matches
spik
mitig
##ret
∼2
Hy
##ushes
##.11,
FTO
equals
##ocalized
monodisper
brush
shed
##isopropyl
firstly
volatile
advantageous
thermost
##EB
##2·
##Hydro
##–29
deal
##advant
outcome
##–23
raised
prolonged
scaven
##oxic
##addle
RhB
chlorine
[20].
lubric
pairing
##ausible
##=0.3
##ael
∼1
UK
##6(
conserved
harmonics
PDI
inelastic
##tility
chose
questions
sometimes
##ocalization
##cho
[17].
##.12,
ration
[19].
##contact
attempted
##10),
gained
meter
##ynyl
##leigh
##tilde
PSCs
##/5
eliminated
generic
corrobor
RHE
##magn
lact
##silica
##zers
(11
pieces
clustering
animal
##ambigu
colon
advance
[15].
thank
##2′
perturbed
##oplas
Parameters
∼5
##emic
##Discussion
bent
##prec
[21].
anticipated
SWCNT
bimetallic
##Cell
##EI
nucleoph
##FWHM
liposomes
##Des
##More
monotonically
##pack
kOe
##entries
##LL
destr
##center
##embers
representations
[14].
##square
##ivalent
aged
Phase
##veld
##ithi
valve
happens
##,20
variants
##Diff
##even
##BSA
comprised
83
##eng
CAS
fold
##=0)
suffer
integra
##.04
0.1,
supercapacitor
defines
##Flu
##growth
##1∕
##Theore
2:
##cepts
0.35
sulfon
##asks
##product
##0]
##–24
##UC
##tifact
##acid
ħ
Brown
360
##kam
##vector
(2).
actuator
IS
miss
leaves
alginate
##fs
##generation
4.8
(0.6
##ubstituted
positron
##3);
##ulties
inducing
##ionization
autoclave
50,
pKa
tom
##Raman
covers
integrity
disadvant
bend
∞
NiCo
Owing
defining
##pulse
##oni
##ats
[13].
rigorous
approaching
helic
##imeth
0.45
hone
##ipolar
list
lift
originally
##––
huge
##125
rup
Ext
magnetron
##actor
SWCNTs
tracking
mimic
compositional
##tun
Increasing
running
##0.19
thermodynamics
Kr
correctly
4.3
##Another
##5/2
routine
##ichael
redshift
##denum
preserved
##elected
##Thermal
##1/3
cathodes
TBA
##nitro
##esian
##22,
photochemical
reads
inertial
##aggreg
GSH
##(001)
ease
##106
preced
predominant
##uals
ultrafast
##⟩⟨
extends
Hc
[22].
custom
unambigu
totally
##onite
gamma
narrower
##orescent
##dried
123
sily
EQE
4.6
##etveld
passed
meta
Optim
ordinary
##Recently
annihilation
ensures
resistances
termination
nine
##‐2,
Lagrangian
consumed
##ji
##acrylamide
##FR
Mass
Jsc
Ha
##situ
compart
##antit
ally
Ep
reconn
summarizes
##,14
##value
##fins
[12].
Ver
emulsions
BFO
fewer
##inic
Electro
unmodified
##50)
[23].
her
##rong
cow
cholester
##.13,
interplay
difficulties
graphs
cracking
community
healing
4.(
artifact
##arbonyl
immune
pm
GR
emitters
brought
[11].
Vol
##umor
133
renewable
41
##arting
aniline
Jan
sie
neighbors
...,
##Surface
##transp
##chrom
transforms
##‐6
uns
MHD
##total
MMA
defini
##.3)
sky
ASupplementary
neural
##105
##2)+
##ocum
Alternatively
Ed
##corrected
breast
utility
[6,
##ogenesis
incorporate
IM
##ogenous
valley
resources
rats
##catalyst
attained
##entally
FS
syntheses
Rf
##olate
##0.22
Material
##(2,
BL
Cyclic
##0.45
months
##olith
sinus
##0.23
[24].
cutting
legend
correlate
##asis
1/2
##GB
fluorinated
voltammograms
##,15
##.15,
(18
degeneracy
pole
hindrance
PEC
facilitated
sccm
safe
wastewater
nut
##class
##.1,2
##=14
nanosheet
rotated
3%
corresponded
inequality
purple
##0.85
(16
scanned
##condens
##closed
RD
prism
stereoc
##atest
##)3]
##racting
counts
analytes
solidification
upstream
metabolic
race
##loading
smart
##ADF
pain
accordingly
##0.24
thread
closure
governing
multifunctional
helpful
strictly
##jet
exfoliated
SAED
impossible
[10].
satisfying
##hannel
##0.50
Ke
[3,
##phosphate
⩽
##BB
##Next
deactivation
served
##–26
silane
recycling
photothermal
##=±
(4),
##ressing
EO
##jects
sharply
##.(3)
spiral
citrate
##ipitation
physicochemical
behave
##TI
##ycomb
##including
##)×
##–200
attribute
Zhang
##AlO
##dep
stacks
##ahertz
##/1
Π
rupture
##aq
190
coming
absorp
##2,3
rigidity
GW
mutual
ketones
library
##10-
tangent
AlGaN
helps
##−3.
##uler
occupy
epitaxy
##artree
##asts
scr
##)→
lasing
##coordinated
superimp
Methods
##0.07
seeds
##anck
Bar
##osphere
poured
EE
nonpolar
##lease
passes
##kamak
##organization
AS
continues
Additional
##fra
completion
originated
##bic
lanthanide
(16)
HNO
Rietveld
##opper
##ift
##ismuth
carrying
##xj
##Val
##(9)
##Conf
Type
degassed
ultimate
modern
##oded
magnetically
BE
##racene
deuterium
##4.6
Bo
##onucleo
##licate
##hexyl
consistency
##rying
##.14,
##ibbon
shifting
persist
Dynamic
smoothly
amplified
WA
##-100
Hu
##cein
FP
##relax
##data
[25].
alloying
##PEDOT
rad
##redic
dihedral
polydispersity
biased
##echnology
constituents
promoting
##0.30
##PDI
oxy
dissolving
Light
##acetate
Remark
##iller
virus
##)=0,
pretreatment
##.81
aggregated
fringes
0.08
terminated
extrapolation
fabricating
reacting
continue
hair
incoming
bridges
modules
environmentally
##heating
[9].
analogy
consistently
##oric
Mc
econom
reacts
grids
filtering
##products
Rayleigh
##HOMO
animals
##0).
minimized
pumped
markers
eutectic
discussions
##orrelation
##Proof
##otyp
requiring
##pyrrol
paste
70%
##Fc
BiO
Kn
backward
SAM
markedly
disappears
ignored
0.13
[26].
harvesting
##osol
##tia
nonequilibrium
##iff
hyperfine
##9.
potent
##separ
diges
siRNA
oscillating
1,2-
flexural
Act
##withdrawing
truncated
##rors
##29,
Elemental
extru
members
##iPr
xen
##ocytes
##accharides
##ollen
##dichlor
##enhanced
separator
##∞(
Hel
homogeneity
Lemma
His
missing
orbits
cumulative
##ilt
landsc
##dT
endothermic
##fection
##xn
carbo
preventing
##erential
linkage
cylinders
macrop
fibrils
fuels
##7‐
##icals
[5,
blending
dehydrogenation
##PW
treating
##Ind
comprom
boiling
underwent
##–60
##′+
8.5
unclear
sugar
##sibly
disappearance
formulas
nanoporous
##TZ
ferroc
Whereas
outlet
RB
ON
##Sch
##rödinger
∫
biomolecules
exciting
##0.35
##LM
##rug
unreacted
139
##EE
Representative
##101
##**
##opro
850
symbol
accelerate
cure
conformers
##ctive
trivial
validate
Sw
##vices
modifying
##ohn
InGaN
##dic
IN
sandwich
BS
##Teller
##tier
##sets
histogram
InP
##odynamic
[8].
##Two
##del
##∫−∞
bovine
##station
pressed
##CHO
doubly
##0.27
General
##First
lying
##olecular
##mium
##olip
home
substituting
differently
##alumin
##700
corona
Firstly
##stabil
##ranched
unfol
operational
satellite
cowork
coincides
mercury
concern
MIL
[4,
anodes
−5
##3)3
93
##XD
inspection
plausible
bifurcation
unoccupied
logic
belonging
##1],
##4.2
##–300
adducts
##.3.4
##oside
hydrophilicity
photoinduced
##afel
formaldehyde
##hm
##Eff
##2+(
median
nanometers
Gel
##sheet
imine
propagate
##ATR
##123
##curve
##ethane
##struc
##silane
solubil
##′.
transducer
oscillators
eluent
##awa
230
patient
14,
##.2.4
week
##4.8
thiophene
atomistic
##oresistance
Image
##ana
burst
Photo
incon
seconds
equilibration
##hept
25%
##DR
minimization
0.16
320
meso
MALDI
vanish
chromophore
##)=2
rank
shut
[27].
cup
amin
##monomer
0.11
##tis
clock
PTFE
11(
unlikely
martensite
0.20
##GR
60%
abrupt
[2,
##fluence
Lapl
coworkers
##gi
##speed
variational
Ig
separations
visualized
##ughen
famil
survival
##FO
##etheless
##hesive
extracellular
cot
null
Fc
perhaps
frames
additionally
##=15
15%
##aku
VG
13,
##first
##esh
stepwise
RES
arsen
##rete
##ICP
twisted
phthal
slu
polyurethane
amyl
##CNPs
circulation
Mark
##ifer
##,(1)
inhibitory
galaxy
##Electrochemical
PLGA
##rimin
CTAB
sidewall
##0.33
dendritic
answ
##othel
Natural
##ney
rely
Lorentzian
heterogeneity
reproducible
##limited
##03
##dipole
Lie
walk
metabolism
exponents
enrichment
##21,
##amond
##Model
kink
##stration
LB
live
##0.5,
Details
##abs
tokamak
tilted
conductor
##HG
##ushed
##gin
##HI
financ
Conversely
##acting
implications
MRI
##Pe
(“
illuminated
0.14
9).
extracts
letter
##efficient
##”.
[7].
LT
##0.28
Silic
14.
optimizing
##4.7
twist
Exc
##MWCNT
chalcogen
##second
topic
acyl
nearby
Experiments
TT
##ventional
freshly
introduces
utilize
choosing
brittle
unitary
4.4
##irection
honeycomb
probing
heart
Transmission
engineered
##ZnS
eng
ds
##aday
##atistical
##.16,
LDA
##walled
##omycin
[6].
##,16
##(10)
##.5%
##RAM
##bulk
modelling
macroph
die
##(6
##ustration
preference
##allyl
##]­
formulated
Ms
probable
freezing
260
TMA
##···
filt
##(1),
Bio
rolling
##rope
RAFT
Spectra
characterizing
##versity
##23,
##30,
rid
polysulf
concerns
##entate
##uple
##ulates
##0|
compatibil
##olarization
balanced
implicit
##oding
comparative
arguments
FESEM
auto
Absorption
belongs
aure
##script
0.05,
Tris
summarize
##earth
##DL
##kyo
##cs
##1/2,
standing
[28].
SEC
conical
AL
Small
mesopores
sulph
##ferro
superlattice
robustness
bra
##opening
##2000
anticancer
##izers
##pur
Schrödinger
alkynes
##variant
organization
Crystall
mind
##long
##.03
##otron
##neigh
##PBS
##stant
##stac
##NL
##inase
##lattices
##CAL
conformal
##=1.
##tm
##diameter
##05
upward
Metal
subset
[5].
##sensi
##ylamine
observing
parabolic
##location
din
sputter
Agilent
##imidazole
EtOH
0°
##.4)
##donating
connectivity
strands
##TFSI
instruments
##isk
loads
##atility
Selected
GGA
##witter
opens
relevance
diblock
coag
austenite
##utational
##iode
##strand
##endence
multilayers
##dark
##perturb
shadow
##1|
/
tag
aluminium
##DB
TPA
continuity
Obser
5‐
##24,
elabor
definite
##rinting
views
actuation
Cent
poorly
reconnection
expanding
aureus
##model
bioactive
##Furthermore
##cyclohex
Ion
(70
##urtz
##comes
[7,
##ochromatic
[4].
##grained
failed
delocalized
##cession
7)
share
##Similar
Gl
##plate
210
##OSS
6.8
UC
##1.00
##ogens
##cooling
monomeric
7.6
PMA
##ideo
conversions
minority
platelets
biref
##illin
collisional
lag
sorb
NB
##0.26
##rometer
##VTZ
POM
%;
FO
formic
[3].
learning
electricity
cyclohexane
compli
birefring
[2].
colloids
##AlN
electrophilic
SG
##116
420
octahedra
##udop
intrigu
##electrochemical
##5/
alkenes
##reduc
##‐3‐
motifs
rising
##KE
docum
##acac
##CST
Tafel
##structures
resolve
0.07
##)≡
besides
##ZSM
62
rotor
##PVP
##bridge
##4.1
4%
##Micro
regulation
destroy
HDPE
Crystal
molybdenum
applies
##Now
ozone
FRET
10°
fed
##tizer
∼3
reversibility
##trie
opportunity
capped
declare
##27)
##Inter
##127
##loop
Structural
emphasize
##ortions
transportation
##etal
##5.5
iteration
photoemission
PCR
obstac
ble
365
breaks
[29].
ArH
##osilicate
##2+.
diversity
electroneg
ellips
summation
##MPa
ic
##din
Tri
Lo
PW
##PVDF
##structions
##radic
##=|
dependency
0.22
distill
sk
Quantum
http
Complex
Ma
##protein
0.000
##.17,
soliton
MTT
thanks
##]2
directional
##3+/
##Rel
Though
favour
Vis
patch
##lassical
computationally
deformations
##generated
conjunction
nanoribbon
##ularly
hundreds
INTRODUCTION
diaz
manage
visualization
polys
##scan
discrimin
##ams
##wide
Auger
##case
Mar
simpler
##smo
possessing
Def
timescale
modest
cages
##tw
arms
Faraday
ohmic
pyrene
KS
##crystall
densification
##othi
##CuO
accommodate
LL
##tail
##.02
dx
supposed
What
Studies
##+-
##transition
##ISA
##ura
coincide
neurons
muscle
##4.3
##Ep
Hitachi
##phosphine
photosensi
developments
mRNA
1,4‐
parametric
bipolar
administration
##QC
##iy
##Bz
excitonic
slide
##4.4
MX
##imine
mTorr
signs
chromium
Technologies
enriched
Laboratory
##én
##VS
tel
supplemented
##peptide
##Pi
##GCE
##gal
Variation
bundle
−2
##urf
embedding
contradic
(17)
KBr
nanoclusters
##QW
Taylor
labels
##Dep
##rij
GF
##11+
##GGA
##osine
##kB
##HH
collim
##carboxyl
##utation
[8,
##beit
##Cy
wake
restriction
##Os
pick
##che
##absorption
Program
convex
Radi
##TB
evolved
[9,
##ANES
biochemical
##0.29
broadened
concepts
##Imp
emergence
Mac
rms
mp
screened
##40)
breath
Rs
APT
##cyan
minimizing
pollutants
##PCs
1,4-
##12+
##oxys
##450
polyester
acrylic
separating
aimed
installed
homogeneously
1–
##rest
forcing
##quad
##ixed
Mach
Peak
wherein
##eman
folded
##(|
##igaku
inactive
SnS
##two
##2+2
cooperative
##=16
##ithium
pseudop
(2.0
PN
vit
##Reference
lib
polypropylene
##without
sustainable
variant
magnetism
becoming
accounting
##sour
halides
Tre
vital
tell
metabolites
Initially
concerned
SEI
##Reaction
antioxidant
##antitative
[30].
##28)
rotations
heavily
##ighed
dead
exceeding
overview
##EIS
##]+,
HI
grin
##-3,
spac
##uj
##ymmetrical
holding
identifying
4),
waveguides
##oster
constitute
##ille
##Therefore
magnified
##graf
##eft
##.18,
OA
quasip
interacts
alkene
##atories
##kinetic
spiro
columnar
nonuniform
DD
binds
##001]
(2.1
saddle
none
##vier
retrie
##arene
##bands
SMA
linearity
chromophores
interferometer
iterative
sinusoidal
##urtzite
##ulsif
isoprop
giant
examin
mutant
{\
nonlocal
resistant
##‐8
diagnostics
imidazole
proves
##(2‐
##fil
tightly
##unch
ESR
CMC
##df
##drug
quench
##0.09
##CCSD
3.9
Fisher
rhombohedral
##/20
compensate
##ogether
phosphine
##umbers
sustained
##therm
capsule
downward
##TH
##>0,
piece
1600
##dp
##:1,
##intill
##4],
##vapor
##TABLE
actin
erg
LM
eigenstates
depths
Consider
possessed
##chip
##PPy
(5),
detachment
rises
##nsted
divid
##dig
remote
electrolysis
##).3
certainly
colloid
pp
45°
Standard
demonstration
60°
NV
falls
##EDX
promise
##initiator
##uss
##adiabatic
Formation
sized
SWNTs
##zi
bomb
pharmac
transcription
##While
51
dendrimers
NaBH
nA
##:2
blocked
arrangements
granular
##param
cleaved
##saturation
Euler
distortions
Hep
nontrivial
[10,
lone
loose
decorated
lamellae
linkages
##issociation
##points
Without
##upper
codes
NG
Higher
VOC
wrink
Av
##BG
0.18
(19
##–400
##aa
##ceived
homo
averages
##life
stabilities
reinforced
steam
brushes
parametri
clamp
##otherapy
1,2‐
##omit
##proton
resonators
##atop
highlights
##Bn
tubular
##allo
switches
##othelial
dichro
biodegradable
appendix
bismuth
manifest
##bipy
SHG
suited
##3=
photore
5.2
wild
##oresist
aden
##normalized
exhaus
healthy
induct
promp
ignition
grey
##made
trial
Cart
fibrous
repeating
interatomic
##.19,
##uitive
##ancing
##ho
##anone
occupancy
0.17
polyelectrolyte
##MWCNTs
##untered
Mechan
emer
PHB
##optim
##empl
cotton
Periodicals
##EMS
##semic
##6.5
##=2,
entrance
##×10−3
intriguing
ECM
270
nucleic
##×10−4
synchronization
##condensation
##elting
0.1%
pool
delayed
encountered
7.8
•
##,(2)
##structured
##onuclear
−20
Reagent
MAS
comparatively
mN
[11,
inversely
SPS
sector
polyimide
blended
##0.98
initiate
##.•
carbene
trimethyl
##sphere
behaves
climate
##104
hinder
molding
##.1–3
zirconia
Above
leaf
##cid
intercalated
##expensive
180°
allylic
##olytic
##ydberg
individually
##.6.
CNF
##PN
##2)]
Hilbert
Liu
Atomic
##UT
##0.40
Depending
pentacene
macromolecules
##UR
[31].
Total
favors
Ec
settings
##toluene
##rice
##Conflicts
##copic
10−7
##anta
##idirection
marker
decline
##sch
writing
##oter
dm
rejection
ped
ec
(0.8
##rd
(002)
predicting
DH
##electronics
tailored
NiFe
paras
fibres
oligonucleo
inertia
Michael
evolve
##yellow
##arium
##LDPE
Cys
##angling
Entry
tent
vdW
##adder
##deficient
Sun
##4·
##respective
##,(2
##Nan
(199
##AF
hep
conflicts
rarely
##”)
ATRP
175
25,
dict
##YAG
##.(5
16,
(3).
Partic
##kt
subtle
##‐,
inev
titania
4.7
Ra
progressively
##NSs
##115
brine
ABS
##–80
ith
##erately
Below
LP
##denoted
Indust
(150
laws
heater
equilibrated
Brownian
floating
10-
EtOAc
##ophenone
Earth
entangled
##eculi
##Trans
##xS
293
constructing
propylene
##formamide
MNPs
##ilayer
soph
concomit
residence
##ula
##oratories
##(10
oxidizing
Relative
Design
##mh
[12,
Nanop
freely
flav
boost
yt
##rally
magnetite
biocompatible
##ubiqu
Shanghai
##quee
ultrahigh
##04
SWNT
leaching
−78
Chemicals
##itated
[45
##[0,
##print
##29)
##ampl
##ibrational
closest
##voluted
ribbons
##GT
triethyl
Inf
##gluc
qubit
vertices
##adsorb
opposed
(18)
##diagonal
kinematic
##specially
##Ea
zwitter
scintill
198
subtracted
##Equation
maximize
Gmb
aerogel
blow
##ica
fractal
0.33
unable
##0)=
##)〉
sandwic
spontaneously
##istant
pyrrole
##xc
cysteine
IF
##tium
phr
gyro
##(2-
nylon
0),
SET
##Ste
10).
##ocking
##6−
option
deprotonation
##protected
##PCBM
market
inexpensive
##that
##imetic
pillar
##inn
##seud
##′′(
viol
foot
##ands
CW
haz
##omaly
Shimadzu
encour
suit
adsorbents
##AuCl
Gly
##amines
##,[
delocalization
##Vol
##tivation
##gener
TPE
##ochromic
protect
NM
peculi
##stituting
##*=
sequentially
##+4
prototype
swollen
Europe
minute
##atterned
TFA
##Le
##OP
semicirc
##Optical
wurtzite
##2−1
DPP
capsules
##neighbor
##uman
recur
pocket
Error
detrim
##ophil
##balance
compensated
experienced
##aphth
consequences
superconductors
##3.9
linkers
##grade
albumin
bundles
##)12
##ønsted
Graphene
dissolve
##PDM
##vised
##super
##bu
##siloxane
terahertz
photographs
POSS
monochromator
InGaAs
##ditionally
##NE
##TAT
penetrate
##∞,
blu
Arg
trigonal
recall
notably
simplify
sink
[13,
##1,2,
148
##nk
cav
pseudoc
opportunities
landscape
prevented
ss
monochromatic
##sto
superconductor
[2]
146
rows
cholesterol
##·(
##athesis
##CNF
basically
comprises
##ppler
##.20,
began
1,3-
##Gly
restrict
##penet
nonradiative
regist
actuators
percentages
##PAN
LIBs
converge
##gredi
biofilm
damaged
LH
##ocatalytic
132
##culations
##vectors
appreciable
##pyrrole
obtains
[32].
##coming
##osomal
biology
GmbH
##(1-
activate
0.2,
relate
fibrobl
##obor
Especially
##nth
adsorbate
##rous
interf
anomaly
##Total
##250
DSSCs
##]0
PRO
##–500
guided
NHC
##bearing
##ria
dosage
##sl
financial
zer
147
FEI
##0⟩
##roximately
hydrazine
##osyl
polarizations
cement
##yclo
virtually
sophistic
anchoring
##.(4)
Very
photophysical
##MSCs
cy
assignments
RP
##Ho
##New
##orphology
termed
##erephthal
##bias
MeCN
##tidine
diagnosis
drawbacks
tangen
Rydberg
##bidden
redistribution
##uning
GP
##corresponding
sear
155
vibronic
indole
##Calculated
##.9%
##aturing
8)
dendrimer
photode
##dependence
trimer
carbonization
diamagnetic
interpolation
##agnetization
##amers
1–4
reviewed
stopped
ceria
15.
superimposed
sket
aptamer
##Then
biosensor
##ests
##(4-
fault
Center
hept
correspondence
aerogels
mirrors
##kh
VA
##ritten
Zh
149
##strained
fabrics
AuNP
##ociated
polymerized
##~\
CZTS
weighed
converged
Detailed
drastic
CoO
##frac
##]/[
elastomer
##periodic
##ught
vanishing
##aceous
##dihydro
##healing
0.24
filtrate
##icking
##guest
##ynch
cube
usage
nucleo
##108
sandwiched
2.1.
##avorable
welding
1300
##alloy
reinforcement
##ibly
##acob
avoiding
##YF
##oto
softening
Os
##ga
aliqu
165
FeCl
##inorganic
insulin
microparticles
##lution
##3],
insensitive
(13
##titude
forced
##)≈
##Spect
##loss
stripe
7.3
beta
144
(90
Fm
sake
##acrylic
##6,27
##TPP
8-
##inde
halo
##pread
##propanol
connections
plu
##)]+
##CG
PDF
##ielect
turnover
ZT
microporous
##symmetry
homogenous
Later
Pur
##stabilized
illustrating
##QUID
inhomogeneity
pull
##nano
##affected
parentheses
ty
##vention
fermions
##complex
progression
##pVTZ
snapshots
(17
##22+
hydrogenated
##ulin
microt
thermoplastic
##)6]
Us
Reprinted
##Consid
AN
coercive
##omponent
##5–
meaningful
##DEG
##tian
ubiqu
##idone
[%]
##yte
nc
##semiconductor
IB
intercept
##cus
##estern
##6+
micrometer
Brønsted
##wood
##Rep
orientational
photocatalysis
1,3‐
##plasma
epoxide
nanosecond
##Or
Mott
[14,
##annealed
##IPY
##yrins
divertor
5.6
##42−
plume
vesicle
##imers
##iled
##mma
bounds
##acoustic
tempor
protecting
##(0)=
##capped
periodically
1.25
petroleum
##preced
Bu
##,26
##CMC
albeit
Cas
exploration
##omorphic
Direct
repair
ner
EXAFS
##′′)
##22)
RR
##Hc
duplex
##=11
exempl
Notice
##prisingly
##=0.4
opened
MMT
1400
##RY
overlapped
steels
economic
designated
Pn
##4;
Hartree
[33].
mort
MAPbI
Pure
##}{
##utable
##^2
BZ
microbial
OLEDs
##Molecular
##Ec
##lob
##=1,2,
##OT
synthesi
##heated
multiv
IA
Ro
0.001
##stock
merit
micellar
isotopic
##EGF
##vasive
slice
Density
##6.0
nitric
##odi
PXRD
##neutral
##.(1)
gates
##itz
dependencies
##×10−5
Jo
bifunctional
areal
##precedented
adaptive
tetrahydrofuran
40,
##both
[15,
##ham
20.
peripheral
CaCO
1–2
ingredi
##idespread
transit
convective
##hi
131
##nn
##inctive
CuI
##fv
##-11
decompose
##orphyrins
vascular
##†(
##Water
##indole
tomography
Ultra
digestion
resc
renormal
##WS
extrapolated
grinding
3.1.
##DD
##LR
Blue
inclusions
nanocrystal
##ilst
counterions
##mechanical
Large
user
dielectrics
Company
fluorophore
milled
endow
##idirectional
##6-31
cd
5.1
5.4
connect
projections
##VM
ray
##insically
striking
dangling
##)=∫
Kinetic
detrimental
organs
decided
##Non
##arded
12(
reactors
photolysis
##Us
streamwise
iridium
au
photoresist
resembles
PbS
380
evac
birefringence
##straction
subspace
Nonetheless
ever
##.6)
InN
inac
##equation
participate
SBA
vulcan
exclusion
##FePO
##processed
##hode
measurable
##imides
##micro
logarithm
widespread
triblock
motivated
cytoplas
##adding
##STO
NN
BCP
(0.7
card
refrig
##Prop
##fiber
uncon
multim
mere
squee
##np
Analy
insert
##acetone
##0.55
##dispersive
(20)
entering
##IBN
##PAM
##rag
holog
(6),
##⁡(
sophisticated
Equations
inputs
##〉,
Einstein
##connected
groove
##Because
##charged
polynomials
tangential
##‐4‐
##ethoxy
##-[
##wald
Theoretical
thermoco
(19)
##Ei
##LAB
##lectivities
tiny
ferromagnetism
##obs
saw
trials
##ends
oxal
##0.65
definitions
immediate
LSPR
##hl
She
whereby
strengthening
##small
format
##nucle
acetylene
##uki
trem
Weyl
alpha
##8.5
fouling
trade
displaced
##etermination
LDPE
responsive
##xC
##Thermo
##parameter
##fts
##lived
OCH
Tokyo
Yang
galvanostatic
disruption
HSA
##nal
unprecedented
##knowled
cyclotron
displaying
silyl
spaced
##cle
##8(
Cartesian
130.
##swit
##General
distillation
Compounds
##figuration
degrade
##BET
adjustment
Field
manufacturer
##mA
##.3.1
##.25,
kid
##7.0
##ilibria
unw
[001]
##Measure
##103
monodisperse
##GP
122
##arboxylic
name
10.0
antigen
vast
biologically
magnetized
71
LF
intended
dividing
catech
##brevi
##taken
equatorial
340
##raft
##Gl
##Ob
spe
##ives
correlates
##ysics
Med
102
viscosities
Kerr
ductility
##RMS
Doppler
stay
convention
##erosion
kB
##sections
links
8.4
##16/
(~
NMP
##yy
##−.
##(1)(
Fran
##0.67
##Spec
susceptible
parity
Part
catalyze
##orbital
recrystallized
##aracteristic
slides
AZ
Fluor
##,21
##pz
##gineering
couples
##HRTEM
bcc
reman
fung
mar
pendant
distinctive
##atent
Tf
##ami
##HL
0.23
##)=12
diet
##Js
[34].
flake
##onductive
##.22,
publications
tab
##qi
0.5%
##ODIPY
kinetically
(2,
placing
##Rn
PCBM
##source
[0
Linear
solvothermal
irrespective
##5%
readout
##DOS
##10).
##ried
##.21,
##=∂
ald
##SiMe
##cons
unfavorable
soon
##reaction
##obtained
unambiguously
Aut
##Car
##Po
recommended
##=100
innov
achievable
contaminants
##spacing
chips
tails
roots
torsional
##pan
5.3
sulfuric
observables
iPP
hydrochloride
Appl
##ifiers
click
obl
##propyl
dissipative
tBu
sonicated
##8‐
##thin
divalent
photodetector
(−1
conformer
##2);
[1]
implied
Emission
think
##+∞
evolves
##)/(
950
EDTA
##oxysilane
##ek
pseudopotential
##UM
##-13
##10−
finds
bodies
##unter
squared
fire
##ielectric
[100
##shape
genetic
##uum
shortest
handling
turning
endothelial
Anal
melts
##Phase
Those
##resonant
##LF
##interacting
##GPC
emu
##inities
##107
organisms
##ucl
Tw
scar
Td
##corpor
##environment
attributable
##.23,
##oxyc
##,(3
pressing
##Form
interparticle
0.50
##-1)
##la
##values
##=⟨
##cluster
BiVO
##+−
##ILs
Lip
##AuNPs
jets
vice
##urization
deprot
##}}}$
Plot
##membrane
JEM
Janus
##ripts
TFTs
Rg
82
olefins
##,29
exploring
##avail
330
##,0)
facilitating
5.(
##hern
SNR
mica
##alanine
Third
publication
##ycle
existed
##.5)
**
imidazolium
##sives
Major
management
##outh
##bb
##Chemical
YSZ
##enta
PEM
##yi
Man
##=20
##rc
(1.2
##ijing
spike
Sil
##istically
substitute
polymerizations
magnetost
##900
##separated
prone
generators
##oves
##Ri
##anding
tren
4,4
##Polymer
CNC
##stoichi
intrinsically
##test
##itter
##3+.
vehicles
##/2.
automatically
antiparallel
υ
##sozyme
erosion
≠
##oks
##concentration
##,28
##Energy
##YP
tensors
subtracting
PSS
methoxy
HL
##phasing
sunlight
##PMA
rays
Control
##EtOAc
microb
##|,
exclude
autocorrelation
##omo
FD
Average
##NOVA
##ATION
focuses
30°
delta
gun
(21)
insulators
PNIPAM
##Gr
##,22
modulate
WC
ASTM
2–3
##Lu
greatest
##(1)–
##∗(
##IGS
destruction
integrate
wavefunction
##Red
##omy
sublattice
0.19
##mentation
singularity
bul
Initial
equilibria
##reduction
##6.6
men
ripp
##-5-
examining
status
thresholds
RL
relates
versa
##rites
(0.9
##onducting
deposits
Gold
dataset
Hi
acknowled
constructs
##road
##apted
extraord
XANES
emulsif
##(12)
oils
##fi
isolate
##chair
ubiquit
luminosity
##Gra
furan
##4[
emerge
##‐7
(–
RuO
##orange
thermos
container
##8.0
159
disturbance
[35].
WT
##axially
balls
##0000
BR
##essels
inv
tremend
severely
##alse
convenience
heterocyc
packet
##gran
##GN
thr
##′′,
Gram
Ill
acted
##angles
##artment
Process
iterations
deuterated
pollution
Mechanical
##×2
##ularities
##erences
##.3.2.
##lands
##ultaneous
supercritical
said
cultures
##esar
microcapsules
neighbour
depositing
##valence
##acetylene
(3.1
Corpor
##octyl
LI
##lm
285
facility
##Compound
##covered
##Mon
defective
##{(
unaffected
HV
##UA
Can
surprisingly
##⋅(
momenta
PBA
##4.9
Ohmic
friendly
##Rb
signatures
##)=0
##40,
refraction
Rigaku
cryogenic
##0.47
##±(
##.7%
##ocytosis
successively
million
multiplied
rotary
##also
##ails
ash
rhodium
deduce
##osc
Spectroscopy
##impl
infiltration
ses
Her
##this
##oscope
##mitt
biomaterials
gallium
spint
##POSS
##MAS
TH
‖
transported
(1.1
##sal
##LI
##+1(
slices
NSs
##,(3)
PBT
infinity
##henol
##But
dynamically
##atio
##tite
Reactions
10)
organometallic
##coordinate
constitutive
marks
laminar
considers
##wetting
alkylation
6.4
##phenylene
##critical
leave
##170
##21/
Intern
##identate
adjustable
Introduction
biaxial
determinant
therein
##oked
Organic
Actually
##0.60
##rolactone
##.24,
Corporation
∼100
propagates
Structures
positioning
acquire
Suz
dialysis
impregnation
tried
##Stokes
##‐10
##ilities
intermetallic
pedest
##pies
sterically
compressibility
##burg
Fib
[°
##ienti
##ometers
##uronic
coaxial
manufactured
submic
Merck
Cer
subtraction
##grams
crucible
(4).
0.28
##fen
##.7)
piez
BB
mesos
drives
Laser
feedstock
##gers
pc
feeding
##oxyphenyl
elliptical
Har
Physical
##deg
jumps
##enediamine
photoanode
timing
##misc
PbI
##index
##idelity
##6],
Out
##reshold
7.1
##pump
Apart
##enzy
categories
sacrificial
imping
##mixed
wing
stripes
strips
PDT
##Over
##atization
##.2.2.
##109
Van
Zeeman
echo
1.0,
vapour
##getic
TLC
extrinsic
##ko
Eth
enters
##white
Protein
constitutes
##dots
jud
##olithography
Microscopy
Long
##OA
platforms
##similar
##dm
##128
tree
repeatedly
##2)−
##isenberg
isopropanol
singly
polyvinyl
##zes
##ouling
FITC
unbound
Systems
##kJ
QWs
marginal
##weighted
inductively
Bloch
##sonic
transfection
##*.
aqu
##omechanical
gluc
symp
##totic
##epoxy
61
##Jones
Likewise
##xk
cad
dedicated
Images
crosses
##−1+
##PCR
92
##correlated
##ocusing
cytometry
Tra
Apparent
polishing
Remarkably
##ceramic
histograms
##ilarities
photodetectors
##deposition
energetics
##capac
##icillin
3:
brackets
−10
[1–
0.95
##fully
produc
Ka
tank
5.8
##6–
inco
estimating
##depth
agglomerates
satur
subjects
##drop
automated
MDA
##KA
passage
##idity
##methanol
peculiar
antif
12.5
hydrochloric
biosensors
nanopores
##holes
isos
##mc
##117
correspondingly
##uled
argued
##oren
Particularly
bow
##1[
##uly
##Structure
##FL
descript
vehicle
canc
##DPP
foils
concomitant
##purity
##satz
instrumental
outward
0.30
##imolar
480
##hn
ECL
##grafted
1,2,
FePt
##EDA
priori
1.00
throughput
##oretic
##×10−6
##HPLC
lists
##azoles
##+∂
##uz
##0.80
(1:
GI
ethers
paid
outcomes
##Cor
##ogeneities
##Experim
##ember
titanate
differing
LPS
∥
##CNQ
##dk
annular
6.6
##.01
weakened
0.09
##bonds
algebraic
UiO
##gens
fractured
persistent
[36].
macromolecular
Planck
##122
##–35
Vg
##,23
290
##MOFs
≃
##Herein
buckling
uranium
accumulate
##CAS
##east
##33,
##ubility
exceptional
EV
##BSD
eqs
metathesis
##bed
manusc
##ondon
alle
monotonic
##angevin
guarantee
##opolymerization
##(1/
Bond
LJ
implants
corrug
##va
ferrocene
##ZIF
Currently
##ULA
##absorb
OR
reorganization
##yield
##elihood
permeate
##actide
##ifth
(14
pictures
CaCl
##tious
Mö
##perturbed
LN
Lee
naphthalene
##paired
India
kBT
joints
patches
OT
daily
##)∈
cytotoxic
##toxic
colorimetric
neutrin
158
≡
##dimension
##[2
##9.5
mentioning
BG
520
Sin
##isite
rewritten
##0.97
pillars
hydrostatic
##house
5),
adapt
Sciences
fas
##chemistry
biomark
dimerization
##ographs
Jacob
##60,
OM
##)·
develops
##ards
glycine
##Average
##sinh
##SY
10−8
regulated
</
##quinoline
AgNO
corners
##maximum
grew
augmented
##,30
##last
entropic
##mixing
hemisp
##stack
##isomers
micropores
intest
anharmonic
##Xe
##osal
chelating
##Moreover
taut
##relaxation
##=0.1
##stitution
physis
populated
OPV
0.27
shaded
##−1):
##PEND
##reducible
##pyridyl
gratings
crystallography
##ectin
choices
uncoated
##+1−
emphasized
##0.70
inflammatory
elution
##′|
fish
Gas
LiF
discrepancies
##otoxicity
##3+-
ka
kit
IgG
##nitrop
##sy
spherul
yttri
##YSZ
20°
vessels
pipe
cc
##km
##1/2)
discontinuous
Subsequent
##’,
emerges
str
0.26
18,
solitons
fringe
##junctions
exerted
##VG
##tip
cyclopent
##gray
##bauer
Adsorption
twinning
##plex
plasticity
##[1+
##inflamm
##3,4
Pi
##umarin
##2+/
blade
##VC
MgSO
(7),
microgels
electrophoresis
Black
##born
−3
miscibility
##osin
##Hm
##ithley
macrophages
##thickness
##Data
lesser
∼20
##bell
##−10
##optic
abstraction
portions
hypothesized
Mor
Normalized
##0.48
##calc
HMF
##Fock
xenon
##teness
invariance
##adj
FFT
ascor
##${
VII
combines
brings
##2(1−
presenting
assistance
##pq
featuring
##ensitic
sponge
triplicate
(22)
documented
##relativistic
##riers
photodiode
##aro
forth
##=−2
##enoid
##polarization
FIB
##uty
FOR
enthalpies
stimulus
##ikelihood
antisymmetric
pione
Surprisingly
##velopment
circumst
##11),
lithiation
Fre
CaO
##amid
##Ra
HAADF
##cosh
fluctuating
graded
Ising
##culating
##298
2009
dissociated
terephthal
Mal
(98
transfers
##Ci
##0.90
diphenyl
##oment
additions
##ool
##1,32
##ople
Nic
artifacts
##emann
##ennard
happen
##Col
##ulic
deviate
infection
upconversion
##ensurate
Secondly
##Mean
∝
accompany
puls
old
##eqn
scalable
undergoing
Starting
partitioning
carbonaceous
crystallize
crow
Evolution
##2/3
reorientation
##Rg
lemma
releasing
≪
##ophosphate
##Pn
demands
chemisorption
16.
precession
##affin
##eno
##SiH
##injection
[18]
isopropyl
##fvén
Jc
lenses
bombard
##–1000
amyloid
##.8)
##THE
synthesizing
##ambda
##dge
Conditions
semicircle
##SBA
6.7
cul
cycled
Aesar
bipy
##MAM
##Cn
thermograms
##idual
azobenzene
file
nanosized
GM
keeps
formate
##acyl
Films
0.85
buried
nanoplates
diminished
<0
amides
##owski
ZnSe
bimodal
melted
spectroscop
frag
##ubbard
modal
EVA
##thio
##(7
##levant
##emporal
compartment
##12),
##ipore
labelled
nanopore
mapped
##102
stirrer
selecting
moderately
discl
##figures
Full
Sl
##KT
price
##OEt
##=1−
(0.05
forbidden
multicomponent
incoherent
longest
carcin
primitive
excite
##(3,
offered
Calcd
6‐
affording
guid
solder
Suzuki
dopamine
coars
##–800
##)1/2
##OOH
disp
lacking
answer
Simulation
##herrer
##rosine
tunability
conductors
anchored
grate
dimeric
##)4]
##rise
##aque
##Exp
##0.38
##119
gravimetric
niob
compliance
subunits
4.9
##LSM
##esting
plotting
##sembles
0.65
oblique
seeding
##/50
MET
##Methyl
poison
##diaz
CPE
discontinuity
altering
##4)3
ongoing
Coulombic
similarities
##allation
##)∼
sulfoxide
buffered
##oselectivities
linking
cosm
insignificant
##uel
pink
##....
##irradiated
Integ
##luent
Free
##plet
##donor
osmo
dichroism
##rt
##chloro
##imidazolium
0.005
[37].
Acid
##–70
AIE
phospholip
[20,
##ocyanine
NaHCO
ens
coagulation
##spl
##ww
Examples
enol
emissive
##2,33
dens
##2.(
##rms
Laplace
preceding
TEOS
##.3%
statement
##Magnetic
Particle
##groups
concrete
elucidated
##549
video
##aphthyl
##Reg
##indentation
##rapure
##orders
refine
##(4‐
325
2015).
arbitr
##terior
##-66
##arbonate
docking
Self
formally
##ills
medicine
Procedure
##opyran
##ulfate
manuscript
##teins
##[1−
6.2
predictive
##inuous
resistor
absorptions
##Def
##TL
GQDs
homolog
##valuation
nanohybrid
##turing
##ova
##,24
Lennard
diamonds
lysozyme
mitochondrial
MOD
flower
##run
linearized
##resistant
##‐[
##CDs
Kim
[6]
attenuated
##stret
obey
##TPA
##Wh
##rals
##+|
##cumin
Langevin
deconvolution
magnetometer
epithel
##number
##typically
GL
visualize
Graph
macrocycle
influencing
RG
PIC
##145
Nanoc
generality
alternate
justified
##classical
##RB
origins
295
metamaterial
concave
##lite
immuno
##BLE
##)‖
DES
##losion
Spin
SHE
##solution
##iness
embry
##1–3
Regarding
category
##±0.00
decoupling
plug
0.01,
##×100
Effects
spl
##6):
##hanes
Yet
##)2/
beamline
##(2)(
##middle
referenced
##oping
##aligned
exploit
##handed
200,
Tl
##.6%
families
##]-
##established
##2→
textured
##.8%
Jose
##TMS
delays
poling
##quadrup
Source
##carbonate
75%
substance
##>99
##otherm
solvated
Calculations
##atrix
[9]
17,
##ASP
##aric
maintains
##du
##limiting
##).2
##Ass
##aturation
Newtonian
inclined
##odext
##variance
##carrier
GCE
ballistic
guiding
##UN
wavenumbers
reductions
6.9
Milli
Boh
##9-
parad
##dispersed
PCM
strept
##12.
##118
zwitterionic
sublim
MoSe
XAS
[50
kA
Cam
##ographical
abnormal
##ughening
dissociative
portable
##illipore
bridged
##ogly
##(110)
metrics
##/10.
eigenvectors
##So
##syn
##unit
310
##full
##0.53
##rf
##butanol
industries
misfit
##frame
##insulator
∼4
168
worm
whilst
##⟩.
##ospheres
##ilips
Brun
platelet
##≠0
esterification
AE
Tit
Kel
##:5
(1/
glycop
##(3),
ellipsoids
White
##reference
multiplex
cohesive
##ytes
##pV
interfere
racemic
hosts
swim
##locked
translocation
(23)
≫
Measured
generalization
##–90
##PPV
25°
##mholtz
Powder
##NTf
##rusion
enantiomer
##RN
inherently
hydrolyzed
##=0.8
tracer
silicene
hyperbolic
enorm
traveling
stamp
##oxidized
##inflammatory
##glut
polaron
burn
##neck
stems
##flight
##rone
arrive
##parg
miRNA
Afterwards
bombardment
burning
##Ai
##estic
##)+(
aber
##:3
remn
renormalization
##=0.7
5.7
cub
□
helicity
##methylene
flatten
##cycles
##boronic
##bL
intermitt
Thin
##−7
##Methods
##ppy
##.27,
##hesion
##ulatory
microsp
##arose
axisymmetric
proparg
##MIL
##ophenol
##9‐
##GPa
UCNPs
##lenk
##otonic
irreducible
##ondo
VS
microorgan
Combining
dimensionality
##cean
worked
##0.37
##ircular
##unnel
rhodamine
[21,
ant
pyrrol
adatoms
Any
evenly
IG
##orosity
DMEM
immisc
##tizers
accessibility
##aded
##rimination
##6.7
##Tp
##)={
EN
transients
##PENDIX
densely
AI
##MG
situated
kinase
##steady
coulomb
[22,
##,25
##crystals
picosecond
##ales
##135
[12]
Solution
adverse
##=1,...,
decompos
##VDF
looking
##6.2
notion
Charge
Simulations
undertaken
aster
Bre
##cite
60,
cavitation
deprotonated
##sn
migrate
depended
Heisenberg
WSe
##Ala
##Refs
grooves
converges
false
##adays
cladding
TEA
##ara
Pc
permits
[16]
[14]
##2)=
##tio
tremendous
[38].
exec
##FB
##oured
##irm
floc
vox
fluorophores
##6.1
crossed
##113
recycled
yeast
157
81
MCM
martensitic
##paramagnetic
##6.4
##oron
cuv
harvested
equivalence
2014,
##×(
##NIPAAm
alternatives
merely
##Ini
##tivated
exceeded
7.7
dephasing
[1–3
##−1/
nanochannel
bidentate
##helix
##=17
##oking
reduct
photom
MH
##Alder
[15]
VBM
##ossil
##nj
preserve
germanium
Ji
2016).
9.0
author
##array
modular
backscattering
##(100
pretreated
##hardness
##2∂
##=1/
##=0.6
##Top
##−1/2
Previously
Glass
##9.0
[23,
ol
abras
6.3
##igner
##Analysis
dd
##Tran
##.9)
[17]
##Gy
##polymerization
##multi
Color
Bz
piper
0.34
DN
##ason
##Tx
##SN
PSF
Proposition
##tilis
##rification
accretion
##board
hematite
polymorphs
incompres
wedge
demanding
##dioxane
##111}
980
LCST
perturbative
24,
##PEA
member
##Bl
##tl
ago
2014).
##mag
##Structural
##dE
shearing
1012
diab
2015,
Nitrogen
##2100
SCF
##onation
enclosed
##.(5)
##=1.0
PSD
##50°
durations
responsivity
[10]
[13]
subsystem
parasitic
(600
arsenic
GeV
##TPD
SY
pad
(2.2
##)2.
aims
(99.99
Zeiss
##unsaturated
thermostat
##7],
indirectly
Flow
##associated
fifth
hyperbranched
##butadiene
(95
obe
nanoribbons
##doi
(24)
sett
##tn
centres
##xGa
80°
solutes
radially
pale
bol
insulation
##lact
##4,4
##ignal
Schlenk
ensembles
##conf
thous
##ergies
##Hy
relating
apex
exploiting
Conf
diamine
##PCM
mutation
discharging
skew
##grain
Alfvén
##platin
harm
##)⋅
##Fabrication
methodologies
##-23
grounded
citric
muc
expense
nanocar
trypsin
##)8
##RL
PCA
ing
[11]
pA
VC
##Mic
stabilizer
scienti
143
cyano
arbitrarily
antibiotics
inhibiting
##Det
##parin
0.36
[19]
0.3,
versatility
flight
(8),
hcp
SPP
##regulated
oral
PTT
Lys
NOx
spent
##physical
hidden
##domin
noncovalent
State
UHV
##.28,
worse
##∫−∞∞
rotate
##dpp
##=0.9
##Summary
##ubble
##ama
intensively
conject
9)
##ront
##ani
want
##CHCl
##uous
Plasma
extraordinary
0.98
##arenes
explosion
likelihood
capacitances
##heat
Oxygen
##host
0<
##structive
nonmagnetic
nitrid
11).
inclination
catalytically
##0.1,
classic
##ityl
##)3(
tetrahedra
##direct
Rct
##VDZ
biosynthesis
##stress
chambers
##8],
Right
Rp
##aer
FETs
packaging
fidelity
##NHC
##around
planets
armchair
shared
borate
unperturbed
##ister
##inant
TPU
##(\
lowers
##sec
CCDC
spacetime
zirconium
##Mechanical
##212
Potential
##laser
##)-2-
##imaging
[20]
lev
(0.00
EDA
CuS
refluxed
dominating
bluesh
##kj
cri
antit
respir
##phi
##kr
##,(4)
HepG
##via
guan
Alk
##escope
##OO
##isothermal
##.2.5
Case
##0.36
unpaired
regio
##calculated
##DISCUSSION
equimolar
SCE
Kore
##Hex
[0,
prosp
##abricated
nevertheless
##⋯,
##adaic
distinctly
##aine
outputs
Ter
Infrared
triethylamine
Swit
inspired
shots
##ographically
##-311
##conver
##4,35
##See
##-30
##etermining
kidney
##Crystal
10−9
##otted
##6.3
##6.8
##bp
##rist
atomically
##rog
##0.5)
225
xyl
##itance
Synthetic
substitutional
Usually
exchanged
##=1.5
RM
sparse
VT
title
99%
##ssbauer
subsurface
8.2
catalog
inflammation
deficiency
depleted
##GL
##tc
pseudocapac
BiFeO
##granular
##ulos
MBE
##−8
##FD
##placement
(125
##essor
ensuring
##particles
##08
##SCA
GNPs
##otin
##Rem
Simultaneous
##dered
allevi
Ang
##roids
reservoirs
TEMPO
octahedron
interrup
(25)
##ideal
diffused
deconvoluted
##erson
metas
waveforms
MAT
##drain
International
2008
Pub
##⋯⋯
##measured
##4,5
slabs
NL
##intensity
outflow
destroyed
##ocar
1010
fermion
regenerated
dies
HK
Phosph
##buff
Instrument
Pauli
undesirable
JSM
##bras
monolithic
synap
##path
8.3
unfolding
##solated
##uric
hydraz
boronic
neglecting
decaying
##odic
SiGe
trif
affinities
2,2
heavier
deterministic
ELM
Changes
##lys
##dodec
##∇2
##rea
increments
##iently
##uent
LSMO
[39].
##raulic
Hal
##wire
aldol
experiences
ITER
JSC
aerosol
infinitely
ellipsometry
mutations
carbides
##piper
soaking
##imethoxy
##VL
##−1)(
##bridged
##Electron
interband
ansatz
European
CuCl
modelled
resource
handle
##YS
Varian
fossil
##fluorescence
coincidence
Kondo
implosion
##control
streak
##−1−
Corresponding
##Phe
reproduces
[%][
(5).
detuning
pedestal
selenium
imprinted
ambigu
oligo
##$\
##1
##1⟩
LiFePO
91
Magn
##Bruker
HN
Namely
equality
periphery
##TBA
##ractions
##2(1
hybridized
##07
OP
—
##enesulf
coke
regener
[21]
Run
quantization
MEA
neutrons
Diffraction
Mes
pay
Wu
##opl
##note
cycloprop
##cod
##=0∞
##lich
cytok
fails
##0.21
qubits
Asp
##clip
##equivalent
##umes
stereo
AZO
##Measured
Electrical
##vate
agric
Along
##HN
##Theoretical
Amp
##packed
##·2
##poor
##9],
discrimination
##anoic
photoexcited
delamination
QCM
Pres
[22]
TABLE
heterocyclic
##icyl
##7.4
bist
##tet
disadvantages
pinned
##encaps
sulfonic
inferior
quar
##(12
lyophil
envision
<1
breakthrough
Kra
##ella
##tify
370
Solar
##09
appropriately
Work
##circles
##32−
##otri
approved
##7.2
##ament
hamp
CNFs
121
[24,
multiferro
##Single
fig
sea
##ony
Aust
polyamide
##solved
tabulated
manifested
SQUID
eddy
##hs
gram
chirp
disperse
##2.00
fibril
BI
integrable
configurational
CVs
[8]
##electrodes
simulating
crystallizes
##due
##SG
Apparently
Analytical
##.29,
glow
##[1
convolution
##assing
##0.96
Rab
##220
Roy
urine
Kit
##ERI
photost
##2∑
##elike
ageing
##(8
azo
Size
Electronic
heme
stabilizes
interpenet
viewpoint
##ormal
##2(1+
##lymp
suppresses
potency
aval
##RM
##cales
##scattered
##volatile
7-
camp
FBS
##ynes
purged
##000)
##oi
##>0.
##3+)
2–4
circularly
affords
##threshold
##°).
Test
[3]
##eryth
##asting
plating
488
8.8
TiC
Dependence
Park
dissipated
##chi
##linker
spanning
##114
##pure
##)=0.
##xtran
##WT
##trig
UF
##soft
crosslinker
2013,
##auss
##ications
##centric
intuitive
##stranded
reversibly
skyrm
reus
##DLS
gem
##inese
##chem
Measurement
Polymerization
microsphere
Numerical
Fer
⩾
##GMA
Corp
inhibits
##generate
##.3.5
##fn
sought
##3)(
dealing
assemble
electrocatalyst
explaining
##XL
##tifying
micrometers
Born
Summary
##CNP
##Cys
excimer
2500
remainder
cerium
duty
##achlor
##gebras
favourable
Rc
##ometal
coordinating
##0→
SPI
1019
##oxidase
##vative
adopting
barium
[7]
poles
(250
##ames
Proposed
BHJ
##rapping
Eb
osmotic
Bottom
##)-1
##6;
icosa
##porous
##Td
dt
electronically
GaSb
alteration
Dox
gyration
lose
interphase
##SDS
1.54
Sal
mixer
##.2.1
##between
##Due
99.99
##epar
##pore
[23]
##sertion
##0.34
faults
CBM
scission
oleic
##sensitized
(=
##modes
##Computational
##)2−
warming
inductance
sucrose
extruded
PAM
##2〉
##10(
dele
catechol
##Low
##optotic
GBs
##SCN
propargyl
OLED
(200)
Band
##ashba
manually
accompanying
trifluoro
elastomers
##marked
centrifugal
##7.8
Fund
Characteristic
ultrasonication
quasiparticle
##adem
seaw
endogenous
optimizations
Joseph
0.38
Tetra
ZSM
##oxal
MWNTs
speaking
multilayered
relie
##nr
##.2%
−4
GFP
##atched
##[1,
suppressing
##slip
##,27
##5,36
##ickness
anthracene
antibiotic
equivalently
##Catalyst
distinction
collecting
##Lab
Hamiltonians
##pyrrolidone
speculate
refract
helices
clath
##/6-31
plasmid
propensity
Cyt
[40].
cardiac
TPD
Liquid
suffers
##Gal
##bium
pyramidal
(101
gast
##Typ
thermocouple
nitrile
seemed
damped
PTB
##rick
appe
##ternally
Tp
chloro
##ddd
##gradability
TIP
asph
##ateral
uniquely
##QM
##})
nanocubes
chromatographic
##ospheric
##precipitation
##^(
ideas
##10‐
Anti
performs
##GEBA
##/100
##ellulose
##(14)
soaked
supersaturation
[24]
##5.4
[4]
Polymers
avalanc
touch
##tophan
Hubbard
##ulum
##6:
##0.88
retains
solitary
pal
##hkl
##sia
wax
cadmium
pyroly
isotop
presentation
##vents
MN
##rease
##scripts
##3∕
scarce
NLO
twins
##magnification
##epit
liqu
MIP
PPh
subscript
heparin
##kel
##acity
##KL
##During
deviates
biomimetic
##fc
##–600
169
##SIMS
exposing
establishing
0%
conveniently
1018
##anyl
[110]
##.30,
push
elliptic
nucleophiles
3–5
naked
enantiomeric
TPP
##Density
##7/2
##tetramethyl
promoter
1015
##region
##TN
tracks
Mössbauer
10.5
SAMs
##oration
##adsorbed
nanofl
absorbers
NE
Ei
Stark
##Section
##riptions
##ructose
hierarchy
##rint
##lerene
NTs
Vo
agreed
##vie
##force
occas
##alling
silanol
197
##(21)
##biased
2007
6),
2013).
##www
spacings
##Second
##anions
##trifluoromethyl
residuals
Ci
##motion
nucleophile
harsh
enantiomers
##inking
##Shanghai
##inine
fly
coexist
Device
clouds
enhancements
##CoFe
converting
MSCs
∀
amination
miniat
(%):
Chinese
##Influence
approached
suppose
discern
6.1
##6,37
ruled
Fmoc
latent
intim
incompati
0.05)
##)≤
##culture
selectivities
flip
##empirical
distrib
modifier
score
##catalytic
overlaps
##fast
phosphorescence
adopts
##othiaz
involvement
inserting
benzaldehyde
##Fl
fetal
##0.44
##shifts
##annealing
preferable
##isobut
MgCl
um
##0.49
dodecyl
SAW
##apatite
poster
replica
APP
Tyr
expansions
##,(4
##7:
##LB
Study
##Emmet
##emble
7.4)
##Rp
##ropic
deterioration
concentrate
soy
##cellular
undesired
Tensile
cytos
##rosion
tetrahedron
reviews
##Ss
eliminating
streams
##boundary
##MMARY
##Up
coin
enormous
##ULATION
##2):
∼50
##aka
Insp
Glu
##inson
melamine
##155
Rashba
characterised
##12-
##acies
Np
##dn
##XR
0.40
##uspended
cryostat
##transport
##cher
zoom
Trp
trivalent
CMOS
405
##Gaussian
##aper
##silicon
9.5
Evid
##bones
highlighting
##Az
##Kr
##oxazol
porphyrins
##Material
(%
milk
SiOx
##=1∞
boxes
electrol
resemble
Bessel
abilities
6.(
[5]
OC
(0001)
##kele
Korea
##isomerization
##∞)
stagn
##processing
microemulsion
truncation
##2*
Thom
FCC
thiols
##sq
graphi
##12−
##2+)
GN
##assemble
0.29
fullerenes
tilting
govern
CIGS
synthesised
triphenyl
##=0.00
Contr
PAH
##-25
##APPENDIX
mesoph
##CCD
BTO
penta
retaining
##roline
##6.9
##neath
##integrated
##ival
VD
##NAL
deprotection
Composition
diffusing
polyaniline
##–31
subunit
depict
##0.39
##conducting
##5−
##mml
facilities
##sport
enlarge
xi
Lou
anomalies
mitochondria
rendering
(≥
textile
turbine
sulfonate
externally
##ixing
facing
minerals
Alfa
##ushing
curcumin
thinning
multiplication
neighborhood
##dv
;
[100]
Sy
nanoplate
spark
##EtOH
##fly
prohib
##TRA
##PLLA
Fab
2:1
diol
Transition
##apt
differentiate
##SnS
veget
Schiff
##NAs
dwar
bottle
1;
(9),
##7.6
##QZ
isotopes
RESULTS
verification
lysine
##7.1
Em
hereafter
##39)
##×105
KH
##consist
##22(
##enol
les
##tinguish
##fe
##throughput
##-16
glovebox
automatic
intensif
##lympus
##2−2
mature
TMP
##race
##intercal
proportions
##lish
century
460
Vi
pits
electroactive
TW
[25]
##hered
cheap
##PEs
BPA
##)∑
##)=[
##NaCl
neuronal
discharged
ultrapure
sulfides
1013
calorimeter
##ubicin
FEM
0.21
##MeCN
##=30
biases
2012,
##onents
concurrent
##0-
−0.5
7.9
furthermore
##oelectric
##elts
Brunauer
Keithley
Hb
ISO
YAG
inward
##Under
##vF
Air
ladder
mats
transferring
##.(6)
counted
##resonance
FG
spur
Az
##−0.5
Tec
##acc
8.1
##TCP
{111}
##-)
asymptotically
lymp
exposures
nonadiabatic
incor
mK
##-22
##Dynamic
particulate
##caprolactone
##interface
##kp
##kF
##helic
##amethyl
underneath
impressive
throm
scientists
locate
##spherical
partners
##rimidine
430
stick
counterion
photoionization
##ola
viz
##Electro
bosonic
rationalized
rt
Sa
96-
##Em
condensate
buoy
render
bromine
##received
clarified
substitutions
intention
coulombic
##ods
waters
##.4%
1–5
1.5,
Beijing
compromise
prescribed
##ipping
##ococ
freest
[26]
##Effects
regulate
virgin
CTA
carbonates
Bro
Five
Neg
biotin
##(0),
eigenfunctions
##omics
##olines
SOI
##VR
iii
##Cz
##1.5,
(26)
##estr
##corr
##1∂
##Ul
incorrect
microscale
Near
chron
##approximately
CuII
##aden
##1)(
Helmholtz
##)1/
##’.
evacuated
Ic
coat
0.32
(10),
cytoplasm
##Current
GNRs
##3@
##near
##Np
fluoro
interestingly
receiver
FN
Future
##ensitivity
bump
##spot
Pu
frontier
articles
(35
adhered
##]+;
##cells
0.55
##amant
##SUMMARY
##ratio
##ijk
Specific
##system
##Vi
##HPO
tailor
extracting
##element
##]1
meniscus
##0.2,
dwell
Imaging
foaming
obstacle
narrowing
0).
unwanted
##LH
##irradiation
CsPbBr
notch
moreover
torus
##Several
actively
(
##3)2]
##urfural
Sodium
disadvantage
17.
##amido
Concentration
111
21,
##0.32
dish
##8/
coarsening
Pol
EBSD
##opharm
##vern
0.05).
##Optim
evolving
##293
Joule
##3)2·
photoexcitation
heterojunctions
argue
##:(
##dew
cf
Advanced
realizing
85%
[41].
##Ha
##scre
##cam
stretchable
prototyp
phosphorene
##oo
##FTs
interests
##60)
polyesters
remnant
programs
##agraph
Nicolet
##tp
Last
electrospray
garn
SIMS
##LDA
##proportion
∼30
##Four
##away
0.4,
peaked
##,(5)
adatom
HEM
Functional
ductile
Complexes
plateaus
nanog
phosphorylation
##oms
##nas
##main
unp
humans
##porphyrin
microorganisms
##HfO
##cured
##4,5-
##124
Hex
polarizer
195
##0.94
NFs
##enriched
dispersing
attach
1016
##ahn
BODIPY
##350
DMC
##Bis
profound
##2+-
##12).
##continuous
rectangle
superlattices
##BZ
##fabricated
##Ion
recycl
indenter
##dq
##unched
WF
0.37
##forms
Dig
EOS
##ultural
##1−1
astroph
receiving
winding
Engineering
##AO
repeatability
##oot
##eh
##ALD
##moment
nice
BST
##heimer
##anks
blot
##erator
##0;
agarose
##Emmett
accelerator
shaking
discretization
isocyan
fulfilled
1011
copoly
Nanoparticles
##quet
5′-
chlorides
comonomer
breathing
##pVDZ
Kohn
##relative
##umbbell
##RGD
19,
##orubicin
##aqueous
##cinating
##.1–4
decarboxyl
##olm
Josephson
vibrating
reality
##ING
##GFP
boson
holograph
inaccur
biore
fermionic
luminance
##zinc
incompressible
##-200
##ocation
acknowledge
forest
comprise
##bio
capturing
finer
falling
##tenance
bag
##clay
Treatment
##Gel
##(15)
indis
border
##CSs
tellur
decel
##Bio
530
1014
compete
##lobin
nois
confining
CIS
sure
ours
##diox
##nH
Scherrer
5.9
Left
13(
##.2.3.
paraffin
Majorana
##idelines
470
sediment
homopolymers
##orld
Differential
immiscible
agar
##cription
modulating
##Both
dash
(3.2
passivated
##acks
backbones
##CK
##antal
xy
contaminated
##Xi
##ocene
(0.25
##enic
##ault
##ryp
acute
debris
##casting
Ef
##vian
##0.9,
doublets
##.3.3.
rheology
##RuO
ferric
##‐3,
##·∇
##⋅∇
##benzoic
Maxwellian
timescales
DG
6%
##′).
Substituting
Kar
##edance
##CrO
##×106
Mil
postulated
SiH
##itin
##7,38
##ville
hydraulic
##KK
ssDNA
pyrro
APS
##rj
LiCl
##0.66
##0.46
antitumor
Der
Biot
reading
neutralization
##7.3
eluted
discs
##standard
covariance
ALP
##-14
stripping
##(22)
denser
##uccess
8.6
AAO
##−2).
##addition
##Rc
critically
12).
kx
##dielectric
##stoichiometric
##Not
firing
##))=
osteob
##mac
##0.68
France
##2(2
##∗,
stro
##QY
problematic
##reduced
##actors
antiferrom
metamaterials
LTO
##Grant
##phasic
##-6-
DNS
Diels
mineralization
anneal
people
##plastic
fixing
relaxations
movements
##)+2
##ationship
prerequ
Del
ridge
internalization
##seed
##avidin
##anediol
##osh
##bach
intraven
##efficiency
Alex
pairwise
tetramethyl
fascinating
##‐0
try
##umann
carbohydrate
LR
chond
##hydroxyp
captures
adsorbates
unloading
##onder
(6).
atmospheres
##uate
dinuclear
basicity
##−|
HRP
spikes
semiclassical
guidance
Conversion
##5,6
withdra
plasmons
ppb
fluorescein
photoresponse
really
sludge
propagator
Catalyst
tapping
[31]
FI
##EV
440
##cn
...
##DTD
pinch
##Eb
1∕
ligation
Waters
##pet
##HMW
restrictions
Health
##directed
##Step
[1],
inoc
angi
##5],
stays
##.1%
facts
##lactide
achieves
##EH
##/10.10
##Rd
Cambridge
##iron
SIM
##JHH
##−1[
appreci
##:1.
ensured
##lice
##turn
##net
HH
##Ek
##indicated
[27]
evolutions
##×1
540
cancell
##single
you
##NCE
PMN
scanner
##).4
injury
##odextrin
##ollary
rectification
##Dis
rim
countries
persistence
Philips
NCH
##itably
Bay
##−+
##-50
Cz
glu
conditional
macrocyclic
protrusion
YBCO
##UP
##valued
fermentation
##prom
distinguishable
_\
yr
##ostic
registered
claimed
##ispersion
##oclinic
reliably
##Cross
0.025
Binding
##),(1)
##-5,
seawater
tabletable
##Tri
##tris
##ammal
breakup
##PZT
overlaid
depolarization
neck
##ady
PSC
TMR
##WM
##uan
came
avoids
STA
reforming
1020
##omorphism
##KM
##ima
gating
(24
##invasive
decoupled
##ocus
GNP
expands
layout
##aneth
##under
Ĥ
##ques
TRA
##7(
##iston
##nai
##hr
wrapped
##ocyte
##clusive
##flux
projec
Investig
##/10.1016/
collapsed
unidirectional
##31,
##ECs
##hydraz
regularization
##bc
##ht
mutants
##.11–
##Other
##Benz
##11).
arter
##ager
##RG
interplanar
##}(
IO
Wigner
trifluoromethyl
overe
violet
posterior
Dashed
##formaldehyde
##phos
##Glu
##cerning
public
##.33,
##diethyl
rinsing
##WF
detached
smoot
##–33
pyraz
hope
##sily
pri
ingredients
##)—
PLD
##pn
Plots
paradig
impose
##mbols
sorbent
Royal
recognize
##)<
isocyanate
##urke
##consuming
heterocycles
##ua
##ohl
[28]
exterior
##⋅2
##=0.2
##rolog
unim
(22
von
##vacuum
##pd
operates
##TAD
##px
FMR
versions
##propag
Dav
updated
completeness
Key
tailoring
pn
EI
##arying
adequately
Bas
centroid
GG
Hist
Ku
##oglobin
##0.78
##tag
epoch
##Sham
crop
##8,39
maintenance
2011,
quadr
##friendly
##±1
board
##feld
Solutions
Kelvin
participation
##(3-
##)10
ambipolar
confirmation
Cel
##7.9
##0.54
##oxycarbonyl
##]/
##ender
synth
##phosphor
planetary
epoxidation
##.12–
##keto
##.%)
##itons
##athione
SV
660
penal
aerobic
##xG
Ps
##11(
##olab
singularities
[42].
oxidize
##Mes
superoxide
RPM
initiators
##onjug
sedimentation
plain
fission
##port
ANOVA
##von
virial
##ship
10−10
corroborated
##axane
imide
##–32
epithelial
##octa
osteogenic
##olayer
dihydro
##-(4-
nanomaterial
##0.52
Pot
coplanar
##rr
rocking
Significant
PTX
##distance
##(23)
1017
SPM
ZFC
cable
Chrom
succeed
alkoxy
##2=1
tract
##7.7
##0.58
MQ
##tilage
sweeping
##yclohex
##−/
5–10
KI
weakening
Rhod
today
##-67
rice
merging
utilizes
2016,
collabor
sieves
miscible
8%
tetr
Louis
micror
##grid
##2/2
fluences
##lexible
characterizes
renders
##alignment
ask
cloth
##PDB
speculated
##roscope
##half
##Multi
discover
sight
UL
##)­(
##loys
Good
22,
##Ray
##tableI
##idinium
##sapphire
[32]
##ipp
##ronics
butyl
entities
Ap
alkanes
twofold
##vide
broadly
##dist
##ivities
##.;
SSA
##+[
##ofuran
MgB
##coil
necessity
##5.1
CIE
explosive
##undant
##arboxylate
workstation
CPT
##built
Development
##0′
##onom
stag
2.00
saturates
##yes
##EPR
innovative
##alg
##dimethylsiloxane
##=25
EELS
##glucose
##atized
hop
lipophilic
##-(2-
##osites
##pase
##icities
ideally
subm
Statistical
##ostructural
##9.6
##bec
##+]
##190
##enton
steadily
156
neutrino
stereochemistry
##([
TMD
##uests
ww
Boc
solver
##DZ
replicates
##Ser
##bing
##〉=
##triplet
##KB
##9.8
##Sec
valle
##ammalian
##1100
##CNFs
Beyond
coexisting
anc
photoactive
##idines
##below
Fano
emphasis
OS
##×104
barely
##FTO
##rophic
denomin
SiNx
programmed
employs
##Theorem
decis
##ropy
simulator
##radiation
clu
##9.2
##ESY
HAp
##9.4
occasion
##mitte
##OES
Applying
(27)
##actin
##CAM
tables
1,3,
##0.87
nodal
COOH
endocytosis
##octane
lighter
##−∂
##orill
doing
ascorbic
##SAM
[{
(28
bimolecular
noticeably
##resistance
Cm
##Despite
abundances
##,31
##helical
circumvent
beneath
reinforcing
##9.1
wearable
Ax
Anne
##aint
analogs
nonspecific
evidently
directing
bins
cyanide
agitation
twisting
##uclide
##tures
fibroblasts
gains
(3.0
proposal
yttrium
##calcd
hazard
##NAc
##EXAFS
pulling
Catalytic
##165
cantilevers
50°
expressing
DSSC
(∼10
nanofibrous
QE
carries
##406
##Su
descriptions
microgel
##GH
##kov
cuvette
##Numerical
weighting
Step
##SAED
##matched
sharper
##opyridine
1800
##⊥,
converter
disturbances
##front
##+1+
##erometric
ky
##TrFE
##osilane
peroxidase
##rine
fruit
manipulate
UO
##32,
##VII
places
##∣2
oscilloscope
VP
mesoscopic
##ZS
##.(7)
Analog
gent
amorph
##enty
nerve
tended
nucleating
##KP
##constant
##sulfonyl
##ochemistry
annual
##ohns
##nl
Film
photometric
##MCM
142
NaH
5°
##1⋯
marine
cisplatin
evanes
stopping
##rosymmetric
propagated
##fluorene
emissivity
encomp
##lishing
##uccin
##estructive
##:4
##xylene
##MOs
##except
guidelines
adip
##12]
SPC
##kk
##onset
encoded
##insp
spacers
consequent
till
101
##ez
fastest
oxo
deeply
indistinguish
EPDM
store
##ermitian
##CNC
Benz
sublimation
##avoid
HEPES
##AES
⋅
##.7.
30.
prepolymer
DEA
##FCs
EDC
RGD
##20),
##JC
outper
Growth
Markov
##chromic
[1–3].
combin
##Boc
cere
States
exchan
##star
##+),
##Similarly
##olite
np
SOL
AIBN
encoding
collinear
##arom
273
arom
inevitably
tester
perchlor
0.48
inks
Phe
anodization
pockets
press
##timated
delivers
supersonic
##oprene
##)/2
##ures
##lectic
modifies
##{{\
print
Simp
interfering
##NMP
Nature
##double
##/30
calix
MMP
offsets
##Do
##harmon
##lobal
##thiol
stressed
smoothing
##PLGA
##APT
guests
##determining
Open
terephthalate
##vx
evaporator
##halogen
supercooled
##Voc
GD
chance
##‐15
##0.56
##XA
##Vg
##Radi
##10,11
categor
##9.3
##Case
irradiance
##0.77
##fluidics
##obacter
(101)
phosphoric
##Lys
##hydrates
chlorobenzene
nutri
##rocytes
Experimentally
##BTC
freestanding
##vib
↔
zonal
##lore
##kon
##ugin
##spun
Che
##hrom
##0.005
##riton
abbrevi
fibrin
tumour
Solvent
activator
FeS
VUV
##math
miR
outline
##1∕2
merged
18.
##2(1)
##175
##Considering
CuIn
##sum
Mr
motivation
##rand
hexagon
TNT
valves
rc
##invariant
##0.89
##−∑
perf
##agnets
polarizable
propane
guess
IPA
wash
Drude
##yer
[43].
(11),
acceptance
##His
copy
##Ax
researches
##-18
MJ
discarded
effluent
##FI
individuals
##133
EUV
(3,
concerted
photoanodes
##gaps
##Given
pumps
projector
evanescent
condenser
ZrB
CCS
Rate
carbazole
##100,
##26,
##9,40
proving
Emp
##dry
##′/
##vsk
##10.0
poled
##xMn
ELISA
Perdew
cancel
ethane
##itol
CuK
##Dec
disag
##iler
##oxicity
##anet
granules
##(24)
Reagents
##idic
154
##lens
ejected
pigment
monoxide
panc
##Lo
##nitrogen
##butylammonium
[29]
[33]
tetrac
obeys
tolerated
##.3,4
Fac
##pyraz
medic
##Chem
##dl
##211
##Ly
##onductance
bunch
polyol
converts
magnifications
division
410
dendron
##PDF
##mittee
CaF
Hybrid
##ochrome
cubes
##-1.
sulfonated
##borane
##–700
Navier
##zsch
depar
##analysis
633
##acetamide
boun
disproportion
##tmorill
mutually
[30,
##vdW
HOPG
systemic
spun
monop
www
meanwhile
voltammetric
strict
Den
##126
Fried
##8.4
##.4,5
##éel
GNR
tack
smectic
Supplemental
RN
##factors
##MCD
##–150
mononuclear
conservative
Vs
##amplitude
RPA
##Ef
(1−
superfluid
diesel
sharing
Δφ
##‐20
##igration
arrival
##1}
##infinite
dissociate
Lim
beaker
##fluids
##.(6
overexp
ubiquitous
##xide
##lements
##−−
##PBA
excluding
580
##ustrated
##∕∂
pursu
coverages
##eads
retrieved
SBS
[1,2].
##Ext
##XX
##Type
HCO
unequ
relaxor
##,(6)
(65
acknowledged
Bose
vigorously
∼6
Stre
compatibilizer
Fra
proposition
GE
##thiaz
repetitive
##wet
Hor
##mj
##uccessful
(28)
##2=−
Lower
administered
worldwide
##tiles
##alization
PBI
##7/
##10%
##Lx
##(16)
##esterification
XY
2010,
PerkinElmer
##0=1
##olefin
##fish
0.25,
Department
##omon
##GI
PPC
##1)+
##etic
PSA
##ilayers
##9.9
254
##–,
##)|2
##NMe
triazole
profiling
plasticizer
##sup
PZ
1050
2012).
##vibrational
##umen
2005
(4.1
TNF
Use
Power
12-
opt
##phenyle
##±0.
8.7
##ocarb
Newton
##Hb
##romer
##Solvent
##0.86
transducers
mPEG
tyrosine
outermost
nucleob
##+–
bir
pyridyl
adds
##)∥
∼15
##mittance
##DCM
preserving
bracket
##6,7
spiked
harmful
nanotechnology
Rad
##lam
mammalian
indicators
##iħ
##hao
##cover
reflective
##=50
Lin
director
Mul
antennas
soot
##0[
activating
##8.2
##oning
optic
##0.57
##reversal
recombinant
##ithiation
rewrite
##icate
decoherence
epid
fric
##opoly
##.:
zeroth
##azo
hairpin
12)
EPS
recharge
oligomeric
153
prime
UA
##:(1)
##xF
##obin
[34]
##okinetic
##var
EDL
514
##osities
initiating
rip
##cellulose
tetraz
appealing
>99
paired
assessing
##.5,6
##〉〈
##uchy
trench
dumbbell
##Mer
##0.43
exo
penicillin
HAuCl
−30
##hetero
dextran
options
cosmological
Pressure
tethered
##epler
thiourea
##′)=
Together
##orer
SPA
##=18
Set
##isole
VE
nanobelts
envis
concentric
##Variation
##positions
##bur
JC
lymph
##rever
##.6,7
immunos
##dA
polyhedra
HSE
##1.0,
inflection
##8.3
##proper
alternatively
##SIS
##′2
NGC
topologically
##12,13
SBR
##Among
separates
##quantum
benzylic
##Nc
##never
##MH
stereoselective
Adapted
QC
##FESEM
##Besides
(○
##DTA
Bal
TX
calcite
textures
##character
##Typical
stray
##ulosic
valleys
##–[
570
Physics
##CTA
DLC
##atalyst
Panel
##large
##antation
##availability
Dist
laboratories
##9.7
##when
CQDs
##0.76
spanwise
##±2
neighbouring
smoother
##qe
datasets
depolymer
##scher
Silicon
##Three
##zations
pigments
Char
##.7,8
globular
cuts
retarded
remin
dehydrated
808
quarter
aven
##cidyl
swell
MFC
##UST
[30]
##drying
##Simulation
##CAP
cartilage
TDDFT
melan
Fabrication
##factant
2400
##HMWPE
orif
##sensing
##NaOH
dith
pinhole
distant
lac
nanoindentation
##ocarbon
uran
##room
100°
Quantitative
##DG
##]­[
Simultaneously
clearance
11)
methylation
##[3,
275
##organized
##2)3
##dynamics
minus
##270
Du
300,
##0/[
##–34
##utron
widen
98%
##ohnson
##fting
##sient
occupies
quantized
grazing
CHI
##electrolytes
0.5.
avalanche
disorders
extensions
serial
sensitivities
##ita
restored
(5.0
Performance
sent
rab
hypothetical
dendrite
##ysi
dissim
Professor
trac
adhesives
##.(8)
##biphenyl
MEMS
virtue
CoS
visually
##MAA
##pow
##3)3·
sums
CuPc
EGF
##7,8
##velocity
##12.5
##°),
Leg
##13),
##buty
offering
##omposites
##PPO
id
##iw
interdig
##inspired
resolutions
490
##allow
exert
##uchi
##AlC
##NDI
##MAEMA
segmental
##⟩+
COF
##)0
meshes
##∕(
Care
spir
##InP
SQ
sugars
ferrites
piston
globally
spherulites
##qj
retardation
##reflection
##Einstein
paragraph
##havi
neuro
##optimized
##ophyl
##inforced
(1.3
##inites
LiO
NBO
##[4]
##)∝
pioneering
manual
IPCE
##hof
electrost
##8.8
##)+∑
MIC
(85
monovalent
Reduction
##amyl
##stacking
##0.83
##catalysts
##FITC
firm
##fitting
topographic
##Before
Simulated
##LN
plastics
manifolds
ben
##Photo
##EDTA
−40
Class
nitrides
sidewalls
##Remark
Riemann
whenever
simplification
Having
descriptors
productivity
fulfill
lin
##5.2
##oic
associate
23,
aerugin
##TCNQ
Mechanism
driver
Commerc
diabatic
restrain
##Tn
0–
##above
##rome
Ip
##lap
nth
anchor
fing
##)2)
##mV
funnel
##ulfonate
service
##Tl
##|.
traced
injector
(7).
microfib
magnetoelectric
##crown
##undlich
mortar
##tube
processability
##-4,
truly
##gated
byproducts
[44].
##fcc
CX
steril
suitability
decision
inkjet
##edo
166
intestinal
lipase
##9,10
##Following
dys
##xB
##peptides
##printed
mimics
reporter
##filling
##–36
##carboxylate
Numer
##7–
##iya
##kis
bioactivity
Gauss
0.44
##compens
##121
##8.6
microw
##Relative
saturate
##=1)
375
##oxorubicin
Six
##within
##usler
multiplying
##asi
##144
rheometer
polysaccharide
##tmorillonite
Except
manipulated
chemisorbed
##recipitation
##−2),
##1–7
CPs
##nanop
batches
underestimated
chemists
hous
##PDT
##(+
##onene
Bulk
boro
deploy
##CdSe
Polar
##2–7
##ovian
urethane
setups
##0∂
Hen
fixation
infra
560
tapered
##gold
##lithium
[9],
topologies
staggered
hemic
##oin
##hot
256
Pic
##=-
##hig
attracting
500,
chaos
##adecane
Illustration
##aki
lighting
viral
noisy
##ococcus
SK
##–1),
Néel
##gr
Highly
##kyne
##welling
##TiN
CNCs
pulp
##.9,10
attributes
##MSN
HTM
synchronized
##BMA
biomarkers
##implanted
partner
##)−(
thereafter
##Carbon
Kir
macrocycles
Transfer
##0.69
##×10−2
encl
##.8,9
Chern
Soft
##ischer
##11]
replication
##zerland
macroporous
GST
Stability
heteroatom
##ridge
merge
##EST
How
nominally
##4+,
returned
placement
accelerates
1.55
##Dt
##ATP
Oh
sine
metallicity
Cn
CASSCF
##DTT
multiferroic
##fp
##/(2
##5.6
390
multiplicity
##fullerene
1.15
##-60
nucleated
reconstructions
##gery
aeruginosa
##polymers
[8],
depression
dilat
##IMD
rolled
Core
MAO
MPS
##)7
##0.64
##rami
nucleotide
##iar
##mino
antibonding
##8,9
iPr
Human
##shear
inconsistent
Thereafter
316
PMF
##Agilent
##ubbles
fractionation
##ucifer
##changing
circumstances
##2−,
MNP
TENG
##domains
##CPE
symmetrically
##etes
(12),
consol
chromatic
##compound
Otherwise
hepat
Tan
0.97
eccentric
ga
##anethiol
0.39
fructose
prerequisite
Post
shocks
snapshot
0.67
compartments
##×3
photochrom
##210
##mut
collisionless
##assay
unfolded
apoptotic
arylation
##etin
binders
Copper
##Some
Cauchy
triggering
70°
Ham
crown
##Fi
motors
subsection
##beg
Huang
##‐5‐
(29)
##Scanning
frequent
Bn
cargo
Between
##care
flood
##idase
##midt
##disk
##oxazine
##sulfur
inform
##1..
geodes
##8.1
##DME
removes
##compare
retro
##$,
specially
##omposition
instrumentation
10–20
fundamentally
indisp
siloxane
liposome
LiMn
##]+.
quadrature
gently
carboxy
Frequency
##ferroc
sweeps
alkane
separatrix
##TaO
##3/2,
##WR
serving
##iba
##14,15
PLE
chronic
##cutaneous
7),
##interaction
##11−
semicrystalline
(2.3
##9/2
manifests
Prec
Optimization
swept
regulating
[111]
differentiated
frictional
215
##races
infinites
512
DTA
40°
##stellar
rac
##une
nitrite
comment
##Man
##BiO
nanoflakes
Estim
##neum
##self
Conclusions
hinders
##isotropic
horizontally
regioselective
submicron
##)−2
[14],
Hom
##onates
[12],
occupying
##Hal
[10],
Centre
[13],
realizations
0.96
##Hence
cones
DETA
##vitrogen
##butane
uranyl
##tf
##9(
dispers
##oke
##0.3,
[11],
closing
##1–4
##adsorption
interchain
##-41
biasing
biphenyl
spurious
pressur
Oxidation
marginally
##)3,
laterally
##alpha
inhomogeneities
(45
##.10,11
##Number
kz
##orated
##stat
##cj
##agnetically
1064
contrasts
KP
United
##vn
WI
##initiated
FeO
(198
perylene
wavefunctions
##monotonic
##iskers
Triton
immersing
biop
##(0001)
##acters
##0}
Basic
Acet
VL
##electrons
remanent
##ricted
##13).
Millipore
Stress
MCT
Rhe
##3⋅
APTES
fingerprint
##embranes
spectrometers
eliminates
##dichloro
antagon
##alcoh
##134
167
dsDNA
dispos
Heter
##disc
##nb
##dimer
incorporates
pyroch
reflector
##dH
##Determination
##hydrophilic
6000
[6],
cryo
##column
microns
[7],
shortened
##,32
regulatory
biphasic
transforming
glyc
benign
##veloped
dictated
##2,...,
triggers
routinely
##-19
obstacles
99.9
bifurc
Hop
FeSe
weather
OSCs
MSD
##adecyl
##15,16
##partic
##otactic
opaque
doubled
##Interestingly
tautomer
PDOS
##algebra
##deoxy
basin
##Statistical
convergent
refinements
primer
##−14
aware
##breaking
120°
nanogels
instances
(0.01
voltammogram
hardware
##urfaces
WAXD
##bz
##ny
4:
##Mass
##0.42
##2(2)
##reement
chitin
##pectives
Real
tantal
##emi
SnSe
reused
##rab
orthogon
abruptly
##added
##ensable
##+2)
HCN
isobut
##–1.5
extruder
chemotherapy
AV
returns
##oclay
microchannels
##16,17
##sided
Gy
connects
##17,18
End
≲
Fock
##3)4
sketch
semimet
cus
##.11,12
##tible
hydrolytic
MODEL
##liers
monos
##cks
Spectral
0.90
dropping
pollutant
##acol
DMS
page
##disubstituted
chemist
##trast
contacting
##panel
##reactive
HRS
##rictive
##−⟨
diffracted
##PAGE
##deriv
##rimary
Ligand
##Hi
downfield
##respectively
##diamond
desorbed
##0.63
##0.001
conjecture
coumarin
Combined
polysaccharides
##rod
##0.93
PCs
Elmer
##AI
##olinium
##137
poisoning
2.5,
stear
##>2
[15],
loosely
MWNT
Application
##isks
Suppose
##Rad
minimizes
##0.84
##dem
Still
##5.3
OFETs
##22−
Burg
##LV
prodrug
##NV
divergent
##3′
PEEK
trop
##purple
##PtCl
##urine
##expl
##AAC
##8–
3–4
##aco
Ren
mitigate
Laboratories
LRS
##igt
Rabi
chelate
##=+
tryptophan
polycarbonate
##TU
KB
##haw
nutrient
Tecnai
(1:1
##anoate
tearing
Morphology
vaporization
looks
##Asp
molded
##rained
##]}
Δμ
[4],
##covery
##dB
misorientation
##(−1)
##lasma
Chlor
[5],
Mi
Fin
MCP
##acin
raises
cen
##ander
##^{\
##olk
LbL
Else
##extraction
SCs
##izability
raising
##Determined
##riles
IEC
Drug
photostability
##balanced
anharmon
Mart
splitter
delivering
VEGF
##oamp
##storage
preclu
deriving
##etherlands
sectors
09
##ensus
pestic
##∈{
##SPE
pushed
potentiostat
##AH
##CZ
##MPA
##shot
breakage
ready
streamer
vapors
##Arg
##veness
TCE
scores
powdered
173
Rather
##iscent
Excitation
##,(7)
secretion
##14),
##icc
##ayered
7.4,
nic
deoxygen
overestimated
##aerobic
##πε
##phenanth
##–1.0
##Comb
##icin
predetermined
buffers
simplifies
piv
##mediate
noninteracting
##ende
##osil
determinations
##-/
(•
##)-3-
Possible
FeCo
diminishes
##.(9)
algebras
##Lemma
characters
envisioned
aiming
addressing
##21)
cited
1.05
discretized
##reted
##olium
##integration
##respondingly
Contact
azimuth
neutralized
##0.79
##136
[45].
attractor
##SEC
(3.5
nanopro
##encapsulated
##Tensile
HDA
phenols
Separ
neuron
##vt
##12/
Bis
Column
analyse
##jin
##text
##Electrical
finely
##Metal
##produced
imines
[16],
slowing
##begin
##.2,3
pyroelectric
##dF
##3)]
na
##TFA
Reference
SBF
uneven
endo
brighter
dissimilar
##8.7
0.60
##8.9
##rowave
##TMA
modulator
##1→
##dS
Sulf
waiting
DMAP
ferroelectrics
(100),
0.6,
Taken
##−1=
wavelet
sensitizer
Multiple
##Tables
Carb
1]
164
spheroids
##nzer
##Mc
##glow
getting
bp
(|
ripening
##bipyridine
(30)
##apto
##ori
locked
genome
##2,43
##ng
magnetoc
##charging
raise
##Ze
##atalysts
indispensable
IX
##HFP
grand
##–45
##together
ei
stimulate
economical
Number
HTL
wit
scratch
10%,
##ectives
##EW
##ickers
##cessible
##CdTe
neutrals
##oda
(2.4
##.12,13
##vided
##PBI
seal
polymerase
stagnation
Consistent
##UO
niobium
DPPC
thym
##2,3-
discriminate
adenine
DGEBA
##0.59
(1.6
##unov
intermittent
7%
Proton
Hes
##ohlra
glutathione
##(∇
combinatorial
##key
eg
7.(
##≠0,
Cooper
##PK
PFM
slag
##elian
Tian
##illus
heats
##silylation
##tanh
##terminus
programming
pM
dendrites
##salt
colle
chalcogenide
##comb
Plus
[3],
##NCH
##heng
consuming
##0.4,
inefficient
Ki
##woven
sequencing
##existing
##illaries
egg
benzoic
##BuLi
##({
##,33
eleg
##enium
##XY
##displacement
[36]
##lecting
##seudo
UT
##gradi
##imidazol
##>1
##0.0,
##Kn
implementing
MSNs
##HODS
##ynchron
microplate
##Spin
##Initial
Academ
##KD
pyramid
explanations
imprinting
carbohydrates
##rogen
mS
##odiimide
##esthe
0.46
ultral
MFI
reusability
##KI
xer
fate
##vection
alters
splits
##132
Fr
reminiscent
##iodo
parametrization
osm
##cyclopent
[17],
##lick
impregnated
510
##(17)
QY
##ometh
Vth
scavenging
tasks
Flo
##tol
YIG
subband
aza
locking
entrapped
Ko
−80
##).(3
Distribution
##determined
##yryl
deficient
thre
LLDPE
##urethanes
(31)
interstitials
##condition
denaturation
##cyclo
##osteric
protease
##cubic
sacrific
##crosslinked
##)(1−
evidences
##14).
impulse
crosslinks
Pm
##PTFE
nanocarriers
##PSCs
DAPI
##0.92
##1200
acrylamide
constituted
##Eqs
Paper
355
superf
Room
##dominated
##2⋅
regularly
ASA
presently
##2∣
##→0,
##*+
##αα
##illers
photovoltaics
Line
##locking
Ry
supere
bear
exemplified
BMP
amen
doxorubicin
##kle
shortening
##Pack
[18],
PPO
transporting
diene
desal
magnon
alkynyl
1:2
viewing
##15),
##para
bud
##.13,14
overlayer
##pres
mu
conceptual
inactivation
##Therm
##momentum
ple
merits
finished
(1.4
##lactic
nanol
##hou
invariants
asymmetrical
##ranging
##sorp
##DN
PCN
2/
pads
##butene
actions
Anderson
##18,19
##amped
Netherlands
##–1).
AEM
##atiot
0.31
##Measurement
North
##const
##nergetic
Wi
Cyc
imm
photometry
##sput
2009,
pulled
##milled
oppositely
##0.74
##129
electrophoretic
196
##triggered
geometrically
##Quantum
tentatively
DBD
oxidants
##itics
##RHE
##SOC
ACN
remarks
superstructure
##750
Gen
##))+
ellipse
##fluoride
##series
Bios
##ignificantly
ejection
##MeO
##FN
sticking
##3%
margin
##ocompati
##Linear
##label
##siveness
##mits
Han
##oreg
##attere
Jiang
NiTi
##athered
prefactor
sterile
Path
streaming
polarisation
##atum
##/6‐
##×10−7
MOs
[35]
AH
Region
commut
##Mi
translated
##nzerhof
##.(10)
##agons
##–0.5
projectile
##served
oligonucleotide
XC
CDW
paint
inflation
SANS
thousands
inevitable
##short
idealized
##ixel
TCO
ICT
Heat
ABC
##unct
##ithiophene
strontium
skeletal
Bohr
##selectivity
##oscill
polysulfides
Fitting
buoyancy
##10].
##:=
##–38
##redicted
80,
COS
##isocyanate
##0〉
##Eth
##uclidean
##fluorinated
Elsevier
0.80
multiplet
Es
young
ClO
labile
##)22
pentane
##Free
Switzerland
uncorrelated
segregated
1.75
Membrane
##metic
##Condon
##Nano
corn
aliquots
aliquot
succin
193
##wa
##analytical
dioxane
promotion
polyimides
##Each
Back
##(111),
##ypt
orifice
Je
circulating
##three
recoil
Stern
hydrides
##vj
13).
1.23
Reson
##dimethylamino
ultrafine
stereochemical
rearrangements
##(0)(
Spectrum
##kc
IE
maximized
##natural
##1,42
Devices
##species
sealing
##bn
##0.8,
ROP
##tetraz
##(26)
update
specify
##neat
hydroxyapatite
infections
satellites
joined
(37
alterations
elevation
carcinoma
##xz
2.25
##0.6,
denominator
##:10
axially
Force
##iphenyl
##JEOL
[19],
+1
##PAC
achiral
bicarbonate
scavenger
##,1,
##TPE
restoring
RHEED
##spectrum
CMS
telescope
##olig
##atable
LES
##2/(
##–4].
##–37
accessed
astrophysical
biosensing
141
2006
##KH
lect
Methyl
apatite
formulae
sple
imposing
reside
##cavity
2,6-
##=1+
Mp
Sup
##HEMA
##addin
163
seriously
LOD
machining
fluorination
Ia
(120
Observ
evolutionary
Plas
house
incubator
##FU
preparative
##release
LG
(2016
Dielectric
Δε
artificially
##urban
Kepler
##‐9
##heptane
respiratory
##|)
##2∫
##EMD
[2],
penalty
foundation
sulfone
2011).
EW
##ampling
##diol
0.47
desorb
furnished
(8).
##=−(
Rich
organo
##),(2)
##147
tapes
##Samples
##regulation
chart
2017).
restricts
renormalized
biod
##]0/[
decomposes
[33,
1550
witness
byproduct
kp
##MET
##heim
##ostructures
lyophilized
threading
prevail
##stone
##eik
isotrop
exceptionally
##Hx
polysulfide
##dione
##FDA
##-800
Rot
1.35
letters
Correspondingly
Cle
TES
##omain
cosmic
0.8,
##lasts
##QS
XL
pC
caspase
##OF
##ogonal
19.
##−11
##Fermi
(13),
electrochromic
##.26,
absorbs
saving
##ceptions
GH
asymmet
##19,20
##ynchrotron
##stic
12%
destabilization
##renkel
##Glc
##aminopropyl
[46].
##ulfonic
##gradient
rescaled
1−
indexes
##date
0.66
##oporous
reset
##lla
##ball
ION
exhaust
evaporate
centred
##edicine
##15).
[20],
##Ver
About
Secs
isomeric
##0.62
##angu
preformed
anticipate
neutrality
##opulation
##9%
##0)+
##138
PbO
##∗)
##rogate
##311
##KN
##Weiss
kpc
skyrmion
##5:
235
destructive
Alq
##osides
Ret
Tol
transmembrane
##sial
ETL
objectives
##CTAB
denoting
##154
35%
##.0%
##inst
400,
everywhere
Cap
Sinopharm
##urized
Strong
deterg
nanost
##ichia
helped
oxidase
##iadi
RMSD
Mix
##alkylation
##−0.00
Digital
##ademic
##fr
##raries
##sites
##(9
##3,44
bioavailability
2°
SiN
mimicking
luminous
weigh
mesophase
refluxing
##Δφ
gr
photosensitizer
surroundings
##elivery
##buffered
##Adsorption
Maximum
bandgaps
assembling
Ξ
##2–3
apo
DME
##alities
##ophag
Life
polypeptide
interdiffusion
broaden
injecting
Silica
##32.8
##tone
Nos
voxel
regards
separable
##Norm
##(±
##ultipl
##+=
resuspended
Understanding
shrinking
bursts
HUV
sensitized
##SCE
agglomerated
##,0,
furfural
##.14,15
##munication
##Cm
##→−
conditioned
agricultural
reporting
subscripts
quantifying
##)4(
##ora
##arity
##vz
##.15,16
My
CHO
soc
##Peak
##titions
micropore
##ddt
##yrenes
hexanes
Neumann
##0)2
diastereo
HG
0≤
COD
##eless
##reased
homogenized
perpendicularly
runaway
##SWCNT
##enching
bosons
centim
##Jsc
##obis
##ucine
inves
Pal
hump
##Source
glutar
CYP
coincident
garnet
compaction
dispersity
VIII
##adienyl
##PVC
aq
slot
##2×
##PLS
homogenization
Orig
bleaching
##triazole
proportionality
0.88
20-
featured
Series
##MN
ferrim
14(
PAMAM
NaYF
radioactive
specular
expectations
##HDPE
PEN
##KR
##Graphene
GeO
##clean
wings
##RAFT
##xin
##Oct
EH
##roelectric
##(18)
##0.025
##fb
##controll
##550
##ariate
telec
Academy
##Entry
##rimer
620
costly
##omposite
planning
mand
##ws
##1*
Culture
LiPF
oxygenated
##fixed
##1500
amenable
##za
1700
Lithium
##PLE
##graded
##aign
metasurface
##⊥(
##vacancy
HAP
Influence
##ponse
foreign
multivalent
macrom
sublattices
Detection
##SrTiO
##Fm
28,
bold
##urance
(2×
bottlen
nanodots
##ees
200°
##qn
eyes
spinodal
powered
perspectives
##hexa
John
##Yes
##reliminary
TMDs
##reinforced
OFF
##Chlor
Sequ
sectional
##negligible
histor
Berry
##clock
multistep
##acian
152
##2−(
FB
aberration
spintronics
LAO
##alloys
humidified
##lysine
##CAT
##decorated
##/8
##0.73
MXene
phenanth
blueshift
acous
Yellow
subcutaneous
jth
##,(8)
323
distal
rubbery
##pentane
seek
##anil
(∂
anaerobic
Purification
##11.5
##rank
Bur
conditioning
(32)
gated
##She
Grant
##NHS
supra
Pet
##.(11)
##=(2
##CDA
303
Mull
##−2(
paradigm
definitely
##5.8
PY
##property
Ant
##))(
Mag
##bornene
microphase
##CHI
ha
##iken
recommend
favoring
##CW
##orov
PPS
overlay
shaping
1990
prevalent
##ida
escap
##broad
NaNO
mould
art
suite
taper
##rn
Go
adhere
##ROS
JCPDS
hBN
##∥,
##borne
<0,
##Product
##real
contribut
2,4-
referring
segmented
##bran
polyplex
##,34
complexed
scattere
##∕2)
Pf
default
bromo
4–6
SHEL
wish
quies
##∫01
##zn
##12].
TPS
physisorption
0.42
yarn
##odimer
##BJ
##=12(
Canada
##POM
SRO
advancing
Freundlich
bubbling
Oxford
##′]
Tween
triflate
observational
0.78
##aft
##5.7
##148
Determined
##.16,17
Advance
GCD
trid
quark
origami
Assay
##targeted
maleic
guides
##).1
##acker
masks
machines
quatern
neon
##mmol
##alumina
CoP
transversal
graphitization
[60
donating
##/°
##promoted
##Gre
##.40,
quadrupolar
##Ap
##ej
373
ImageJ
##GNR
##initial
##odd
##SV
MPC
##uryl
constantly
Hum
Particles
##1+(
##Gas
##)]2
Activity
loses
##quadruplex
8.9
Main
##iration
(3.3
pN
##irically
630
toughening
##patterned
##MPS
Oct
WL
Flory
putative
##apunov
##peaks
Afterward
solidified
fluidic
spleen
##uy
subsystems
photoelectrons
Fortunately
Tmax
[21],
aa
Ultim
South
PAHs
##rative
chemos
nucleotides
0.2%
multiplic
switchable
rechargeable
Products
##)=⟨
##ILS
Nucle
meant
##separation
##-48
Sing
lubricant
##ert
##especially
lanthanum
##QA
symplectic
microhardness
##→(
eigenvector
##216
files
##kb
dusty
impar
∼40
eigenmodes
##kcal
##199
ZnCl
##iq
##ilinear
ber
Hessian
Substrate
##LJ
##erged
poorer
epilayer
photomultipl
##uche
item
##naphth
thermometer
microfluidics
vials
observer
CTE
0.64
encouraging
##Min
Wave
##canonical
Hug
Committee
spectrally
Western
##PdCl
##rints
##hc
##7−
##trapping
surpass
debate
##atiotemporal
##)9
##posed
##′;
##tb
100-
multiscale
Ost
##Exc
##Mark
spong
DEP
Ministry
withstand
##orst
grant
Af
dz
##anionic
##]2+
clamped
gratefully
HTS
9.4
##hydroxyl
gentle
##fluoroethylene
isostructural
##Qi
encounter
shedding
##Left
coupler
Lastly
histidine
##Fluorescence
DBT
intake
Local
##EGMA
trough
##ˆ(
##4,45
TiCl
##WL
fi
diagonalization
sorting
lubrication
##atsu
shielded
dipping
##ptic
##USA
agon
opposing
keto
##(1)‐
Yu
lactone
##156
##(4),
##MSNs
##tler
multipole
Numerous
xylene
infilt
cinn
##fo
##nelling
Quan
##isecond
eryth
##GQDs
##XZ
LSV
Ultr
resolving
##assembling
##=0.05
imbalance
libraries
stroke
phthalocyanine
Ai
hydroxides
diatomic
##|≤
##NCO
##bean
Vickers
##isol
EMI
smoothed
phospholipid
0.68
Bell
apertures
##)‐1
ZB
replicas
recir
UPS
##20,21
Nor
cosine
##romeritics
phosphates
(×
##tolu
poses
##methane
prompted
##ospec
continuation
##armor
##itosan
##⊥2
InSb
pose
Burgers
elaborate
synchronous
Avance
dewetting
discussing
##11.0
##oborate
Austral
##rants
##dor
##rinsic
tubing
polariton
##methoxyphenyl
##Atomic
twee
capillaries
##colored
modulations
##)18
##scherichia
2]
##galact
trailing
doubling
hydrogens
Off
##ustered
AgNWs
##aggregation
literatures
##2+4
outgoing
##affe
2–5
gapped
differed
##ulant
##ordination
Confocal
##SPR
manipulating
##→,
9.2
NBT
##153
gum
##difference
Inspired
##∞.
[22],
alanine
##Tyr
##,(5
biodegradation
##Fo
2;
hemispherical
cancers
KF
ratiometric
scintillation
KNN
joining
JET
PLL
##2)/
conv
##Ks
shaken
##ader
Xu
orthon
commensurate
##Ma
TiB
clinically
survive
##TEA
HClO
alloyed
##.(12)
microf
##emia
tetramer
##Hall
arene
RTA
##hol
(97
DPD
##barrier
0.002
San
##HER
asphalt
anharmonicity
##InAs
sched
##iezo
streptavidin
consensus
hing
leuk
##Dimethyl
##)≔
##→∞,
monoton
pyrochlore
##siRNA
##ece
mediator
GaP
Stud
millimeter
##0.82
participants
##Mechan
len
Project
##yz
##]),
nucleate
impinging
Vb
organics
##.4.2
±1
##+∇
##orphological
collimated
unavoid
PBD
Alumin
720
##harves
##mable
necro
35,
colleag
##2=(
kil
##TEOS
LCP
##ohlraum
preparations
##ismic
LFP
##represent
Conventional
optoelectronics
##oub
glycan
##kf
##×103
LiNbO
##ota
urban
Prot
amplifiers
##yll
##MALDI
##iences
(14),
##ichloro
0.43
cytoskele
pursued
##fections
BNT
ocean
##-40
(33)
##artet
##rox
HPC
visibility
installation
hydroxylation
diazo
##oval
##avg
summed
##ovascular
Clo
Hyd
confine
GMA
##developed
eclip
nanochannels
Pel
transduction
PNA
##rows
##fused
zeros
vein
weaken
Coupling
UHMWPE
531
##ofl
[47].
LiNi
##.—
##Ke
780
##Med
##lf
27,
borohydride
##aton
##GY
##ophobic
##adequ
##SAR
Educ
##arin
1250
##asted
MFM
##scaled
##=300
##Dependence
##|(
contradiction
##Ct
TTF
##ochlor
cesium
pharmaceuticals
##tooth
##ardless
epoxides
##|∇
Double
rotates
surve
##sharing
galact
##ocaloric
acetaldehyde
##diyl
##3)2),
##necked
##0=2
underway
interchange
185
Incorpor
##+).
Ns
##aggregates
##Band
26,
##.17,18
NiS
MIT
frustration
##TMP
##weak
copies
graphical
##pert
ellipsoid
neglig
vitamin
gapless
nanohybrids
Photographs
##graphite
##TON
chromatograph
vent
PESs
magic
ADC
splittings
##AMP
##licated
##aluminum
##)]−
eject
ACS
GT
##AuNP
fc
LDHs
##240
##thiophen
NDI
##thien
surgery
2.0,
Rever
##versing
book
Activation
wR
Galactic
quencher
mediate
Euclidean
[16,
##ethoxysilane
specifications
##male
cancellation
##CuCl
##0.7,
##Super
##rystallization
##arer
##ethynyl
conce
Compar
(2015)
epitaxially
1.45
##pyridin
8),
bad
2,6‐
bioch
2100
BiOCl
regularity
prostate
accomplish
9.6
quinone
##titious
metabolite
##)13
##DMC
invas
purge
salicyl
corrosive
Mann
(99.9
trilayer
cytokines
pyridinic
2008,
Lyapunov
Much
##apes
150°
(1000
compressible
backscattered
persists
Johnson
##Vm
Laplacian
Silver
Hol
##Solid
##azolyl
(1.8
##1...
infinitesimal
heteroatoms
submitted
chemo
Counc
Son
photoelectric
##0.72
MSN
appreciably
(4.2
ionomer
ZS
##HOD
moles
##9;
##MOD
kGy
##meter
##TAC
RV
HIV
Iron
##unching
wool
entrap
ESCA
##Planck
aptamers
##CMs
Cry
##Organ
##contrast
RDF
Impro
##NiFe
preserves
replicate
##xSe
##dG
##utin
peel
guanine
ven
PK
##GeO
ECD
##rp
##−),
##.2.6
##Direct
##recip
Nc
Insets
gathered
spanned
##steel
phosphorescent
blur
##flat
coverslip
determinants
##tk
(34)
topics
got
6-31
GOx
Lam
Council
##vy
May
stably
##aminated
##leading
nontoxic
Alg
bie
##sembly
goals
wheel
pneum
Phen
evaluations
##DW
##-34
CLSM
ascertain
aromaticity
2017,
perchlorate
sorbents
(5,
ablated
##CCH
deline
intergranular
##dil
imperfect
##(19)
##imeters
##CTS
##±0.1
nanoph
fading
313
(23
0.70
##alysed
##SPS
##Mal
Letter
utilis
##gon
65%
nanofillers
calorimetric
darker
lap
[17,
##owders
_1
proximal
logical
releases
spintronic
##0∕
Fast
##3+:
##modulated
##.18,19
SCO
implicitly
polic
##efined
##(20)
10%.
##AE
eu
ARPES
Publishing
##Δε
0.05.
medicinal
##–120
##ulative
Fischer
##Measurements
##2=2
##cyl
##Experiment
pil
##plas
9-
Chiral
Aqueous
()
##178
##95%
##mem
DTG
biomaterial
##(3‐
##Sj
pla
fronts
##xFe
##dR
##100}
##4,5,
##otran
CONCLUSION
MCE
##qubit
##}}$
arch
##FG
##OFF
##oret
SRS
communities
Kle
arcs
permeance
clockwise
425
##usually
##AgNPs
lamella
##ocell
aromatics
##PTS
LSC
Inhib
##0.0000
##Transmission
pancre
0.49
##wind
[23],
4,4′‐
##MAX
##5,46
CoFeB
mullite
Floquet
525
knock
tether
nonvolatile
tR
dipped
##isoprop
abstract
hab
AlCl
##CaO
hexafluor
PPA
FW
##8+
216
##ilica
NCO
##benzaldehyde
(111),
(2016)
cw
elaborated
##Δμ
##195
familiar
amorphization
##http
##IGZO
640
inadequ
photomultiplier
sig
##resnel
##)*
Contrary
optimised
adaptation
##Overall
##/0
##my
[37]
enfor
unambiguous
Iden
##alkyne
Animal
searching
overcoming
worst
##thaw
misalignment
vibrationally
∼8
##EQE
##incar
##-1,3-
##Boltzmann
tantalum
needles
laminate
strengthened
SiNWs
##-21
##Ez
PhC
holographic
##glycerol
##vanishing
##0,0,
##anal
gaug
##,(9)
interferometry
Event
2018
centerline
##fluorophenyl
##.,−
Larmor
##Evolution
##ör
Pen
##.19,20
##finite
##245
ripple
TMC
##LiF
##chitosan
##cyclohexane
inflow
##Com
fibroblast
biofilms
##Morphology
exotic
MATLAB
##rotation
##kd
##ito
##udsen
##ferences
incremental
##CIS
##∂2∂
##glycol
afterglow
2010).
oligos
disclosed
##ditive
oxygens
ci
##andom
PEGylated
agglomerate
Tor
MSC
phenotype
##Perkin
##bf
##/15
##mel
microcr
##(∑
##fected
##146
##eping
##unk
##0.31
Lattice
diffuses
Cary
##jl
Aladdin
antifouling
##evapor
slows
##ournal
decisive
decoration
Vir
student
terrace
##metall
##oxia
##onomic
##Ed
##|2+
##uples
MQW
negligibly
generations
##Light
##inical
##win
desicc
laminated
recovers
quiescent
##=1/2
bioimaging
identically
##230
##Ip
bisphenol
sle
##235
vacant
Legend
##δφ
##four
##rotating
diaryl
##290
necessit
(9).
diastereomers
##ylidene
266
##2<
##Fourier
##adjoint
##SIM
subsets
Applied
##IJ
##Rct
lump
##spaces
dominance
##oli
##143
##Stu
lacks
2×
HY
hydroper
##=0.1,
steeper
##),(3
threefold
normalised
##oubted
##dimethoxy
##11/2
photochromic
##Catalytic
eigenstate
##havior
##content
##brown
Characteristics
prismatic
colleagues
glutaraldehyde
intersections
Computational
thermalization
32,
(35)
Franck
##FeCl
Jahn
nicely
emittance
sketched
##ospin
∼200
##,35
##)16
preheated
##IPN
##-17
entangle
opin
##atterns
LSM
recurrence
ABA
Alexa
##MV
indent
∼7
CuBr
##.(13)
##links
Dynamics
##KF
whiskers
##benzoyl
##chloride
##Δω
9.8
##−13
##inery
cameras
14)
##Pert
Vac
Unless
##vaporation
##=0),
##ESS
##ologic
thermionic
diminish
Fabry
psi
##ilson
##254
organocat
##uron
Olympus
##rost
sort
mitigation
##Rm
##tetrahydro
security
tetrahydro
independence
IPN
hypot
##bul
##PNIPAM
##(-
(2-
bus
Concerning
memories
Ratio
##.1–5
(∼1
penetrating
1/3
radiated
##1(2)
alkaloids
spheroid
mesopore
acyclic
distinguishing
##PAAm
tracked
Avrami
handled
ideality
90°,
(>99
Kd
##antile
##orters
swing
##15/2
bicyclic
##xT
prem
##incaré
polyhedral
##cessing
receive
##bleaching
##0.015
##Hn
##Self
[24],
yolk
##DVB
acetal
uncorrected
##90°
Qual
##octene
persulfate
##QT
positional
conventionally
PbTe
0.015
montmorillonite
##vk
##)=4
pathogens
(96
wrinkles
Kap
NY
Ala
##mixture
##xyl
LiCoO
clump
##Particle
##owing
##1+2
nas
##glycos
##−1)2
##3)2·6
peaking
##405
LV
kT
imperfections
##otton
Composites
##1=−
flare
##network
Ide
OCP
RBS
divide
controver
##sky
##third
Proof
11.5
##exposed
13.5
##gard
##ropium
biodies
PHA
Weight
##><
synd
templating
(15),
silicide
Vp
INT
[38]
##exciton
envisaged
##-311++
Microscope
##=0.5,
demagnetization
safely
spatiotemporal
FeIII
670
##atiles
oxalate
estimations
Ram
TZ
##packet
##Ro
##1.05
synaptic
pipeline
##agle
Melting
##11.
interconversion
biosynthetic
##beta
SMP
TEG
Ent
##epitaxial
translates
##-2)
13)
CBS
##meso
nothing
contract
buildup
(27
##atching
Thereby
elastomeric
##hydroxymethyl
##nx
##4=
diffusivities
##0)(
PMS
##erenti
##ulcan
##‐100
Scattering
##AlH
exerc
##Jo
##istivity
alkoxide
diverges
CFO
contacted
##edded
ai
##205
langu
##Merck
[25],
##PY
microtub
hazardous
##224
[26,
racem
##ecker
lysis
##DETA
hierarchically
refractory
Function
##).5
slits
CPP
universality
EOM
cp
abrasion
##-24
##ignard
##.(14)
footprint
adsorbing
AgNP
pyridinium
##1/2(
SEBS
isoch
##Kinetic
##)⊗
##apter
##]+:
##BiVO
entered
0.94
rs
magenta
trimers
##Cq
##bm
guarantees
metallization
##———
coding
irrelevant
PbSe
Diffusion
##Orig
}
−50
peeling
##225
(0.15
Theory
##cyclization
##WP
##Inc
[48].
2000,
−6
carbamate
SLM
sch
suitably
Zhao
prompt
##14].
rigorously
##meable
##Compared
hydrates
{1
##′′),
PECVD
##EMENT
##Butyl
##oubtedly
##inone
excip
Concent
supercells
##Most
temporary
glide
##Alg
##rils
##higher
##rapies
##propagating
slowed
##look
##ometries
MIS
##omethanes
quoted
##HSA
dimp
##OtBu
dryness
Fenton
polarizing
beat
proline
machined
traff
##otor
##VIS
SAR
unexpl
##VCH
##encil
Escherichia
RBC
##atever
##octoral
$=
encapsulating
DPA
harder
##ikov
VDS
##Ak
##branched
transpl
##)∫
frustrated
(220)
Education
centrifuge
AMP
##Ny
##3/2)
unsteady
##OMeTAD
hydrodynamics
##70,
##axed
Hill
BCS
1.33
##bene
(000
Nanot
##010
##Land
Modified
##science
Fo
speciation
##CNs
spectroscopies
prospects
##nec
##quenc
FeII
##carbonyl
##TAR
5:
##×1018
oversh
photoinitiator
(2014)
##→2
sept
KA
(29
##tolyl
14).
##=∇
##QP
##hf
##4,6-
multiply
personal
faint
vulcaniz
10‐
preservation
##atalytic
##Sa
##vating
maleimide
unified
chromatograms
##SAXS
##Many
clustered
empirically
elegant
Correlation
AgNW
calibrate
##chel
Obtained
crossings
##=(1−
turbidity
rose
viruses
21.
signifies
##MLCT
Synchrotron
##resid
##abic
molds
unbiased
CPU
Log
##enzyme
segmentation
Change
##){
##pyran
##atial
##incorpor
##caten
spraying
##jo
Ve
yl
##ispersed
##And
pg
Calc
##parity
midplane
Δω
glycosylation
##PCA
Biom
sulphur
weakens
##]‐
[18,
microcavity
##SbF
tracing
Higgs
conclusive
##powered
Weib
##).,
polypyrrole
Determination
colonies
##)-2,
subwavelength
2–
##Normalized
DMR
upfield
terraces
cytochrome
LCO
##iber
##Of
680
titrations
worthwhile
fm
deser
##oredox
##6,47
##005
ju
polyhedron
DCP
summing
Fresnel
Polarization
##Rf
##NAP
##NALY
##racture
crowding
AGN
##triangles
##TTF
##THEOR
##jective
CCl
causal
304
TBS
##Consider
##selected
##mill
Probe
drinking
##maj
arenes
remanence
latest
##0–1
##hydrides
Kub
contracted
Electric
##forth
biodiesel
##∕2,
##structed
##encl
##glycer
##signal
##apid
thrust
dialyzed
##′′-
##Taking
presumed
473
equilibrate
50%,
##utting
##cold
german
PIM
##orthogonal
diastereomer
intravenous
silicates
##photo
Dul
##adic
progen
attaching
2.45
ionizing
##elve
ZnPc
Special
rh
mF
separators
(2013)
reform
##149
neurot
##6%
##Flow
pu
##bro
converging
cofactor
##=3,
recycle
##gressive
Synthe
Knudsen
alkenyl
SCR
##centage
NIST
chemistries
HEMA
##)20
complications
##homogeneous
##trifluor
##ulene
SDSS
##×4
##alloying
establishes
Shown
Lar
Well
##othiophene
disrupted
##+1)(
##222
##Mr
perimeter
masked
##nitrophenol
HCP
isob
##−9
##185
##∫02
##–900
stretches
##–250
guaranteed
##Out
##Complex
##acetonitrile
Bel
335
##pul
##cour
##12.0
conflic
millisecond
ellipticity
##ett
CIF
##stacked
##bath
##defect
##\,
##enone
IrO
interstellar
##=∣
QCL
##)11
microsecond
nod
icosahedral
##SWNT
ASC
##etyl
##ynman
expose
##1073
##iqueness
0.87
Δρ
MAA
MIR
##mount
##height
##0–
[26],
SFG
flag
##ionine
##139
##Shimadzu
Environment
Bor
broth
##richlor
disrupt
integrand
##Device
Bethe
quinoline
##died
##jj
swimming
HQ
3500
##omel
rounded
##ChE
glue
##)>
##xAl
incompatible
traditionally
Heusler
##‐12
squeezing
attenu
##tities
welded
permutation
mother
Hermitian
Bright
##oate
succeeded
dithi
##TOR
quasic
rendered
modifiers
vicinal
##MAT
photocathode
##roducing
##)]=
Arch
gyrokinetic
8000
wheat
##EAM
0.89
##iversal
afterwards
Willi
##.5°
##)]}
enolate
##pKa
##–39
VN
##–10].
##matter
##XC
proto
##ISM
_2
Uni
##.(15)
##axes
budget
##wi
pz
##-80
##]+[
nanocapsules
detonation
##tinent
EEG
Rhodamine
##coll
##mM
playing
##harvesting
##bas
finish
dental
[39]
##acycl
1980
shunt
Vc
##MBE
##NTA
dichalcogen
##APS
Bob
textural
##4%
##Fluor
mappings
categorized
Rus
##Vp
##MSC
mathematically
##∈[0,
##Previous
Qi
##jn
##SiN
Ez
##ggish
SPION
##dose
##ospace
##fm
##copy
##wal
##PAH
NBR
tribological
disagreement
SPT
social
##oclassical
macropores
ultrasonically
maximizing
##consistently
##strom
plated
##linearities
tunnelling
carbonized
Composite
##,36
ff
grafts
##×5
##)-1,
2.5%
##Volmer
NDs
KMnO
unresolved
DIII
Differences
##crystallization
usefulness
Xi
##obi
permitted
##fluorescent
proceeding
HEK
##=19
296
##etched
##)-(
nN
##xs
Lind
dI
##lectance
##*/
##exo
TADF
Pluronic
##itt
##Del
mC
DBU
TMB
Evidently
Grignard
polycyclic
##ONO
##25,26
campaign
##dL
##device
notations
##sile
760
1024
ellipsoidal
##xL
stringent
##cysteine
arginine
achievement
Deposition
##ITY
##4,6‐
##ashi
Optimized
degrades
##.31,
##qk
##anger
DTT
##1<
##xSn
eco
##incub
pharmacokinetic
##iré
##uber
reasoning
mesa
##.20,21
DETAILS
hypotheses
##ali
##sus
##copper
##clockwise
##along
##ril
MU
planned
mrad
##0∣
Law
bromides
##conjugation
##hydroxyethyl
spinor
unconventional
##MRI
Leu
furnish
diffractograms
floor
CTS
ballo
@
Ur
massless
obsc
##orizontal
##versus
unsubstituted
##mediation
contradict
snow
##PEC
##utter
##23)
##ketone
lactate
##Bt
Analyzer
thermopower
##±,
deem
1000,
##ugher
(−)‐
relying
(10).
##Ki
##pj
15)
internalized
##4,5‐
Ionic
##×1019
##vc
##1.25
##bj
##agel
registration
(□
settling
##varying
triclinic
##STR
asc
positrons
##agram
##valley
sluggish
recombine
##−0.3
150,
FDTD
amid
##11].
##arithmic
##]3
##imir
##Phen
profil
apical
hohlraum
##650
digested
wireless
##uccinimide
##heel
electronegative
##+1=
Id
##ften
gli
##chiral
##pyrro
lane
##intercalation
##000,
0.56
BV
##either
CoII
##xZn
##energetic
##endent
Fick
1150
nanoplatelets
##167
colony
##‐1,3‐
##anhydride
##Bulk
##gc
##ocompatibility
##±0.2
##conser
##uciferase
discontinuities
bypass
Ã
anv
favorably
DNP
##reversible
##stationary
polyurethanes
synergetic
orthonormal
⊗
polyacrylamide
##.3.6
##$.
##MAH
Δλ
behaviours
incomm
##|<
##dyl
20)
##∼10
projects
Until
fourfold
##)-4-
##oresistive
decarboxylation
##1)=
vas
invent
identifies
revolution
magnetizations
##mobile
##indoles
redshifts
isoc
##Parameter
macromon
##onucle
##.21–
pathological
##CaCO
MZ
Slater
##Bo
##petroleum
##prof
##stu
##∈[
##.21,22
parametrized
##Lp
##BTS
OSC
lightweight
##CBS
##256
dex
synergy
injections
##Substituting
Rn
Dark
cocatalyst
Capac
5%,
grouped
##Ernzerhof
monodentate
Eventually
##)15
##tilled
20–30
##khorst
launched
##gp
PMT
protic
Lix
capital
ecos
BCC
solenoid
##imed
##,(10)
##Additionally
ports
Miller
laminates
recyclability
##CuI
##×1015
overestimation
##011
Kramers
identities
biomolecular
(1-
##ravel
trifluoroacetic
ignore
establishment
45%
Eo
##Lz
##qx
seam
scintillator
maximally
##),(4)
##acil
##rapeutic
Sk
weighing
##CHCH
##rator
##35,
##Once
instructions
desulf
##analy
##strates
345
##),(3)
##OL
MnOx
##2′‐
2004
TON
##random
##transform
Models
hypothesize
##Gu
##.2.4.
Pharm
interferences
##arns
##dend
##02)
Ostwald
manipulations
coronal
##resol
CEs
imprint
10–15
Tauc
evaporating
##:50
##−[
2007,
exogenous
##ceramics
governs
NPC
prefers
##2–1
bore
##02(
##degenerate
##comings
##olmog
##320
cusp
##Ic
##–)
##arct
integrin
[27],
corrugated
suddenly
permeable
spherically
##2=0.
volatiles
##how
##becco
##(111).
1.10
[49].
##amycin
1998
Relationship
##China
converse
invasion
##GW
CPM
##21.0
##%);
##moving
surg
9.3
##Sy
##year
session
##odyne
iv
##etas
##)](
##CON
CPC
##thermia
##.(16)
##{[
Gi
##hether
##27,28
##))2
MTJ
Evaluation
##ipped
PHBV
fired
##Substrate
sensitizers
##wer
intimate
language
TCP
##strahl
Lines
terpolymer
##foil
intermixing
##218
absolutely
definitive
151
nitroxide
##*),
blowing
diabetes
##±0.3
automo
biopolymer
##pixel
EU
1.65
##astructure
##trimethylsilyl
participating
##ωτ
piperidine
##Proposition
collectors
Porous
overpotentials
##image
TIPS
##sparent
flavon
##Qs
##ellig
(4.5
midpoint
8.(
ted
##aphyl
##carbazole
enlargement
anisotropies
formulate
##rex
##itch
##HAADF
birth
##acrylonitrile
##1/2.
violation
##uary
2,3-
##iflu
overestimate
##/40
(16),
0.1.
spans
##.3.4.
MPA
##Standard
##graphs
Catalysts
##→∞.
executed
Cho
##crit
interlayers
##)2+(
##ASCO
##.8.
##oxanes
##168
NOE
##ophthal
##Wave
##ymal
ICG
##DES
##DPA
(36)
correlating
##sation
covariant
##ashing
##monomers
##=2.5
therapeutics
Industry
##iodes
quasiparticles
subbands
##5.9
##}^{
##melting
##ostructured
##VOC
inher
Tex
Innov
mounting
##dial
##compati
academic
##BDC
MIM
knot
##.(7
fragile
##propane
##aze
##0.91
##0.61
##thermally
##-231
##–12].
Strain
unders
29,
##atan
adsorp
resides
MgAl
##BV
##3,4-
Heating
fingers
devised
##SMA
##iao
##strahlung
universe
##Ji
##1∣
##–13].
##enedioxy
##CX
indoles
##olmogorov
subthreshold
##­{1
##plus
elusive
##TEMPO
doubt
vulner
##90%
Crystals
discernible
anil
##4)(
(°)
−0.0
##catalysed
100%.
##Pm
Common
BAS
##flip
##zj
##5000
0.58
intric
##Physical
rabbit
##Phos
constituting
##${{
VOCs
oxazol
nanosphere
##Anti
##INT
##7,48
[19,
coiled
urgent
(26
shortcomings
##carboxylic
Photograph
Soret
hydrosilylation
##PZ
revis
pertinent
codoped
##213
automotive
multiphase
clathrate
photodynamic
##”).
dp
clays
epilayers
##aired
##protic
##oser
##Tetra
##Dn
##trap
encapsulate
##Formation
TFC
##State
DMAc
##brafish
##Vth
##Evaluation
##HSV
##1=1
seemingly
##∗=
##RPA
##gins
Nowadays
oscillates
Throughout
##pez
reuse
##lipid
##Design
microbi
Peaks
Isolated
##)]2+
573
deals
bary
Selective
##TPR
##dw
XRF
##iadiazole
##2−1)
##program
Malvern
##Conversion
Prob
##HAP
##amatsu
infected
Dun
##0<
##appa
##ropriate
##0.1)
##ocused
##mitting
annulation
regional
##FBS
##=0).
##rometry
OFET
##sa
##PSC
Gene
##alkanes
fibroin
10–3
##Comparing
##ellowship
##22].
##ropyl
##24].
volatil
unipolar
##Chan
(1)–(
0.63
biggest
regenerative
##Where
##5)3
##1′,
Zhu
opacity
electrophiles
records
happened
blob
##gro
##aphrag
harvester
##orbitals
ZnFe
quint
##reactor
Mulliken
shale
sulfonyl
dication
0.93
##etasizer
##olefins
##scaling
##assemblies
162
##–14].
risks
depositions
{100}
Zinc
##Laser
sheared
##〉.
##uts
##omonas
<1
##ividual
##adolinium
##–11].
butter
generalize
##hydrodynamic
tensions
##spectral
ingredient
##0.41
##0−1
##ubber
reproducing
progresses
nitridation
chord
##configuration
##vA
##Germ
##tir
##+(1−
##.(17)
##inner
##2′-
##15].
##.22,23
thiaz
##)–2(
Radiation
unfilled
electrolytic
AU
##HQ
##afn
##reated
##perovsk
##dopamine
soybean
##MBA
CNS
##angoni
##×107
Testing
##158
##157
##mk
##aments
Vertical
##yloxy
economy
##ructuring
organoclay
##.4.2.
##Gn
serine
nanoclay
##chains
##otopic
##166
##heterocyclic
##)14
##=23
tort
##simp
##ππ
Recall
##SiOx
hit
Poincaré
##VN
ultrash
+2
WZ
continuing
←
##80)
tetrachlor
##Calc
##15.0
##ospecific
chelation
protrusions
restoration
[41]
##Hydrogen
bistable
bears
##inylated
248
##carboxy
classify
590
tedious
##=(1
Syn
(1.7
Preliminary
Hard
##SWCNTs
##oprotein
arrest
##,37
(33
##HK
(3.4
##circle
##×10−8
substanti
cooperativity
ferromagnet
Legendre
##3)3),
##25].
shortly
integers
Argon
unsuccessful
Fu
inequalities
intersect
##ows
##Va
##ramid
dwarf
Mu
sigmo
programmable
##PRO
##tured
##AIBN
users
photovoltage
RBCs
Target
##far
kin
antimony
##Composition
##earson
##disorder
##ruit
NHS
rocks
Mid
##focusing
manganites
softer
##identified
surrogate
formations
nanocluster
primers
10.8
##21+
NJ
QS
europium
lid
electropl
4,4′-
Alice
companion
##Specific
Interaction
##dye
##assie
estimator
##Tmax
(4.0
resting
imposes
ourselves
##uther
0.7,
Zhou
##⊥)
##)2}
##break
soils
##LAS
Mie
##Frequency
##–15].
##iae
##Trp
##/7
AgI
fluorene
##23].
##ecraft
##mesh
XMCD
##iger
ingot
##wp
Cole
##borate
flasks
relaxes
Cycl
preferably
##FFT
##conductive
##Burke
##-6,
compiled
Sections
Fluorescent
LDOS
isotactic
##ABS
bottleneck
##Ej
##plot
##13].
##tation
##=0.25
##msstrahlung
LaAlO
hepatic
70,
##icidal
0.86
##ATRP
##orcin
bits
MgH
##factorily
linesh
Tel
##ienna
##rA
##11-
XR
WCA
Short
##↑↓
homologous
##,21,
packets
0.41
Heck
##mC
##)≃
glycer
##designed
Atom
##Sx
##onomous
lifted
##XI
##RIFT
1350
gasification
0.02,
DV
Ey
24-
MAE
PVK
##oniot
angiogenesis
##vp
##0.51
MOCVD
ECR
##’)
Pick
reductant
night
##420
##16].
Myr
pep
−0.2
SnCl
entanglements
flank
##Control
##Different
##8%
##described
PTM
autophag
4.1.
2,5-
chalcogenides
Compton
translate
##×1014
##axel
5–7
Tu
##radius
underestimate
##Leu
##stability
##Sz
##Integ
pile
Jacobi
dosing
Oxide
robot
macroinitiator
liner
2009).
##Bx
volatility
##Xn
##188
##Alk
##ngth
LEED
Fine
macrophage
revised
hemisphere
##/25
xc
0.5)
Zeta
##110}
gastric
##28,29
2006,
TV
invest
##ako
interfac
##qm
##275
##emis
610
]
departure
unavoidable
##20.0
##uents
Transform
extrapolating
##ZVI
crater
##14]
VGS
magnetostatic
Lc
##.22–
ks
##FRET
sixth
fittings
Release
##+∫
entrapment
nmol
##sodium
submerged
##arylation
##ercetin
desalination
unphysical
dispersant
##BaTiO
1.18
Jobin
298.15
##Fisher
Network
##apsule
perfor
Sz
thrombin
##–42
stabilizers
[°]
therapies
refrigerator
##matching
MK
CFU
##-300
advection
FAM
##compared
##QR
ISC
##)1−
affine
alleviate
##ea
folds
##yron
temporally
dL
##2,(
##FeIII
##bright
Voigt
magnetocaloric
##COF
mann
declined
##Definition
prevention
12.0
[50].
distribute
neoclassical
1°
##since
chronoamp
superstructures
##Maximum
##Generally
##−15
##ctor
##:6
##cyano
##1010
sprayed
deemed
hyperpolar
physisorbed
##olyte
diastereomeric
Immun
cs
##quenched
sperm
Space
##ramidal
##methacrylate
azir
##inuclear
nonisothermal
Adding
horm
##hedrally
compensating
stann
##xAs
nonde
hysteretic
##-2.
##dN
##dP
##ractical
accommodated
overw
##177
GAM
##ometrically
##COD
NHE
keratin
micromagnetic
##Absorption
##.(18)
##stained
[28],
##Dirac
inability
##APP
##×1012
Early
binaries
##itzer
transformer
Petri
sawtooth
##2(3)
##endo
264
##quisite
##Cyt
##compensated
##ount
8‐
impair
molecularly
##volved
CFs
##ionate
unint
##.23,24
Lx
##inol
##filtered
##LLA
PIV
20.0
##substit
(#
##asses
##0:
(4-
[42]
##ijkl
15).
##LOD
ROI
recipe
##∞∞
depicting
10.6
hexahydrate
##itted
##295
impart
##eco
##empty
##pk
##1)−
hyperthermia
SOD
##guided
phosphorous
chlorinated
##3+–
interpolated
LIF
yarns
##Air
cart
##aut
purs
withdrawn
Example
##9–
##–2.5
##AlGaN
##shock
##PEX
boat
##tg
0.54
Semic
Chromat
##3−,
Dit
SPPs
inval
##gene
##yj
1–6
##2>
##Vb
Magnet
##.3.1.
##–16].
##ynit
0.53
##rology
rationalize
##inch
emits
grateful
dihydrogen
MCD
##.4.1
diagon
Lit
##dihydroxy
Experiment
##omotive
metastasis
##abol
TOC
Regardless
##198
20%,
renal
stops
eigenmode
##each
##–8].
##Isolated
NVT
delicate
ridges
(21
286
CAM
Bayesian
tokamaks
##splitting
##50%
##=40
##namely
31,
flaw
2.15
##eside
springs
HBr
Jacobian
##dh
265
##Vo
Drop
##aining
97%
##Values
##although
Cox
##fu
##inj
gaining
Nit
1.17
##,11,
##EVA
donation
##UB
##bk
Yam
##rolling
##3}
##BPA
SLS
Monkhorst
Approximately
Positive
AgCl
##naphthyl
##anode
Partial
##ccdc
DRX
searches
##milling
##triphenyl
histories
##rafts
oscillate
##Ev
western
##-500
##Film
205
10–4
Photocatalytic
CSA
satisfactorily
CMP
nonlinearities
thruster
losing
##Δρ
TBP
nonionic
WAXS
histological
3′
child
specialized
##[−(
phyt
177
Prov
Significantly
ferrimagnetic
22.
instructive
endowed
##ller
##0)−
##1–1
##-600
incubating
315
pivotal
##Id
streamlines
oligomerization
manifestation
barrel
##GSH
##available
##hydrophobicity
##8,49
##NiCo
##Hitachi
##Maxwell
##=200
##hold
Mel
##tagged
Every
##Aj
##ISE
##-400
son
##URE
##ional
fertil
detections
MOSFETs
sap
POMs
##targeting
##·4
10.4
Facility
##[8]
lamps
90°.
##36,
boot
Acros
##GdF
##×1016
##idinone
##segment
syngas
∼25
Star
Nov
admits
butadiene
3:1
##RTEP
##Cur
(3×
bandpass
##outhern
diaphrag
flattened
##17).
##upro
(2.6
##∥(
288
Liou
RIE
##boron
##micron
engineer
entropies
mortality
10−11
seismic
PPG
surveys
IU
##prints
MPB
TGF
0.52
Survey
##Example
polyether
(≤
Casimir
##:20
##ettes
##Procedure
sticks
CME
##7;
##06-2
##missible
##otors
##aza
##–48
##serting
##echst
9.1
##inhib
controversial
##34,
superscript
##Bond
multiphoton
WG
organism
indications
mess
##KOH
squeezed
##3–3
METHODS
surgical
rescaling
##embedded
underestimation
PVAc
##tefact
resembling
##9/
nutrients
##dC
##xH
##24)
##BCP
##ughened
tetrafluor
##ICAL
Copolymers
##)–3
##omagnetic
DCE
##,∂
##örster
##Thickness
(37)
alongside
##Ber
propene
##EDF
[29],
−100
##Pressure
##Catalyzed
##System
##=2.0
Yields
##Vc
north
blockade
detergent
##ilding
##0)/
Dulbecco
174
##scatter
##crystallized
##Also
##xCox
glycopro
##inz
benzoyl
kb
##choline
cohere
Coll
##major
disturbed
##Fn
(<1
ambiguity
industri
##rins
shaker
Deg
underwater
(11).
##Plot
impacted
Central
##eramic
bringing
{[
ahead
inadequate
pulver
##oti
hr
##±0.5
398
withdrawing
∼0.5
Pore
restricting
glycosyl
305
10−12
ki
Ewald
IDT
likewise
Marangoni
BEC
Block
##fk
##2))
##-1,4-
digi
subgroup
##aline
sieve
person
##ewise
Jones
lobes
##lag
##FeSi
oxime
corroborate
PFO
essence
sciences
##phenyleth
Energies
elucidation
##delta
1–10
√
##ernst
##Log
773
##ostasis
##amorphous
superficial
pressurized
NADH
Friedel
Mur
##enclature
ton
dispersibility
##HAp
Nu
##WAXS
##hybridized
Net
ow
##.35,
##sheets
hampered
NPT
bounce
##aR
##ifsh
1.26
##)∇
##‐5,
##material
##utations
1×
1.38
##*−
##164
EIT
##aracterizations
0.92
Ten
##Instrum
abovementioned
##switching
Spectrometer
475
##partial
5′
##inates
heads
}$
fan
1.85
formamide
lobe
##Estimated
##Parameters
Annealing
##hor
##ketch
1.16
emergent
blo
scalability
MOSFET
##–17].
PTA
Vienna
Oper
sensitization
##eb
##oxidative
##Ig
##db
##chable
##7+
CY
eventual
##17),
(17),
HMBC
catalysed
pharmacological
##italic
##perovskite
TCS
##orenz
salinity
##214
##acillus
##bridging
borane
female
fragility
##CSEL
2×2
ascrib
DIC
fluorite
##–9].
MCC
##.(19)
−0.3
Hyper
company
##)‐2‐
##184
hits
malign
caro
sees
straw
Parameter
transitional
intentionally
##‐6‐
warmed
peeled
##Value
crushed
##1.08
polydisperse
##phone
ampo
NIH
##ophyll
##AZ
##cyt
NOESY
##MHz
dope
waist
Specim
aggressive
##CuII
mus
NBI
##cgi
##-1000
##IPA
##rk
JT
##gb
randomness
##MPU
Ds
##measure
chromaticity
##1(1)
##BFO
##–2.0
artefact
flour
##.5%,
##abicyclo
##IrO
##,38
##bandgap
##utional
dehydro
##.4–6
Voron
fic
##0.003
##7%
##MWNT
##trace
##–18].
Chang
Ak
##)0.5
213
45,
##],(
WE
##11.4
lactic
##abc
wrapping
##′⟩
##naphthal
corrugation
Deriv
ACC
##azines
##WW
sensitively
##arburg
azides
phosphonate
##IONAL
##ontinuous
##xm
Side
Rob
TDS
##×1011
##rh
kne
##vertical
supplies
opinion
Applications
##)!
(1.1)
ending
polarons
polymerisation
##Glass
spectrofluor
MEH
##RuCl
PIL
##×1017
0.003
##razil
##.24,25
naphth
##pen
##UiO
##strept
Theoretically
##,,,
DAC
flue
##cathode
APC
biodistribution
historical
##gamma
##strip
legs
Hopf
Purity
polyols
##2+1
336
Shock
##Stre
##21(
MES
Glc
##phenols
Equilibrium
Eagle
fungal
WD
undist
aquatic
internuclear
suffered
lesions
##,...,
##stron
ultrac
dishes
tc
kr
##lumin
felt
##folding
##310
−0.4
##overy
Commercial
amu
Smith
Product
propulsion
##−]
##)][
spacecraft
##ifshitz
Intensity
∼60
glyco
##Sil
2.10
##OK
(6,
PFA
##aches
##174
rovibrational
speckle
linewidths
##rett
##=1,2,...,
Pul
##mega
##,22,
##suitable
enantiop
polyplexes
##Ethyl
Eh
phenotyp
dehydrogenase
killing
##SQ
##πσ
##riting
##Ang
ultrashort
##ethanolamine
Lagrange
Mode
##≈2
AQ
Spectroscopic
##imethoxysilane
##5;
##wiley
mission
(—
Mad
##ysteresis
##arp
wrong
##PLs
##voltaic
##MX
duplexes
##228
##rie
pilot
unravel
##atterning
##sensitivity
[30],
##opyr
##arrays
(+)‐
seas
785
##cancer
##15.
PCEs
labelling
[16,17
templated
Mb
cardiovascular
PQ
wavevector
Hs
96%
geodesic
nitrobenzene
incommensurate
prost
##hair
Shen
contaminant
##Image
redd
##hydrogenation
##acycle
##5–7
##−0.4
went
##kingly
##heological
5%.
lm
##.32,
3.75
∘
##ongation
##σσ
##HNO
paraelectric
[1–4].
Cluster
lengthen
thermochemical
##qs
##detector
##→4
##0.71
lithiated
##PAS
wavy
restore
212
##cinate
##13.5
discusses
##nf
adult
##=24
nanofiller
##cyclodextrin
Fa
##trichlor
##-0.5
214
##Hydroxy
##ferromagnetic
specification
derivatization
LIB
AX
(3-
##urt
tos
Ek
##dim
Don
multiplier
tweezers
infiltrated
##doctoral
unexplored
(110),
172
##TPB
hypoxia
alternately
(78
[17,18
acylation
trees
##.34,
palm
2.35
Active
##electrical
##spring
4–5
##719
adamant
##=1.2
Sox
##ailed
##necess
##Even
Transient
##Av
perfusion
implementations
##,2,
Ins
Ol
%);
##MEA
##cone
##SERS
##ja
##2)2]
333
##/6‐31
##Having
##stretching
CBP
##–44
disreg
dioxygen
##255
##Tol
##Charge
CuSO
faradaic
interrog
AuNRs
##)⩽
100.
amongst
##conductivity
QA
KD
##tiss
##luc
##NPC
unsymmetrical
hydrogenolysis
fungi
Micromeritics
KL
##JP
pF
compactness
##≥0
##yllium
MPs
duct
##MSOL
##oxin
interacted
##bacterial
##{−
##−16
##AlCl
uncovered
##cleaning
OB
##Field
SED
theran
##/1,
Rm
cra
nanocrystall
(110
1.12
DDS
LLC
azido
Monomer
##TZVP
thiolate
LW
(1.9
learn
Medical
zebrafish
relief
##nearest
##aria
673
##1);
##uine
##Power
worn
284
instit
warp
constriction
parameterized
##azan
##|/
(1:1)
##→0.
##oluminescent
SCCM
America
##.5–7
stereogenic
##8;
LiOH
caution
##)–3(
2003
partitioned
nonrelativistic
##12‐
600,
hafn
_0
##[6]
##coordination
CONCLUSIONS
mas
recordings
##hyle
inconsist
Vel
##0=−
triad
##1−2
##boration
authen
##gue
##ulfonyl
1.27
View
coded
##DMEM
mPa
cortical
##–4000
##zon
multichannel
##ungal
##entially
##tizing
308
##–3.0
##.(21)
planarity
avenue
##PEN
[18,19
catalyzes
dips
Absorb
rationally
favoured
10.3
PNIPAAm
##prol
##iforn
Dat
Pers
BiOBr
##oleptic
shuttle
##Phys
1.50
Review
##hesis
##173
balancing
[43]
##interscience
imidazol
overwhel
perfluoro
15(
##ECM
1.44
ripples
##0.002
overtone
algae
antig
caffe
overestimates
endurance
heptane
##olo
##solv
confer
pyrimidine
backside
NaClO
justify
##ico
##ytic
(○)
##4–3
BMI
RCP
Membranes
##feed
Attemp
exchanges
##mas
##–41
0.57
firmly
##MIC
##accel
(5.1
Assume
Fi
dietary
2.16
initiates
##amber
shrinks
##ück
verifies
textiles
fibrill
##grey
##238
suggestion
##.25,26
galvanic
advancement
##BDT
##Hel
Sto
##thern
##viscosity
##))−
##‐1,4‐
##gler
Nanos
##159
##163
##hlet
##luded
precious
##common
##1,1
##),(5)
remod
twelve
##quenching
solves
(<10
##Eh
##delay
##{2
##ODA
Ib
##yP
##176
##9,50
##lowers
greenhouse
[2+
0.76
simplifying
##Nm
##zk
Behavior
##†,
EGFR
##5)2
##6)2
quasist
##Equations
##Differential
343
retardant
##→)
Thanks
##restrial
OV
399
1.06
convinc
##Long
(2.7
HCOOH
(1–
##istor
##close
##sr
##1.75
swir
##oxazole
electrostatics
CHA
transfected
synthetically
##ensis
Beam
##Lc
##bos
(38)
flattening
photobleaching
suction
##labelled
##orphic
instantaneously
##131
6–8
harvest
asympt
1.24
lots
piecewise
##transporting
##collinear
ghost
##WE
rain
interdigitated
Same
##δρ
oxalic
##BHP
ure
biopolymers
HEA
##qp
hoc
vin
##acryloyl
Panels
trained
purging
##FeOOH
underestimates
##αγ
UN
##.3–5
Optics
LiTFSI
monometallic
##lector
REM
[40]
9.7
unusually
##204
##delivery
phosphatase
##concept
##FeII
##,(12)
nowadays
##nitrophenyl
##strong
curvatures
hemicellulose
25.
##amel
trigly
##enchymal
##Photocatalytic
##amental
##ukawa
##assuming
exceptions
multimode
aprotic
##insertion
##Pyr
Cf
PCB
durable
##degree
[51].
##nuclear
0.83
##hu
##–20].
ZnTe
##hancement
Coating
##diamin
##.(20)
##amoto
Wood
##Sk
##What
spreads
≳
nanosc
2013;
CQ
road
(18),
international
##3)2,
##mine
AES
##gregation
Ful
Förster
NLS
(+)
HCT
##2⋯
##29,30
##inating
Nuclear
##alcohol
comprehensively
##xl
Pin
SCA
cogn
Wilson
ancillary
MTS
##-2100
##∼1
##Schottky
##]4
(010)
##Sal
##thf
##hexanes
dn
ITC
Angle
[19,20
##=〈
##DCB
##oling
1.5%
##iotic
conceiv
trenches
##+5
##axation
invoked
nanofluids
(4,
Chand
##:[
##20-
Crystallization
Lz
##glycine
adsorbs
tea
verifying
Kolmogorov
Close
Ks
##–19].
PbTiO
readers
Sign
uncharged
vulcanization
Lp
ba
shorten
##Sl
stepped
Pseud
##Graph
##apshots
Variations
multivariate
##−3),
SRR
Wil
##mainly
##(−2
diols
Steady
Thomson
thickening
Dex
##OLEDs
anatom
aerospace
23.
##emade
##olinite
degrading
##nor
##resentation
ZnII
0.84
reced
##singlet
##11.2
Lambda
extrem
−60
##piece
##prise
ferrous
adiab
##EPDM
Vd
(1):
attains
##Jn
3;
Level
PDB
##rowing
sulfonation
Va
kinematics
##xSr
BMG
##atures
##)⟨
remediation
viscoelasticity
hindering
2,2′-
##vinylidene
demagneti
encoun
Modeling
##imino
##).6
16)
WB
##CDD
DOPC
ponder
##PAW
mamm
SZ
phospholipids
90,
Fraction
Definition
50/50
##ferrite
##sequence
##Dielectric
##.36,
##final
##360
TK
##→1
Thickness
##allium
Normal
damages
HSQC
##olis
1.36
exhaustive
##molecules
##FEI
##.(22)
##DTBT
##bate
rectifying
100%,
##3000
##sintered
carbenes
Larger
sponges
##.26,27
photoswit
515
Hem
##ordinate
##undec
##gmentation
quartet
eccentricity
##)(1)
##±0.05
redshifted
borosilicate
##add
Arrows
##(1‐
##312
fibrillar
##22.5
##world
##archit
##optimal
Student
river
qe
Hoechst
##227
3/2
PIB
423
10,000
##-1,2-
##dba
HIF
##32)
##Recent
0.2–
bpy
50%.
##AAm
Tianjin
TPR
descriptor
merger
##0.004
shutter
ti
Sus
merc
##entang
##)2],
Iso
##rolact
##XRF
##ontrol
Thermodynamic
##elli
##–43
0.62
##PMN
##-(3-
PGS
(2.8
nd
triplets
monoliths
##PTX
##(5),
0]
BiOI
##0.81
##Green
##immobil
##azide
1.28
anymore
premature
EBL
##8:
internally
##edges
##Proper
flamm
drifts
##Dx
##strap
∼1.5
iodides
##enzymatic
[40,
##21].
##mK
##≠0.
##zymes
HEMT
##DEA
##Obser
team
##Stability
bilinear
##NK
##2{
##-900
Tn
##sesqui
uncoupled
tidal
##OCO
##16.0
##ishaw
debonding
##–1;
Fok
##molar
##11.6
POPC
interconnects
##AV
Just
ITG
sustainability
##20%
brass
##226
##osamine
grades
##3·6
0.15,
refs
9%
##215
##cepting
##285
−15
FEG
##ethylhexyl
##Plasma
##roscale
##monolayer
Transport
1.34
intellig
restrained
##aev
1+
CPA
##graft
dressing
##sf
##33)
##SCR
##Tw
PCS
conducive
##(⋅
##Gi
Industries
macromolecule
##365
Enanti
sequest
eigenfunction
##Δλ
1.14
Peptide
Hir
SSP
sial
season
STS
##allad
##gravity
##,13,
##1,3,
##Wall
##MCC
1.2,
##Nt
yellowish
Concentrations
##dual
ineffective
##Ve
##×108
Spectro
kernels
##xFex
Area
##NALYSIS
Efficient
##ups
##,39
1/2,
SAPO
##design
##Mat
[31],
nude
standardized
Ih
##−1);
bipar
Scan
whatever
10.2
amphiphiles
cyclohexene
##ulators
upwards
##∇×
##Ter
0.72
RW
##ipient
porosities
##BER
austenitic
##PXRD
hMSCs
##196
##phenanthroline
##.-
storing
WP
33,
1997
##21.5
##alin
##output
##minor
undergone
##NBR
hyg
##loidal
##aux
Mt
2014;
##trifluoro
replicated
coacer
##relations
invis
DCF
Leica
BSE
##330
5.0,
Δν
##).(4
2008).
rougher
##ilation
##929
unsuitable
protru
intricate
##lamellar
SCC
Richard
nanopillars
##13,14
ultralow
##substitution
hemat
2].
##My
##vw
acknowledges
Effective
##3)2(
optimisation
Fluka
adjoint
##1≤
1970
Appro
##rastructure
Dimension
hi
##Solution
Fiber
##Nf
Impedance
##13.
Hoff
##absorbing
MAX
PNP
maturation
OVA
##iyaura
chimer
engines
##169
0.9,
##rophy
uniqueness
##GCG
biomarker
Plastic
strings
ECE
10),
lives
##ucing
##principle
interven
##CuS
##3′,
##ughter
relied
##CHA
##nBu
##energies
Individual
controllers
implication
genuine
##(0)+
##VIII
VH
##dense
photonics
Asymmetric
cascades
chemothe
##MHD
[63
Removal
deformable
ui
quadrant
SLG
10–5
(800
##palladium
##∼(
##xa
##ucial
##260
##Gold
##KCl
##acrylates
tann
accommodation
##90,
modulators
##}=
##ifornia
Nernst
CFD
diatom
Kinetics
Zetasizer
prototypical
##studied
cooperation
(12).
Thomas
##-311+
unfortunately
researched
##hat
##atidyl
##hexene
SPEEK
Dem
pyrrolic
##DCE
##yclohexyl
diverge
expresses
##FIB
##enda
MQWs
Schwar
Software
Bader
##switched
ZA
RAW
##medium
spi
Layer
adherent
##′∣
Chitosan
rationale
##HMDS
uncontrolled
Cheng
##bending
##Landau
##cu
2.75
buckled
est
##ethers
##).13
9),
px
##ylate
##3.00
##omething
triazine
##|=
Degradation
##×1013
##)24
##iluminescence
Squ
Magnetization
delib
Secondary
gadolinium
##MSA
##)(1+
liquef
pendulum
##Regarding
##MNPs
1.13
(10,
nanode
##+6
EQU
topmost
rejected
##THz
bread
##001}
(48
Pack
xanth
##Potential
Solubility
Ct
##onics
2,2′‐
funding
##1.50
unstrained
##16),
##diss
itiner
##223
##[7]
AIMD
##↑,
(-
##ferm
##spiro
nucleobases
##Pu
interrupted
##.6–8
##lambda
##uristic
iteratively
##0.2)
##decay
##symbols
CsPb
undoubtedly
HPT
retic
collimator
##olyb
Mettler
236
##ERICAL
HKUST
Movie
##anthracene
0.73
homemade
controllability
##1.06
DVB
##triazine
(55
[64
synthase
substitutes
Gn
COO
PDFs
xenogra
ESA
##itary
lever
∗
mosa
trifluor
compliant
thymine
functioning
occupancies
diradical
##fj
2005,
Resonance
##Germany
##map
explosives
##iodide
regulator
FH
##PSA
##toxicity
terminals
##ronectin
##ρσ
[44]
quadruple
Schmidt
##brella
pesticides
##curing
commutation
##280
##acetonate
##ucleotide
##9–1
DIO
GNS
lesion
##–75
##Cole
##osidase
miniaturization
##NCS
(200),
##aphylococcus
##aS
##–7].
##ethylenedioxy
CAP
ORTEP
intersystem
topographical
1.95
##ena
(2012)
##Rj
ts
##1×
##Nat
Weibull
weakest
Dir
bottles
##EOM
##×109
Hugoniot
##oxazoline
***
##actile
##234
##11.3
butterfly
IMC
2012;
##thiazol
##sign
##styrenes
233
##aming
polarities
tiles
##ppen
ip
##tpy
flocculation
##−3).
##80,
##ortho
Olig
clearer
luciferase
trapez
polyamides
##1–5
occasionally
##ignin
phosphonium
asterisk
acrylonitrile
muff
##11.7
0.74
deoxy
Negative
##EELS
##PTT
Vm
##),(4
##meas
(39)
steering
##CTR
##]${{
FEL
##ONa
optimally
##asco
##atos
Faradaic
analyser
##10–
Expression
##Tz
recruit
repeats
Pickering
monohydrate
diisocyanate
##pVQZ
trying
##ocl
##Mac
##oe
##tling
##Transition
##11,12
databases
Components
looked
##volving
##lc
anesthe
solubilization
immobile
##Vn
Oxid
RPMI
PDE
hor
##MAO
##surf
Bir
atomization
55%
##initiators
Copolymer
colliding
##iezoelectric
centrosymmetric
##10/
625
PLS
##ya
##≈1
224
##iciencies
STR
NEXAFS
crosshead
##304
##ferential
(36
inverter
##distribution
##pers
##ttps
BCPs
##.27,28
##tj
##(1−2
##odymium
Interactions
[52].
IDS
tags
recirculation
CZT
Cc
dominantly
cyclohexanone
Voronoi
Complete
aerodynamic
invasive
Shan
exploitation
nH
pO
##VV
##.7–9
LMO
kth
rotationally
##0=(
ASE
inequivalent
##isker
##sigma
[010]
##Px
7.5,
sensory
diaphragm
Bon
pave
(∼5
Fil
##assivated
##Lorentz
propyl
summer
Upper
##.(23)
colourless
##phosphino
1996
mc
calomel
SSC
0.004
cortex
##protonated
##lator
##idated
nanoshell
unimolecular
##1/4
##PIC
##(1).
##Liquid
gasoline
Sat
##14.
rectangles
##toluenesulf
(3.6
##CNS
##cit
derives
cytoplasmic
92%
Visual
##FAB
##vanostatic
chromatogram
antiv
##formyl
coloration
tele
necrosis
sideband
##inct
##unches
relaxing
##60.
declines
##SeO
##UVs
##stad
Dow
VASP
reactivities
##,40
PdCl
##Ill
##enesis
Lamb
cocrystal
unbounded
subspaces
photodiodes
##–21].
tracers
##annier
##berry
1.04
Solvents
##oder
localised
Instron
##233
##Act
##′)+
PSi
Pearson
nitriles
##samples
1.67
Conjug
##alks
nondimensional
##TIONS
viscometer
murine
dichalcogenides
##PTMS
NiII
##[1]
##before
immunoassay
recoveries
##rob
##whm
##192
##=−∂
##dibromo
numbering
##yx
integrations
0.1)
rubrene
{110}
(‘
(20),
stiffer
##Invitrogen
##batch
##SSE
##acket
##ithiol
Fact
seminal
dpp
recal
nanoflowers
streptomycin
000,
##197
##0=0.
##noble
olefinic
industrially
Continuous
##mono
1.56
nanopowders
ACP
##Apparatus
inaccurate
authentic
##amboo
minimally
intensified
<2
##illion
ejecta
211
refrigeration
##2..
[31,
national
##AlAs
Henry
basins
2015;
IGZO
##ophysics
wavefront
##+‐
Dye
##UF
##GaSb
(2011)
ponderomotive
compacted
meeting
Conductivity
supersaturated
##axanes
337
9‐
ethylenediamine
Orbit
cytoskeleton
##hv
##dash
##,23,
##Hug
##mmm
##InN
Killing
##localized
API
##gm
##142
mHz
##Kd
meets
##2/3)
Quantification
##Ii
##magneti
Methanol
##ergic
##tuning
vacc
##slow
wavepacket
chi
##uprofen
Δθ
faceted
##Fer
##human
liquor
photosynthesis
buty
##derivative
##41,
##=−12
##BQ
[2–
DMPC
SOFC
Tests
##physics
Biological
##None
##alls
##ashes
##Application
desiccator
##isocyan
iminium
238
catast
operative
##fraction
##Analytical
Calibration
##GNRs
scrap
##Bar
NAD
imperative
ADP
HNTs
Hamilton
associative
##248
CFT
penetrated
∞,
1%,
SiNW
24.
Strateg
##synthetic
176
##tifies
<0.
assis
##×10−9
interpreting
##strength
1.46
##=4,
##Vd
##60/
replaces
##qt
##−23
Quanta
adoption
antioxidants
##*-
##-3′
##opath
Bern
##hydroxyphenyl
7‐
##erovsk
semiempirical
##usted
glued
##BMIM
##pink
##error
gut
##ashira
120,
##oven
##issolved
monopole
JA
desol
##.37,
##22]
##.28,29
eluting
##dium
proportionally
1.37
##orescein
##2+–
##38,
1.20
jitter
##hyth
##HRMS
Santa
metallurg
##45°
##BMP
cables
ma
##ichlet
##≡(
##RAS
wetted
##–22].
1450
NiAl
##electroph
Warburg
##Assuming
##187
##irane
##NaYF
##11.8
##21−
NCS
800°
incipient
polaritons
##rion
AMR
##+1),
solubilities
##⟩=⟨
##referred
##)−1,
##11.9
Periodic
susp
##burgh
unnecess
SIBs
##:0
##WG
##romechanical
##1=(
##align
≅
##oxacin
##xGex
quercetin
##DBT
##NaO
Hydrogels
thermogram
relativity
##mt
ut
##.(24)
##Growth
completes
2-(
##Lattice
##composite
superiority
##stri
dodeca
hydroquinone
##PSi
phosphorylated
##diene
##]−1
Rapid
##1.04
attractors
##tau
impinge
blockage
electroless
##.%,
##PLL
##NIPAm
##].(
overcomes
##Gib
##0,0)
##TV
##cym
1.08
appreciated
##carbodiimide
##Organic
cDNA
baked
5′‐
Curves
qi
485
polymorphic
LiClO
##).(2)
Used
openings
##altered
equiaxed
##6–3
penetrates
readings
##CMP
##ochiral
bioconjug
tagged
comments
diminishing
##1.07
250,
Marc
deceleration
exerts
##eB
##erometry
DPV
##manif
[32],
chlorination
dyad
epimer
##UMERICAL
lysosomes
##oor
opal
torques
Voltage
##evolution
Lorenz
inaccessible
##dentate
##ando
nonwoven
##qz
##=60
##)≥
##Pure
GeTe
MTJs
ultrafiltration
##194
##hydrin
ASAP
##[2,
lithographic
monodispersed
broadens
photoelectrode
abrasive
(19),
probabil
Wat
inapp
prospect
farther
(*
Electrosp
##31].
gauche
predictable
##206
##folded
phantoms
aze
Teff
##Calculation
##Test
stearic
##∣∣
##Acet
acetylation
hydrothermally
Global
##)–1
1.48
phage
localize
TFE
##14.5
##zhou
SrO
collisionality
##dj
Oil
##lasov
photoredox
##244
##.2–4
Repe
miniaturized
PCH
ECSA
engage
##ocurrent
benzoate
##Concentration
mechanochemical
##agner
##ologen
##.8–10
dwarfs
##Simulated
sticky
##ZA
##eor
methine
prospective
Lax
##loying
microdrop
constructive
##2–4
##Amp
MDI
Dispersion
OMMT
##02+
Final
##mSiO
California
microfibers
##-700
##3,5-
Earlier
Being
##×1010
##.38,
16).
##Dox
unve
resistors
##2]+
##=∫0
##208
Nt
TiOx
ramping
kN
Ty
Molecules
BDT
##impact
Diamond
##294
voxels
umbrella
##(2)–
##Miyaura
(0.02
##pip
2.05
##ogashira
##−→
(41)
benzophenone
##TMC
DHA
##-1/2
hydroxylated
0.77
##quinolin
##ZnSe
FCI
##nA
SPD
##ukary
##curves
##mercapto
##Rk
##305
belt
Archimed
emulsification
##diffraction
##uvate
pertaining
TCA
##25.
isotopolog
destabilizing
FIR
spherulite
##+):
##erman
##templated
Response
##itoring
Bog
−1,
diamines
impacting
semimetal
##±5
Tak
##endor
Nickel
##42,
(32
pyrolytic
MIPs
##BODIPY
1.43
antigens
##damped
##lg
36,
Whether
##13]
titrated
##UD
Sons
##meability
##·10
vulcanizates
2004,
0.91
##Crystall
(126
##FH
Wide
##203
##tleness
##association
223
−8
##ulting
stemming
##OV
353
##zeta
BMGs
hemi
##adhesive
tear
##oregular
insulated
##spots
##TW
∼80
##counting
##antilever
Prepared
##ESR
##hereafter
PPD
##TRACT
##RDE
Point
##),(6)
Rev
##0001]
judged
##−=
HDO
##(2.1
absorptivity
CIP
1%.
##Optimization
##hk
##dio
##inters
##cy
##APTES
##Back
miniemulsion
−0.6
inference
873
oleylamine
slurries
##rF
##oned
##diamine
turbid
nascent
##Toluene
HUVECs
slowest
##Inf
interconnect
(0)
Circ
educ
observes
OCV
HAT
entity
##20.
##erant
##SOI
worthy
##3′-
50-
##1〉
du
epiderm
##odiation
##exchanged
287
collectively
##1.35
##8−
doubles
balances
##omains
gross
##DPH
##-1),
##existence
##nikov
depressed
Accur
##Poisson
##|2)
##–350
(40)
1.47
disassembly
##(20
##scanning
208
##je
##icher
astron
coherently
##vous
DRS
##OX
##PSF
tp
##anded
##chin
##decane
##viation
emulsifier
interferometric
11%
523
[25,
stations
##onin
expects
polypeptides
microwell
[53].
##,1,2
##estinal
PDMAEMA
[65
COMSOL
thereof
weakness
activates
##±=
##ipy
Brazil
rhombic
something
heterogeneities
##186
##284
FEA
##ordon
16-
residing
FDA
sulphate
##2′′
##blende
##adapted
amperometric
##βα
227
##Newtonian
VR
##CPT
##Expt
171
##ophenes
INS
##empor
Titanium
##CONH
##MAL
Medium
AdS
##increasing
##burst
##−1)+
bron
MPD
containers
245
##HSO
##md
13%
##).2.2
irradiating
##Size
338
17.5
##methylation
plenty
bremsstrahlung
##deple
NCA
##×10−10
##orious
Element
stratified
ZrC
##liness
orthogonality
##355
ECG
biaryl
##/12
##(1)=
Hart
(−)-
Neutron
Enhanced
exercise
Microwave
acidified
##(%)
Tang
NiSi
gelator
clamping
biotinylated
34,
##oxime
compounding
phononic
ionisation
beating
##Cas
rubbers
##Por
##atured
muscles
annot
configure
30-
2,5‐
join
Horiba
smoothness
297
##benzoate
##*2
##02,
photocurrents
flushed
##hydroxylation
sessile
BW
(311)
photoacoustic
##Mt
##ishi
Fokker
##258
1640
PGA
##amates
##otation
Frenkel
##fields
marrow
duplicate
structuring
MOR
##ressor
##CoA
1.02
##nitride
##parameters
##directional
1.19
xerogel
##xchange
roughening
##bx
##DAC
(4.3
##265
PdII
pentagonal
retardancy
rij
Volume
Gem
##treat
3.2.
##10],
##phed
##0.012
##MIP
redist
attainable
##Km
##}]
##integral
addresses
[33],
isomorphic
compromised
microwaves
12.7
defic
##roscopically
##2′,
bacterium
##Ey
Viscosity
dihydrate
##}+
18%
Ky
sacrificed
diffusional
##bow
circul
2002
##dynam
coalesce
ODE
##dam
cheaper
##dI
##=90
Unit
##opropane
correcting
−1.0
Province
##PPE
##).7
##incorporated
234
chal
##±3
##288
##Real
11.0
predefined
##1.09
nanodi
1:1,
hemoglobin
##ofib
PhD
RDFs
pyrrolidine
directionality
##MIM
##asy
PCP
bathochromic
iodo
##Hk
##hev
associations
3-(
ATCC
Morse
##12:
SCS
##Crafts
0°,
##–46
##orus
entrain
##ocycl
Tx
electrophile
##Azo
##Lag
BaFe
Incorporation
15-
damaging
relaxivity
##nF
##002
##bac
ABSTRACT
collapses
##°;
LCs
intervention
##mT
##9%)
##support
##(2).
##ationic
##otope
goni
alignments
##rock
SAC
##ulence
##temporal
##.29,30
illustrative
##SBR
2.30
requ
FTS
Yvon
impede
workup
genomic
fitness
##^\
##MTT
Pyr
##6[
##ponential
##2⁡
##Wi
2+
##abolic
μΩ
copyright
≥99
eosin
##37,
Por
##programmed
##31.0
smoke
##152
0.51
SCN
##ospital
##ubbs
##compression
cultivation
##Michael
##4000
##acial
[−
terminus
##method
(13).
gather
##omplex
unsatis
PdO
##SWNTs
##naphthalene
##ferroelectric
embryos
##179
##Fr
##18]
14.5
ergodic
##4⋅
brittleness
BJH
##bt
solvat
differentiating
##vans
unaltered
coron
pitting
##udes
inn
(+)-
Kapton
##24]
extensional
##blocking
##phases
0.03,
polarizers
itinerant
##aptic
##LAR
CID
solubilized
##enna
##(4,
triboelectric
99%)
assayed
##–2,
##209
##GNS
PEA
##phosphonate
##ZP
ΔΔ
Mink
statistic
mediators
##:1).
principally
##=2.
##kes
##printing
JH
reorient
##,(11)
##screw
achievements
##IVE
diluent
Aer
10.7
arith
Titan
terminations
##34].
nanodiamond
NaF
undet
##Protein
bootstrap
278
Celite
Qualit
Δσ
##media
tons
##destructive
##.50,
plat
##16.
##Heat
##characterized
pDNA
biochar
naphthal
##]${{{
##modynamic
##30°
178
tetras
##PEGMA
saliv
prisms
disposal
##ao
Storage
##NFs
##∕3
normalizing
##Oy
VM
Sand
##abin
cytosine
##liest
##theta
##-1/
##100%
prolate
(−2
recursive
##fav
isothi
##book
knowing
##-8,
perc
Sonogashira
sext
##Effective
Nikon
##Experiments
##lactam
nervous
##ulturing
microcrystals
sizable
##iop
harness
[...]
