##!(
##$,
##$.
##$\
##${
##${{
##%)/
##%);
##(%)
##(0
##(0)(
##(0)+
##(0),
##(0).
##(0)=
##(0)−
##(00
##(000
##(0001)
##(001)
##(1)(
##(1)+
##(1).
##(1)=
##(1)‐
##(1)–
##(1)−
##(1+2
##(10)
##(100
##(100)
##(110)
##(111)
##(111),
##(111).
##(12
##(13)
##(14)
##(15
##(15)
##(16)
##(17)
##(18)
##(19)
##(1‐
##(1−2
##(2)(
##(2).
##(2)–
##(2.1
##(20
##(20)
##(21)
##(22)
##(23)
##(24)
##(26)
##(2‐
##(2−
##(3)(
##(3-
##(30)
##(31)
##(32)
##(3‐
##(4-
##(4‐
##(5),
##(7
##(8
##(9
##(\
##(±
##(∂
##(∇
##(∑
##(−)
##(−1
##(−1)
##(−2
##(∞
##(∣
##(⋅
##)(1)
##)(1+
##)(1−
##)(2
##)(2)
##))(
##))+
##))2
##));
##))=
##))]
##))−
##)*
##)+(
##)+1
##)+12
##)+2
##)+∑
##),(1)
##),(2)
##),(3
##),(3)
##),(4
##),(4)
##),(5)
##),(6)
##),(7)
##),(8)
##),3
##)-(
##)-1,
##)-1-
##)-2,
##)-2-
##)-3-
##)-4-
##).(
##).(2)
##).(3
##).(3)
##).(4
##).(4)
##).(5)
##).,
##).1
##).10
##).11
##).12
##).13
##).14
##).15
##).16
##).2
##).2.2
##).2.3
##).3
##).3.
##).4
##).5
##).6
##).7
##).8
##).9
##)/(
##)/2
##)0
##)0.5
##)1+
##)1/
##)1/2
##)10
##)11
##)12
##)13
##)14
##)15
##)16
##)17
##)18
##)1−
##)2(
##)2)
##)2+
##)2+(
##)2,
##)2-
##)2.
##)2/
##)20
##)22
##)23
##)24
##)25
##)2[
##)2]
##)2],
##)2}
##)2−
##)3(
##)3,
##)3]
##)3]2+
##)4
##)4(
##)4]
##)5
##)6
##)6]
##)7
##)8
##)9
##):=
##)<
##)=(
##)=0
##)=0,
##)=0.
##)=1
##)=12
##)=1−
##)=2
##)=4
##)=[
##)={
##)=|
##)=∑
##)=−
##)=∫
##)=∫0
##)=⟨
##)>
##)](
##)]+
##)]2
##)]2+
##)]=
##)][
##)]}
##)]−
##){
##)},
##)­
##)­(
##)·
##)‐
##)‐1
##)‐2
##)‐2,
##)‐2‐
##)–(
##)–1
##)–1(
##)–2(
##)–3
##)–3(
##)–4
##)–4(
##)—
##)∂
##)∇
##)∑
##)−(
##)−1,
##)−2
##)∕
##)∝
##)∣
##)∥
##)∫
##)∼
##)≃
##)≈
##)≔
##)≡
##)≤
##)≥
##)⊗
##)⋅
##)⟨
##)⟩
##)⩽
##*),
##*+
##*-
##*/
##*2
##*=
##*−
##+(1−
##+),
##+).
##+):
##++++
##+0
##+1)(
##+1),
##+1+
##+12
##+14
##+1=
##+1−
##+2(
##+2)
##+2,
##+4
##+5
##+6
##+:
##+[
##+]
##+|
##+‐
##+–
##+∂
##+∇
##+∑
##+−
##+∞
##+∫
##+⋯
##,(1)
##,(10)
##,(11)
##,(12)
##,(13)
##,(14)
##,(15)
##,(16)
##,(17)
##,(2
##,(2)
##,(3
##,(3)
##,(4
##,(4)
##,(5
##,(5)
##,(6
##,(6)
##,(7)
##,(8)
##,(9)
##,,,
##,...,
##,0)
##,0,
##,1,2
##,10
##,11
##,11,
##,12
##,13
##,13,
##,14
##,15
##,16
##,17
##,18
##,19
##,2,
##,20
##,21
##,21,
##,22
##,22,
##,23
##,23,
##,24
##,24,
##,25
##,26
##,27
##,28
##,29
##,3,
##,30
##,30,
##,31
##,32
##,33
##,34
##,35
##,36
##,37
##,38
##,39
##,4,
##,40
##,41
##,42
##,43
##,44
##,5,
##,6,
##,8
##,9
##,∂
##-(2-
##-(3-
##-(4-
##-0.5
##-1,2-
##-1,3-
##-1,4-
##-1/2
##-1000
##-101
##-2),
##-2100
##-231
##-300
##-311
##-311+
##-311++
##-400
##-41
##-500
##-600
##-66
##-66-
##-7,
##-7-
##-700
##-8,
##-8-
##-800
##-900
##.%
##.%)
##.%,
##.(1)
##.(10)
##.(11)
##.(12)
##.(13)
##.(14)
##.(15)
##.(16)
##.(17)
##.(18)
##.(19)
##.(2
##.(2)
##.(20)
##.(21)
##.(22)
##.(23)
##.(24)
##.(25)
##.(26)
##.(27)
##.(28)
##.(29)
##.(3
##.(3)
##.(30)
##.(31)
##.(32)
##.(4
##.(4)
##.(5
##.(5)
##.(6
##.(6)
##.(7
##.(7)
##.(8)
##.(9)
##.,,
##.,,,
##.,−
##.0%
##.0)
##.0,
##.02
##.03
##.04
##.05
##.06
##.07
##.08
##.09
##.0]
##.1,2
##.10,11
##.10–12
##.11,12
##.11–
##.11–13
##.12,
##.12,13
##.12–
##.12–14
##.13,
##.13,14
##.13–15
##.14,
##.14,15
##.14–16
##.15,
##.15,16
##.15–17
##.16,
##.16,17
##.16–18
##.17,
##.17,18
##.18,
##.18,19
##.19,
##.19,20
##.1°
##.1–3
##.1–4
##.1–5
##.1–6
##.2,3
##.2.1
##.2.1.
##.2.2
##.2.2.
##.2.3
##.2.3.
##.2.4
##.2.4.
##.2.5
##.2.6
##.2.7
##.20,
##.20,21
##.21,
##.21,22
##.21–
##.22,
##.22,23
##.22–
##.23,
##.23,24
##.24,
##.24,25
##.25,
##.25,26
##.26,
##.26,27
##.27,
##.27,28
##.28,
##.28,29
##.29,
##.29,30
##.2°
##.2–4
##.3,4
##.3.1
##.3.1.
##.3.2
##.3.2.
##.3.3
##.3.3.
##.3.4
##.3.4.
##.3.5
##.3.6
##.30,
##.30,31
##.31,
##.31,32
##.32,
##.32,33
##.33,
##.33,34
##.34,
##.34,35
##.35,
##.36,
##.37,
##.38,
##.39,
##.3°
##.3–5
##.4,5
##.4.1
##.4.1.
##.4.2
##.4.2.
##.4.3
##.4.3.
##.40,
##.41,
##.42,
##.43,
##.44,
##.45,
##.46,
##.47,
##.4°
##.4–6
##.5%,
##.5,6
##.50,
##.51,
##.53,
##.54,
##.55,
##.56,
##.5°
##.5–7
##.6%
##.6)
##.6,7
##.6.
##.60
##.60,
##.61
##.61,
##.62
##.62,
##.63
##.63,
##.64
##.65
##.65,
##.66
##.67
##.68
##.69
##.6°
##.6–8
##.7%
##.7)
##.7,8
##.7.
##.70
##.71
##.72
##.73
##.74
##.75
##.76
##.77
##.78
##.79
##.7°
##.7–9
##.8%
##.8%,
##.8)
##.8,
##.8,9
##.8.
##.80
##.81
##.82
##.83
##.84
##.85
##.86
##.87
##.88
##.89
##.8°
##.8–10
##.9%
##.9)
##.9,
##.9,10
##.9.
##.90
##.91
##.92
##.93
##.94
##.95
##.96
##.97
##.98
##.99
##.9–11
##.‐
##.—
##.•
##.−
##/(2
##/1,
##/2),
##/2+
##/25
##/2−
##/3,
##/30
##/4,
##/40
##/50
##/6-31
##/60
##/6‐
##/6‐31
##/[
##/|
##/°
##0)(
##0)+
##0)/
##0)2
##0)=
##0)]
##0)−
##0,0)
##0,0,
##0..
##0.0,
##0.000
##0.0000
##0.001
##0.002
##0.003
##0.004
##0.005
##0.006
##0.007
##0.008
##0.009
##0.010
##0.011
##0.012
##0.013
##0.014
##0.015
##0.016
##0.018
##0.02
##0.025
##0.03
##0.04
##0.06
##0.07
##0.08
##0.09
##0.1%
##0.1)
##0.1,
##0.10
##0.11
##0.12
##0.13
##0.14
##0.15
##0.16
##0.17
##0.18
##0.19
##0.2)
##0.2,
##0.20
##0.21
##0.22
##0.23
##0.24
##0.25
##0.26
##0.27
##0.28
##0.29
##0.3)
##0.3,
##0.30
##0.31
##0.32
##0.33
##0.34
##0.35
##0.36
##0.37
##0.38
##0.39
##0.4,
##0.40
##0.41
##0.42
##0.43
##0.44
##0.45
##0.46
##0.47
##0.48
##0.49
##0.5%
##0.5)
##0.5,
##0.5.
##0.50
##0.51
##0.52
##0.53
##0.54
##0.55
##0.56
##0.57
##0.58
##0.59
##0.6,
##0.60
##0.61
##0.62
##0.63
##0.64
##0.65
##0.66
##0.67
##0.68
##0.69
##0.7,
##0.70
##0.71
##0.72
##0.73
##0.74
##0.75
##0.76
##0.77
##0.78
##0.79
##0.8,
##0.80
##0.81
##0.82
##0.83
##0.84
##0.85
##0.86
##0.87
##0.88
##0.89
##0.9,
##0.90
##0.91
##0.92
##0.93
##0.94
##0.95
##0.96
##0.97
##0.98
##0.99
##0.998
##0/[
##00).
##000)
##0001)
##0001]
##001)
##001]
##001}
##02(
##02)
##02+
##02,
##02−
##06-2
##0<
##0=
##0=(
##0=0
##0=0.
##0=1
##0=2
##0=−
##0[
##0],
##0].
##0–
##0–1
##0′
##0→
##0∂
##0−
##0−1
##0∕
##0∣
##0≈
##0≤
##0⟩
##0〉
##1(1)
##1(2)
##1(3)
##1)(
##1)+
##1)=
##1)]
##1)−
##1+(
##1+2
##1,1
##1,3,
##1,32
##1,42
##1..
##1...
##1.0,
##1.00
##1.03
##1.04
##1.05
##1.06
##1.07
##1.08
##1.09
##1.10
##1.15
##1.25
##1.30
##1.33
##1.35
##1.36
##1.38
##1.40
##1.45
##1.48
##1.5,
##1.50
##1.55
##1.65
##1.75
##1.85
##1.95
##1.98
##1/2(
##1/2)
##1/2,
##1/2.
##1/3
##1/4
##10%
##10(
##10),
##10,11
##10.0
##10.5
##10/
##100%
##100)
##100}
##1010
##1073
##10],
##10‐
##10–
##10−
##11(
##11),
##11).
##11+
##11,12
##11.0
##11.1
##11.2
##11.3
##11.4
##11.5
##11.6
##11.7
##11.8
##11.9
##11/2
##1100
##110}
##110⟩
##111)
##111}
##11−
##12(
##12),
##12).
##12+
##12,13
##12.0
##12.1
##12.2
##12.3
##12.4
##12.5
##12.6
##12.7
##12.8
##12.9
##12/
##1200
##12:
##12=
##12[
##12‐
##12–
##12−
##13(
##13)
##13),
##13).
##13,14
##13-
##13.0
##13.2
##13.3
##13.4
##13.5
##13.6
##13.7
##13.8
##13/2
##1300
##131
##14)
##14),
##14).
##14,15
##14-
##14.0
##14.1
##14.5
##1400
##141
##142
##143
##15)
##15),
##15).
##15,16
##15-
##15.0
##15.5
##15/2
##1500
##152
##153
##16)
##16),
##16).
##16,17
##16-
##16.0
##16.5
##16/
##1600
##162
##163
##164
##16]
##17)
##17),
##17).
##17,18
##17.0
##17.5
##172
##173
##177
##178
##179
##18)
##18),
##18).
##18,19
##18-
##18.0
##183
##184
##186
##187
##188
##189
##18]
##19,20
##192
##193
##194
##1<
##1=(
##1=1
##1=2
##1=−
##1±
##1×
##1‐
##1–1
##1–2
##1–3
##1–4
##1–5
##1–6
##1–7
##1′
##1′,
##1′-
##1→
##1∂
##1−(
##1−1
##1−2
##1∕
##1∕2
##1∣
##1≤
##1⊗
##1⋯
##1⟩
##1〉
##1
##2(0)
##2(1
##2(1)
##2(1+
##2(1−
##2(2
##2(2)
##2(3
##2(3)
##2(4)
##2)+
##2)/
##2)2
##2)2(
##2)2]
##2)3
##2)4
##2)=
##2)]
##2)−
##2+(
##2+)
##2+.
##2+/
##2+1
##2+2
##2+3
##2+4
##2+–
##2,(
##2,...,
##2,3-
##2,33
##2,43
##2,53
##2.(
##2..
##2.00
##2.3
##2.4
##2/(
##2/3)
##20%
##20),
##20).
##20,21
##20.0
##20/
##200,
##20]
##21(
##21+
##21.0
##21.1
##21.2
##21.3
##21.4
##21.5
##21.6
##21.7
##21.8
##21.9
##2100
##211
##213
##214
##215
##216
##218
##21]
##21−
##22(
##22)
##22),
##22+
##22.0
##22.5
##2200
##221
##222
##223
##224
##225
##226
##227
##228
##229
##22]
##22].
##22−
##23)
##230
##231
##232
##233
##234
##236
##237
##238
##239
##23]
##23].
##24)
##240
##243
##245
##246
##247
##248
##249
##24]
##24].
##25(
##25)
##25,26
##2500
##253
##254
##257
##258
##25]
##25].
##260
##264
##265
##266
##27)
##27,28
##270
##273
##275
##278
##28)
##28,29
##280
##284
##285
##286
##288
##29)
##29,30
##290
##294
##295
##296
##298
##2<
##2=(
##2=0
##2=0,
##2=0.
##2=1
##2=2
##2=−
##2>
##2@
##2]+
##2_
##2{
##2·
##2·6
##2×
##2‐
##2–1
##2–3
##2–4
##2–5
##2–7
##2•
##2′
##2′,
##2′-
##2′‐
##2′′
##2⁡
##2→
##2∂
##2∑
##2−(
##2−)
##2−,
##2−1
##2−1)
##2−2
##2−4
##2∕
##2∣
##2∫
##2≈
##2≤
##2⋅
##2⋯
##2⟨
##2⟩
##2〉
##2
##3(3)
##3)(
##3)+
##3)2
##3)2(
##3)2),
##3)2,
##3)2]
##3)2·
##3)2·6
##3)3
##3)3),
##3)3·
##3)4
##3)4]
##3)]
##3)–
##3)−
##3+(
##3+)
##3+,
##3+-
##3+.
##3+/
##3+:
##3+–
##3,4-
##3,44
##3,5-
##3.00
##3.3
##3.4
##3.5
##3/2)
##3/2,
##30)
##3000
##301
##303
##30°
##31)
##31.0
##31.5
##310
##311
##312
##316
##31].
##32)
##32.5
##32.8
##320
##32−
##33)
##330
##333
##335
##336
##342
##344
##34].
##350
##355
##356
##360
##365
##39)
##39/
##3=
##3@
##3[
##3|
##3}
##3·
##3·6
##3×
##3‐
##3–3
##3–5
##3′
##3′,
##3′-
##3′‐
##3−,
##3∕
##3∕2
##3⋅
##3
##4)(
##4)2
##4)3
##4)6
##4);
##4+,
##4,35
##4,4
##4,45
##4,4′-
##4,4′‐
##4,5
##4,5,
##4,5-
##4,5‐
##4,6-
##4,6‐
##4.00
##4.2
##4.3
##4.4
##4.5
##40)
##4000
##405
##406
##40]
##420
##42–
##42−
##43−
##453
##455
##45°
##480
##488
##4=
##4@
##4[
##4}
##4·
##4‐
##4–3
##4–7
##4′
##4−
##4−,
##4⋅
##5)2
##5)3
##5+
##5,36
##5,46
##5,6
##5.1
##5.2
##5.3
##5.4
##5.5
##5/2
##50)
##5000
##505
##50°
##51,
##550
##5‐
##5–3
##5–7
##5′
##5′-
##5−
##6)2
##6+
##6,27
##6,37
##6,47
##6,7
##6-31
##6.2
##6.3
##6.4
##6.5
##60)
##60-
##60/
##63/
##650
##660
##6[
##6‐
##6–3
##6−
##7(
##7+
##7,38
##7,48
##7,8
##7.1
##7.2
##7.3
##7.4
##7.5
##7/2
##719
##750
##7‐
##7−
##8(
##8,39
##8,49
##8,9
##8.1
##8.2
##8.3
##8.4
##8.5
##80)
##850
##8‐
##8−
##9(
##9,10
##9,40
##9,50
##9.1
##9.2
##9.3
##9.4
##9.5
##9.7
##9.8
##9/2
##90,
##90°
##929
##9‐
##9–1
##:(
##:(1)
##:1)
##:1).
##:1,
##:1.
##:20
##:30
##:50
##:=
##:[
##;(
##=(1
##=(1−
##=(2
##=+
##=-
##=0)
##=0),
##=0).
##=0,(
##=0.01
##=0.05
##=0.1
##=0.1,
##=0.15
##=0.2
##=0.2,
##=0.25
##=0.3
##=0.4
##=0.5
##=0.5,
##=0.6
##=0.7
##=0.8
##=0.9
##=0∞
##=1)
##=1+
##=1,...,
##=1,2,
##=1,2,...,
##=1.0
##=1.1
##=1.2
##=1.3
##=1.4
##=1.5
##=1.6
##=1.8
##=1/
##=1/2
##=10
##=100
##=11
##=12
##=12(
##=13
##=14
##=15
##=16
##=17
##=18
##=19
##=1−
##=1∞
##=2,
##=2.
##=2.0
##=2.5
##=20
##=200
##=22
##=23
##=24
##=25
##=3,
##=30
##=300
##=32
##=35
##=4,
##=40
##=50
##=500
##=6
##=60
##=7
##=7.2
##=7.5
##=8
##=8.0
##=9
##=90
##=[
##={
##=|
##=±
##=∂
##=∇
##=∑
##=−(
##=−1
##=−12
##=−2
##=−4
##=−∂
##=−∇
##=−∑
##=∣
##=∫
##=∫0
##=⟨
##=〈
##>(
##>0,
##>0.
##>1
##>1,
##>2
##>99
##><
##></
##AAC
##AAm
##ABS
##ADF
##AES
##AFM
##AFS
##AIBN
##ALD
##AMPS
##ANES
##AO
##APC
##APPENDIX
##APS
##APT
##APTES
##AQ
##ASCO
##ATR
##ATRP
##AZ
##AZO
##Aa
##Absorption
##According
##Acet
##Acknowledgements
##Act
##Additional
##Additionally
##Adsorption
##Ae
##After
##AgCl
##AgNO
##AgNPs
##Agilent
##Air
##Aj
##AlAs
##AlC
##AlCl
##AlGaAs
##AlGaN
##AlH
##AlN
##AlO
##Alder
##Alfa
##Alg
##Alk
##Alq
##Also
##Altern
##Although
##Amino
##Among
##Amp
##Analysis
##Analytical
##Anne
##Another
##Anti
##Apparatus
##Appendix
##Application
##AsO
##Asp
##Assuming
##Atom
##Atomic
##AuCl
##AuNP
##AuNPs
##Aut
##Average
##Az
##Azo
##BCO
##BCP
##BDC
##BDT
##BET
##BFO
##BHP
##BJ
##BJH
##BLE
##BMA
##BMIM
##BMP
##BODIPY
##BPA
##BQ
##BSD
##BTC
##BTO
##BTS
##BZ
##BaTiO
##Back
##Band
##Because
##Before
##Beijing
##Benz
##Besides
##Beta
##BiO
##BiVO
##Binding
##Biographical
##Bis
##Bj
##Bk
##Blue
##Bm
##Bn
##Boc
##Boltzmann
##Bond
##Both
##Bp
##Bruker
##BuLi
##Bulk
##Burke
##But
##Butyl
##Bx
##By
##Bz
##CASSCF
##CBS
##CCD
##CCH
##CCS
##CCSD
##CDA
##CDCl
##CDD
##CDI
##CDs
##CHA
##CHCH
##CHCl
##CHI
##CHO
##CIS
##CMC
##CMP
##CMs
##CNC
##CNCs
##CNF
##CNFs
##CNP
##CNPs
##CNQ
##CNS
##CNs
##COCH
##COD
##COF
##CONCLUSION
##CONCLUSIONS
##CONH
##COO
##COOH
##COS
##CPD
##CPDS
##CPE
##CPP
##CPT
##CPh
##CQDs
##CSA
##CSD
##CSEL
##CST
##CSs
##CTAB
##CTR
##CVD
##CW
##CZ
##CaCO
##CaO
##Calc
##Calculated
##Calculation
##Carbon
##Case
##Cat
##Catalyst
##Catalytic
##Catalyzed
##Cb
##Cc
##CdS
##CdSe
##CdTe
##CeO
##Cf
##Cg
##ChE
##Chan
##Characteristic
##Characterization
##Charge
##Chemical
##China
##Chlor
##Ck
##ClO
##Clx
##Cm
##Cn
##CoFe
##CoO
##Cole
##Color
##Comb
##Combining
##Compared
##Comparing
##Comparison
##Complex
##Composition
##Compound
##Computational
##Concentration
##Conclusion
##Conclusions
##Condon
##Conf
##Conflicts
##Consid
##Consider
##Considering
##Cont
##Contact
##Conv
##Conversion
##Correlation
##Cox
##Cq
##CrO
##Crafts
##Cross
##Crystal
##Crystall
##CuBr
##CuCl
##CuI
##CuII
##CuO
##CuPc
##CuS
##Cur
##Current
##Cx
##Cyclic
##Cys
##Cyt
##Cz
##DAC
##DAP
##DBT
##DCB
##DCE
##DCM
##DCP
##DDS
##DEA
##DEG
##DES
##DETA
##DFT
##DISCUSSION
##DLC
##DLS
##DMA
##DMAC
##DMAP
##DMC
##DME
##DMEM
##DMF
##DMS
##DOM
##DOS
##DOT
##DOTA
##DOX
##DPA
##DPH
##DPP
##DSC
##DSSCs
##DTA
##DTBT
##DTD
##DTPA
##DTT
##DVB
##DW
##DZ
##Definition
##Delta
##Density
##Dependence
##Der
##Design
##Despite
##Det
##Detection
##Determination
##Determined
##Device
##Dielectric
##Diff
##Different
##Differential
##Dimethyl
##Dirac
##Dis
##Discussion
##Distribution
##Dm
##Dn
##Dox
##Dt
##Due
##During
##Dx
##Dy
##Dynamic
##EAM
##EAR
##ECM
##EDA
##EDC
##EDF
##EDS
##EDX
##EELS
##EGFR
##EGMA
##EH
##EIS
##EK
##EMA
##EMD
##EMIM
##EO
##EOL
##EOM
##EPDM
##EPR
##EQ
##EQE
##ERICAL
##ESEM
##ESR
##ESY
##EVA
##EXAFS
##EXPERIMENT
##EXPERIMENTAL
##Ea
##Each
##Ear
##Eb
##Ec
##Ee
##Ef
##Eff
##Effect
##Effective
##Effects
##Eg
##Eh
##Einstein
##Eint
##Ej
##Ek
##Elect
##Electrical
##Electro
##Electrochemical
##Electron
##Electronic
##Elmer
##Emission
##Emmet
##Emmett
##Energy
##Enhanced
##Ent
##Entry
##Eqs
##Equation
##Equations
##Ernzerhof
##Estim
##Estimated
##EtOAc
##EtOH
##Eth
##Ethyl
##Eu
##Evaluation
##Even
##Evolution
##Example
##Exc
##Exp
##Experim
##Experiment
##Experimental
##Experiments
##Expt
##Ext
##Ey
##Ez
##FAB
##FBS
##FCs
##FDA
##FEI
##FEM
##FESEM
##FETs
##FFT
##FIB
##FIG
##FITC
##FRET
##FTIR
##FTO
##FTs
##FWHM
##Fa
##Fabrication
##FeB
##FeCl
##FeCo
##FeII
##FeIII
##FeO
##FeOOH
##FePO
##FeS
##FeSi
##Fer
##Fermi
##Field
##Film
##Finally
##First
##Flu
##Fluor
##Fluorescence
##Fm
##Fn
##Fo
##Fock
##Following
##Form
##Formation
##Four
##Fourier
##Free
##Frequency
##From
##Ful
##Further
##Furthermore
##GCE
##GCG
##GEBA
##GGA
##GMA
##GNP
##GNPs
##GNR
##GNRs
##GNS
##GPC
##GPa
##GQDs
##GSH
##GW
##GY
##GaAs
##GaN
##GaO
##GaP
##GaSb
##Gas
##Gd
##GdF
##GeO
##Gel
##Gener
##General
##Generally
##Germ
##Germany
##Given
##Glass
##Gn
##Gra
##Graphene
##Gre
##Growth
##HAADF
##HAP
##HAp
##HCF
##HCO
##HDPE
##HEM
##HEMA
##HFP
##HK
##HMDS
##HMF
##HMW
##HMWPE
##HNO
##HODS
##HOMO
##HPC
##HPO
##HQ
##HRMS
##HRP
##HRTEM
##HSA
##HSO
##HSV
##Hal
##Halenda
##Har
##Hard
##Having
##Hc
##Heat
##Hel
##Hence
##Here
##Herein
##Hex
##Hf
##HfO
##Hist
##Hitachi
##Hk
##Hm
##Hn
##However
##Hp
##Hug
##Huggins
##Hx
##Hydro
##Hydrogen
##Hydroxy
##IBN
##IBs
##ICP
##IGS
##IGZO
##ILS
##ILs
##IMA
##IMD
##IMENT
##INTRODUCTION
##IPN
##IPY
##IPr
##IRE
##ISE
##ISM
##ITO
##Ia
##Ib
##Ic
##Ii
##Ill
##Image
##Imp
##Impact
##InAs
##InGaAs
##InN
##InP
##Inc
##Inf
##Influence
##Ini
##Initial
##Instrum
##Integ
##Interestingly
##Introduction
##Investig
##Ion
##Ip
##IrO
##Isolated
##JC
##JCPDS
##JEOL
##JH
##JHH
##JK
##JM
##JP
##JSC
##JT
##Japan
##Jc
##Ji
##Jm
##Jn
##Jo
##Joyner
##Js
##Jsc
##Jz
##KBr
##KCl
##KG
##KN
##KOH
##KP
##KR
##Kc
##Kd
##Kinetic
##Km
##LAR
##LAS
##LDA
##LDH
##LDHs
##LDI
##LDPE
##LED
##LEDs
##LG
##LH
##LIBs
##LJ
##LLA
##LOD
##LSM
##LUMO
##LYP
##Lag
##Land
##Landau
##Large
##Laser
##Lattice
##Lc
##Left
##Lemma
##Let
##Leu
##LiCl
##LiF
##Light
##Lim
##Linear
##Lip
##Liquid
##Ln
##Local
##Long
##Lorentz
##Low
##Lp
##Lx
##Ly
##Lz
##MAA
##MAEMA
##MAH
##MAL
##MALDI
##MAM
##MAO
##MAS
##MAT
##MBA
##MBE
##MCC
##MCD
##MCM
##MEA
##MFI
##MHD
##MIL
##MIM
##MIP
##MJ
##MLCT
##MMA
##MMARY
##MMT
##MNPs
##MODEL
##MOF
##MOFs
##MOS
##MOs
##MPA
##MPC
##MPD
##MPS
##MPU
##MPa
##MSA
##MSN
##MSNs
##MSOL
##MSS
##MSs
##MTT
##MWCNT
##MWCNTs
##MWNT
##MWNTs
##MX
##Magnetic
##Mal
##Malvern
##Many
##Markovian
##Mass
##Material
##Materials
##Maximum
##Maxwell
##MeC
##MeCN
##MeO
##MeOH
##Mean
##Measure
##Measured
##Measurement
##Measurements
##Mechan
##Mechanical
##Mechanism
##Membrane
##Mer
##Merck
##Mes
##Metal
##Method
##Methods
##Methyl
##MgAl
##MgCl
##MgO
##Michael
##Micro
##Microstructure
##Millipore
##Miyaura
##MnO
##MoO
##MoS
##Mode
##More
##Moreover
##Morphology
##Most
##Mr
##Mt
##Multi
##Mw
##NALY
##NALYSIS
##NAP
##NAs
##NBR
##NCE
##NCH
##NCLU
##NCLUSION
##NCO
##NCS
##NCs
##NDI
##NEt
##NFs
##NHC
##NHS
##NIPA
##NIPAAm
##NIPAM
##NIPAm
##NIR
##NMP
##NMe
##NOL
##NOM
##NOVA
##NPC
##NRs
##NSs
##NTA
##NTR
##NTRODUCTION
##NTf
##NUMERICAL
##NW
##NWs
##NaCl
##NaO
##NaOH
##NaYF
##Nafion
##Nan
##Nano
##Nat
##Nb
##NbO
##Nc
##Nd
##Newtonian
##Next
##Nf
##Ng
##NiCo
##NiFe
##NiO
##Nk
##Nm
##Nn
##None
##Norm
##Normalized
##Not
##Now
##Np
##Nt
##Number
##Numerical
##Nx
##Ny
##OCH
##OCO
##OCl
##ODA
##ODIPY
##ODUCTION
##OER
##OES
##OEt
##OFF
##OK
##OLEDs
##OMe
##OMeTAD
##ONO
##ONa
##OOH
##ORR
##OTf
##Obser
##Oct
##Oe
##OiPr
##Olympus
##Once
##Oppenheimer
##Optical
##Optim
##Optimization
##Organ
##Organic
##Orig
##Original
##OtBu
##Other
##Our
##Over
##Overall
##Oxygen
##Oy
##PAA
##PAAm
##PAC
##PAH
##PAM
##PAMAM
##PAN
##PANI
##PAS
##PAW
##PBA
##PBE
##PBI
##PBT
##PCBM
##PCE
##PCL
##PCM
##PCS
##PCs
##PDA
##PDB
##PDF
##PDH
##PDI
##PDM
##PDMAEMA
##PDMS
##PDT
##PEA
##PEC
##PEDOT
##PEEK
##PEGMA
##PEI
##PEM
##PEN
##PENDIX
##PEO
##PER
##PERIMENT
##PES
##PEX
##PEs
##PGA
##PIC
##PLC
##PLD
##PLE
##PLGA
##PLL
##PLLA
##PLS
##PLs
##PMA
##PMMA
##PMN
##PMe
##PNIPAM
##POM
##POP
##POSS
##PPA
##PPE
##PPO
##PPS
##PPV
##PPh
##PPy
##PQ
##PSA
##PSC
##PSCs
##PSD
##PSF
##PSi
##PSs
##PTFE
##PTMS
##PTS
##PTT
##PTX
##PVA
##PVC
##PVDF
##PVP
##PW
##PXRD
##PY
##PZ
##PZT
##Pack
##Parameter
##Parameters
##Particle
##PbBr
##PbI
##PbO
##PbTiO
##Pc
##PdCl
##Peak
##Performance
##Perkin
##Perot
##Pert
##Pf
##Phase
##Phen
##Phenyl
##Phos
##Phot
##Photo
##Photocatalytic
##Physical
##Pj
##Pk
##Planck
##Plasma
##Plot
##Pm
##Poisson
##Poly
##Polymer
##Polymerization
##Por
##Pore
##Potential
##Power
##Pre
##Preparation
##Present
##Pressure
##Previous
##Procedure
##Product
##Prof
##Proof
##Prop
##Proper
##Proposition
##Protein
##PtCl
##Pu
##Pure
##Px
##Py
##Pyr
##Pz
##QD
##QDs
##QE
##QM
##QS
##QT
##QUID
##QW
##QY
##QZ
##Qs
##Quantum
##RAFT
##RAM
##RAS
##RDE
##RESULTS
##RGD
##RGO
##RHE
##RIFT
##RMS
##RPA
##RSD
##RTEP
##Radi
##Raman
##Ratio
##Ray
##Rc
##Rct
##Reaction
##Real
##Recent
##Recently
##Reference
##Refs
##Regarding
##Relative
##Rem
##Remark
##Results
##Ret
##Rf
##Rg
##RhB
##Rigaku
##Rj
##Rk
##Rm
##Room
##Rp
##Rt
##RuCl
##RuO
##Run
##SAED
##SAM
##SAT
##SAXS
##SBA
##SBET
##SBR
##SCA
##SCE
##SCF
##SCH
##SCN
##SCR
##SCUS
##SCUSSION
##SEC
##SEI
##SERS
##SIMS
##SOC
##SOI
##SPE
##SPI
##SPM
##SPS
##SQ
##SQUID
##SSA
##SSE
##STEM
##STO
##SUMMARY
##SWCNT
##SWCNTs
##SWNT
##SWNTs
##SZ
##Same
##Sample
##Samples
##Sb
##SbF
##Scanning
##Schematic
##Schottky
##SeO
##Second
##Self
##Several
##Sham
##Shanghai
##She
##Shimadzu
##SiC
##SiCl
##SiGe
##SiH
##SiMe
##SiN
##SiOx
##SiW
##Silic
##Similar
##Similarly
##Simulated
##Simulation
##Sin
##Since
##Single
##Size
##Sj
##Small
##SnI
##SnO
##SnS
##So
##Solid
##Solubility
##Solution
##Solvent
##Some
##Source
##Spa
##Space
##Specific
##Spect
##Spectra
##Spectral
##Spin
##SrTiO
##Stability
##Standard
##Star
##Statistical
##Step
##Stokes
##Strain
##Stre
##Structural
##Structure
##Stu
##Study
##Su
##Substituting
##Substrate
##Such
##Summary
##Super
##Supporting
##Sur
##Surface
##Sx
##Sy
##Synthesis
##System
##Sz
##TAA
##TAB
##TABLE
##TAC
##TAD
##TAP
##TAR
##TAT
##TATIONAL
##TBA
##TCNQ
##TCP
##TDDFT
##TEA
##TEG
##TEMPO
##TENG
##TEOS
##TES
##TFA
##TFSI
##TGA
##THE
##THEOR
##THF
##THz
##TION
##TIONS
##TMA
##TMC
##TMP
##TMS
##TNT
##TON
##TPB
##TPD
##TPE
##TPP
##TPR
##TPU
##TRACT
##TTF
##TU
##TW
##TY
##TZ
##TZVP
##TaO
##Taking
##Taylor
##Tb
##Td
##TeO
##Teller
##Temp
##Temperature
##Tensile
##Ter
##Test
##Tetra
##Tf
##Then
##Theore
##Theoretical
##Theory
##There
##Therefore
##Therm
##Thermal
##These
##Thickness
##Three
##Through
##Thus
##TiC
##TiCl
##TiN
##Tl
##Tm
##Tmax
##Tokyo
##Tol
##Toluene
##Top
##Total
##Tp
##TrFE
##Tran
##Transition
##Transmission
##Tre
##Trp
##Tw
##Two
##Typ
##Typical
##Tyr
##Tz
##UF
##ULA
##ULTS
##UMERICAL
##UO
##USY
##UVs
##Ui
##UiO
##Ul
##Ultra
##Under
##Upon
##Using
##VANCE
##VASP
##VB
##VBM
##VDF
##VDZ
##VF
##VG
##VGS
##VH
##VII
##VIII
##VIS
##VN
##VOC
##VPE
##VSM
##VTZ
##VV
##Va
##Vac
##Value
##Values
##Vari
##Variation
##Various
##Vb
##Vc
##Vd
##Ve
##Vf
##Vg
##Visible
##Vm
##Vn
##Vo
##Voc
##Volmer
##Volume
##Vp
##Vt
##Vth
##WAXS
##WCNT
##WCNTs
##WE
##WG
##WHM
##WO
##Water
##Wave
##Weight
##Weiss
##What
##When
##Where
##While
##With
##Within
##XAS
##XB
##XC
##XD
##XI
##XM
##XPS
##XRD
##XRF
##XZ
##Xc
##Xe
##Xs
##YAG
##YF
##YSZ
##Yb
##Yes
##Yield
##Young
##ZATION
##ZF
##ZFC
##ZIF
##ZO
##ZP
##ZS
##ZSM
##ZT
##ZVI
##ZZ
##Ze
##Zi
##ZnCl
##ZnO
##ZnS
##ZnSe
##Zr
##ZrO
##Zs
##[1
##[1+
##[1,
##[1,2-
##[1−
##[2
##[2,
##[3
##[3,
##[4
##[4]
##[5]
##[6]
##[7]
##[8]
##[∂
##[∑
##[−
##[−(
##\,
##]${{
##]${{{
##]+,
##]+.
##]+:
##]+;
##]+[
##],(
##].(
##]/
##]/[
##]0
##]0/[
##]1
##]2
##]2+
##]3
##]4
##]5
##]=
##]=[
##]}
##]­
##]­[
##]‐
##]−
##]−1
##^(
##^,
##^2
##^\
##^{
##^{\
##aR
##aS
##aThe
##abc
##abic
##abicyclo
##abilization
##above
##abricated
##abrication
##absorb
##absorbing
##abundant
##acac
##accel
##accepting
##acceptor
##accharide
##accharides
##accum
##acene
##acetal
##acetamide
##acetonate
##acetone
##acetonitrile
##acetylation
##acetylene
##aceutical
##achlor
##acids
##acillus
##aclit
##aclitaxel
##acob
##acol
##acoustic
##acrylates
##acrylic
##acrylonitrile
##acryloyl
##acteria
##acters
##actide
##actile
##actone
##acycl
##acycle
##adaic
##aday
##added
##addin
##adding
##addition
##additive
##addle
##adecane
##adecyl
##adem
##ademic
##adhesive
##adiabatic
##adiazole
##adiene
##adienyl
##adjoint
##adolinium
##adro
##adsorb
##adsorbed
##adsorption
##aer
##aerobic
##aev
##afel
##afn
##agel
##agenesis
##aggregate
##aggregates
##aggregation
##agnet
##agneti
##agnetically
##agnetism
##agnetization
##agnets
##agome
##agons
##agram
##ahertz
##ajor
##akef
##alar
##alase
##alcogen
##alcoh
##alcohol
##alent
##align
##aligned
##alization
##alized
##alkane
##alkanes
##alkene
##alkenes
##alkoxy
##alks
##alkyl
##alkylation
##alkyne
##alkynyl
##allad
##alladium
##allation
##allen
##allium
##allo
##allowed
##alloy
##alloyed
##alloying
##alloys
##alls
##allyl
##alog
##along
##alse
##altered
##altham
##alumin
##alumina
##aluminum
##alysed
##alysis
##alyst
##alysts
##alytic
##alytical
##alyzed
##amant
##amates
##amatsu
##amber
##amboo
##amely
##amethyl
##amides
##amido
##amiltonian
##aminated
##aminobenz
##aminopropyl
##aminopyridine
##ammal
##ammalian
##ammet
##ammonium
##amorphous
##amoyl
##amped
##amping
##amplifier
##amplitude
##analytical
##anar
##anation
##andard
##anediol
##anet
##aneth
##anethiol
##anford
##angevin
##angles
##angling
##angmu
##angmuir
##angoni
##angular
##anhydride
##anies
##aniline
##anin
##anion
##anionic
##anions
##anis
##annealed
##annealing
##annier
##anoate
##anode
##anoic
##anone
##antal
##antation
##anthan
##anthracene
##antile
##antilever
##anting
##antom
##apac
##apan
##apatite
##aphrag
##aphth
##aphthal
##aphthalene
##aphthyl
##aphylococcus
##apid
##apillary
##apphire
##apsh
##apshots
##apsule
##apsules
##apted
##apto
##aq
##aqueous
##aracter
##aracteristic
##aracterization
##aracterizations
##arbonyl
##arbonylation
##arboxylate
##arboxylic
##arburg
##archit
##architecture
##arct
##arctan
##arency
##arene
##arenes
##argyl
##aric
##arison
##arithmic
##armor
##arns
##arom
##aromatic
##arser
##artet
##artic
##articles
##arting
##artree
##arylation
##asco
##aseous
##ashba
##ashed
##ashing
##ashira
##asma
##assays
##assed
##assemble
##assembled
##assemblies
##assembling
##assie
##assif
##assing
##assivated
##association
##assuming
##astere
##asting
##astructure
##asured
##atalyst
##atalysts
##atalytic
##atan
##atched
##atches
##atching
##atent
##atest
##athesis
##athin
##atil
##atiles
##ationic
##ationship
##atiot
##atiotemporal
##atistical
##atistics
##ativistic
##atm
##atment
##atoms
##atop
##atorial
##atos
##atrix
##attached
##attere
##attered
##attern
##atterned
##atterning
##atterns
##attery
##attice
##attices
##ausible
##avable
##avail
##avg
##avis
##axane
##axanes
##axation
##axed
##axes
##axially
##axter
##ayered
##azan
##azene
##azide
##azido
##azin
##azines
##azoles
##azolium
##azolyl
##bL
##bac
##background
##bacterial
##balt
##bandgap
##barrier
##batch
##bate
##bath
##bauer
##bd
##beg
##begin
##below
##bending
##benzaldehyde
##benzene
##benzo
##benzoate
##benzoic
##benzoquinone
##benzoyl
##benzyl
##benzylidene
##bered
##bf
##bial
##bias
##bib
##bic
##bidden
##big
##bile
##bilities
##biotin
##bip
##biphenyl
##bipy
##bipyridine
##bium
##bk
##bleaching
##blende
##bling
##blocking
##bly
##bm
##bonded
##bonding
##bonds
##bones
##borane
##borate
##boration
##bornene
##boron
##boronic
##bos
##bottomed
##boundary
##bpy
##brafish
##bran
##branch
##branched
##break
##breaking
##brella
##bridged
##bridging
##bright
##broad
##broken
##brom
##bromide
##bromo
##brown
##brush
##built
##bulk
##burst
##butadiene
##butane
##butanol
##butene
##buty
##butylammonium
##butylene
##bx
##bye
##bz
##cad
##cage
##calcd
##calculated
##calib
##canonical
##capac
##capacity
##cape
##capped
##caprolactone
##caps
##carbazole
##carbene
##carbodiimide
##carbonate
##carbonyl
##carboxy
##carboxyl
##carboxylate
##carboxylic
##carrier
##cas
##casting
##catalysed
##catalyst
##catalysts
##catalytic
##caten
##cathode
##cavities
##cavity
##ccdc
##cedure
##centage
##centration
##centrosymmetric
##cepti
##cepting
##ceramic
##ceramics
##cerning
##cessed
##cessible
##cessing
##cetic
##chable
##chains
##chair
##changing
##charged
##charging
##chemistry
##chin
##chiral
##chit
##chitosan
##chloride
##chloro
##chloroform
##chromic
##cid
##cidyl
##cinate
##cinating
##circle
##circles
##circular
##cite
##clay
##clean
##cleaning
##click
##clockwise
##close
##clusions
##clusters
##coal
##coat
##coating
##cod
##coherent
##coil
##collinear
##colored
##common
##commut
##compare
##compared
##compens
##compensated
##composite
##compound
##compression
##concentration
##condens
##condensation
##conducting
##conductive
##conductivity
##cone
##configuration
##confined
##conform
##conjugation
##conser
##conserving
##consist
##consistency
##consistently
##const
##constant
##continuum
##controll
##conversion
##converted
##cooled
##cooling
##coordinate
##coordinated
##coordination
##copic
##copper
##cord
##cording
##corpor
##corr
##correlated
##cosh
##cosity
##cot
##counter
##counting
##coupling
##cour
##covalent
##covered
##covery
##crib
##crit
##crossing
##crosslinked
##crown
##crystal
##crystall
##crystalline
##crystallization
##crystallized
##crystals
##ction
##ctions
##ctive
##ctor
##cubic
##cular
##culated
##culating
##culation
##culations
##culature
##cum
##cup
##cured
##curing
##currence
##cursion
##cursor
##curve
##curves
##cury
##cx
##cyan
##cyano
##cycles
##cyclic
##cyclization
##cyclo
##cyclodextrin
##cyclohex
##cyclohexane
##cyclopent
##cyl
##cym
##cymene
##cysteine
##dA
##dC
##dE
##dF
##dG
##dH
##dI
##dM
##dN
##dP
##dR
##dS
##dV
##dW
##damped
##dash
##dba
##ddd
##dden
##ddt
##dead
##decane
##decay
##decorated
##defect
##degener
##degenerate
##dehyd
##dehydes
##delivery
##delta
##dend
##dentate
##denum
##deple
##deposited
##deposition
##dered
##deriv
##derivative
##designed
##desorption
##destructive
##detection
##detector
##determining
##deuter
##device
##dew
##dge
##diag
##dial
##diamin
##diamine
##diamond
##diaz
##dibromo
##dical
##dichlor
##dichloro
##dichlorobenzene
##dichloroethane
##died
##dielectric
##diene
##dies
##diethyl
##differential
##diffraction
##diffusive
##dihydro
##dihydroxy
##diisopropyl
##dimer
##dimethoxy
##dimethylamino
##dimethylsiloxane
##dimethylsilyl
##dio
##diol
##dione
##diox
##dioxane
##diphenyl
##dipolar
##dipole
##directing
##discharge
##discharging
##discip
##discus
##discussed
##disil
##disk
##disorder
##disper
##dispersed
##dispersion
##dispersive
##displacement
##dissip
##distribution
##disubstituted
##ditionally
##ditions
##ditive
##dium
##diyl
##dj
##dles
##dodec
##dodecyl
##domin
##donating
##donor
##dop
##dopamine
##doping
##dots
##dotted
##doub
##double
##dp
##dpp
##dq
##dra
##drain
##drawing
##drich
##dry
##drying
##duces
##dust
##dv
##dw
##dye
##dyl
##dyn
##dynam
##dynamics
##eB
##eV
##eads
##eady
##earson
##earth
##east
##ecause
##echnology
##echo
##echst
##ecke
##eco
##ectic
##eculi
##edance
##edded
##edges
##edical
##edicine
##edim
##edo
##efficiency
##eflon
##eft
##eful
##eik
##eldom
##elect
##elected
##electrical
##electrochemical
##electrode
##electrodes
##electroly
##electrolyte
##electrolytes
##electronic
##electronics
##electrons
##electroph
##eled
##elibrary
##elike
##elivery
##ellent
##ellulose
##elow
##elting
##elts
##emade
##ematic
##embers
##embran
##embrane
##embranes
##emis
##emission
##emitting
##emma
##empirical
##emulsion
##encaps
##encapsulated
##endence
##endent
##endi
##endor
##enedi
##enediamine
##enedioxy
##energetic
##energies
##enesis
##enesulf
##enet
##enite
##enium
##enna
##ennard
##enoid
##enol
##enone
##ensif
##ensite
##ensitic
##ensities
##ensurate
##entally
##entang
##entate
##entin
##entioned
##enton
##entrant
##entries
##enyl
##enzel
##enzy
##enzymatic
##epar
##epitaxial
##epler
##epoxy
##eqn
##equation
##equilibrium
##equiv
##eramic
##erant
##erately
##erature
##erephthal
##erestingly
##eret
##ergonic
##eria
##erite
##ermi
##ermitian
##ernst
##erometric
##erometry
##erosion
##erovsk
##erovskite
##eryth
##esar
##escope
##eside
##esides
##essels
##esterification
##esters
##estimated
##estructive
##esults
##etas
##etasizer
##etched
##etching
##etermination
##etermining
##ethan
##ethane
##ethanolamine
##ethered
##ethers
##ethoxy
##ethoxysilane
##ethylamine
##ethylenedioxy
##ethylhexyl
##ethynyl
##etic
##etri
##etveld
##etyl
##evapor
##evaporation
##everal
##evertheless
##evolution
##ewis
##exchanged
##excitation
##excited
##exciton
##existence
##exo
##expansion
##experimental
##expon
##exponential
##extended
##extraction
##exts
##fabricated
##fac
##facial
##factant
##factorily
##fav
##fb
##fcc
##fd
##fect
##fections
##feren
##ferences
##ferential
##fermion
##ferrite
##ferro
##ferroc
##ferrocene
##ferroelectric
##ferromagnetic
##fers
##ffect
##fields
##figures
##filler
##filling
##film
##films
##filter
##filtered
##fine
##fins
##fion
##fitted
##fj
##fk
##flight
##flip
##flu
##fluence
##fluid
##fluidic
##fluidics
##fluids
##fluoren
##fluorene
##fluorescence
##fluorescent
##fluoric
##fluoride
##fluorinated
##fluoro
##fluoroethylene
##fluoromethyl
##fluorophenyl
##flux
##focusing
##foil
##folded
##folding
##formamide
##formyl
##formylation
##fra
##frac
##framework
##fted
##fting
##fts
##fu
##fuel
##fullerene
##functionalized
##furan
##fused
##fv
##fvén
##ganese
##gaps
##gard
##gb
##geometric
##gested
##getic
##ggish
##gineered
##given
##gland
##glass
##gler
##glomer
##glow
##glucopyran
##glycero
##glycine
##glycol
##gment
##gmentation
##gments
##gold
##gon
##gonal
##gra
##gradability
##gradable
##gradation
##gradi
##gradient
##graf
##graft
##grafted
##grafting
##grain
##granular
##graphene
##graphite
##gray
##gredi
##greg
##gregation
##gressive
##grey
##grown
##gth
##gthen
##guan
##guest
##hair
##halide
##halo
##halogen
##halose
##hance
##hanced
##hancement
##hane
##hanes
##hanghai
##hannel
##hanol
##hao
##hara
##hardening
##hardness
##harmon
##harves
##harvesting
##havi
##havior
##haw
##hc
##hcp
##healing
##heat
##heated
##heating
##hedrally
##heel
##height
##helic
##helical
##hematic
##heme
##hemes
##hemistry
##hemite
##hence
##henium
##henol
##heological
##hept
##heptane
##hereafter
##hering
##herrer
##hertz
##hesion
##hesive
##heter
##hetero
##heterocyclic
##hether
##hexa
##hexagonal
##hexanes
##hexene
##hexyl
##hexylthiophene
##hf
##hfill
##higher
##hil
##hile
##hill
##hiph
##hkl
##hlet
##hmic
##hodes
##holes
##hollow
##homb
##hombic
##homogeneous
##hp
##hrom
##hv
##hybridized
##hyde
##hydrate
##hydrated
##hydrates
##hydration
##hydraz
##hydride
##hydrides
##hydrin
##hydrodynamic
##hydrofuran
##hydrogenation
##hydroph
##hydrophilic
##hydrophobic
##hydrophobicity
##hydrous
##hydroxide
##hydroxyethyl
##hydroxyl
##hydroxylation
##hydroxymethyl
##hydroxyp
##hydroxyphenyl
##hyle
##iH
##iN
##iO
##iPP
##iPr
##iadi
##iadiazole
##iar
##iated
##ibbon
##ibles
##ibrational
##icals
##icc
##ichael
##ichiometric
##ichlor
##ichloro
##iciencies
##icients
##icities
##ickers
##ickness
##icles
##icro
##icyl
##idelines
##identate
##idic
##idines
##idinium
##idinone
##idirection
##idth
##idual
##iducial
##ielect
##ielectric
##iences
##ienti
##ientific
##iently
##ierarch
##ierarchical
##iety
##iezo
##iezoelectric
##iflu
##iforn
##ifornia
##ifsh
##ifshitz
##ifth
##igaku
##igand
##ignal
##ignard
##igner
##ignific
##ignificantly
##ignin
##igo
##igorous
##igure
##ijkl
##ikelihood
##iken
##ikov
##ilane
##ilayer
##ilayers
##ilbert
##ilib
##ilica
##iline
##ilips
##illaries
##illars
##illers
##illion
##illipore
##illouin
##ilm
##ilms
##ilson
##iltration
##iluminescence
##imad
##imadzu
##imed
##imers
##imes
##imet
##imetallic
##imeters
##imeth
##imethoxy
##imethoxysilane
##imethyl
##imidazol
##imidazole
##imidazolium
##imides
##imine
##imines
##imino
##imir
##immobil
##immobilized
##imolar
##impl
##implanted
##imprinted
##incar
##incaré
##incorpor
##incorporated
##inction
##inctive
##incub
##indentation
##indicated
##indol
##indole
##indoles
##infinite
##inflamm
##infor
##inforced
##ingle
##inh
##inic
##inical
##init
##inites
##initiated
##initiator
##initiators
##inium
##inner
##inning
##inol
##inone
##inorganic
##insertion
##inset
##insp
##inspired
##instein
##insulating
##insulator
##inte
##integ
##integer
##integra
##integral
##integrated
##interacting
##interaction
##intercal
##intercalation
##intered
##interface
##internal
##inters
##interscience
##intill
##intra
##ints
##intuitive
##inuclear
##inuous
##inyl
##inylated
##inz
##iode
##iodes
##iodide
##iodo
##ionate
##ionization
##ionyl
##iper
##iphatic
##iphenyl
##ipient
##ipitation
##ipp
##ipso
##ipy
##iq
##iqueness
##iquid
##irac
##iran
##irane
##iration
##ircon
##ircular
##irection
##irical
##irically
##irradi
##irradiated
##irradiation
##irror
##iré
##iscent
##iscus
##iscussion
##isecond
##isenberg
##iseuille
##ishaw
##isker
##iskers
##isks
##ismuth
##isobut
##isocyan
##isocyanate
##isol
##isolated
##isole
##isomer
##isomeric
##isomerization
##isomers
##isoprene
##isoprop
##isopropyl
##isothermal
##isotrop
##isotropic
##isper
##ispersed
##ispersion
##issociation
##issolved
##issue
##istal
##istically
##istive
##istivity
##istler
##itachi
##italic
##itational
##iterp
##itherto
##ithiation
##ithiol
##ithiophene
##ithium
##ithley
##itics
##itons
##itrile
##itted
##ityl
##iversal
##iversity
##ivities
##iw
##iwan
##ixing
##iy
##iya
##iyaura
##iħ
##jl
##junction
##junctions
##kA
##kBT
##kD
##kF
##kJ
##kL
##kR
##kT
##kV
##kam
##kamak
##kc
##kcal
##kd
##keV
##ketch
##keto
##ketone
##kf
##khorst
##kii
##kinetic
##kingly
##kis
##knowledgements
##koff
##kon
##kp
##kyne
##kyo
##kz
##lB
##lactic
##lactide
##laden
##lambda
##lamellar
##lance
##lap
##laser
##lasma
##lasov
##lassical
##lates
##lating
##lator
##lattice
##lattices
##layered
##layers
##lb
##lc
##learly
##leasing
##lectance
##lections
##lectivities
##lector
##lecul
##lenk
##lens
##lerene
##lest
##levels
##lexes
##lexible
##lf
##lg
##licate
##licated
##licates
##lications
##licit
##licity
##licts
##ligand
##ligible
##linary
##linearities
##liness
##linic
##linker
##lision
##lite
##lithium
##lled
##ller
##llip
##loaddition
##lob
##lobal
##lobin
##localized
##locking
##lohex
##loidal
##lood
##lore
##losion
##lowers
##loy
##loying
##loys
##lp
##luc
##lue
##lumin
##lution
##lyb
##lymp
##lysine
##lyte
##mA
##mC
##mK
##mN
##mPEG
##mSiO
##mT
##mV
##mable
##macro
##mag
##magenta
##magnesium
##magnet
##magneti
##magnetic
##magnetized
##magnification
##mainly
##maj
##major
##mall
##manif
##material
##matically
##matter
##mbols
##meV
##meability
##meable
##mechanical
##mediation
##medium
##melt
##melting
##membered
##mercapto
##meric
##mers
##mersion
##mesh
##meso
##metalation
##metall
##metallic
##meter
##methacrylate
##methan
##methane
##methanol
##methoxy
##methoxyphenyl
##methylated
##methylation
##methylene
##mh
##mholtz
##micron
##milled
##milling
##mim
##mine
##minist
##mino
##minor
##mis
##misc
##mise
##missible
##mits
##mittance
##mitte
##mittee
##mitting
##mixed
##mixing
##mixture
##mmedia
##mmet
##mml
##mmm
##mobil
##mobile
##mobility
##modes
##modulated
##modulation
##modynamic
##molar
##molded
##mole
##molecules
##moment
##momentum
##monia
##monic
##monium
##mono
##monolayer
##monomer
##monomers
##monotonic
##morph
##motion
##mount
##moving
##mr
##msstrahlung
##munication
##mx
##nA
##nB
##nBu
##nC
##nF
##nH
##nT
##namely
##nano
##nanoc
##nanometer
##nanop
##nanoparticle
##naphth
##naphthal
##naphthalene
##naphthyl
##nary
##nb
##ncy
##ndom
##near
##nearest
##neat
##neath
##neck
##necked
##negligible
##neigh
##nelling
##nergetic
##nest
##neti
##netic
##netically
##never
##nexp
##nf
##ngth
##nh
##nickel
##nihil
##nikov
##nitride
##nitrogen
##nitrop
##nitrophenol
##nitrophenyl
##noble
##nor
##normalized
##nq
##nsted
##nth
##nthe
##ntry
##nuclear
##nx
##nz
##nzer
##nzerhof
##oamp
##oate
##obenzene
##obin
##obis
##obor
##oborate
##observed
##obtained
##ocalization
##ocalized
##ocally
##ocaloric
##ocamp
##ocar
##ocarb
##ocarbon
##ocat
##ocatalytic
##ocated
##occupied
##ocell
##ocellulosic
##ocent
##ochiral
##ochlor
##ochromatic
##ochromic
##ochromism
##ocities
##ocity
##oclassical
##oclay
##oclinic
##ocompati
##ocompatibility
##octa
##octahedral
##octane
##octanol
##octene
##octoral
##octyl
##ocum
##ocurrent
##ocyanine
##ocyanines
##ocyc
##ocycl
##ocycles
##ocyclic
##odext
##odextrin
##odiation
##odiimide
##odimer
##odymium
##odyne
##oflav
##ofuran
##ogadro
##ogashira
##ogels
##ogeneities
##ogener
##ogra
##ographies
##ograv
##ogravimetric
##ogravimetry
##ohedral
##ohlra
##ohlraum
##ohm
##ohns
##ohnson
##oidally
##okinetic
##olab
##olane
##olarization
##olayer
##olding
##olefin
##olefins
##oleptic
##olet
##olide
##olig
##olines
##oling
##olinite
##olinium
##olis
##olithography
##ollowing
##olm
##olmog
##olmogorov
##ologen
##oltz
##oltzmann
##olu
##oluene
##oluminescent
##olyb
##olyl
##olyte
##omagnetic
##omains
##omaly
##omaterials
##ombination
##omechanical
##omel
##ometal
##ometallic
##omethanes
##ometries
##omin
##ominal
##omotion
##omotive
##omposite
##omposites
##onates
##onation
##ondens
##onduc
##onduct
##onductance
##onducting
##onduction
##onductive
##onductivity
##onductor
##onene
##ongation
##onically
##onics
##oniot
##onite
##onjug
##onlin
##onlinelibrary
##onon
##onov
##onsid
##ontinuous
##onucleo
##onversion
##oom
##opening
##opent
##opeptide
##opeptides
##ophane
##opharm
##ophene
##ophenes
##ophenol
##ophenone
##ophobic
##ophthal
##ophysics
##opolymer
##opolymerization
##opolymers
##oporous
##opper
##oprene
##opropane
##optimized
##optosis
##optotic
##opyridine
##opyright
##orange
##orated
##oratories
##oratory
##orbital
##orbitals
##orcin
##ordination
##oredox
##oregular
##orene
##orenz
##orescein
##orescent
##oresist
##oresistance
##oresistive
##oret
##orhombic
##orill
##orious
##orith
##oriz
##orizon
##orizontal
##oron
##orosity
##orphological
##orphology
##orphyrin
##orphyrins
##orpor
##orrelation
##orrosion
##orst
##orters
##ortex
##ortho
##orthogonal
##osals
##osamine
##oscill
##oselective
##oselectivities
##oselectivity
##osides
##osil
##osilane
##osilic
##osilicate
##osite
##osites
##osities
##ositions
##osmo
##osmotic
##ospec
##ospecific
##ospheres
##ospin
##ossible
##ossil
##ostructural
##ostructure
##ostructured
##ostructures
##osulf
##otactic
##otenti
##otential
##otetra
##othel
##otherm
##othermic
##otherms
##othi
##othiaz
##othiazole
##othiophene
##otope
##otors
##otran
##otron
##otted
##ottky
##otton
##oubted
##oughness
##ouin
##ouling
##ounced
##outer
##oven
##ovian
##owder
##owders
##owing
##owled
##owledge
##owler
##oxal
##oxaline
##oxamide
##oxanes
##oxazine
##oxazol
##oxazole
##oxazoline
##oxidative
##oxides
##oxidized
##oxime
##oxorubicin
##oxyc
##oxycarbonyl
##oxyphenyl
##oxys
##oxysilane
##ozone
##pKa
##pV
##pVDZ
##pVQZ
##pVTZ
##packed
##packet
##paired
##palladium
##panel
##paper
##para
##param
##paramagnetic
##parg
##parin
##parity
##partial
##partic
##pase
##patterned
##peaks
##pend
##pended
##pendent
##pendicular
##penet
##pension
##penta
##pentane
##peptides
##perim
##perimental
##perovsk
##perovskite
##perpendicular
##perturb
##perturbative
##perturbed
##perture
##petroleum
##phases
##phasic
##phasing
##phe
##phed
##phenanth
##phenanthroline
##phene
##phenol
##phenols
##phenoxy
##phenyle
##phenylene
##phenylenediamine
##phenyleth
##pheres
##phi
##phonon
##phos
##phosphine
##phosphino
##phosphonate
##phosphonium
##phosphor
##photo
##physics
##pid
##piece
##pies
##pink
##pins
##pip
##piper
##planar
##plasma
##polarization
##pole
##polished
##polymerization
##polymers
##ponse
##pore
##porous
##porphyrin
##posited
##powered
##ppen
##ppenheimer
##ppy
##precedented
##precipitation
##precision
##predic
##prepared
##preser
##princip
##principle
##principles
##printed
##pris
##probe
##produced
##program
##programmed
##prolifer
##proline
##promoted
##propag
##propagating
##propane
##propanol
##property
##proportion
##propyl
##propylene
##protic
##proton
##protonated
##pseudo
##pti
##ptic
##pul
##pull
##pump
##pure
##purity
##purple
##px
##pyran
##pyraz
##pyrene
##pyrid
##pyridin
##pyridine
##pyridinium
##pyridyl
##pyrim
##pyrro
##pyrrol
##pyrrole
##pyrrolidone
##pz
##qe
##qj
##qk
##qm
##qn
##qp
##qr
##qs
##qt
##quadrup
##quadruplex
##quantitative
##quantum
##quartz
##quasi
##quat
##qubit
##quee
##quenc
##quenched
##quenching
##qui
##quinolin
##quinoline
##quinone
##quiring
##quis
##quisite
##qx
##qz
##rA
##rF
##rGO
##rN
##race
##racellular
##racene
##races
##ract
##racted
##ractical
##racting
##raction
##ractions
##ractive
##racture
##radiative
##radic
##radical
##radius
##rag
##rain
##rained
##rally
##rals
##ramatic
##rami
##ramid
##ramidal
##ramolecular
##rance
##ranched
##rand
##ranged
##rangement
##rangements
##rans
##rant
##rants
##rapeu
##rapeutic
##rapies
##rapol
##rapped
##rapping
##rapure
##rapy
##raquinone
##raries
##rary
##rateg
##rates
##rating
##ration
##rations
##rative
##rator
##ratory
##ravel
##razil
##razine
##reaction
##reactor
##reated
##received
##recipitation
##recovery
##rections
##redic
##redicted
##reduc
##reduced
##reducible
##reducing
##reening
##reep
##reev
##refer
##referred
##reflection
##reinforced
##relativistic
##relax
##relaxation
##relaxed
##reliminary
##renes
##renkel
##represent
##req
##requencies
##resent
##resentation
##resentative
##residue
##resnel
##resol
##resonance
##resonant
##respondingly
##ressor
##ressure
##restim
##retard
##retardant
##rever
##reversal
##reversible
##rf
##rhen
##rhenius
##rho
##rhod
##rial
##ributed
##ribution
##ributions
##rice
##richlor
##ricted
##riction
##rictive
##ride
##rides
##ridge
##ridine
##ridyl
##riefly
##riend
##riendly
##rient
##rier
##riers
##rif
##rification
##rifug
##rigid
##rij
##riles
##rils
##rimary
##rimer
##rimers
##rimidine
##rimination
##ringe
##ringes
##rings
##rink
##rins
##rinsic
##rint
##rinting
##rion
##rior
##ript
##ription
##riptions
##ripts
##rise
##rist
##ritical
##riting
##riton
##ritten
##rj
##rl
##rms
##rocal
##rochemical
##roduced
##roducing
##roduction
##roelectric
##rolact
##rolactone
##rolein
##roline
##rolled
##rolling
##romechanical
##romer
##romeritics
##rometer
##romethane
##rometric
##rometry
##rone
##rong
##ronics
##rope
##ropium
##ropyl
##rors
##roscale
##roscopically
##rosymmetric
##rotating
##rotation
##rotational
##rotaxane
##roton
##rotron
##roved
##roxim
##roximately
##rozen
##ruct
##ructose
##ructural
##ructure
##ructuring
##rug
##rusion
##ryl
##rys
##rystallization
##rö
##rödinger
##salen
##salt
##samples
##sand
##sapphire
##sat
##sation
##saturated
##saturation
##satz
##scaled
##scaling
##scanning
##scatter
##scattered
##scattering
##scheme
##scherichia
##sciss
##scre
##screw
##script
##scripts
##sections
##seeded
##selectivity
##selen
##semb
##semble
##sembles
##sembly
##semic
##semiconductor
##sensi
##sensing
##sensitivity
##sensitized
##sep
##separated
##separation
##sert
##serting
##sertion
##served
##sesqui
##sesquioxane
##sess
##seudo
##sf
##sgn
##shap
##shape
##shear
##sheets
##shield
##shif
##shifted
##shifting
##shifts
##ship
##shock
##siRNA
##sial
##sient
##sif
##sigma
##silane
##sile
##silic
##silica
##silicon
##siloxane
##silver
##sily
##silyl
##silylation
##simp
##singlet
##sinh
##sintered
##sist
##sisted
##sistent
##sites
##sition
##sitions
##sitive
##situ
##sity
##sives
##skin
##slip
##slow
##smo
##smooth
##sodium
##solated
##solute
##solution
##solv
##solved
##solvent
##sonic
##sorb
##sorp
##sorption
##sour
##sozyme
##spaces
##spacing
##sparent
##specially
##spect
##spectra
##spectral
##sphere
##spherical
##spinning
##spiro
##split
##splitting
##sport
##spot
##spots
##spray
##spun
##sput
##sputtering
##sq
##sqrt
##ssbauer
##stabil
##stability
##stabilized
##stac
##stack
##stacked
##stacking
##stadt
##stann
##steady
##steel
##stellar
##stic
##stick
##stituting
##stitution
##stoichi
##stoichiometric
##stoichiometry
##stood
##storage
##stra
##straction
##strahl
##strahlung
##strained
##strap
##strates
##stration
##strength
##strept
##streptomycin
##stret
##stretch
##stretching
##stri
##strip
##stron
##struc
##struct
##structed
##struction
##structions
##structive
##structural
##structures
##strum
##sts
##stu
##studied
##styrene
##styrenes
##substit
##substituted
##substitution
##substrate
##suitable
##sulfon
##sulfonyl
##sulfur
##support
##surf
##surfactant
##swit
##switched
##switching
##symbols
##symmetry
##synthe
##synthesis
##synthesized
##synthetic
##tBu
##tability
##tableI
##tabletable
##taken
##tally
##taneous
##tanh
##targeting
##tau
##tb
##tdt
##tefact
##teins
##temp
##template
##templated
##tenes
##terminated
##ternally
##tert
##tetrahydro
##tetramethyl
##tetraz
##tf
##tg
##thaw
##thene
##theore
##therm
##thermally
##thermia
##theta
##thf
##thiaz
##thiazol
##thickness
##thien
##thienyl
##thin
##thio
##thiol
##thiophen
##thiophene
##thus
##thyl
##tially
##tides
##tifact
##tific
##tificial
##tifies
##tify
##tifying
##tight
##tigue
##tilage
##tilde
##tinent
##tinguish
##tiss
##titan
##tities
##titious
##tity
##tivated
##tivation
##tize
##tizer
##tizers
##tleness
##tler
##tling
##tly
##tmorill
##tmorillonite
##together
##tok
##tokes
##tolu
##toluene
##toluenesulf
##tolyl
##tone
##tonian
##toon
##tooth
##tophan
##tosecond
##tosyl
##toxic
##toxicity
##tp
##tpy
##trace
##transform
##transition
##transp
##transparent
##transport
##transporting
##trap
##trapped
##trapping
##trast
##treatments
##triangles
##triazine
##triazole
##trichlor
##trie
##triethoxysilane
##trifluor
##trifluoro
##trifluoromethyl
##triggered
##trimethoxysilane
##trimethyl
##trimethylsilyl
##triphenyl
##triplet
##tris
##ttps
##tube
##tun
##tunable
##tuned
##tuning
##tunnel
##turb
##tured
##ubb
##ubbard
##ubber
##ubble
##ubbles
##ubbs
##ubility
##ubiqu
##ubov
##ubric
##ubstituted
##uccin
##uccinimide
##ucial
##ucid
##ucing
##ucleo
##ucose
##uctive
##uctu
##udop
##udsen
##uest
##uests
##ufact
##ufficient
##ughen
##ughened
##ughening
##ugher
##uille
##uine
##uitive
##ukawa
##ularly
##ulcan
##ulene
##ulfate
##ulfonate
##ulfonic
##ulfonyl
##ulk
##ulomb
##ulosic
##ulph
##ulsif
##ulties
##ultim
##ultipl
##ultra
##ulturing
##umably
##umarin
##umbbell
##umbers
##umerical
##umines
##uminescent
##ummar
##ummary
##ummy
##unched
##unches
##unching
##undec
##undlich
##ungal
##ungsten
##uniformity
##unnel
##unsaturated
##untain
##unted
##untered
##unts
##uosity
##upled
##uples
##upling
##upro
##uprofen
##urability
##urated
##ureth
##urethane
##urethanes
##urf
##urfaces
##urfural
##urization
##urized
##urke
##uronic
##urtz
##urtzite
##uryl
##ushes
##usivity
##usler
##ustrated
##ustration
##utational
##uthal
##uthenium
##utherford
##uthors
##utile
##utional
##utron
##utta
##utting
##utyl
##uum
##vA
##vF
##vacancy
##vacuum
##valent
##valley
##valuation
##vanced
##vanishing
##vanostatic
##vans
##vapor
##vaporation
##variance
##vate
##vating
##vative
##vature
##vc
##vdW
##vec
##vect
##vection
##veld
##velocity
##veloped
##velopment
##verestim
##vergence
##versing
##versus
##verted
##vertical
##vg
##vial
##vially
##vib
##vibrational
##vice
##vices
##vid
##vide
##vided
##vie
##vinylidene
##violet
##viscosity
##visible
##vities
##vitrogen
##voir
##volatile
##volta
##voltaic
##voluted
##volved
##volving
##von
##vous
##vp
##vr
##vsk
##vt
##vw
##vx
##vz
##walled
##wet
##wetting
##whm
##wiley
##wire
##wit
##withdrawing
##witter
##woven
##wp
##xA
##xAl
##xAs
##xB
##xC
##xCox
##xF
##xFe
##xFex
##xG
##xGa
##xGex
##xH
##xL
##xM
##xMn
##xN
##xO
##xOy
##xS
##xSb
##xSe
##xSn
##xSr
##xSrx
##xT
##xTe
##xZn
##xa
##xc
##xchange
##xide
##xtran
##xyl
##xylene
##xz
##yO
##yP
##yanide
##yano
##ycles
##yclo
##yclohex
##yclohexyl
##ycomb
##ydberg
##ydro
##yellow
##yield
##ylamine
##ylidene
##ylind
##yllium
##yloxy
##ymmetri
##ymmetrical
##ynch
##ynchronous
##ynchrotron
##yne
##yner
##ynit
##ynman
##ynolds
##ynthe
##ynthesis
##ynthetic
##ynyl
##yond
##yrenes
##yrins
##yron
##yronitrile
##yryl
##ysical
##ysics
##yson
##yste
##ysteine
##ystere
##ysteresis
##yy
##zag
##zations
##zawa
##zerland
##zers
##zeta
##zheimer
##zinc
##zj
##zsch
##zzle
##zzles
##zzy
##{(
##{1
##{2
##{[
##{\
##{{\
##{−
##|(
##|+
##|/
##|2)
##|2+
##|2,
##|<
##|=
##|∂
##|∇
##|−
##|≤
##}$
##}(
##}+
##}2]
##}=
##}\
##}]
##}^{
##}{
##}}
##}}$
##}}}
##}}}$
##~(
##~\
##­(
##­[
##­{1
##®,
##°)
##°),
##°).
##°;
##±(
##±,
##±0.00
##±0.01
##±0.02
##±0.05
##±0.1
##±0.2
##±0.3
##±0.4
##±0.5
##±2
##±3
##±5
##±=
##·(
##·10
##·2
##·4
##·∇
##×(
##×1
##×100
##×1010
##×1011
##×1012
##×1013
##×1014
##×1015
##×1016
##×1017
##×1018
##×1019
##×1020
##×103
##×104
##×105
##×106
##×107
##×108
##×109
##×10−
##×10−1
##×10−10
##×10−2
##×10−3
##×10−4
##×10−5
##×10−6
##×10−7
##×10−8
##×10−9
##×2
##×3
##×4
##×5
##×[
##×∇
##éel
##örster
##ønsted
##ückel
##üne
##üneisen
##ˆ(
##̱
##̲
##ΔΔ
##Δδ
##Δε
##Δθ
##Δλ
##Δμ
##Δν
##Δρ
##Δσ
##Δφ
##Δω
##αα
##αβγ
##αγ
##ασ
##βα
##βγ
##δρ
##δφ
##μα
##πε
##ππ
##πρ
##πσ
##ρσ
##σσ
##ωτ
##‐(
##‐,
##‐0
##‐1
##‐1,
##‐1,2‐
##‐1,3‐
##‐1,4‐
##‐10
##‐100
##‐11
##‐12
##‐13
##‐15
##‐1‐
##‐2
##‐2,
##‐20
##‐2‐
##‐3
##‐3,
##‐30
##‐3‐
##‐4
##‐4,
##‐4‐
##‐5
##‐5,
##‐50
##‐5‐
##‐6
##‐6‐
##‐7
##‐8
##‐9
##‐[
##–)
##–,
##–0
##–0.5
##–0.6
##–0.8
##–1)
##–1),
##–1).
##–1,
##–1.0
##–1.2
##–1.5
##–1000
##–10].
##–1100
##–11].
##–120
##–1200
##–12].
##–13].
##–14].
##–150
##–15].
##–16].
##–17].
##–180
##–18].
##–19].
##–1;
##–2,
##–2.0
##–2.5
##–2000
##–20].
##–21].
##–22].
##–23].
##–24].
##–250
##–25].
##–26].
##–27
##–27].
##–28].
##–29
##–3.0
##–300
##–31
##–350
##–36
##–37
##–38
##–39
##–400
##–4000
##–41
##–42
##–43
##–45
##–450
##–46
##–47
##–48
##–49
##–4].
##–500
##–55
##–550
##–600
##–65
##–6].
##–700
##–75
##–7].
##–800
##–8].
##–90
##–900
##–9].
##–––
##———
##————
##‖∇
##†(
##†)
##†+
##†,
##••
##′)(
##′)+
##′).
##′)=
##′)]
##′)−
##′+
##′/
##′;
##′=
##′[
##′]
##′|
##′‐
##′′(
##′′)
##′′),
##′′,
##′′-
##′′.
##′′‐
##′′′
##′−
##′∣
##′⟩
##⁡
##⁡(
##↑,
##↑↓
##→(
##→)
##→,
##→0
##→0,
##→0.
##→1
##→2
##→3
##→4
##→−
##→∞,
##→∞.
##↦
##∂(
##∂2
##∂2∂
##∂∂
##∇2
##∇×
##∈(0,
##∈[
##∈[0,
##∈{
##∊
##−),
##−).
##−+
##−.
##−/
##−0.
##−0.0
##−0.00
##−0.3
##−0.4
##−0.5
##−0.6
##−0.7
##−0.8
##−1)(
##−1)+
##−1)2
##−1):
##−1);
##−1+
##−1.0
##−1.5
##−1/
##−10
##−11
##−12
##−12(
##−13
##−14
##−15
##−16
##−18
##−1;
##−1=
##−1[
##−1]
##−1−
##−2(
##−2),
##−2).
##−2,
##−2.
##−20
##−22
##−23
##−3)
##−3),
##−3).
##−3,
##−3.
##−5
##−6
##−7
##−8
##−9
##−[
##−]
##−|
##−∂
##−∇
##−∑
##−⟨
##∕(
##∕2
##∕2)
##∕2,
##∕3
##∕4
##∕∂
##∗=
##∘,
##∙∇
##∞.
##∞∞
##∣,
##∣2
##∥(
##∥,
##∥2
##∫0
##∫01
##∫02
##∫0∞
##∫−
##∫−∞
##∫−∞+∞
##∫−∞∞
##∫∫
##∼(
##∼1
##∼10
##≈1
##≈2
##≔
##≠0
##≠0,
##≠0.
##≡(
##≪1
##≪1,
##≲
##≳
##⊥(
##⊥)
##⊥,
##⊥2
##⊥=
##⋅(
##⋅2
##⋅∇
##⋅⋅
##⋅⋅⋅
##⋮
##⋯,
##⋯⋯
##⟩(
##⟩)
##⟩+
##⟩,
##⟩.
##⟩=
##⟩=⟨
##⟩⟨
##⩽
##⩾
##⪡
##⿿
##〉=
##〉〈
##
##
##
##
##
##
##),
#1
$=
$\
${
${\
%);
%;
(%):
(+)-
(+)‐
(0.02
(0.05
(0.10
(0.15
(0.25
(0.75
(00
(000
(0001)
(001)
(002)
(010)
(1))
(1):
(1)]
(1)–(
(1.6
(1.7
(1.8
(1.9
(10%
(100)
(100),
(1000
(101
(101)
(110
(110)
(110),
(111)
(111),
(112
(120
(125
(126
(148
(15),
(16),
(160
(17),
(18),
(180
(19),
(1:1
(1:1)
(1–
(2.0
(2.6
(2.7
(2.8
(2.9
(20),
(200)
(200),
(2000
(2016
(21),
(22),
(220)
(220),
(23),
(250
(2×
(3-
(3.0
(3.5
(3.6
(3.7
(3.8
(311)
(350
(3×
(4-
(4.0
(4.4
(4.5
(4.6
(48
(5%
(5.0
(55
(600
(7.5
(700
(77
(78
(800
(85
(93
(94
(96
(97
(98
(99
(99.9
(99.99
(<1
(<10
(>99
(°
(°)
(×
(‐
(–
(—
(•
(•)
(−)
(−)-
(−)‐
(−1
(−2
(∼1
(∼10
(∼100
(∼2
(∼5
(≈
(≤
(□
(○
(○)
(
+3
0.0,
0.006
0.008
0.01.
0.012
0.015
0.02,
0.03,
0.04,
0.075
0.1)
0.1.
0.10,
0.125
0.15,
0.154
0.1–
0.2)
0.2,
0.2.
0.25,
0.2–
0.3%
0.3,
0.4,
0.41
0.5)
0.5.
0.51
0.52
0.6,
0.61
0.62
0.7,
0.71
0.75,
0.8,
0.81
0.9,
000,
0<
0°
0°,
0≤
0⩽
1%,
1%.
1,2-
1,2‐
1,3,
1,3,5-
1,3-
1,3‐
1,4-
1,4‐
1.(
1.0,
1.0.
1.02
1.03
1.04
1.06
1.07
1.08
1.09
1.10
1.11
1.12
1.13
1.14
1.15
1.16
1.17
1.18
1.19
1.2,
1.20
1.21
1.22
1.23
1.24
1.26
1.27
1.28
1.29
1.30
1.32
1.33
1.34
1.35
1.36
1.37
1.38
1.39
1.40
1.42
1.43
1.44
1.45
1.46
1.47
1.48
1.5,
1.50
1.53
1.54
1.55
1.56
1.57
1.58
1.60
1.63
1.64
1.65
1.66
1.67
1.68
1.74
1.75
1.76
1.77
1.78
1.85
1.86
1.88
1.95
1.96
1.98
1/2,
1/4
10%,
10%.
10),
10.1039/
10.2
10.6
10.7
10.8
10.9
100%,
100%.
1000,
1000°
100°
100–200
1010
1011
1012
1013
1014
1015
1016
1017
1018
1019
1020
1021
104,
1050
1064
1073
10°
10×
10‐
10–
10–12
10–15
10–20
10–3
10–4
10–5
10–6
10−1
10−10
10−11
10−12
10−2
10−3
10−4
10−5
10−6
10−7
10−8
10−9
11(
11.0
11.2
11.3
11.4
11.6
11.7
1150
12(
12.4
12.6
12.7
12.8
120,
120°
1250
128.3,
128.4,
128.5,
128.6,
128.7,
13(
13.5
13.6
130.
1300
1350
14(
14).
14.0
14.1
14.5
1400
1450
15(
15).
15.0
150,
150°
1550
15°
15–20
16(
16).
1640
1650
17)
17).
17.5
1700
18)
18.2
1800
180°
19)
1:1,
1:2
1°
1×
1‐
1–10
1–4
1–5
1–6
1′
1∕
2,2
2,2,
2,2′-
2,2′‐
2,3-
2,3‐
2,4-
2,4‐
2,5-
2,5‐
2,6-
2,6‐
2-(
2.(
2.0,
2.00
2.04
2.05
2.08
2.1,
2.10
2.14
2.15
2.16
2.17
2.18
2.20
2.25
2.26
2.27
2.28
2.30
2.33
2.35
2.36
2.38
2.45
2.5,
2.50
2.75
2/3
20%,
20%.
200,
200°
2015),
2016)
2016),
2020
20°
20–30
21)
21.5
2100
22)
22.5
2200
232
236
24)
2400
25)
25.0
250,
25°
264
267
273
284
286
287
296
297
298.15
2:1
2°
2×
2×2
2‐
2–4
2–5
3,4-
3,5-
3-(
3.(
3.0,
3.00
3.15
3.25
3.35
3.5,
3.75
3/2
30%,
30)
300,
300°
303
304
306
333
3400
343
344
348
3500
353
355
3600
368
373
385
393
395
398
399
3:1
3°
3‐
3–4
3–5
3–6
4,4
4,4′-
4,4′‐
4-(
4.(
4.0,
4.25
4.5,
400,
40°
415
423
425
435
445
45°
45°,
465
470
473
475
485
490
4:1
4‐
4–5
4–6
5%,
5%.
5.(
5.0,
50%,
50%.
50/50
500,
500°
50°
50–100
514
515
520
523
525
529
530
531
532
533
535
560
570
573
575
580
590
5°
5‐
5–10
5–6
5–7
5–8
5′‐
6-31
6.(
6.25
600,
600°
60°
610
620
623
625
630
632.8
633
640
660
670
673
68%
680
690
6‐
6–8
7.(
7.0,
7.25
7.26
7.28
7.30
7.34
7.35
7.36
7.38
7.4)
7.4).
7.4,
7.4.
7.40
7.5,
7000
70°
710
720
730
740
760
773
780
785
7‐
8.(
8.0,
8.9
800,
8000
800°
808
80°
82%
820
830
840
850
870
873
88%
8‐
8–10
9),
9.(
9.6
9.7
9.8
9.9
90°
90°,
90°.
91%
92%
93%
94%
950
96%
97%
973
980
99%)
99%),
99%,
99.9
99.99
9‐
<
<(
</s>
<0
<0,
<0.
<1
<1
<1,
<10
<10
<2
<s>
<unk>
>99
??
???
AAO
ABS
ABTS
ACF
ACN
ACP
ADM
AEM
AGN
AGNs
AIBN
AIE
AIMD
ALD
AMR
ANS
APD
APS
APT
APTES
ARPES
ASAP
ASE
ASTM
ASupplementary
ATR
ATRP
AX
AXS
AZO
Absolute
Absorb
Absorbance
Absorption
AcOH
Academ
Accel
Accur
Acros
AdS
Adapted
Adsorption
Advance
Aesar
Afterward
AgCl
AgI
AgNO
AgNP
AgNPs
AgNW
AgNWs
AlCl
AlGaAs
AlGaN
AlN
AlO
AlOx
Aladdin
Aldrich
Alfa
Alfvén
Alg
Aliqu
Alloy
Alq
Alumin
Aluminum
AlxGa
Amber
Amorphous
Amp
Analogous
Analyzer
Andreev
Angle
Annealing
Apparently
Aqueous
ArH
Archimed
Archimedes
Argon
Arrhenius
Arrows
Asymmetric
Atom
Attemp
Attempts
AuCl
AuNCs
AuNP
AuNPs
AuNRs
Auger
Austral
Aux
Avance
Avrami
Azo
BCC
BCN
BCP
BCPs
BCS
BDE
BDT
BEC
BET
BFO
BHJ
BJH
BLG
BLYP
BMG
BMGs
BNT
BODIPY
BPA
BPO
BSE
BST
BTO
BX
BZ
BaFe
BaO
BaTiO
Bader
Bc
Beam
Berry
Bessel
Bethe
BiFeO
BiO
BiOBr
BiOCl
BiOI
BiVO
Blends
Bloch
Boc
Bode
Bohm
Bohr
Born
Bose
Bottom
Bragg
Bright
Brillouin
Bruker
Brunauer
Brønsted
Bulk
Burgers
Bx
Bz
CASPT
CASSCF
CAs
CBD
CBM
CBP
CBS
CCDC
CCSD
CCTO
CCl
CDW
CDs
CEs
CFD
CFO
CFs
CHA
CHCl
CHI
CID
CIE
CIF
CIGS
CIP
CIS
CLC
CLSM
CMC
CME
CMP
CNC
CNCs
CNF
CNFs
CNR
COF
COFs
COMSOL
COO
COOH
COSY
CPA
CPC
CPD
CPE
CPL
CPM
CPP
CPs
CQD
CQDs
CSD
CTA
CTAB
CTC
CTCs
CTE
CTS
CVs
CZ
CZT
CZTS
CZTSSe
CaCO
CaF
CaH
CaO
CaP
Calcd
Calculated
Calculations
Calibration
Calor
Capac
Cary
Casimir
Cassie
Catalyst
Catalysts
Catalytic
Cc
CdO
CdS
CdSe
CdTe
CeO
Celite
Cellulose
Ceramic
Changing
Characteristic
Charge
Chemie
Chiral
Chitosan
ClO
Clo
CoCl
CoCr
CoFe
CoFeB
CoII
CoO
CoP
CoPt
CoS
Coating
Commerc
Complexes
Composite
Composites
Compton
Concent
Concentrations
Conductivity
Confocal
Conjug
Conversion
Coordination
Copolymer
Copolymers
Copper
Corning
Corpor
Correspondingly
Cotton
Coulombic
Counc
Coupling
CrO
Crystalline
Crystallization
Crystals
CsPb
CsPbBr
CuAAC
CuBr
CuCl
CuI
CuII
CuIn
CuInS
CuK
CuO
CuPc
CuS
CuSO
Curie
Curve
Curves
Cyclic
Cycling
DBD
DBR
DBS
DBT
DBU
DCC
DCE
DCF
DCP
DDA
DDS
DEA
DETA
DETAILS
DGEBA
DIII
DIO
DISCUSSIONS
DLC
DLS
DLTS
DMA
DMAP
DMAc
DMC
DMD
DME
DMI
DMP
DMPC
DMR
DMRG
DMS
DNP
DOPC
DOS
DPA
DPD
DPPC
DPV
DRIFT
DRS
DRX
DSA
DSSC
DSSCs
DTA
DTG
DVB
DWs
Dark
Dashed
Debye
Degradation
Deionized
Dependence
Deposition
Detail
Determined
Diamond
Dielectric
Diels
Diffraction
Dispersion
Dit
Doping
Dotted
Dox
Drop
Drude
Dulbecco
Dye
EBL
EBSD
ECAP
ECD
ECE
ECH
ECR
ECSA
EDA
EDAX
EDC
EDL
EDS
EDX
EELS
EIS
EIT
ELF
ELM
ELMs
EMA
EMI
EML
ENR
EOM
EOS
EPD
EPDM
EQE
EQU
EQUATION
ESA
ESCA
ESCALAB
ETL
EUV
EVA
EXAFS
EY
Ea
Eh
Elastic
Elect
Electrochemical
Electrode
Electrons
Electrosp
Elemental
Elmer
Else
Emission
Emp
Employing
Enanti
Energies
Entry
Eo
Epoxy
Eqn
Equilibrium
Estimated
EtOAc
EtOH
Ethanol
Eulerian
Eventually
Evid
Evidently
Ewald
Excellent
Excess
Excitation
Experimentally
Ey
Ez
FAM
FBG
FCC
FCI
FDTD
FEA
FEG
FEI
FEL
FESEM
FET
FETs
FIB
FLA
FLG
FMR
FOV
FSS
FTO
FTS
FWHM
Fabrication
Fabry
Fact
Factory
Fano
Faradaic
Faraday
Fd
FeCl
FeCo
FeII
FeIII
FeO
FeOOH
FePt
FeS
FeSe
Fenton
Feynman
Fiber
Fick
Film
Films
Fitting
Flash
Floquet
Flory
Fluka
Fluorescent
Fmoc
Fock
Fok
Fokker
Frame
Fran
Franck
Frenkel
Fresnel
Freundlich
Friedel
Förster
GAM
GBs
GCD
GCE
GDC
GFA
GGA
GMA
GMR
GNP
GNPs
GNR
GNRs
GNS
GOx
GPC
GPa
GQD
GQDs
GaP
GaSb
Galactic
Galvanostatic
Gaussians
GeO
GeTe
GelMA
Geometry
Glc
Grain
Graphene
Graphite
Grignard
Grubbs
Gyr
HAADF
HAP
HAT
HAp
HAuCl
HBP
HBr
HCHO
HCN
HCO
HCOOH
HCP
HClO
HDA
HDO
HDPE
HEA
HEM
HEMA
HEMT
HEMTs
HHG
HIP
HKUST
HMBC
HMF
HNO
HNTs
HOMO
HOPG
HPC
HPT
HQ
HRS
HRTEM
HSA
HSE
HSO
HSQC
HST
HTL
HTM
HTS
HUVECs
Hamil
Hamiltonians
Hartree
Hc
Hd
Heating
Heck
Heisenberg
Helmholtz
Hermitian
Hertz
Hessian
Heusler
Hex
HfO
Highly
Hitachi
Hk
Hoechst
Hopf
Horiba
Hubbard
Hugoniot
Hummers
Hydrogels
Hydroph
ICG
IDS
IDT
IEC
IGZO
ILs
IMC
ION
IPA
IPC
IPCE
IPN
IQE
ISC
ISM
ITC
ITER
ITG
ITO
Ic
Iden
Ih
Illustration
ImageJ
Impedance
InAs
InGaAs
InGaN
InN
InP
InSb
InSe
Incorpor
Incorporation
Indust
Industries
Infrared
Ini
Inset
Insets
Insp
Inspired
Instron
Instrum
Integ
Intensity
Introducing
InxGa
Ionic
Ions
IrO
Irradiation
Ising
Isolated
JASCO
JCPDS
JEM
JEOL
JET
JSC
JSM
Jacobi
Jahn
Janus
Jc
Jobin
Josephson
Joule
Jsc
Jup
KBr
KMnO
KNN
KNO
KOH
Kapton
KdV
Keithley
Kelvin
Kepler
Kerr
Killing
Kinetic
Kinetics
Kirk
Knudsen
Kohn
Kolmogorov
Kondo
Kramers
Ks
Kub
LAM
LAO
LCE
LCF
LCMO
LCO
LCP
LCR
LCST
LCs
LDHs
LDOS
LDPE
LEDs
LEED
LES
LFP
LHC
LIB
LIBS
LIBs
LIF
LIG
LLDPE
LMO
LNMO
LNO
LOI
LRS
LSC
LSCF
LSM
LSMO
LSP
LSPR
LSV
LTO
LUMO
LZ
LaAlO
Lamb
Lambda
Landau
Langevin
Larger
Larmor
Lattice
Lax
LbL
Lc
Legend
Legendre
Leica
Lennard
Letter
LiCl
LiClO
LiCoO
LiF
LiFePO
LiMn
LiNbO
LiNi
LiO
LiOH
LiPF
LiTFSI
Ligand
Lines
Liou
Liouville
Liquid
Lit
Lithium
Lix
Lorentzian
Lorenz
Luminescence
Lx
Lz
MAA
MAE
MAI
MAO
MAPbBr
MAPbI
MBA
MBE
MCC
MCD
MCE
MCT
MCs
MDI
MEA
MEH
MEP
MFC
MFCs
MFI
MFM
MGs
MHD
MIPs
MIR
MLCT
MLG
MLs
MMA
MMMs
MMT
MNP
MNPs
MOCVD
MOF
MOFs
MOR
MOSFETs
MOs
MPA
MPB
MPD
MPP
MPS
MPs
MQ
MQW
MQWs
MRCI
MSD
MSM
MSN
MSNs
MTJ
MTJs
MTS
MWCNT
MWCNTs
MWD
MWNT
MWNTs
MX
MXene
Macro
Magnet
Magnetization
Majorana
Malvern
Mannich
Marangoni
Marcus
Markovian
Maxwellian
MeCN
Measured
Melting
Membranes
Mercury
Methanol
Mettler
MgAl
MgB
MgH
MgO
MgSO
Micromeritics
Microp
Microscope
Microstructure
Microwave
Mie
Milli
Millipore
Mink
Minkowski
MnO
MnOx
MoO
MoOx
MoS
MoSe
MoTe
Modification
Molecules
Monkhorst
Monomer
Morphological
Morphology
Morse
Mott
Movie
Mp
Mull
Mulliken
Mw
Myr
Mö
Mössbauer
NBD
NBI
NBO
NBR
NBS
NBT
NCA
NCH
NCM
NCO
NCS
NCs
NDI
NDR
NDs
NEXAFS
NEt
NFs
NHC
NHE
NIF
NIST
NLO
NLS
NMC
NMP
NOE
NOESY
NOx
NPB
NPT
NRs
NST
NSs
NTs
NVP
NVT
NWs
NaBH
NaClO
NaF
NaHCO
NaI
NaNO
NaYF
Nafion
Nanoc
Nanocomposites
Nanop
Nanoparticles
Nanot
Navier
Nernst
Neutron
Newtonian
NiAl
NiCo
NiFe
NiII
NiO
NiOx
NiS
NiSi
NiTi
Nickel
Nicolet
Nikon
Nile
Nitrogen
Nm
Normalized
Normally
Nyquist
Néel
OAM
OCH
OCP
OCV
ODA
ODE
OER
OFET
OFETs
OG
OLED
OLEDs
OMMT
OMe
OPE
OPV
OPVs
ORR
ORTEP
OSC
OSCs
OTFTs
OTS
Obser
Observed
Obtained
Oe
Ohm
Ohmic
Olympus
Ons
Onsager
Optics
Optimized
Orange
Orbit
Organics
Orient
Ost
Ostwald
Oxidation
Oxide
PAA
PAAm
PAHs
PAMAM
PANI
PANalytical
PAni
PBA
PBD
PBDT
PBE
PBG
PBI
PBO
PBT
PCBM
PCE
PCEs
PCF
PCH
PCL
PCMs
PCN
PDB
PDFs
PDI
PDMAEMA
PDOS
PDT
PDs
PEA
PEC
PECVD
PEDOT
PEEK
PEGDA
PEGylated
PEI
PEM
PEN
PEO
PES
PESs
PFA
PFM
PFO
PGA
PGMA
PGS
PHA
PHB
PHBV
PHEMA
PHI
PHO
PIB
PIL
PIM
PIV
PLD
PLE
PLGA
PLL
PLLA
PLQY
PLS
PMF
PMMA
PMN
PMO
PMT
PNA
PNIPAAm
PNIPAM
PNP
POD
POE
POM
POMs
POPC
POSS
PPA
PPC
PPD
PPE
PPG
PPO
PPP
PPS
PPT
PPV
PPh
PPy
PROC
PSC
PSCs
PSF
PSS
PSi
PTA
PTB
PTC
PTFE
PTM
PTT
PTX
PUs
PVA
PVAc
PVC
PVDF
PVK
PVP
PXRD
PZT
Panels
Partic
Particles
Pauli
PbI
PbO
PbS
PbSe
PbTe
PbTiO
PdCl
PdII
PdO
Peaks
Peltier
Peptide
Perdew
Periodic
Periodicals
Perkin
PerkinElmer
PhC
Philips
Photo
Photocatalytic
Photograph
Photographs
Pickering
Plastic
Plot
Plots
Pluronic
Pnma
Poincaré
Polarization
Polymerization
Polymers
Pore
Porous
Potassium
Powder
Prepared
Probe
Proton
Purity
QCL
QCM
QE
QL
QM
QP
QS
QW
QWs
QY
Qualit
Quan
Quanta
RAFT
RAW
RBCs
RBS
RCA
RCM
RCP
RDFs
RGD
RGO
RHE
RHEED
RIE
RMP
RMSD
ROP
RPA
RPM
RRAM
RSD
RTA
RTP
Rabi
Radical
Rashba
Rc
Rct
ReS
Reactions
Reag
Reagent
Reagents
Remarkably
Removal
Repl
Reprinted
Reproduced
Resonance
Rg
RhB
Rhe
Rhodamine
Rietveld
Rigaku
Rouse
RuO
Rutherford
Rydberg
SAC
SAED
SAMs
SAN
SANS
SAPO
SAW
SAXS
SBA
SBF
SBH
SBR
SBS
SCCM
SCE
SCF
SCLC
SCM
SCN
SCO
SCS
SCs
SDC
SDSS
SEBS
SED
SEI
SERS
SFE
SFG
SFR
SGS
SHE
SHEL
SHG
SIBs
SIMS
SIS
SLG
SLM
SLS
SLs
SMF
SMM
SMP
SNe
SOFC
SOI
SPA
SPC
SPD
SPEEK
SPI
SPION
SPM
SPP
SPPs
SPR
SPS
SPT
SPs
SQUID
SRO
SRR
SRS
SSP
STA
STO
SWCNT
SWCNTs
SWNT
SWNTs
SZ
Same
Scan
Scattering
Schematics
Scherrer
Schiff
Schlenk
Schottky
Schrödinger
Schwar
Scope
Secs
Seebeck
Selectivity
Semic
Separation
Shan
Shear
Shimadzu
Shock
Shockley
Shown
SiC
SiGe
SiH
SiN
SiNW
SiNWs
SiNx
SiOx
Side
Silic
Silica
Silicon
Simp
Simulated
Simultaneously
Sinopharm
Sky
Slater
SnCl
SnO
SnS
SnSe
Solubility
Solvent
Solvents
Sonogashira
Soret
Soxhlet
Specim
Specimens
Spectra
Spectro
Spectrometer
Spectroscopic
Spectroscopy
Spitzer
SrO
SrTiO
Stark
Steady
Sto
Stren
Strength
Stu
Substitution
Substrate
Substrates
Swelling
Swit
Symbols
Synchrotron
Synthe
TADF
TAT
TBA
TBAF
TBC
TBD
TBP
TBS
TCE
TCI
TCNQ
TCO
TCS
TDDFT
TDS
TEA
TEC
TEG
TEMPO
TENG
TEOS
TES
TFA
TFC
TFE
TFT
TFTs
TGA
THP
TIP
TIPS
TMA
TMB
TMC
TMD
TMDs
TMP
TMR
TNT
TOC
TOF
TON
TPA
TPD
TPE
TPP
TPR
TPS
TPU
TPV
TSC
TTA
TTF
TZ
Tafel
Tauc
Td
TeO
TeV
Tec
Tecnai
Teff
Teflon
Telescope
Temp
Temperatures
Tensile
ThT
Theoretically
Thereby
Thermodynamic
Thickness
Thomson
TiAl
TiB
TiC
TiCl
TiN
TiOx
Tianjin
Titan
Titanium
Tl
Tmax
ToF
Toledo
Toluene
Torr
Tran
Transient
UCL
UCNP
UCNPs
UF
UHMWPE
UHV
UO
UPS
Ueff
UiO
Ultim
Universe
Unless
Used
VASP
VBM
VCSEL
VDS
VGS
VLS
VN
VOC
VOCs
VSM
VUV
Vac
Varian
Variations
Vb
Vc
Vd
Vds
Veg
Vertical
Vf
Vg
Vickers
Viscosity
Vitro
Vlasov
Vm
Voc
Voigt
Voron
Voronoi
Vp
Vs
Vth
WAXD
WAXS
WCA
WIT
WO
WPU
WSe
WZ
Waals
Wannier
Warburg
Weibull
Weyl
Wigner
XANES
XAS
XB
XC
XMCD
XPS
XR
XRF
XRR
XUV
Xc
Xe
YAG
YBCO
YIG
YSZ
Yb
Yellow
Yields
Yukawa
Yvon
ZA
ZB
ZFC
ZI
ZIF
ZPE
ZS
ZSM
ZT
Zeeman
Zeta
Zetasizer
Zinc
ZnCl
ZnFe
ZnII
ZnPc
ZnS
ZnSe
ZnTe
ZrB
ZrC
ZrO
[%
[%]
[%][
[0001]
[001]
[010]
[1,2].
[100
[100]
[11
[110]
[111]
[12
[13
[16
[16,17
[17
[17,18
[18,19
[19
[19,20
[1–3
[1–3].
[1–4].
[2+
[21
[22
[23
[24
[25
[25,26
[26
[26,27
[27
[27,28
[28
[28,29
[29
[29,30
[29],
[29–3
[2–
[30,
[30],
[31,
[31,32
[31],
[32,
[32],
[33,
[33],
[34,
[34],
[35,
[35],
[36,
[36],
[37],
[3–5
[40,
[45
[45]
[46]
[47]
[48]
[48].
[49].
[50].
[51].
[52].
[53].
[54].
[55].
[56].
[63
[64
[65
[66
[67
[68
[70
[{
[°
[°]
_0
_1
_2
_\
_{
_{\
_{{\
abbreviated
aberration
ablated
abovementioned
abras
abrasion
abrasive
abrup
abruptly
absciss
abscissa
absorbent
absorber
absorbers
absorbs
absorp
absorptions
absorptivity
accelerates
accelerator
accep
acceptors
accid
acco
accom
accommodated
accompany
accumulates
acetal
acetaldehyde
acetophenone
acetylene
achievements
achiral
acidified
acidity
acous
acqui
acquires
acquis
acryl
acrylamide
acrylate
acrylic
acrylonitrile
activators
actuated
actuation
acylation
adamant
adatom
adatoms
addi
adduct
adhered
adhesives
adiab
adjus
administ
admittance
admixture
adsorbate
adsorbates
adsorbent
adsorbents
adsorbing
adsorbs
adsorp
advection
aerodynamic
aerogel
aerogels
aerosols
aerospace
aerugin
affor
affording
affords
afterglow
agate
agglomer
agglomerate
agglomerated
agglomerates
agglomeration
agitation
agric
airc
akin
alcohols
aldehyde
aldehydes
aldol
alginate
aligning
aliphatic
alkali
alkaloids
alkane
alkanes
alkene
alkenes
alkenyl
alkoxide
alkoxy
alkylated
alkylation
alkyn
alkyne
alkynes
alkynyl
allene
allosteric
allotrop
alloyed
alloying
allyl
allylation
allylic
alternately
alternation
alumina
aluminium
aluminosilicate
ambipolar
amid
amidation
amides
amido
amination
amo
amorph
amorphization
amperometric
amphiph
amphiphiles
amphiphilic
ampo
ampoule
amu
analogously
analyser
anatase
anchored
anchoring
ancillary
anharmon
anharmonic
anharmonicity
anhydride
anhydrous
anil
aniline
anilines
anionic
anisole
anisotrop
anisotropies
anneal
annealed
annihil
annihilation
annular
annulation
annulus
anod
anodes
anodic
anodization
anodized
anomeric
ansatz
anthracene
antibio
antibonding
antif
antifer
antiferrom
antifouling
antig
antimony
antiparallel
antisite
antisymmetric
antiv
anv
anvil
anymore
apatite
apertures
apolar
apprec
appreciable
appreciably
approac
approx
approximates
aprotic
aptamer
aptamers
aq
aqua
arbit
archit
areal
arene
arenes
argum
aris
armchair
aro
aromaticity
aromatics
artefact
artific
arylation
ascer
ascertained
ascor
ascorbate
ascorbic
ascrib
asp
asper
asph
asphal
asphalt
asphaltene
assemble
assembling
assis
ast
asterisk
astron
astroph
astrophysical
asymmetrical
asymmetries
asymp
asympto
asymptotics
atm
atmospheres
atomically
atomistic
atomization
atop
attaching
attainable
attains
attemp
attenu
attracting
attractions
attractor
attractors
aure
aust
austen
austenite
austenitic
authen
autoc
autocl
autoclave
automo
aval
avalanc
avalanche
aven
avenue
axially
axisymmetric
aza
aze
azide
azides
azido
azim
azimuthal
azir
azo
azobenzene
backbones
backscatter
backscattered
backscattering
backside
bactericidal
bain
baked
baking
balances
ballistic
ballo
bamboo
bandgap
bandgaps
bandpass
barely
barium
baro
barrel
basicity
bathochromic
baths
bcc
beaker
beamline
beating
beha
behaved
bench
bend
bends
benzaldehyde
benzimidazole
benzo
benzoate
benzoic
benzophenone
benzoxazine
benzoyl
benzyl
benzylic
beryllium
biaryl
biasing
biaxial
bicontinuous
bicyclic
bidentate
bie
biexc
bifunctional
bifurc
bifurcations
bilayers
bimetallic
bimodal
bimolecular
binaries
binder
binders
binuclear
bioactivity
bioch
biochar
biocompati
biocompatible
bioconjug
biod
biode
biodegradable
biodegradation
biodies
biodiesel
biodistribution
biog
bioimaging
biomaterial
biomaterials
biomedicine
biomimetic
biomo
biomolecular
biomolecule
biomolecules
biophysical
biopolymer
biopolymers
biosensing
biosensor
biosensors
biot
bipar
biphasic
biphenyl
bipy
biradical
biref
birefring
birefringence
bismuth
bisphenol
bist
bistability
bistable
blackbody
blades
blanket
bleach
bleaching
blended
blending
blends
blob
blobs
blockage
blowing
blu
bluesh
blueshif
blueshift
boat
bombard
bombardment
boot
borane
borate
boric
boro
borohydride
boron
boronic
borosilicate
boson
bosonic
bosons
bottles
boun
bounce
bowl
bpy
brack
brass
breakage
breakup
bremsstrahlung
brevity
bridged
brighter
brine
brit
brittle
brittleness
broaden
broadened
broadens
bromides
bromination
bromine
bromo
bron
brushes
bubb
bubbled
bubbling
buckled
buckling
buil
buildup
bulge
bulky
bump
bunch
bunches
buoy
buoyancy
butadiene
butanol
butterfly
buty
butyl
byproduct
byproducts
cP
cables
cake
calcein
calcination
calcined
calcite
calcul
calib
calibrate
calix
calomel
calorimeter
calorimetric
calorimetry
camer
cantilever
cantilevers
capacit
capacitances
capacitive
capped
capping
capsid
capsules
caption
carbamate
carbazole
carbene
carbenes
carbide
carbides
carbo
carbocation
carbonaceous
carbonates
carbonization
carbonized
carbons
carbonyls
carboxy
carboxylate
carboxylates
carboxylic
cartridge
casting
catalysed
catalytically
catalyze
catalyzes
catalyzing
categ
cathod
cathodes
cathodic
cavitation
cem
centerline
centim
centimeter
centred
centrif
centrifugal
centrifuge
centrosymmetric
ceramics
ceria
cerium
cermet
cesium
cetyl
chal
chalcogen
chalcogenide
chalcogenides
challen
chan
channeling
cheaper
chelate
chelating
chelation
chemis
chemisorbed
chemisorption
chemist
chemistries
chemists
chemos
chemoselective
chemothe
chimer
chirality
chirp
chirped
chit
chitin
chlorides
chlorinated
chlorination
chlorine
chloro
chlorobenzene
cholester
chopper
chromaticity
chromatogram
chromatograms
chromatograph
chromium
chromophore
chromophores
chronoamp
cinn
cir
circul
circularly
citric
cladding
clamped
clamping
classically
classif
clath
clathrate
clays
cleaner
clearer
cleave
clo
cloak
clockwise
clog
cloth
clu
clump
coacer
coag
coalesce
coalescence
coarsening
coaxial
cocatalyst
cocrystal
cocrystals
codoped
coeff
coerc
coercive
coercivity
coexist
coexisting
cofactor
cohere
coherently
cohesive
coiled
coincident
coke
collap
collapses
collectors
colliding
collim
collimated
collimator
collinear
collisional
collisionality
collisionless
collo
colloid
colloids
coloration
colorimetric
colorless
coloured
colourless
columnar
combin
comet
commensurate
commercialized
commutation
commute
comonomer
comonomers
compacted
compaction
compactness
compacts
comparably
compart
compatibil
compatibilizer
compensating
complexation
complexed
complexing
compounding
comprehensively
compres
compressibility
compressible
compressor
compris
compromising
conceiv
conceivable
concent
concentric
concerted
concise
conclu
conclusive
condensate
condenser
conducive
conductivities
conductors
configurational
configure
confine
confining
confir
conflu
conformer
conformers
congru
conical
conser
consis
constituting
constra
constraining
constriction
contacting
contaminant
contracted
contribut
controllability
controver
conveniently
conventionally
converged
converging
conversions
cooler
cooperativity
coplanar
copoly
copolyesters
copolymers
coprecipitation
coron
corona
corre
correlating
correlator
corro
corroborate
corroborated
corroborates
corrosive
corrug
corrugated
corrugation
cosolvent
coulomb
coulombic
coumarin
counterion
counterions
coup
coupler
covalently
covariant
coverages
coverslip
cra
cracked
cracking
crater
creep
criticality
crosshead
crossings
crosslink
crosslinked
crosslinker
crosslinking
crosslinks
crowded
crowding
crucible
crushed
cryo
cryogenic
cryostat
crystallinity
crystallisation
crystallite
crystallites
crystallize
crystallized
crystallizes
crystallography
cubes
culturing
cumbers
cumbersome
cumul
cumulant
cuprates
curing
curvatures
cus
cusp
cuv
cuvette
cw
cyanide
cyano
cyclability
cycled
cyclization
cycload
cycloaddition
cycloadditions
cyclohex
cyclohexane
cyclohexanone
cyclohexene
cyclohexyl
cyclometal
cyclopent
cycloprop
cyclopropane
cyclotron
cylinders
cyste
cytosine
cytoskele
cytotox
dI
dL
dV
damped
dangling
darker
dash
deactiv
deactivated
deactivation
dealloying
debonding
decarboxyl
decarboxylation
decaying
decel
deceleration
decent
decis
decisive
deco
decoherence
decolor
decomp
decompos
decomposes
decomposing
deconvoluted
deconvolution
decorated
decoration
decoupled
decrement
deem
defic
defini
deflected
deformable
degassed
degassing
degeneracy
degra
degradable
degrades
degrading
degre
dehyd
dehydrated
dehydro
dehydrogenation
delamination
deli
delicate
delight
delithiation
delocalization
delocalized
demagneti
demagnetization
demagnetizing
demixing
demon
dendrim
dendrimer
dendrimers
dendrite
dendron
dendrons
denomin
denser
densif
densification
deoxygen
deoxygenated
deoxygenation
dependences
dephasing
depicting
depolymer
depositing
depositions
deprot
deprotection
deproton
deprotonated
deprotonation
derivatization
desal
desalination
describ
deser
desicc
desiccator
desol
desorb
desorbed
destabilization
destabilized
destabilizing
destr
destro
desulf
desulfurization
detections
deterg
deteriorate
deteriorated
detonation
detuning
deuter
deuterated
deuterium
deviated
deviates
devic
dewetting
dextran
diab
diabatic
diagnos
diagon
diagonalization
dialkyl
dialyzed
diamagnetic
diamine
diamines
diamonds
dianhydride
dianion
diaphrag
diaryl
diastere
diastereo
diastereomer
diastereomeric
diastereomers
diatom
diatomic
diaz
diazo
diazonium
diblock
dication
dichalcogen
dichalcogenides
dichloromethane
dichro
dichroic
dichroism
dictated
dictates
dielectrics
dien
diene
diethyl
diffe
differe
diffic
diffract
diffracted
diffractions
diffractogram
diffractograms
diffractometer
diffused
diffuses
diffusing
diffusional
diffusive
diffusivities
digi
digly
dihedral
dihydrate
dihydro
dihydrogen
diisocyanate
dilat
diluent
diluting
dimeric
dimerization
dimeth
diminishes
diminishing
dimp
dinuclear
diol
diols
dioxane
dioxygen
dipeptide
diphenyl
dipolar
dipoles
dipped
dipping
dips
diradical
directing
directionality
disappears
disassembly
discer
discernible
dischar
discharging
disco
discontinuities
disintegration
disloc
dislocations
dispens
dispersant
disperse
dispersibility
dispersing
dispersions
dispersity
dispersive
displace
dissim
dissipate
dissipated
dissipative
dissociate
dissociates
dissociative
dissol
dissolve
dissolves
dissolving
disti
distill
distillation
distin
distinguishable
disulf
dith
dithi
divalent
diverge
diverges
diverging
divertor
docum
dodeca
dome
dominantly
domino
donating
dopant
dopants
dope
doubles
doublet
doublets
downfield
dpp
dra
drastic
dressed
dressing
drifts
drilling
dropwise
dryness
dsDNA
ductile
ductility
dumbbell
dup
duplexes
durability
durable
dusty
dwarfs
dyad
dyads
dyed
dyeing
eccentric
eccentricity
eclip
eco
ecos
eddies
eigenfunction
eigenfunctions
eigenmode
eigenmodes
eigenstate
eigenstates
eigenval
eject
ejecta
ejected
elap
elastically
elastomer
elastomeric
elastomers
electroactive
electrocat
electrocatalyst
electrochromic
electrokinetic
electrol
electroless
electrolysis
electrolytes
electrolytic
electroneg
electronegative
electronically
electrophile
electrophiles
electrophilic
electrophoretic
electropl
electroplating
electrosp
electrospinning
electrospray
electrospun
electrost
electrostatics
elegant
ellips
ellipse
ellipsoid
ellipsoidal
ellipsoids
ellipsometric
ellipsometry
ellipticity
elu
elucidating
elucidation
eluent
elusive
eluting
eman
emer
emis
emissive
emissivity
emits
emittance
emitter
emitters
emp
emu
emulsif
emulsification
emulsifier
emulsions
enamine
enantio
enantiomer
enantiomeric
enantiomers
enantiop
enantiopure
encapsulate
encapsulating
enco
encomp
endo
endoc
endotherm
endothermic
endowed
energ
energetically
energetics
enfor
enhan
enhancements
enlar
enlarge
enol
enolate
ensembles
ensu
ensuing
entangle
entangled
entanglements
enthalpic
enthalpies
enthalpy
entrain
entrap
entrapment
entrapped
entrop
entropic
entropies
envelopes
environ
envis
envisaged
envisioned
enzy
epiderm
epilayer
epilayers
epimer
epitaxial
epitaxially
epitaxy
epithel
epoxidation
epoxide
epoxides
eqn
eqs
equatorial
equi
equiaxed
equid
equilib
equilibrate
equilibrated
equilibration
equimolar
erbium
ergodic
escap
escaping
establis
esterification
etch
etchant
etched
ethane
ethene
ethers
ethylenediamine
europium
eut
eutectic
evacuated
evacuation
evanes
evanescent
evaporate
evaporating
evaporator
evidently
evolutions
examin
exceptionally
exchan
exchanger
exchanging
excimer
excip
exciplex
excite
excites
exciton
excitonic
excitons
exclu
excludes
exemplified
exfol
exfoliated
exfoliation
exhaust
exis
exo
exosomes
exothermic
exotic
expects
explosive
explosives
exposing
extensional
extents
extraordinary
extrapolating
extre
extrema
extru
extrud
extruded
extruder
extrusion
fabricate
fabricating
fabrics
faceted
facile
faint
faradaic
farther
fas
fascinating
favorably
favoring
favoured
fcc
featured
featureless
featuring
feedstock
feedstocks
femtosecond
fermion
fermionic
fermions
ferr
ferric
ferrim
ferrimagnetic
ferrite
ferrites
ferro
ferroc
ferrocene
ferroelectric
ferroelectrics
ferrofluid
ferrom
ferromagnet
ferromagnetic
ferromagnetism
ferrous
fibril
fibrillar
fibro
fibrobl
fibroin
fiducial
filam
filamentary
filler
fillers
filt
filtrate
finely
fingerprints
finishing
fired
firmly
fittings
flake
flakes
flamm
flapping
flare
flares
flasks
flatness
flattened
flattening
flaw
flexoelectric
flexural
flipping
floc
flocculation
flowed
fluctuate
fluctuates
fluctuating
flue
fluence
fluences
fluidic
fluidity
fluorene
fluorescently
fluorides
fluorinated
fluorination
fluorine
fluorite
fluoro
fluorocarbon
fluorophore
fluorophores
flushed
foaming
foams
foil
foils
forbidden
formamide
formate
formations
formazan
formic
fouling
fourfold
fractured
fragile
fragility
freest
freestanding
frictional
fringe
fringes
fronts
frustrated
frustration
fulle
fullerene
fullerenes
functionalize
functionalized
functionals
fundam
funnel
furan
furfural
furnace
furnish
furnished
gadolinium
galactic
galactose
gallium
galvan
galvanic
galvanostatic
gapless
gapped
garn
garnet
gaseous
gasification
gasket
gasoline
gated
gauche
gauges
gelation
gelator
geometrically
german
germanium
ghost
glance
glassy
glide
glo
globular
glove
glovebox
glow
glue
glued
glutar
glutaraldehyde
glycan
glycidyl
glyco
glycop
glycopro
glycosyl
golden
goni
goniometer
governs
grafted
graphen
graphi
graphically
graphitic
graphitization
gratings
gravimetric
grin
grinding
grooves
guanidine
guanine
guar
guests
gum
gyration
gyro
gyrokinetic
hBN
hMSCs
hafn
hafnium
hairpin
halide
halides
halogen
halogenated
hampered
handed
hardening
harness
harsh
harvester
haze
hc
hcp
headgroup
heater
heats
heavi
heavier
helicity
hematite
hemi
hemic
hemicellulose
hemispherical
hept
heptane
hetero
heteroaromatic
heteroatom
heteroatoms
heterocyc
heterocycle
heterocycles
heterocyclic
heterogeneities
heterojunction
heterojunctions
heteronuclear
heterostructure
hexa
hexadecane
hexafluor
hexagon
hexagons
hexahydrate
hexamer
hexamethyl
hexane
hexanes
hexap
hierarchically
hill
hinder
hindered
hindering
hinders
hindrance
hing
hinge
hipp
hohlraum
holograph
holographic
homemade
homo
homogeneously
homogenization
homopolymer
homopolymers
hone
honeycomb
hopping
humidified
hump
hydrate
hydrated
hydrates
hydraz
hydrazine
hydrazone
hydride
hydrides
hydrochloric
hydrodynamics
hydrofluoric
hydrog
hydrogenated
hydrogenation
hydrogenolysis
hydrogens
hydrolys
hydrolytic
hydrolyzed
hydroper
hydrophilicity
hydrophob
hydrophobicity
hydroquinone
hydrosilylation
hydrostatic
hydrothermal
hydrothermally
hydroxides
hydroxyapatite
hydroxylated
hydroxylation
hydroxyls
hyg
hyperb
hyperbranched
hyperfine
hyperpolar
hyperthermia
hysteretic
iPP
iPr
icosa
icosahedral
ideality
idealized
ignition
illuminating
illust
illustrations
illustrative
imid
imidazol
imidazole
imidazolium
imide
imine
imines
iminium
imino
immedi
immense
immers
immersing
immisc
immiscible
immobile
immobilize
immunoassay
impacting
impar
impart
imparted
impede
imperfections
imping
impinge
impinging
implosion
impregn
impregnated
impregnation
imprint
imprinted
imprinting
impulsive
impur
impurity
inac
inaccessible
inaccur
incid
incipient
inclu
inco
incoherent
incomm
incommensurate
incomp
incompati
incompatibility
incompres
incompressible
incubating
inde
indent
indentation
indenter
indi
indis
indium
indole
indoles
induct
inductively
indust
industri
industrially
inelastic
inequivalent
inertness
infilt
infiltrated
infinites
infinitesimal
inflection
ingot
ingots
ingredi
inhomogeneities
inhomogeneity
ini
initiator
initiators
initio
injector
inkjet
inks
insets
insol
insp
inspect
inspected
instabilities
instantaneously
instructive
instrum
insul
insulated
insulating
insulator
insulators
integ
integra
integrability
integrand
integrations
intensif
intensified
intensively
intentionally
interacted
interatomic
interband
intercalated
intercalation
interchain
interconnects
interconversion
interdiffusion
interdig
interdigitated
interestingly
interfac
interferences
interferometer
interferometric
interferometry
intergranular
interlayer
interlayers
intermetallic
intermixing
internalized
internuclear
interparticle
interpenet
interphase
interplanar
interrog
intersecting
interstellar
interstitials
intersystem
intertw
intim
intimately
intraband
intral
intraven
intric
intricate
inval
invis
inviscid
invisible
iodides
iodo
ionisation
ionized
ionizing
ionomer
iridium
irradiating
irreversibility
irreversibly
isob
isobaric
isobut
isoc
isoch
isocyan
isocyanate
isocyanide
isoelectric
isoelectronic
isolating
isomeric
isomerization
isoprene
isoprop
isopropanol
isopropyl
isos
isostructural
isosurface
isotactic
isotherm
isothermal
isothermally
isotherms
isothi
isothiocyanate
isotop
isotopes
isotopolog
isotrop
isotropy
itiner
itinerant
kA
kB
kBT
kF
kGy
kN
kOe
kT
kaolin
kaolinite
kc
kd
keto
ketone
ketones
kick
kinetically
kink
kinks
kne
knife
knots
kp
kpc
kx
ky
kz
labile
laccase
lactone
lamell
lamella
lamellae
lamellar
laminate
laminated
laminates
lamps
lanthan
lanthanide
lanthanides
lanthanum
lasing
laterally
latex
lath
layering
leach
leached
leaching
leaky
legend
lensing
levitation
lifetimes
lifted
lighter
lightly
lightweight
lignocellulosic
limiter
liner
linesh
lineshape
linewidth
linewidths
linkers
lipophilic
liposome
liquef
liquidus
liquor
literatures
lithiated
lithiation
lithographic
lithography
localised
locates
lone
loses
lubricant
lubrication
luminescent
luminous
lump
lumped
lymp
lyophil
lyophilized
lysosomes
lysozyme
mAh
mC
mF
mHz
mJ
mK
mN
mPEG
mPa
mTorr
machined
machining
macrocycle
macrocycles
macrocyclic
macroinitiator
macrom
macromo
macromolecular
macromolecule
macromolecules
macromon
macrop
macropores
macroporous
macroscale
macroscopically
magenta
magic
magneti
magnetically
magnetisation
magnetism
magnetite
magnetizations
magnetized
magneto
magnetoc
magnetocaloric
magnetoelectric
magnetometer
magnetometry
magnetost
magnetostatic
magnetron
magnets
magnifications
magnified
magnon
magnons
maleic
maleimide
mangan
manganites
manifests
mannose
manufact
manusc
mart
martensite
martensitic
maser
massless
mathematic
mats
mbar
mc
meV
meantime
meanwhile
mechanochemical
melamine
melted
melts
membran
memrist
meniscus
merid
mesa
mesityl
meso
mesoc
mesop
mesoph
mesophase
mesopore
mesopores
mesoporous
mesos
mesoscale
mesoscopic
metallicity
metallization
metallo
metallocene
metallurg
metamaterial
metamaterials
metas
metastable
metasurface
metathesis
methacrylate
methacrylic
methine
methoxy
methylene
metrology
mica
micellar
micelle
microbalance
microbeads
microcapsules
microcavity
microchannel
microchannels
microcr
microcracks
microcrystals
microdomains
microdrop
microemulsion
microfib
microfibers
microfluidics
microgel
microgels
micrograph
micrographs
microhardness
microlens
micromagnetic
micrometer
micrometers
microns
microparticles
microphase
microplate
micropore
micropores
microporous
micropro
micror
microreactor
microscale
microscopes
microsecond
microsphere
microstructural
microstructures
microt
microw
microwaves
microwell
midplane
midpoint
mig
mildly
milled
millimeter
milling
millisecond
mimicking
miner
miniat
miniature
miniaturization
miniaturized
miniemulsion
misalignment
miscibility
miscible
misfit
mismatched
misorientation
mitigated
mitochond
mixer
mobilities
modifier
modifiers
modul
modulations
moiré
molded
molding
molds
molecul
molecularly
moles
molten
molyb
molybdenum
momenta
monit
monochrom
monochromatic
monochromator
monocl
monoclinic
monod
monodentate
monodisper
monodisperse
monodispersed
monof
monohydrate
monolithic
monoliths
monom
monometallic
monopole
monos
monotonously
monovalent
monoxide
montmorillonite
mortar
motional
mould
mount
movable
mrad
muff
mullite
multichannel
multicomponent
multiferro
multiferroic
multifunctional
multilayered
multilayers
multimode
multiphase
multiphoton
multiples
multiplet
multiplets
multiplexed
multipole
multireference
multiscale
multistep
multitude
multivalent
multiwalled
muon
myocar
nA
nBu
nC
nF
nH
nN
naked
nanoant
nanob
nanobelts
nanocages
nanocapsules
nanocar
nanocarbon
nanocarrier
nanocarriers
nanocatalysts
nanochannel
nanochannels
nanocl
nanoclay
nanocluster
nanoclusters
nanocol
nanocomposite
nanocomposites
nanocon
nanocrystal
nanocrystall
nanocrystalline
nanocrystals
nanocubes
nanod
nanode
nanodevices
nanodi
nanodiamond
nanodots
nanodrop
nanoemulsion
nanof
nanofib
nanofiber
nanofibers
nanofibrous
nanofiller
nanofillers
nanofl
nanoflakes
nanoflowers
nanofluid
nanofluids
nanog
nanogel
nanogels
nanogra
nanohybrid
nanohybrids
nanoimp
nanoindentation
nanol
nanomaterial
nanomaterials
nanometer
nanometers
nanometric
nanopartic
nanoph
nanopillar
nanopillars
nanoplate
nanoplatelets
nanoplates
nanopore
nanopores
nanoporous
nanopowder
nanopowders
nanopro
nanoprobe
nanore
nanoribbon
nanoribbons
nanorod
nanorods
nanosc
nanosecond
nanoseconds
nanoshe
nanosheet
nanosheets
nanoshell
nanosized
nanosphere
nanospheres
nanost
nanostructure
nanostructured
nanotechnology
nanotube
nanowire
naphth
naphthal
naphthalene
narrowed
nascent
nb
neat
nebul
necessit
necessitates
necking
necro
neglecting
neglects
negligibly
nematic
neoclassical
ner
neutrality
neutralized
neutrals
neutrin
neutrinos
neutrons
nicely
niob
niobate
niobium
nitrates
nitrid
nitridation
nitride
nitrides
nitrile
nitriles
nitrobenzene
nitroxide
noble
nois
nomenclature
nominally
nonadiabatic
nonbonded
noncovalent
nonde
nondegenerate
nondestructive
nondimensional
nonequilibrium
noninteracting
nonionic
nonisothermal
nonlinearities
nonlocal
nonmagnetic
nonmonotonic
nonplanar
nonpolar
nonradiative
nonrelativistic
nonresonant
nonthermal
nontoxic
nonuniform
nonuniformity
nonvolatile
nonwoven
norbornene
normalised
normalizing
notch
notched
notew
notic
noticeably
nozzle
nuc
nucleate
nucleated
nucleating
nucleo
nucleob
nucleobase
nucleobases
nucleoph
nucleophile
nucleophiles
nucleophilic
nucleophilicity
nucleoside
numbered
numbering
nylon
obe
obeys
obl
oblate
observes
obstac
occupancies
occupies
occupying
octa
octahedra
octahedral
octahedron
offsets
ohmic
oleate
olefin
olefinic
olefins
oleic
oleylamine
oligo
oligomeric
oligomerization
oligonucleo
oligos
opacity
opal
opaque
openings
oppositely
optimised
opto
optoelectronic
optoelectronics
ordinate
organics
organo
organocat
organoclay
organometallic
orientated
orientational
orif
orifice
origami
ortho
orthog
orthogon
orthogonality
orthon
orthorhombic
oscillate
oscillates
oscillating
oscilloscope
osmo
osteob
osteoblast
osteogenic
outdo
outermost
outg
outlook
overcomes
overcoming
overe
overestim
overestimate
overestimated
overestimates
overestimation
overexp
overlaid
overlayer
overpotential
overpotentials
overshoot
overtone
oxalate
oxalic
oxazol
oxidant
oxidants
oxidations
oxidization
oxidize
oxidizing
oxime
oxo
oxy
oxygenated
oxygens
oxynit
pC
pDNA
pF
pHs
pKa
pO
pads
paint
palladium
panc
parab
paradig
paraelectric
parall
paramagnetic
parametrization
parametrized
paramount
parenthesis
passivated
passivating
passivation
pastes
patterned
pave
peaking
pear
pectin
pedest
pedestal
peel
peeled
peeling
pelle
pencil
pendant
pendulum
penet
penetrated
penetrates
penetrating
penta
pentacene
pentagonal
pentane
pep
perchlor
perchlorate
percol
percolation
perfluor
perfluoro
perimeter
permeable
permeance
permeate
permeation
perovsk
perovskite
perovskites
perpendicularly
persulfate
perturbative
perturbing
perylene
phantoms
pharmaceuticals
phenanth
phenols
phenotyp
phenylacetylene
phenylalanine
phenylene
phononic
phonons
phosphates
phosphide
phosphine
phosphines
phosphonate
phosphonium
phosphor
phosphorene
phosphorescence
phosphorescent
phosphoric
phosphorous
phosphors
photoacoustic
photoactive
photoactivity
photoan
photoanode
photoanodes
photobleaching
photocat
photocatalysis
photocatalyst
photocatalysts
photocatalytic
photocathode
photochemical
photochemistry
photochrom
photochromic
photoconductive
photocurrent
photocurrents
photode
photodet
photodetector
photodetectors
photodiode
photodiodes
photodynamic
photoelectric
photoelectrode
photoelectrodes
photoelectron
photoelectrons
photoemission
photoexcitation
photoexcited
photof
photogener
photogenerated
photoinduced
photoinitiator
photoionization
photolysis
photom
photometric
photometry
photomultipl
photomultiplier
photonics
photophysical
photopro
photoredox
photoreduction
photoresist
photoresponse
photosensi
photosensitive
photosensitizer
photost
photostability
photoswit
photothermal
photovolta
photovoltage
photovoltaic
photovoltaics
phthal
phthalocyanine
phy
physico
physis
physisorbed
physisorption
picosecond
picoseconds
piezo
piezoresistive
pigments
pile
pillar
pillars
pincer
pinch
pinhole
pinholes
pink
pinned
pinning
pins
pioneering
piper
piperidine
pipes
pipet
pipette
piston
pits
pitting
pla
planarity
planetary
planets
plasmas
plasmonic
plasmons
plasticization
plasticized
plasticizer
plasticizers
plastics
plat
plateaus
plating
plenty
plotting
plu
plume
pnic
pock
pockets
polarisation
polarities
polariton
polaritons
polariz
polarizability
polarizable
polarizations
polarizer
polarizers
polarizing
polaron
polarons
poled
poling
polished
polishing
pollutant
poloidal
polyamide
polyamides
polyaniline
polyatomic
polycarbonate
polycrystalline
polycyclic
polydisper
polydisperse
polydispersity
polydopamine
polyelectrolyte
polyester
polyesters
polyether
polyhedra
polyhedral
polyhedron
polyimide
polyimides
polymerisation
polymerizations
polymerize
polymerized
polymersomes
polymorphs
polyn
polyol
polyols
polyox
polypeptides
polyplex
polyplexes
polypropylene
polypyrrole
polysiloxane
polystyrene
polysulf
polysulfide
polysulfides
polytetra
polyurethane
polyurethanes
polyvinyl
polyvinylidene
ponder
ponderomotive
porosities
porphyrin
porphyrins
positrons
possi
postulate
potentiometric
potentiostat
poured
powdered
powders
ppb
precatalyst
precession
precious
precipit
precipitates
preclu
predomin
prefactor
preferably
preferen
prefers
preformed
preheated
prel
preparative
prepolymer
preser
pressed
pressur
pressurized
prevail
principally
printer
prism
prismatic
prisms
pristine
probabil
processability
prodrug
profil
profilometer
prohibitive
projec
projectile
projector
prolate
promis
promp
propagates
propagator
propane
proparg
propargyl
propargylic
propell
propene
proportionality
proportionally
propulsion
propyl
propylene
prosp
prospect
protic
protonated
protonation
prototyp
prototypical
protru
protruding
protrusion
protrusions
pse
pseudoc
pseudocapac
pseudop
pseudopotential
psi
puck
puff
pulled
pulling
pulsar
pulver
pumped
purge
purged
purging
purp
purple
pushing
px
pyramid
pyramids
pyran
pyraz
pyrazole
pyrene
pyrid
pyridine
pyridinic
pyridinium
pyridyl
pyrimidine
pyroch
pyrochlore
pyroelectric
pyroly
pyrolysis
pyrolytic
pyrolyzed
pyrro
pyrrol
pyrrole
pyrrolic
pyrrolidine
pz
qe
quadruple
quadrupolar
quadrupole
quan
quanta
quantifies
quar
quartet
quartic
quasic
quasip
quasiparticle
quasiparticles
quasist
quasistatic
quater
quaternary
qubit
qubits
quen
quench
quenched
quencher
quenches
quercetin
quinoline
quinone
quint
rGO
racem
racemic
racemization
radially
radiated
ramped
ramping
raref
ratche
ratiometric
ration
rationalize
rationalized
rationally
reac
reactant
reactants
reacting
reactivities
reactors
reacts
realizing
rearranged
reas
rebound
recal
reced
receding
recharge
rechargeable
recipe
recir
recirculation
reco
recoil
recombine
reconn
reconnection
recor
recoveries
recovers
recrystall
recrystallized
rectangles
rectification
rectifying
recyc
recycl
recyclability
recyclable
recycle
recycled
redd
redispersed
redist
redshifted
redshifts
reduct
reductant
reductive
refinements
refining
reflectivity
reflector
refluxed
refluxing
reforming
refract
refraction
refrigeration
refrigerator
refs
regener
regenerate
regenerated
regi
regio
regioselective
regist
reinfor
reinforcing
relativity
relaxations
relaxes
relaxing
relaxivity
relaxor
reman
remanence
remanent
remediation
remin
reminiscent
remnant
remo
renewed
renormalization
renormalized
reorient
reorientation
repeatability
repeatable
replicas
reproduces
reproducing
repulsion
repulsions
repulsive
requisite
rescaled
rescaling
researched
resemblance
reser
resil
resins
resistances
resistivities
resistors
resists
resonators
resorcin
responsivity
restoring
restrain
restrained
restraints
retardancy
retardant
retarded
retarding
retraction
reusability
reused
reversibility
reversibly
reversing
rew
rhenium
rheological
rheology
rheometer
rhodamine
rhodium
rhomb
rhombic
rhombohedral
ribbon
ribbons
ridges
rigorously
rij
rinsing
ripening
ripp
ripples
rocking
rolled
roller
rotate
rotates
rotationally
rotors
roughening
rougher
rovibrational
rubbers
rubbery
rubbing
rubrene
runaway
ruthenium
rutile
sacrif
sacrificial
salicyl
samp
sandw
sandwic
sandwich
sandwiched
sapphire
satell
satisfactorily
saturable
saturate
saturates
saturating
sawtooth
scCO
scattere
scatterers
scaven
scavenger
scavengers
sccm
schematically
schematics
scho
scienti
scintill
scintillation
scintillator
scission
scre
sealing
sear
seas
sectional
sedim
segregated
selectivities
selenide
semicirc
semicircle
semiclassical
semiconduct
semiconducting
semiconductors
semicrystalline
semiempirical
semil
semimet
semimetal
semiqu
sensitively
sensitized
sensitizer
sensitizers
separations
separator
separators
separatrix
sequest
sessile
settled
setups
sext
shake
shaken
shaker
shale
shallower
sharper
sharpness
sheared
shearing
shielded
shielding
shocked
shorten
shots
shoulders
shrinking
shrinks
shutter
shuttle
sideband
sidebands
sidewall
sidewalls
sieve
sieves
sigmo
sigmoidal
signifies
silan
silane
silanes
silanol
silicate
silicates
silicene
silicide
siloxane
sily
silyl
simp
simul
singlets
singly
sinks
sintered
sintering
sizable
ske
skele
skeletons
sketched
skewness
skyrm
skyrmion
slabs
slag
sle
slits
slowed
slowest
slows
slu
sluggish
slur
slurries
slurry
smearing
smectic
smo
smoother
snapsh
snapshots
soaked
soaking
soda
softening
softer
solenoid
solidification
solidified
solit
soliton
solitons
solubil
solubilities
solubilization
solubilized
solutes
solv
solvable
solvat
solvated
solvation
solvothermal
sonicated
sonication
soot
sorb
sorbent
sorbents
sorbit
sour
spa
spacers
spacings
spanwise
spark
speckle
spectrally
spectrofluor
spectrograph
spectrometers
spectrometric
spectroscop
spectroscopies
specular
spher
spherically
spheroid
spheroids
spherul
spherulite
spherulites
spik
spiked
spinel
spinn
spinning
spinodal
spinor
spint
spintronic
spintronics
spiro
splitter
splittings
spon
spong
sponge
sponges
sprayed
spraying
springs
spun
sputter
sputtered
sputtering
sq
squar
squee
squeezed
squeezing
ssDNA
stabilities
stabilizer
stabilizers
stabilizes
stag
staggered
stagn
stagnation
stamp
standpoint
stann
stap
stear
stearic
steels
steeper
stemming
stepped
stereoc
stereochemical
stereochemistry
stereogenic
stereoselective
sterically
steril
sterilized
sticking
sticks
sticky
stiffer
stirrer
stoichiometric
stoichiometry
stra
strained
stray
streak
streaks
streamer
streamlines
streamwise
stren
streptavidin
stretchability
stretchable
stretched
stretches
stripe
stripes
stripped
stripping
stron
strontium
stu
studi
styrene
subband
subbands
subcritical
subdi
sublattice
sublattices
sublayer
sublim
sublimation
submerged
submic
submicron
subscripts
substitu
substituent
substituents
substitutes
substitutional
substructure
subthreshold
subwavelength
succeeded
succinate
succinic
suddenly
suitably
sulfide
sulfides
sulfon
sulfonate
sulfonated
sulfonation
sulfone
sulfonic
sulfonyl
sulfoxide
sulfuric
sulphur
summarised
sunlight
superc
supercapac
supercapacitor
supercapacitors
supercell
supercells
superconduct
superconductor
superconductors
supercooled
supercooling
supercritical
supere
superexchange
superfluid
superimp
superlattice
superlattices
supernov
supersaturated
supersaturation
superscript
supersonic
superstructure
superstructures
supramolecular
surfactants
surpass
surpris
surroundings
survi
suscepti
suspend
sweeping
sweeps
swell
swept
swim
swir
switchable
swollen
symmetri
symmetrically
synap
synch
synchrotron
synergetic
synergistically
synergy
syngas
syntheses
synthesi
synthesised
synthesizing
synthetically
tBu
tR
tableII
tabletable
tabulated
tailor
tailoring
talc
tangen
tann
tantal
tantalum
taper
tapered
tapes
tapping
tart
taut
tautomer
tearing
techniqu
technologically
tedious
telec
telecom
telescope
tellur
tellurium
temp
tempering
templated
templating
tendencies
tensions
tensors
tentative
tentatively
terahertz
terephthal
terephthalate
terminating
terminations
terpolymer
terpolymers
terrace
terraces
tert
tester
tether
tethered
tetrachlor
tetraethyl
tetrafluor
tetragonal
tetrahedra
tetrahedral
tetrahedron
tetrahydro
tetrahydrofuran
tetrakis
tetramer
tetramethyl
tetras
tetraz
textile
textiles
textural
textured
theran
theranostic
thereof
thermalization
thermionic
thermo
thermochemical
thermoco
thermocouple
thermocouples
thermod
thermodynam
thermodynamics
thermoelectric
thermogram
thermograms
thermometer
thermop
thermoplastic
thermopower
thermos
thermosets
thermost
thermostat
thiaz
thinner
thinnest
thio
thiolate
thiols
thiophene
thiourea
threading
threefold
thresh
throm
thruster
thymine
tilted
tilting
timescale
timescales
titan
titanate
titania
titrated
titrations
tokamak
tokamaks
tomographic
topmost
topographical
topologically
toroidal
torques
torr
torsional
tortuosity
tos
touching
tough
toughening
toughness
tracers
trailing
transducers
transist
transmittance
transp
transporting
transversal
trapez
travelling
travels
tren
trench
trenches
triad
triazine
triazole
trib
triblock
triboelectric
tribological
triclinic
tricyclic
trid
tridentate
triethyl
triethylamine
trif
triflate
trifluor
trifluoro
trifluoroacetic
trifluoromethyl
trigly
trigonal
trilayer
trimer
trimers
trimethyl
trimethylsilyl
trinuclear
triphenyl
triplets
triply
trivalent
tubing
tunability
tungsten
tunnelling
turbid
turbidity
turbines
turbul
twee
tweezers
twinned
twinning
twisting
tyros
ubiqu
ult
ultim
ultrac
ultracold
ultraf
ultrafast
ultrafiltration
ultrafine
ultrahigh
ultral
ultralow
ultrapure
ultrash
ultrashort
ultrasmall
ultrasonically
ultrasonication
ultrathin
umbrella
unaltered
unambiguously
unavoid
unavoidable
unbound
uncharged
uncoated
uncon
unconventional
uncorrected
uncoupled
unde
undercooling
undere
underestim
underestimates
underestimation
underg
underlayer
underneath
underway
undesired
undist
undisturbed
undoped
undoubtedly
unequiv
unexp
unexpectedly
unexplored
unfilled
unfol
unfolded
unfortunately
uniaxial
unidentified
unidirectional
unimolecular
unint
unintention
unipolar
universality
unloaded
unloading
unmodified
unoccupied
unperturbed
unphysical
unpolarized
unprecedented
unravel
unreacted
unreal
unsatis
unsatisfactory
unsteady
unstrained
unsubstituted
unsuitable
unsymmetrical
unusually
unve
upconversion
upfield
upt
upwards
uran
uranium
uranyl
urethane
utilis
vacancies
vacancy
vacant
vacuo
valance
validating
valle
valleys
vanad
vanadium
vaporization
vapors
vapour
vdW
vect
veh
vel
verifies
versatility
vial
vials
vib
vibrating
vibrationally
vibronic
vicinal
vigorously
vinyl
violet
viologen
virgin
virial
viscoelastic
viscoelasticity
viscometer
viscosities
voids
volatil
volatiles
volatilization
voltamm
voltammet
voltammetric
voltammetry
voltammogram
voltammograms
volum
vortices
vorticity
vulcan
vulcaniz
vulcanizates
vulcanization
wR
wafers
warmed
warp
wastes
wavefront
wavefunction
wavefunctions
waveguides
waven
wavenumber
wavenumbers
wavepacket
wavevector
wavy
wax
weaken
weakened
weakening
weakens
weakest
wearable
weld
welded
welding
wettability
wetted
wetting
whisker
whiskers
widen
widening
wiley
wings
withdra
withdrawing
withstand
witnessed
wool
workstation
workup
worn
worthy
woven
wrapped
wrapping
wrink
wrinkled
wrinkles
wurtzite
xanth
xc
xenogra
xenon
xer
xerogel
xylene
xylose
yarn
yarns
yellowish
yolk
yttri
yttria
yttrium
zeol
zeolite
zeolites
zeroth
zeta
zig
zigzag
zircon
zirconia
zirconium
zonal
zoom
zoomed
zwitter
zwitterionic
{001}
{1
{100}
{101
{110}
{111}
{[
{\
}$
±0.1
±1
±2
ħ
ɛ
̅
ΔΔ
Δδ
Δε
Δθ
Δλ
Δμ
Δν
Δρ
Δσ
Δφ
Δω
μΩ
τα
“1
∂∂
−0.1
−0.2
−0.3
−0.4
−0.5
−0.6
−0.8
−1.0
−1.5
−10
−100
−15
−20
−25
−30
−40
−5
−50
−6
−60
−7
−78
−8
−80
∘
∼0.1
∼0.5
∼1
∼1.5
∼10
∼100
∼12
∼15
∼2
∼20
∼200
∼25
∼3
∼30
∼300
∼4
∼40
∼5
∼50
∼500
∼6
∼60
∼7
∼70
∼8
∼80
∼9
≅
≈10
≥99
≫
≲
≳
⋯
□
○
⟨
⩽
⩾

