
#
##!
##!(
##"
###
##$
##$,
##$.
##$\
##${
##${{
##%
##%)
##%),
##%).
##%)/
##%);
##%,
##%.
##%;
##&
##'
##(
##(%)
##((
##(+
##(+)
##(-
##(0
##(0)
##(0)(
##(0)+
##(0),
##(0).
##(0)=
##(0)−
##(0,
##(00
##(000
##(0001)
##(001)
##(1
##(1)
##(1)(
##(1)+
##(1),
##(1).
##(1)=
##(1)‐
##(1)–
##(1)−
##(1+
##(1+2
##(1,
##(1-
##(1/
##(10
##(10)
##(100
##(100)
##(11
##(11)
##(110)
##(111)
##(111),
##(111).
##(12
##(12)
##(13)
##(14)
##(15
##(15)
##(16)
##(17)
##(18)
##(19)
##(1‐
##(1−
##(1−2
##(2
##(2)
##(2)(
##(2),
##(2).
##(2)–
##(2,
##(2-
##(2.1
##(20
##(20)
##(21)
##(22)
##(23)
##(24)
##(26)
##(2‐
##(2−
##(3
##(3)
##(3)(
##(3),
##(3,
##(3-
##(30)
##(31)
##(32)
##(3‐
##(4
##(4)
##(4),
##(4,
##(4-
##(4‐
##(5
##(5)
##(5),
##(6
##(6)
##(7
##(7)
##(8
##(8)
##(9
##(9)
##([
##(\
##({
##(|
##(±
##(∂
##(∇
##(∑
##(−
##(−)
##(−1
##(−1)
##(−2
##(∞
##(∣
##(⋅
##)
##)!
##)(
##)(1)
##)(1+
##)(1−
##)(2
##)(2)
##))
##))(
##))+
##)),
##)).
##))2
##));
##))=
##))]
##))−
##)*
##)+
##)+(
##)+1
##)+12
##)+2
##)+∑
##),
##),(
##),(1)
##),(2)
##),(3
##),(3)
##),(4
##),(4)
##),(5)
##),(6)
##),(7)
##),(8)
##),3
##)-
##)-(
##)-1
##)-1,
##)-1-
##)-2,
##)-2-
##)-3-
##)-4-
##).
##).(
##).(2)
##).(3
##).(3)
##).(4
##).(4)
##).(5)
##).,
##).1
##).10
##).11
##).12
##).13
##).14
##).15
##).16
##).2
##).2.2
##).2.3
##).3
##).3.
##).4
##).5
##).6
##).7
##).8
##).9
##)/
##)/(
##)/2
##)0
##)0.5
##)1
##)1+
##)1/
##)1/2
##)10
##)11
##)12
##)13
##)14
##)15
##)16
##)17
##)18
##)1−
##)2
##)2(
##)2)
##)2+
##)2+(
##)2,
##)2-
##)2.
##)2/
##)20
##)22
##)23
##)24
##)25
##)2[
##)2]
##)2],
##)2}
##)2−
##)3
##)3(
##)3,
##)3]
##)3]2+
##)4
##)4(
##)4]
##)5
##)6
##)6]
##)7
##)8
##)9
##):
##):=
##);
##)<
##)=
##)=(
##)=0
##)=0,
##)=0.
##)=1
##)=12
##)=1−
##)=2
##)=4
##)=[
##)={
##)=|
##)=∑
##)=−
##)=∫
##)=∫0
##)=⟨
##)>
##)[
##)]
##)](
##)]+
##)],
##)].
##)]2
##)]2+
##)]=
##)][
##)]}
##)]−
##){
##)|
##)|2
##)}
##)},
##)­
##)­(
##)·
##)×
##)‐
##)‐1
##)‐2
##)‐2,
##)‐2‐
##)–
##)–(
##)–1
##)–1(
##)–2(
##)–3
##)–3(
##)–4
##)–4(
##)—
##)‖
##)→
##)∂
##)∇
##)∈
##)∑
##)−
##)−(
##)−1
##)−1,
##)−2
##)∕
##)∝
##)∣
##)∥
##)∫
##)∼
##)≃
##)≈
##)≔
##)≡
##)≤
##)≥
##)⊗
##)⋅
##)⟨
##)⟩
##)⩽
##)〉
##*
##*(
##*)
##*),
##**
##*+
##*,
##*-
##*.
##*/
##*2
##*=
##*−
##+
##+(
##+(1−
##+)
##+),
##+).
##+):
##++
##++++
##+,
##+-
##+.
##+/
##+0
##+1
##+1(
##+1)
##+1)(
##+1),
##+1+
##+1,
##+1.
##+12
##+14
##+1=
##+1−
##+2
##+2(
##+2)
##+2,
##+3
##+4
##+5
##+6
##+:
##+=
##+[
##+]
##+|
##+‐
##+–
##+∂
##+∇
##+∑
##+−
##+∞
##+∫
##+⋯
##,
##,(
##,(1)
##,(10)
##,(11)
##,(12)
##,(13)
##,(14)
##,(15)
##,(16)
##,(17)
##,(2
##,(2)
##,(3
##,(3)
##,(4
##,(4)
##,(5
##,(5)
##,(6
##,(6)
##,(7)
##,(8)
##,(9)
##,,
##,,,
##,...,
##,0
##,0)
##,0,
##,1
##,1,
##,1,2
##,10
##,11
##,11,
##,12
##,13
##,13,
##,14
##,15
##,16
##,17
##,18
##,19
##,2
##,2,
##,20
##,21
##,21,
##,22
##,22,
##,23
##,23,
##,24
##,24,
##,25
##,26
##,27
##,28
##,29
##,3
##,3,
##,30
##,30,
##,31
##,32
##,33
##,34
##,35
##,36
##,37
##,38
##,39
##,4
##,4,
##,40
##,41
##,42
##,43
##,44
##,5
##,5,
##,6
##,6,
##,7
##,8
##,9
##,[
##,”
##,∂
##,−
##-
##-(
##-(2-
##-(3-
##-(4-
##-)
##-,
##-/
##-0
##-0.5
##-00
##-1
##-1)
##-1),
##-1,
##-1,2-
##-1,3-
##-1,4-
##-1-
##-1.
##-1/
##-1/2
##-10
##-100
##-1000
##-101
##-11
##-12
##-13
##-14
##-15
##-16
##-17
##-18
##-19
##-2
##-2)
##-2),
##-2,
##-2-
##-2.
##-20
##-200
##-21
##-2100
##-22
##-23
##-231
##-24
##-25
##-27
##-29
##-3
##-3,
##-3-
##-3.
##-30
##-300
##-311
##-311+
##-311++
##-34
##-3′
##-4
##-4,
##-4-
##-40
##-400
##-41
##-48
##-5
##-5,
##-5-
##-50
##-500
##-6
##-6,
##-6-
##-60
##-600
##-66
##-66-
##-67
##-7
##-7,
##-7-
##-70
##-700
##-8
##-8,
##-8-
##-80
##-800
##-9
##-90
##-900
##-[
##.
##.%
##.%)
##.%,
##.(
##.(1)
##.(10)
##.(11)
##.(12)
##.(13)
##.(14)
##.(15)
##.(16)
##.(17)
##.(18)
##.(19)
##.(2
##.(2)
##.(20)
##.(21)
##.(22)
##.(23)
##.(24)
##.(25)
##.(26)
##.(27)
##.(28)
##.(29)
##.(3
##.(3)
##.(30)
##.(31)
##.(32)
##.(4
##.(4)
##.(5
##.(5)
##.(6
##.(6)
##.(7
##.(7)
##.(8)
##.(9)
##.)
##.),
##.).
##.,
##.,,
##.,,,
##.,−
##.-
##..
##...
##...,
##....
##.0
##.0%
##.0)
##.0,
##.00
##.01
##.02
##.03
##.04
##.05
##.06
##.07
##.08
##.09
##.0]
##.1
##.1%
##.1)
##.1,
##.1,2
##.1.
##.10
##.10,
##.10,11
##.10–12
##.11
##.11,
##.11,12
##.11–
##.11–13
##.12
##.12,
##.12,13
##.12–
##.12–14
##.13
##.13,
##.13,14
##.13–15
##.14
##.14,
##.14,15
##.14–16
##.15
##.15,
##.15,16
##.15–17
##.16
##.16,
##.16,17
##.16–18
##.17
##.17,
##.17,18
##.18
##.18,
##.18,19
##.19
##.19,
##.19,20
##.1°
##.1–3
##.1–4
##.1–5
##.1–6
##.2
##.2%
##.2)
##.2,
##.2,3
##.2.
##.2.1
##.2.1.
##.2.2
##.2.2.
##.2.3
##.2.3.
##.2.4
##.2.4.
##.2.5
##.2.6
##.2.7
##.20
##.20,
##.20,21
##.21
##.21,
##.21,22
##.21–
##.22
##.22,
##.22,23
##.22–
##.23
##.23,
##.23,24
##.24
##.24,
##.24,25
##.25
##.25,
##.25,26
##.26
##.26,
##.26,27
##.27
##.27,
##.27,28
##.28
##.28,
##.28,29
##.29
##.29,
##.29,30
##.2°
##.2–4
##.3
##.3%
##.3)
##.3,
##.3,4
##.3.
##.3.1
##.3.1.
##.3.2
##.3.2.
##.3.3
##.3.3.
##.3.4
##.3.4.
##.3.5
##.3.6
##.30
##.30,
##.30,31
##.31
##.31,
##.31,32
##.32
##.32,
##.32,33
##.33
##.33,
##.33,34
##.34
##.34,
##.34,35
##.35
##.35,
##.36
##.36,
##.37
##.37,
##.38
##.38,
##.39
##.39,
##.3°
##.3–5
##.4
##.4%
##.4)
##.4,
##.4,5
##.4.
##.4.1
##.4.1.
##.4.2
##.4.2.
##.4.3
##.4.3.
##.40
##.40,
##.41
##.41,
##.42
##.42,
##.43
##.43,
##.44
##.44,
##.45
##.45,
##.46
##.46,
##.47
##.47,
##.48
##.49
##.4°
##.4–6
##.5
##.5%
##.5%)
##.5%,
##.5)
##.5,
##.5,6
##.5.
##.50
##.50,
##.51
##.51,
##.52
##.53
##.53,
##.54
##.54,
##.55
##.55,
##.56
##.56,
##.57
##.58
##.59
##.5°
##.5–7
##.6
##.6%
##.6)
##.6,
##.6,7
##.6.
##.60
##.60,
##.61
##.61,
##.62
##.62,
##.63
##.63,
##.64
##.65
##.65,
##.66
##.67
##.68
##.69
##.6°
##.6–8
##.7
##.7%
##.7)
##.7,
##.7,8
##.7.
##.70
##.71
##.72
##.73
##.74
##.75
##.76
##.77
##.78
##.79
##.7°
##.7–9
##.8
##.8%
##.8%,
##.8)
##.8,
##.8,9
##.8.
##.80
##.81
##.82
##.83
##.84
##.85
##.86
##.87
##.88
##.89
##.8°
##.8–10
##.9
##.9%
##.9)
##.9,
##.9,10
##.9.
##.90
##.91
##.92
##.93
##.94
##.95
##.96
##.97
##.98
##.99
##.9–11
##.:
##.;
##.[
##.]
##.‐
##.—
##.”
##.•
##.−
##/
##/(
##/(2
##//
##/0
##/1
##/1,
##/10
##/10.
##/10.10
##/10.1016/
##/100
##/12
##/15
##/2
##/2)
##/2),
##/2+
##/2,
##/2.
##/20
##/25
##/2−
##/3
##/3,
##/30
##/4
##/4,
##/40
##/5
##/50
##/6
##/6-31
##/60
##/6‐
##/6‐31
##/7
##/8
##/9
##/[
##/|
##/°
##/∂
##0
##0(
##0)
##0)(
##0)+
##0),
##0).
##0)/
##0)2
##0)=
##0)]
##0)−
##0+
##0,
##0,0)
##0,0,
##0-
##0.
##0..
##0.0
##0.0,
##0.00
##0.000
##0.0000
##0.001
##0.002
##0.003
##0.004
##0.005
##0.006
##0.007
##0.008
##0.009
##0.01
##0.010
##0.011
##0.012
##0.013
##0.014
##0.015
##0.016
##0.018
##0.02
##0.025
##0.03
##0.04
##0.05
##0.06
##0.07
##0.08
##0.09
##0.1
##0.1%
##0.1)
##0.1,
##0.10
##0.11
##0.12
##0.13
##0.14
##0.15
##0.16
##0.17
##0.18
##0.19
##0.2
##0.2)
##0.2,
##0.20
##0.21
##0.22
##0.23
##0.24
##0.25
##0.26
##0.27
##0.28
##0.29
##0.3
##0.3)
##0.3,
##0.30
##0.31
##0.32
##0.33
##0.34
##0.35
##0.36
##0.37
##0.38
##0.39
##0.4
##0.4,
##0.40
##0.41
##0.42
##0.43
##0.44
##0.45
##0.46
##0.47
##0.48
##0.49
##0.5
##0.5%
##0.5)
##0.5,
##0.5.
##0.50
##0.51
##0.52
##0.53
##0.54
##0.55
##0.56
##0.57
##0.58
##0.59
##0.6
##0.6,
##0.60
##0.61
##0.62
##0.63
##0.64
##0.65
##0.66
##0.67
##0.68
##0.69
##0.7
##0.7,
##0.70
##0.71
##0.72
##0.73
##0.74
##0.75
##0.76
##0.77
##0.78
##0.79
##0.8
##0.8,
##0.80
##0.81
##0.82
##0.83
##0.84
##0.85
##0.86
##0.87
##0.88
##0.89
##0.9
##0.9,
##0.90
##0.91
##0.92
##0.93
##0.94
##0.95
##0.96
##0.97
##0.98
##0.99
##0.998
##0/
##0/[
##00
##00)
##00).
##00,
##000
##000)
##000,
##0000
##0001)
##0001]
##001
##001)
##001]
##001}
##002
##005
##01
##01,
##010
##011
##02
##02(
##02)
##02+
##02,
##02−
##03
##04
##05
##06
##06-2
##07
##08
##09
##0:
##0;
##0<
##0=
##0=(
##0=0
##0=0.
##0=1
##0=2
##0=−
##0[
##0]
##0],
##0].
##0|
##0}
##0–
##0–1
##0′
##0→
##0∂
##0−
##0−1
##0∕
##0∣
##0≈
##0≤
##0⟩
##0〉
##1
##1%
##1(
##1(1)
##1(2)
##1(3)
##1)
##1)(
##1)+
##1),
##1).
##1);
##1)=
##1)]
##1)−
##1*
##1+
##1+(
##1+2
##1,
##1,...,
##1,1
##1,2
##1,2,
##1,3,
##1,32
##1,42
##1-
##1.
##1..
##1...
##1.0
##1.0,
##1.00
##1.03
##1.04
##1.05
##1.06
##1.07
##1.08
##1.09
##1.1
##1.10
##1.15
##1.2
##1.25
##1.3
##1.30
##1.33
##1.35
##1.36
##1.38
##1.4
##1.40
##1.45
##1.48
##1.5
##1.5,
##1.50
##1.55
##1.6
##1.65
##1.7
##1.75
##1.8
##1.85
##1.9
##1.95
##1.98
##1/
##1/2
##1/2(
##1/2)
##1/2,
##1/2.
##1/3
##1/4
##10
##10%
##10(
##10)
##10),
##10).
##10,
##10,11
##10-
##10.
##10.0
##10.5
##10/
##100
##100%
##100)
##100,
##1000
##100}
##101
##1010
##102
##103
##104
##105
##106
##107
##1073
##108
##109
##10]
##10],
##10].
##10‐
##10–
##10−
##11
##11(
##11)
##11),
##11).
##11+
##11,
##11,12
##11-
##11.
##11.0
##11.1
##11.2
##11.3
##11.4
##11.5
##11.6
##11.7
##11.8
##11.9
##11/2
##110
##1100
##110}
##110⟩
##111
##111)
##1111
##111}
##112
##113
##114
##115
##116
##117
##118
##119
##11]
##11].
##11−
##12
##12(
##12)
##12),
##12).
##12+
##12,
##12,13
##12-
##12.
##12.0
##12.1
##12.2
##12.3
##12.4
##12.5
##12.6
##12.7
##12.8
##12.9
##12/
##120
##1200
##121
##122
##123
##124
##125
##126
##127
##128
##129
##12:
##12=
##12[
##12]
##12].
##12‐
##12–
##12−
##13
##13(
##13)
##13),
##13).
##13,
##13,14
##13-
##13.
##13.0
##13.2
##13.3
##13.4
##13.5
##13.6
##13.7
##13.8
##13/2
##130
##1300
##131
##132
##133
##134
##135
##136
##137
##138
##139
##13]
##13].
##14
##14)
##14),
##14).
##14,
##14,15
##14-
##14.
##14.0
##14.1
##14.5
##140
##1400
##141
##142
##143
##144
##145
##146
##147
##148
##149
##14]
##14].
##15
##15)
##15),
##15).
##15,
##15,16
##15-
##15.
##15.0
##15.5
##15/2
##150
##1500
##152
##153
##154
##155
##156
##157
##158
##159
##15]
##15].
##16
##16)
##16),
##16).
##16,
##16,17
##16-
##16.
##16.0
##16.5
##16/
##160
##1600
##162
##163
##164
##165
##166
##167
##168
##169
##16]
##16].
##17
##17)
##17),
##17).
##17,
##17,18
##17.0
##17.5
##170
##172
##173
##174
##175
##176
##177
##178
##179
##18
##18)
##18),
##18).
##18,
##18,19
##18-
##18.0
##180
##183
##184
##185
##186
##187
##188
##189
##18]
##19
##19)
##19,
##19,20
##190
##192
##193
##194
##195
##196
##197
##198
##199
##1:
##1;
##1<
##1=
##1=(
##1=1
##1=2
##1=−
##1[
##1]
##1],
##1].
##1|
##1}
##1±
##1×
##1‐
##1–
##1–1
##1–2
##1–3
##1–4
##1–5
##1–6
##1–7
##1′
##1′,
##1′-
##1→
##1∂
##1−
##1−(
##1−1
##1−2
##1∕
##1∕2
##1∣
##1≤
##1⊗
##1⋯
##1⟩
##1〉
##1
##2
##2%
##2(
##2(0)
##2(1
##2(1)
##2(1+
##2(1−
##2(2
##2(2)
##2(3
##2(3)
##2(4)
##2)
##2)(
##2))
##2)+
##2),
##2).
##2)/
##2)2
##2)2(
##2)2]
##2)3
##2)4
##2):
##2);
##2)=
##2)]
##2)−
##2*
##2+
##2+(
##2+)
##2+,
##2+-
##2+.
##2+/
##2+1
##2+2
##2+3
##2+4
##2+]
##2+–
##2,
##2,(
##2,...,
##2,3
##2,3-
##2,33
##2,43
##2,53
##2-
##2.
##2.(
##2..
##2.0
##2.00
##2.1
##2.2
##2.3
##2.4
##2.5
##2.6
##2.7
##2.8
##2.9
##2/
##2/(
##2/2
##2/3
##2/3)
##20
##20%
##20)
##20),
##20).
##20,
##20,21
##20-
##20.
##20.0
##20/
##200
##200,
##2000
##201
##202
##203
##204
##205
##206
##207
##208
##209
##20]
##21
##21(
##21)
##21+
##21,
##21.
##21.0
##21.1
##21.2
##21.3
##21.4
##21.5
##21.6
##21.7
##21.8
##21.9
##21/
##210
##2100
##211
##212
##213
##214
##215
##216
##218
##21]
##21].
##21−
##22
##22(
##22)
##22),
##22+
##22,
##22.
##22.0
##22.5
##220
##2200
##221
##222
##223
##224
##225
##226
##227
##228
##229
##22]
##22].
##22−
##23
##23)
##23,
##230
##231
##232
##233
##234
##235
##236
##237
##238
##239
##23]
##23].
##24
##24)
##24,
##240
##243
##244
##245
##246
##247
##248
##249
##24]
##24].
##25
##25(
##25)
##25,
##25,26
##25.
##250
##2500
##253
##254
##255
##256
##257
##258
##25]
##25].
##26
##26,
##260
##264
##265
##266
##27
##27)
##27,
##27,28
##270
##273
##275
##278
##28
##28)
##28,
##28,29
##280
##284
##285
##286
##288
##29
##29)
##29,
##29,30
##290
##293
##294
##295
##296
##298
##2:
##2;
##2<
##2=
##2=(
##2=0
##2=0,
##2=0.
##2=1
##2=2
##2=−
##2>
##2@
##2[
##2]
##2]+
##2],
##2].
##2_
##2{
##2|
##2}
##2·
##2·6
##2×
##2‐
##2–
##2–1
##2–3
##2–4
##2–5
##2–7
##2•
##2′
##2′,
##2′-
##2′‐
##2′′
##2⁡
##2→
##2∂
##2∑
##2−
##2−(
##2−)
##2−,
##2−1
##2−1)
##2−2
##2−4
##2∕
##2∣
##2∫
##2≈
##2≤
##2⋅
##2⋯
##2⟨
##2⟩
##2〉
##2
##3
##3%
##3(
##3(3)
##3)
##3)(
##3)+
##3),
##3).
##3)2
##3)2(
##3)2),
##3)2,
##3)2]
##3)2·
##3)2·6
##3)3
##3)3),
##3)3·
##3)4
##3)4]
##3):
##3);
##3)]
##3)–
##3)−
##3+
##3+(
##3+)
##3+,
##3+-
##3+.
##3+/
##3+:
##3+–
##3,
##3,4
##3,4-
##3,44
##3,5-
##3-
##3.
##3.0
##3.00
##3.1
##3.2
##3.3
##3.4
##3.5
##3.6
##3.7
##3.8
##3.9
##3/
##3/2
##3/2)
##3/2,
##30
##30)
##30,
##300
##3000
##301
##303
##304
##305
##308
##30°
##31
##31)
##31,
##31.0
##31.5
##310
##311
##312
##316
##31].
##32
##32)
##32,
##32.5
##32.8
##320
##32−
##33
##33)
##33,
##330
##333
##335
##336
##34
##34,
##342
##344
##34].
##35
##35,
##350
##355
##356
##36
##36,
##360
##365
##37
##37,
##38
##38,
##39
##39)
##39,
##39/
##3:
##3;
##3=
##3@
##3[
##3]
##3],
##3].
##3|
##3}
##3·
##3·6
##3×
##3‐
##3–
##3–3
##3–5
##3′
##3′,
##3′-
##3′‐
##3−
##3−,
##3∕
##3∕2
##3⋅
##3
##4
##4%
##4(
##4)
##4)(
##4),
##4).
##4)2
##4)3
##4)6
##4);
##4+
##4+,
##4,
##4,35
##4,4
##4,45
##4,4′-
##4,4′‐
##4,5
##4,5,
##4,5-
##4,5‐
##4,6-
##4,6‐
##4-
##4.
##4.0
##4.00
##4.1
##4.2
##4.3
##4.4
##4.5
##4.6
##4.7
##4.8
##4.9
##4/
##40
##40)
##40,
##400
##4000
##405
##406
##40]
##41
##41,
##42
##42,
##420
##42–
##42−
##43
##43−
##44
##44,
##45
##45,
##450
##453
##455
##456
##45°
##46
##47
##48
##480
##488
##49
##4:
##4;
##4=
##4@
##4[
##4]
##4],
##4].
##4}
##4·
##4‐
##4–
##4–3
##4–7
##4′
##4−
##4−,
##4⋅
##5
##5%
##5(
##5)
##5),
##5).
##5)2
##5)3
##5);
##5+
##5,
##5,36
##5,46
##5,6
##5-
##5.
##5.0
##5.1
##5.2
##5.3
##5.4
##5.5
##5.6
##5.7
##5.8
##5.9
##5/
##5/2
##50
##50%
##50)
##50,
##500
##5000
##505
##50°
##51
##51,
##52
##53
##53,
##54
##549
##55
##550
##56
##57
##58
##59
##5:
##5;
##5]
##5],
##5].
##5‐
##5–
##5–3
##5–7
##5′
##5′-
##5−
##6
##6%
##6(
##6)
##6),
##6).
##6)2
##6):
##6+
##6,
##6,27
##6,37
##6,47
##6,7
##6-
##6-31
##6.
##6.0
##6.1
##6.2
##6.3
##6.4
##6.5
##6.6
##6.7
##6.8
##6.9
##6/
##60
##60)
##60,
##60-
##60.
##60/
##600
##61
##62
##63
##63/
##64
##65
##650
##66
##660
##67
##68
##69
##6:
##6;
##6[
##6]
##6],
##6].
##6‐
##6–
##6–3
##6−
##7
##7%
##7(
##7)
##7),
##7).
##7+
##7,
##7,38
##7,48
##7,8
##7-
##7.
##7.0
##7.1
##7.2
##7.3
##7.4
##7.5
##7.6
##7.7
##7.8
##7.9
##7/
##7/2
##70
##70,
##700
##71
##719
##72
##73
##74
##75
##750
##76
##77
##78
##79
##7:
##7;
##7]
##7],
##7].
##7‐
##7–
##7−
##8
##8%
##8(
##8)
##8),
##8).
##8+
##8,
##8,39
##8,49
##8,9
##8-
##8.
##8.0
##8.1
##8.2
##8.3
##8.4
##8.5
##8.6
##8.7
##8.8
##8.9
##8/
##80
##80)
##80,
##800
##81
##82
##83
##84
##85
##850
##86
##87
##88
##89
##8:
##8;
##8]
##8],
##8].
##8‐
##8–
##8−
##9
##9%
##9%)
##9(
##9)
##9),
##9).
##9,
##9,10
##9,40
##9,50
##9-
##9.
##9.0
##9.1
##9.2
##9.3
##9.4
##9.5
##9.6
##9.7
##9.8
##9.9
##9/
##9/2
##90
##90%
##90,
##900
##90°
##91
##92
##929
##93
##94
##95
##95%
##96
##97
##98
##99
##9;
##9]
##9],
##9].
##9‐
##9–
##9–1
##:
##:(
##:(1)
##://
##:0
##:1
##:1)
##:1).
##:1,
##:1.
##:10
##:15
##:2
##:20
##:3
##:30
##:4
##:5
##:50
##:6
##:=
##:[
##;
##;(
##=
##=(
##=(1
##=(1−
##=(2
##=+
##=-
##=0
##=0)
##=0),
##=0).
##=0,
##=0,(
##=0.
##=0.0
##=0.00
##=0.01
##=0.05
##=0.1
##=0.1,
##=0.15
##=0.2
##=0.2,
##=0.25
##=0.3
##=0.4
##=0.5
##=0.5,
##=0.6
##=0.7
##=0.8
##=0.9
##=0∞
##=1
##=1)
##=1+
##=1,
##=1,...,
##=1,2,
##=1,2,...,
##=1.
##=1.0
##=1.1
##=1.2
##=1.3
##=1.4
##=1.5
##=1.6
##=1.8
##=1/
##=1/2
##=10
##=100
##=11
##=12
##=12(
##=13
##=14
##=15
##=16
##=17
##=18
##=19
##=1−
##=1∞
##=2
##=2,
##=2.
##=2.0
##=2.5
##=20
##=200
##=22
##=23
##=24
##=25
##=3
##=3,
##=30
##=300
##=32
##=35
##=4
##=4,
##=40
##=5
##=50
##=500
##=6
##=60
##=7
##=7.2
##=7.5
##=8
##=8.0
##=9
##=90
##=[
##={
##=|
##=±
##=∂
##=∇
##=∑
##=−
##=−(
##=−1
##=−12
##=−2
##=−4
##=−∂
##=−∇
##=−∑
##=∣
##=∫
##=∫0
##=⟨
##=〈
##>
##>(
##>0
##>0,
##>0.
##>1
##>1,
##>2
##>99
##><
##></
##?
##@
##A
##AA
##AAC
##AAm
##AB
##ABA
##ABC
##ABS
##AC
##AD
##ADF
##AE
##AES
##AF
##AFM
##AFS
##AG
##AH
##AI
##AIBN
##AL
##ALD
##AM
##AMP
##AMPS
##AN
##ANES
##AO
##AP
##APC
##APP
##APPENDIX
##APS
##APT
##APTES
##AQ
##AR
##AS
##ASCO
##ASP
##AT
##ATCC
##ATION
##ATP
##ATR
##ATRP
##AV
##AX
##AZ
##AZO
##Aa
##Ab
##Absorption
##Ac
##According
##Acet
##Acknowledgements
##Act
##Ad
##Additional
##Additionally
##Adsorption
##Ae
##After
##Ag
##AgCl
##AgNO
##AgNPs
##Agilent
##Ai
##Air
##Aj
##Ak
##Al
##AlAs
##AlC
##AlCl
##AlGaAs
##AlGaN
##AlH
##AlN
##AlO
##Ala
##Alder
##Aldrich
##Alfa
##Alg
##Alk
##All
##Alq
##Also
##Altern
##Although
##Am
##Amino
##Among
##Amp
##An
##Analysis
##Analytical
##And
##Ang
##Anne
##Another
##Anti
##Ap
##App
##Apparatus
##Appendix
##Application
##Ar
##Arg
##As
##AsO
##Asp
##Ass
##Assuming
##At
##Atom
##Atomic
##Au
##AuCl
##AuNP
##AuNPs
##Aut
##Av
##Average
##Ax
##Az
##Azo
##B
##BA
##BB
##BC
##BCO
##BCP
##BD
##BDC
##BDT
##BE
##BER
##BET
##BF
##BFO
##BG
##BH
##BHP
##BI
##BJ
##BJH
##BL
##BLE
##BM
##BMA
##BMIM
##BMP
##BN
##BO
##BODIPY
##BP
##BPA
##BQ
##BR
##BS
##BSA
##BSD
##BT
##BTC
##BTO
##BTS
##BV
##BZ
##Ba
##BaTiO
##Back
##Band
##Bar
##Based
##Be
##Because
##Before
##Beijing
##Benz
##Ber
##Besides
##Beta
##Bi
##BiO
##BiVO
##Binding
##Bio
##Biographical
##Bis
##Bj
##Bk
##Bl
##Blue
##Bm
##Bn
##Bo
##Boc
##Boltzmann
##Bond
##Both
##Bp
##Br
##Bruker
##Bs
##Bt
##Bu
##BuLi
##Bulk
##Burke
##But
##Butyl
##Bx
##By
##Bz
##C
##CA
##CAA
##CAC
##CAL
##CAM
##CAP
##CAS
##CASSCF
##CAT
##CB
##CBS
##CC
##CCC
##CCD
##CCH
##CCS
##CCSD
##CD
##CDA
##CDCl
##CDD
##CDI
##CDs
##CE
##CF
##CG
##CH
##CHA
##CHCH
##CHCl
##CHI
##CHO
##CI
##CIS
##CK
##CL
##CM
##CMC
##CMP
##CMs
##CN
##CNC
##CNCs
##CNF
##CNFs
##CNP
##CNPs
##CNQ
##CNS
##CNT
##CNTs
##CNs
##CO
##COCH
##COD
##COF
##COM
##CON
##CONCLUSION
##CONCLUSIONS
##CONH
##COO
##COOH
##COS
##CP
##CPD
##CPDS
##CPE
##CPP
##CPT
##CPh
##CQDs
##CR
##CS
##CSA
##CSD
##CSEL
##CST
##CSs
##CT
##CTA
##CTAB
##CTION
##CTR
##CTS
##CV
##CVD
##CW
##CX
##CY
##CZ
##Ca
##CaCO
##CaO
##Cal
##Calc
##Calculated
##Calculation
##Cam
##Car
##Carbon
##Cas
##Case
##Cat
##Catalyst
##Catalytic
##Catalyzed
##Cb
##Cc
##Cd
##CdS
##CdSe
##CdTe
##Ce
##CeO
##Cell
##Cf
##Cg
##Ch
##ChE
##Chan
##Characteristic
##Characterization
##Charge
##Chem
##Chemical
##China
##Chlor
##Ci
##Ck
##Cl
##ClO
##Clx
##Cm
##Cn
##Co
##CoA
##CoFe
##CoO
##Col
##Cole
##Color
##Com
##Comb
##Combining
##Comp
##Compared
##Comparing
##Comparison
##Complex
##Composition
##Compound
##Computational
##Con
##Concentration
##Conclusion
##Conclusions
##Condon
##Conf
##Conflicts
##Consid
##Consider
##Considering
##Cont
##Contact
##Control
##Conv
##Conversion
##Cor
##Correlation
##Cox
##Cp
##Cq
##Cr
##CrO
##Crafts
##Cross
##Crystal
##Crystall
##Cs
##Ct
##Cu
##CuBr
##CuCl
##CuI
##CuII
##CuO
##CuPc
##CuS
##Cur
##Current
##Cx
##Cy
##Cyclic
##Cys
##Cyt
##Cz
##D
##DA
##DAC
##DAP
##DB
##DBT
##DC
##DCB
##DCE
##DCM
##DCP
##DD
##DDS
##DE
##DEA
##DEG
##DES
##DETA
##DF
##DFT
##DG
##DH
##DI
##DISCUSSION
##DL
##DLC
##DLS
##DM
##DMA
##DMAC
##DMAP
##DMC
##DME
##DMEM
##DMF
##DMS
##DMSO
##DN
##DNA
##DO
##DOM
##DOS
##DOT
##DOTA
##DOX
##DP
##DPA
##DPH
##DPP
##DR
##DS
##DSC
##DSSCs
##DT
##DTA
##DTBT
##DTD
##DTPA
##DTT
##DV
##DVB
##DW
##DZ
##Da
##Data
##De
##Dec
##Def
##Definition
##Del
##Delta
##Density
##Dep
##Dependence
##Der
##Des
##Design
##Despite
##Det
##Detection
##Determination
##Determined
##Device
##Di
##Dielectric
##Diff
##Different
##Differential
##Dimethyl
##Dirac
##Direct
##Dis
##Discussion
##Distribution
##Dm
##Dn
##Do
##Dox
##Dr
##Ds
##Dt
##Du
##Due
##During
##Dx
##Dy
##Dynamic
##E
##EA
##EAM
##EAR
##EB
##EC
##ECM
##ECs
##ED
##EDA
##EDC
##EDF
##EDS
##EDTA
##EDX
##EE
##EELS
##EF
##EG
##EGF
##EGFR
##EGMA
##EH
##EI
##EIS
##EK
##EL
##EM
##EMA
##EMD
##EMENT
##EMIM
##EMS
##EN
##ENT
##EO
##EOL
##EOM
##EP
##EPDM
##EPR
##EQ
##EQE
##ER
##ERI
##ERICAL
##ERS
##ES
##ESEM
##ESI
##ESR
##ESS
##EST
##ESY
##ET
##EV
##EVA
##EW
##EX
##EXAFS
##EXPERIMENT
##EXPERIMENTAL
##Ea
##Each
##Ear
##Eb
##Ec
##Ed
##Ee
##Ef
##Eff
##Effect
##Effective
##Effects
##Eg
##Eh
##Ei
##Einstein
##Eint
##Ej
##Ek
##El
##Elect
##Electrical
##Electro
##Electrochemical
##Electron
##Electronic
##Elmer
##Em
##Emission
##Emmet
##Emmett
##En
##End
##Energy
##Enhanced
##Ent
##Entry
##Ep
##Eq
##Eqs
##Equ
##Equation
##Equations
##Er
##Ernzerhof
##Es
##Estim
##Estimated
##Et
##EtOAc
##EtOH
##Eth
##Ethyl
##Eu
##Ev
##Evaluation
##Even
##Evolution
##Ex
##Example
##Exc
##Exp
##Experim
##Experiment
##Experimental
##Experiments
##Expt
##Ext
##Ey
##Ez
##F
##FA
##FAB
##FB
##FBS
##FC
##FCs
##FD
##FDA
##FE
##FEI
##FEM
##FESEM
##FET
##FETs
##FF
##FFT
##FG
##FH
##FI
##FIB
##FIG
##FITC
##FL
##FM
##FN
##FO
##FP
##FR
##FRET
##FS
##FT
##FTIR
##FTO
##FTs
##FU
##FWHM
##Fa
##Fabrication
##Fc
##Fe
##FeB
##FeCl
##FeCo
##FeII
##FeIII
##FeO
##FeOOH
##FePO
##FeS
##FeSi
##Fer
##Fermi
##Fi
##Field
##Fig
##Figs
##Figure
##Figures
##Film
##Finally
##First
##Fisher
##Fl
##Flow
##Flu
##Fluor
##Fluorescence
##Fm
##Fn
##Fo
##Fock
##Following
##For
##Form
##Formation
##Four
##Fourier
##Fr
##Free
##Frequency
##From
##Fs
##Ful
##Further
##Furthermore
##G
##GA
##GB
##GC
##GCE
##GCG
##GD
##GE
##GEBA
##GF
##GFP
##GG
##GGA
##GH
##GI
##GL
##GM
##GMA
##GN
##GNP
##GNPs
##GNR
##GNRs
##GNS
##GO
##GP
##GPC
##GPa
##GQDs
##GR
##GS
##GSH
##GT
##GW
##GY
##Ga
##GaAs
##GaN
##GaO
##GaP
##GaSb
##Gal
##Gas
##Gaussian
##Gd
##GdF
##Ge
##GeO
##Gel
##Gener
##General
##Generally
##Germ
##Germany
##Gi
##Gib
##Given
##Gl
##Glass
##Glc
##Glu
##Gly
##Gn
##Gold
##Gr
##Gra
##Grant
##Graph
##Graphene
##Gre
##Green
##Group
##Growth
##Gs
##Gu
##Gy
##H
##HA
##HAADF
##HAP
##HAp
##HB
##HC
##HCF
##HCO
##HCl
##HD
##HDPE
##HE
##HEM
##HEMA
##HER
##HF
##HFP
##HG
##HH
##HI
##HK
##HL
##HM
##HMDS
##HMF
##HMW
##HMWPE
##HN
##HNO
##HO
##HOD
##HODS
##HOMO
##HP
##HPC
##HPLC
##HPO
##HQ
##HR
##HRMS
##HRP
##HRTEM
##HS
##HSA
##HSO
##HSV
##HT
##HV
##HY
##Ha
##Hal
##Halenda
##Hall
##Har
##Hard
##Having
##Hb
##Hc
##He
##Heat
##Hel
##Hence
##Here
##Herein
##Hex
##Hf
##HfO
##Hg
##Hi
##High
##His
##Hist
##Hitachi
##Hk
##Hm
##Hn
##Ho
##However
##Hp
##Hs
##Hug
##Huggins
##Hx
##Hy
##Hydro
##Hydrogen
##Hydroxy
##Hz
##I
##IA
##IB
##IBN
##IBs
##IC
##ICA
##ICAL
##ICP
##ID
##IE
##IF
##IG
##IGS
##IGZO
##II
##III
##IJ
##IL
##ILS
##ILs
##IM
##IMA
##IMD
##IMENT
##IN
##ING
##INT
##INTRODUCTION
##IO
##ION
##IONAL
##IP
##IPA
##IPN
##IPY
##IPr
##IR
##IRE
##IS
##ISA
##ISE
##ISM
##IT
##ITC
##ITO
##ITY
##IV
##IVE
##IX
##Ia
##Ib
##Ic
##Id
##If
##Ig
##Ii
##Ill
##Im
##Image
##Imp
##Impact
##In
##InAs
##InGaAs
##InN
##InP
##Inc
##Ind
##Inf
##Influence
##Ini
##Initial
##Instrum
##Int
##Integ
##Inter
##Interestingly
##Introduction
##Investig
##Invitrogen
##Ion
##Ip
##Ir
##IrO
##Is
##Isolated
##It
##J
##JA
##JC
##JCPDS
##JEOL
##JH
##JHH
##JK
##JM
##JP
##JSC
##JT
##Japan
##Jc
##Ji
##Jm
##Jn
##Jo
##Jones
##Joyner
##Js
##Jsc
##Jz
##K
##KA
##KB
##KBr
##KCl
##KD
##KE
##KF
##KG
##KH
##KI
##KK
##KL
##KM
##KN
##KO
##KOH
##KP
##KR
##KS
##KT
##Ka
##Kc
##Kd
##Ke
##Ki
##Kinetic
##Km
##Kn
##Kr
##Ks
##L
##LA
##LAB
##LAR
##LAS
##LB
##LC
##LD
##LDA
##LDH
##LDHs
##LDI
##LDPE
##LE
##LED
##LEDs
##LEX
##LF
##LG
##LH
##LI
##LIBs
##LJ
##LL
##LLA
##LM
##LN
##LO
##LOD
##LP
##LR
##LS
##LSM
##LT
##LU
##LUMO
##LV
##LY
##LYP
##La
##Lab
##Lag
##Land
##Landau
##Large
##Laser
##Lattice
##Lc
##Le
##Left
##Lemma
##Let
##Leu
##Li
##LiCl
##LiF
##Life
##Light
##Lim
##Linear
##Lip
##Liquid
##Ln
##Lo
##Local
##Log
##Long
##Lorentz
##Low
##Lp
##Ls
##Lu
##Lx
##Ly
##Lys
##Lz
##M
##MA
##MAA
##MAEMA
##MAH
##MAL
##MALDI
##MAM
##MAO
##MAP
##MAS
##MAT
##MAX
##MB
##MBA
##MBE
##MC
##MCC
##MCD
##MCM
##MD
##ME
##MEA
##MET
##MF
##MFI
##MG
##MH
##MHD
##MHz
##MI
##MIC
##MIL
##MIM
##MIP
##MJ
##ML
##MLCT
##MM
##MMA
##MMARY
##MMT
##MN
##MNPs
##MO
##MOD
##MODEL
##MOF
##MOFs
##MOS
##MOs
##MP
##MPA
##MPC
##MPD
##MPS
##MPU
##MPa
##MR
##MRI
##MS
##MSA
##MSC
##MSCs
##MSN
##MSNs
##MSO
##MSOL
##MSS
##MSs
##MT
##MTT
##MV
##MW
##MWCNT
##MWCNTs
##MWNT
##MWNTs
##MX
##Ma
##Mac
##Magnetic
##Mal
##Malvern
##Man
##Many
##Mar
##Mark
##Markovian
##Mart
##Mass
##Mat
##Material
##Materials
##Max
##Maximum
##Maxwell
##Mb
##Mc
##Me
##MeC
##MeCN
##MeO
##MeOH
##Mean
##Measure
##Measured
##Measurement
##Measurements
##Mechan
##Mechanical
##Mechanism
##Med
##Membrane
##Mer
##Merck
##Mes
##Met
##Metal
##Method
##Methods
##Methyl
##Mg
##MgAl
##MgCl
##MgO
##Mi
##Mic
##Michael
##Micro
##Microstructure
##Millipore
##Min
##Miyaura
##Mn
##MnO
##Mo
##MoO
##MoS
##Mod
##Mode
##Model
##Molecular
##Mon
##Mor
##More
##Moreover
##Morphology
##Most
##Mr
##Ms
##Mt
##Multi
##Mw
##My
##N
##NA
##NAL
##NALY
##NALYSIS
##NAP
##NAc
##NAs
##NB
##NBR
##NC
##NCE
##NCH
##NCLU
##NCLUSION
##NCO
##NCS
##NCs
##ND
##NDI
##NE
##NEt
##NF
##NFs
##NG
##NH
##NHC
##NHS
##NI
##NIPA
##NIPAAm
##NIPAM
##NIPAm
##NIR
##NK
##NL
##NM
##NMP
##NMR
##NMe
##NN
##NO
##NOL
##NOM
##NOS
##NOVA
##NP
##NPC
##NPs
##NR
##NRs
##NS
##NSs
##NT
##NTA
##NTR
##NTRODUCTION
##NTf
##NTs
##NUMERICAL
##NV
##NW
##NWs
##Na
##NaCl
##NaO
##NaOH
##NaYF
##Nafion
##Nan
##Nano
##Nat
##Nb
##NbO
##Nc
##Nd
##Ne
##Net
##New
##Newtonian
##Next
##Nf
##Ng
##Ni
##NiCo
##NiFe
##NiO
##Nk
##Nm
##Nn
##No
##Non
##None
##Norm
##Normalized
##Not
##Note
##Now
##Np
##Ns
##Nt
##Number
##Numerical
##Nx
##Ny
##O
##OA
##OAc
##OB
##OC
##OCH
##OCO
##OCl
##OD
##ODA
##ODIPY
##ODUCTION
##OER
##OES
##OEt
##OF
##OFF
##OG
##OH
##OK
##OL
##OLEDs
##OM
##OMe
##OMeTAD
##ON
##ONO
##ONa
##OO
##OOH
##OP
##OR
##ORR
##OS
##OSS
##OT
##OTf
##OV
##OX
##Ob
##Obser
##Oct
##Oe
##Of
##OiPr
##Olympus
##On
##Once
##One
##Op
##Oppenheimer
##Optical
##Optim
##Optimization
##Or
##Organ
##Organic
##Orig
##Original
##Os
##OtBu
##Other
##Our
##Out
##Over
##Overall
##Ox
##Oxygen
##Oy
##P
##PA
##PAA
##PAAm
##PAC
##PAGE
##PAH
##PAM
##PAMAM
##PAN
##PANI
##PAS
##PAW
##PB
##PBA
##PBE
##PBI
##PBS
##PBT
##PC
##PCA
##PCBM
##PCE
##PCL
##PCM
##PCR
##PCS
##PCs
##PD
##PDA
##PDB
##PDF
##PDH
##PDI
##PDM
##PDMAEMA
##PDMS
##PDT
##PE
##PEA
##PEC
##PEDOT
##PEEK
##PEG
##PEGMA
##PEI
##PEM
##PEN
##PEND
##PENDIX
##PEO
##PER
##PERIMENT
##PES
##PET
##PEX
##PEs
##PF
##PG
##PGA
##PH
##PI
##PIC
##PK
##PL
##PLA
##PLC
##PLD
##PLE
##PLGA
##PLL
##PLLA
##PLS
##PLs
##PM
##PMA
##PMMA
##PMN
##PMe
##PN
##PNIPAM
##PO
##POM
##POP
##POSS
##PP
##PPA
##PPE
##PPO
##PPS
##PPV
##PPh
##PPy
##PQ
##PR
##PRO
##PS
##PSA
##PSC
##PSCs
##PSD
##PSF
##PSS
##PSi
##PSs
##PT
##PTFE
##PTMS
##PTS
##PTT
##PTX
##PU
##PV
##PVA
##PVC
##PVDF
##PVP
##PW
##PXRD
##PY
##PZ
##PZT
##Pa
##Pack
##Pad
##Par
##Parameter
##Parameters
##Particle
##Pb
##PbBr
##PbI
##PbO
##PbTiO
##Pc
##Pd
##PdCl
##Pe
##Peak
##Per
##Performance
##Perkin
##Perot
##Pert
##Pf
##Ph
##Phase
##Phe
##Phen
##Phenyl
##Phos
##Phot
##Photo
##Photocatalytic
##Phys
##Physical
##Pi
##Pj
##Pk
##Pl
##Planck
##Plasma
##Plot
##Pm
##Pn
##Po
##Poisson
##Pol
##Poly
##Polymer
##Polymerization
##Por
##Pore
##Potential
##Power
##Pr
##Pre
##Preparation
##Present
##Pressure
##Previous
##Pro
##Procedure
##Product
##Prof
##Proof
##Prop
##Proper
##Proposition
##Protein
##Ps
##Pt
##PtCl
##Pu
##Pure
##Px
##Py
##Pyr
##Pz
##Q
##QA
##QC
##QD
##QDs
##QE
##QM
##QP
##QR
##QS
##QT
##QU
##QUID
##QW
##QY
##QZ
##Qi
##Qs
##Qu
##Quantum
##R
##RA
##RAFT
##RAM
##RAS
##RB
##RC
##RD
##RDE
##RE
##RES
##RESULTS
##RF
##RG
##RGD
##RGO
##RH
##RHE
##RI
##RIFT
##RL
##RM
##RMS
##RN
##RNA
##RNAs
##RO
##ROS
##RP
##RPA
##RR
##RS
##RSD
##RT
##RTEP
##RY
##Ra
##Rad
##Radi
##Raman
##Ratio
##Ray
##Rb
##Rc
##Rct
##Rd
##Re
##Reaction
##Real
##Rec
##Recent
##Recently
##Red
##Ref
##Reference
##Refs
##Reg
##Regarding
##Rel
##Relative
##Rem
##Remark
##Rep
##Res
##Results
##Ret
##Rf
##Rg
##Rh
##RhB
##Ri
##Rigaku
##Rj
##Rk
##Rm
##Rn
##Ro
##Room
##Rp
##Rs
##Rt
##Ru
##RuCl
##RuO
##Run
##S
##SA
##SAED
##SAM
##SAR
##SAT
##SAXS
##SB
##SBA
##SBET
##SBR
##SC
##SCA
##SCE
##SCF
##SCH
##SCN
##SCR
##SCUS
##SCUSSION
##SCs
##SD
##SDS
##SE
##SEC
##SEI
##SEM
##SERS
##SF
##SG
##SH
##SI
##SIC
##SIM
##SIMS
##SION
##SIS
##SK
##SL
##SM
##SMA
##SN
##SNR
##SO
##SOC
##SOI
##SP
##SPE
##SPI
##SPM
##SPR
##SPS
##SQ
##SQUID
##SR
##SS
##SSA
##SSE
##ST
##STEM
##STM
##STO
##STR
##SU
##SUMMARY
##SV
##SW
##SWCNT
##SWCNTs
##SWNT
##SWNTs
##SY
##SZ
##Sa
##Sal
##Same
##Sample
##Samples
##Sb
##SbF
##Sc
##Scanning
##Sch
##Schematic
##Scheme
##Schottky
##Se
##SeO
##Sec
##Second
##Section
##See
##Self
##Ser
##Set
##Several
##Sh
##Sham
##Shanghai
##She
##Shimadzu
##Si
##SiC
##SiCl
##SiGe
##SiH
##SiMe
##SiN
##SiO
##SiOx
##SiW
##Sigma
##Sil
##Silic
##Sim
##Similar
##Similarly
##Simulated
##Simulation
##Sin
##Since
##Single
##Size
##Sj
##Sk
##Sl
##Sm
##Small
##Sn
##SnI
##SnO
##SnS
##So
##Sol
##Solid
##Solubility
##Solution
##Solvent
##Some
##Source
##Sp
##Spa
##Space
##Spec
##Specific
##Spect
##Spectra
##Spectral
##Spin
##Sr
##SrTiO
##Ss
##St
##Stability
##Standard
##Star
##State
##Statistical
##Ste
##Step
##Stokes
##Strain
##Stre
##Structural
##Structure
##Stu
##Study
##Su
##Sub
##Substituting
##Substrate
##Such
##Summary
##Super
##Supp
##Supplementary
##Supporting
##Sur
##Surface
##Sx
##Sy
##Syn
##Synthesis
##System
##Sz
##T
##TA
##TAA
##TAB
##TABLE
##TAC
##TAD
##TAP
##TAR
##TAT
##TATIONAL
##TB
##TBA
##TC
##TCNQ
##TCP
##TD
##TDDFT
##TE
##TEA
##TEG
##TEM
##TEMPO
##TENG
##TEOS
##TES
##TF
##TFA
##TFSI
##TG
##TGA
##TH
##THE
##THEOR
##THF
##THz
##TI
##TION
##TIONS
##TL
##TM
##TMA
##TMC
##TMP
##TMS
##TN
##TNT
##TO
##TOF
##TON
##TOR
##TP
##TPA
##TPB
##TPD
##TPE
##TPP
##TPR
##TPU
##TR
##TRA
##TRACT
##TS
##TT
##TTF
##TU
##TV
##TW
##TY
##TZ
##TZVP
##Ta
##TaO
##Table
##Tables
##Taking
##Taylor
##Tb
##Tc
##Td
##Te
##TeO
##Teller
##Temp
##Temperature
##Tensile
##Ter
##Test
##Tetra
##Tf
##Tg
##Th
##The
##Then
##Theore
##Theorem
##Theoretical
##Theory
##Ther
##There
##Therefore
##Therm
##Thermal
##Thermo
##These
##Thickness
##This
##Three
##Through
##Thus
##Ti
##TiC
##TiCl
##TiN
##TiO
##Time
##Tl
##Tm
##Tmax
##Tn
##To
##Tokyo
##Tol
##Toluene
##Top
##Total
##Tp
##Tr
##TrFE
##Tran
##Trans
##Transition
##Transmission
##Tre
##Tri
##Trp
##Ts
##Tw
##Two
##Tx
##Typ
##Type
##Typical
##Tyr
##Tz
##U
##UA
##UB
##UC
##UCT
##UCTION
##UD
##UF
##UK
##UL
##ULA
##ULATION
##ULTS
##UM
##UMERICAL
##UN
##UO
##UP
##UR
##URE
##US
##USA
##UST
##USY
##UT
##UV
##UVs
##Ui
##UiO
##Ul
##Ultra
##Un
##Under
##Up
##Upon
##Us
##Using
##V
##VA
##VANCE
##VASP
##VB
##VBM
##VC
##VCH
##VD
##VDF
##VDZ
##VE
##VF
##VG
##VGS
##VH
##VI
##VII
##VIII
##VIS
##VL
##VM
##VN
##VO
##VOC
##VP
##VPE
##VR
##VS
##VSM
##VT
##VTZ
##VV
##Va
##Vac
##Val
##Value
##Values
##Vari
##Variation
##Various
##Vb
##Vc
##Vd
##Ve
##Ver
##Vf
##Vg
##Vi
##Vis
##Visible
##Vm
##Vn
##Vo
##Voc
##Vol
##Volmer
##Volume
##Vp
##Vs
##Vt
##Vth
##W
##WA
##WAXS
##WB
##WC
##WCNT
##WCNTs
##WD
##WE
##WF
##WG
##WHM
##WI
##WL
##WM
##WN
##WO
##WP
##WR
##WS
##WT
##WW
##Wall
##Water
##Wave
##We
##Weight
##Weiss
##Wh
##What
##When
##Where
##While
##Wi
##With
##Within
##Work
##Ws
##X
##XA
##XAS
##XB
##XC
##XD
##XI
##XL
##XM
##XPS
##XR
##XRD
##XRF
##XS
##XX
##XY
##XZ
##Xc
##Xe
##Xi
##Xj
##Xn
##Xs
##Y
##YAG
##YF
##YP
##YS
##YSZ
##Yb
##Yes
##Yield
##Young
##Z
##ZA
##ZATION
##ZF
##ZFC
##ZIF
##ZO
##ZP
##ZS
##ZSM
##ZT
##ZVI
##ZZ
##Ze
##Zi
##Zn
##ZnCl
##ZnO
##ZnS
##ZnSe
##Zr
##ZrO
##Zs
##[
##[(
##[0,
##[1
##[1+
##[1,
##[1,2-
##[1]
##[1−
##[2
##[2,
##[2]
##[3
##[3,
##[4
##[4]
##[5]
##[6]
##[7]
##[8]
##[∂
##[∑
##[−
##[−(
##\
##\,
##]
##]${{
##]${{{
##](
##])
##]),
##]).
##]+
##]+,
##]+.
##]+:
##]+;
##]+[
##],
##],(
##]-
##].
##].(
##]/
##]/[
##]0
##]0/[
##]1
##]2
##]2+
##]3
##]4
##]5
##]:
##];
##]=
##]=[
##][
##]}
##]­
##]­[
##]‐
##]−
##]−1
##^
##^(
##^,
##^2
##^\
##^{
##^{\
##a
##aR
##aS
##aThe
##aa
##ab
##abase
##abatic
##abc
##abe
##abic
##abicyclo
##abil
##abilities
##ability
##abilization
##abin
##able
##ables
##ably
##abol
##abolic
##abor
##about
##above
##abric
##abricated
##abrication
##abs
##absorb
##absorbing
##absorption
##abundant
##ac
##acac
##acc
##accel
##accepting
##acceptor
##acchar
##accharide
##accharides
##accum
##ace
##aced
##acement
##acene
##acent
##aceous
##acer
##aces
##acet
##acetal
##acetamide
##acetate
##acetic
##acetonate
##acetone
##acetonitrile
##acetyl
##acetylation
##acetylene
##aceu
##aceutical
##ach
##ached
##aches
##achi
##aching
##achlor
##achment
##acial
##acian
##acid
##acids
##acies
##acil
##acillus
##acin
##acing
##acity
##ack
##acker
##acket
##acking
##acks
##aclit
##aclitaxel
##aco
##acob
##acol
##acoustic
##acryl
##acrylamide
##acrylate
##acrylates
##acrylic
##acrylonitrile
##acryloyl
##act
##acted
##acter
##acteria
##acterial
##acters
##actic
##actide
##actile
##actin
##acting
##action
##actions
##activ
##activated
##activation
##active
##activity
##actone
##actor
##actors
##acy
##acycl
##acycle
##acyl
##ad
##ada
##adaic
##adapted
##aday
##adays
##add
##added
##adder
##addin
##adding
##addition
##additive
##addle
##ade
##adec
##adecane
##adecyl
##aded
##adem
##ademic
##aden
##adequ
##ader
##ades
##adhesive
##adi
##adiabatic
##adiazole
##adic
##adiene
##adienyl
##adily
##ading
##adium
##adj
##adjoint
##ado
##adolinium
##adro
##ads
##adsorb
##adsorbed
##adsorption
##advant
##ady
##ae
##ael
##aer
##aerobic
##aev
##af
##afel
##aff
##affe
##affected
##affin
##affinity
##afn
##aft
##after
##ag
##age
##aged
##agel
##agen
##agenesis
##agent
##ager
##ages
##aggreg
##aggregate
##aggregates
##aggregation
##aging
##agle
##agn
##agner
##agnet
##agneti
##agnetic
##agnetically
##agnetism
##agnetization
##agnets
##ago
##agome
##agon
##agonal
##agons
##agram
##agraph
##ah
##ahertz
##ahn
##ai
##aid
##aign
##ail
##ailed
##ails
##aim
##ain
##aine
##ained
##aining
##ains
##aint
##air
##aired
##aj
##ajor
##ak
##aka
##ake
##aked
##akef
##aken
##aker
##akers
##akes
##aki
##aking
##akis
##ako
##aku
##al
##alanine
##alar
##alase
##alc
##alcogen
##alcoh
##alcohol
##ald
##aldehyde
##ale
##aled
##alent
##ales
##alg
##algebra
##ali
##align
##aligned
##alignment
##alin
##aline
##aling
##alities
##ality
##alization
##alized
##alk
##alkane
##alkanes
##alkene
##alkenes
##alkoxy
##alks
##alkyl
##alkylation
##alkyne
##alkynyl
##all
##allad
##alladium
##allation
##alle
##alled
##allel
##allen
##allic
##alling
##allium
##allo
##allow
##allowed
##alloy
##alloyed
##alloying
##alloys
##alls
##ally
##allyl
##alog
##alone
##along
##alpha
##als
##alse
##also
##alt
##altered
##alth
##altham
##although
##alu
##alumin
##alumina
##aluminum
##aly
##alysed
##alysis
##alyst
##alysts
##alytic
##alytical
##alyzed
##am
##ama
##aman
##amant
##amate
##amates
##amatsu
##amb
##ambda
##amber
##ambigu
##amboo
##ame
##amed
##amel
##amely
##ament
##amental
##aments
##amer
##amers
##ames
##ameter
##ameters
##amethyl
##ami
##amic
##amid
##amide
##amides
##amido
##amil
##amiltonian
##amily
##amin
##aminated
##amination
##amine
##amines
##aming
##amino
##aminobenz
##aminopropyl
##aminopyridine
##amm
##amma
##ammal
##ammalian
##ammet
##ammonium
##amond
##amorphous
##amoto
##amoyl
##amp
##amped
##amping
##ampl
##ample
##amples
##amplifier
##ampling
##amplitude
##ams
##amycin
##amyl
##an
##ana
##anal
##analy
##analysis
##analytical
##anar
##anation
##anc
##ance
##anced
##ancer
##ances
##anch
##ancies
##ancing
##anck
##ancomycin
##ancy
##and
##andard
##anded
##andem
##ander
##andid
##anding
##ando
##andom
##ands
##ane
##aned
##anediol
##aneous
##anes
##anet
##aneth
##anethiol
##anford
##ang
##ange
##anger
##angevin
##angle
##angles
##angling
##angmu
##angmuir
##angoni
##angu
##angular
##anhydride
##ani
##anies
##anil
##aniline
##anin
##anine
##anion
##anionic
##anions
##anis
##anium
##ank
##anks
##ann
##anne
##annealed
##annealing
##annier
##anning
##ano
##anoate
##anode
##anoic
##anol
##anone
##ans
##ansen
##ansion
##ant
##anta
##antal
##antation
##anted
##anth
##anthan
##anthracene
##anti
##antile
##antilever
##anting
##antit
##antitative
##antly
##antom
##ants
##antum
##any
##anyl
##ao
##ap
##apac
##apan
##apatite
##ape
##aper
##apes
##aph
##aphrag
##aphth
##aphthal
##aphthalene
##aphthyl
##aphyl
##aphylococcus
##apid
##apillary
##apl
##apor
##app
##appa
##apped
##apphire
##apping
##approximately
##aps
##apsh
##apshots
##apsing
##apsule
##apsules
##apt
##apted
##apter
##aptic
##apto
##apunov
##aq
##aque
##aqueous
##ar
##ara
##aracter
##aracteristic
##aracterization
##aracterizations
##aratus
##arb
##arbon
##arbonate
##arbonyl
##arbonylation
##arboxyl
##arboxylate
##arboxylic
##arburg
##arc
##arch
##archit
##architecture
##arct
##arctan
##ard
##arded
##arding
##ardless
##ards
##are
##area
##ared
##arency
##arene
##arenes
##arent
##arer
##ares
##arest
##arg
##arge
##arget
##argyl
##ari
##aria
##ariate
##aric
##aries
##arily
##arin
##aring
##arison
##arith
##arithmic
##arities
##arity
##arium
##ark
##arm
##armor
##arn
##arns
##aro
##arom
##aromatic
##arose
##around
##arp
##array
##arrays
##arrow
##ars
##arse
##arser
##art
##artet
##artic
##article
##articles
##arting
##artment
##artree
##artz
##ary
##arying
##aryl
##arylation
##as
##asco
##ascular
##ase
##ased
##aseous
##aser
##ases
##ash
##ashba
##ashed
##ashes
##ashi
##ashing
##ashion
##ashira
##asi
##asic
##asing
##asis
##ask
##asks
##asma
##ason
##ass
##assay
##assays
##assed
##assemb
##assemble
##assembled
##assemblies
##assembling
##assembly
##asses
##assi
##assie
##assif
##assing
##assisted
##assium
##assivated
##assive
##associated
##association
##assuming
##ast
##aste
##asted
##aster
##astere
##astic
##astically
##asting
##astructure
##asts
##asure
##asured
##asy
##at
##ata
##atable
##atalyst
##atalysts
##atalytic
##atan
##atase
##atch
##atched
##atches
##atching
##ate
##ated
##ateg
##ately
##atent
##ater
##ateral
##aterial
##aterials
##aters
##ates
##atest
##atever
##atform
##ath
##athe
##ather
##athered
##athesis
##athin
##athione
##ati
##atial
##atic
##atical
##atically
##atidyl
##atil
##atile
##atiles
##atility
##atin
##ating
##atinum
##atio
##ation
##ational
##ationic
##ations
##ationship
##atiot
##atiotemporal
##atis
##atistical
##atistics
##atite
##ativ
##ative
##atively
##atives
##ativistic
##ativity
##atization
##atized
##atm
##atment
##ato
##atom
##atomic
##atoms
##aton
##atop
##ator
##atorial
##atories
##ators
##atory
##atos
##atri
##atrix
##ats
##atsu
##att
##attached
##atter
##attere
##attered
##attering
##attern
##atterned
##atterning
##atterns
##attery
##attice
##attices
##atum
##aturation
##ature
##atured
##atures
##aturing
##atus
##au
##auer
##aug
##auge
##ault
##aus
##ause
##ausible
##auss
##aussian
##aut
##aux
##av
##ava
##avable
##avage
##avail
##availability
##available
##ave
##aved
##aven
##aver
##average
##averaged
##aves
##avg
##avi
##avidin
##aving
##avis
##avity
##avoid
##avor
##avorable
##avy
##aw
##awa
##away
##ax
##axane
##axanes
##axation
##axed
##axel
##axes
##axial
##axially
##axis
##axter
##axy
##ay
##ayer
##ayered
##ayers
##aylor
##ays
##az
##aza
##azan
##aze
##azene
##azide
##azido
##azin
##azine
##azines
##azo
##azol
##azole
##azoles
##azolium
##azolyl
##b
##bL
##ba
##bac
##bach
##back
##background
##bacterial
##bal
##balance
##balanced
##ball
##balt
##band
##bandgap
##bands
##bar
##barrier
##bas
##base
##based
##batch
##bate
##bath
##bauer
##bb
##bc
##bd
##be
##beam
##bean
##bearing
##bec
##because
##becco
##beck
##bed
##before
##beg
##begin
##beit
##bell
##below
##bending
##bene
##benz
##benzaldehyde
##benzene
##benzo
##benzoate
##benzoic
##benzoquinone
##benzoyl
##benzyl
##benzylidene
##ber
##bered
##berg
##berry
##bers
##bert
##bes
##beta
##between
##bf
##bi
##bial
##bias
##biased
##bib
##bic
##bidden
##big
##bil
##bile
##bilities
##bility
##bin
##binding
##bing
##bio
##biotin
##bip
##biphenyl
##bipy
##bipyridine
##bis
##bit
##bits
##bium
##bj
##bk
##bl
##black
##ble
##bleaching
##blende
##bling
##block
##blocking
##blue
##bly
##bm
##bn
##bo
##board
##body
##bon
##bond
##bonded
##bonding
##bonds
##bone
##bones
##book
##bor
##borane
##borate
##boration
##born
##borne
##bornene
##boron
##boronic
##bos
##both
##bottom
##bottomed
##bound
##boundary
##bow
##box
##bp
##bpy
##br
##bra
##brafish
##bran
##branch
##branched
##bras
##bre
##break
##breaking
##brella
##brevi
##brid
##bridge
##bridged
##bridging
##bright
##bro
##broad
##broken
##brom
##bromide
##bromo
##brown
##brush
##bs
##bt
##bu
##buff
##buffered
##built
##bul
##bulk
##bumin
##bur
##burg
##burgh
##burst
##but
##butadiene
##butane
##butanol
##butene
##buty
##butyl
##butylammonium
##butylene
##bx
##by
##bye
##bz
##c
##ca
##cad
##cage
##cal
##calc
##calcd
##calculated
##cale
##cales
##calib
##called
##cam
##can
##cancer
##canonical
##cap
##capac
##capacity
##cape
##capped
##caprolactone
##caps
##car
##carb
##carbazole
##carbene
##carbodiimide
##carbon
##carbonate
##carbonyl
##carboxy
##carboxyl
##carboxylate
##carboxylic
##care
##carrier
##cas
##case
##cast
##casting
##cat
##catalysed
##catalyst
##catalysts
##catalytic
##catalyzed
##caten
##cathode
##cation
##cavities
##cavity
##cb
##cc
##ccdc
##cd
##ce
##cean
##ced
##cedure
##ceed
##cein
##ceived
##cel
##cell
##cells
##cellular
##cellulose
##cence
##cent
##centage
##center
##centered
##centration
##centric
##centrosymmetric
##cep
##cept
##cepti
##cepting
##ception
##ceptions
##ceptor
##ceptors
##cepts
##cer
##ceramic
##ceramics
##cerning
##cerol
##certain
##ces
##cess
##cessed
##cessible
##cessing
##cession
##cessive
##cetic
##cf
##cgi
##ch
##chable
##chain
##chains
##chair
##chan
##chang
##change
##changed
##changing
##channel
##char
##character
##characterized
##charge
##charged
##charging
##che
##ched
##chel
##chem
##chemical
##chemistry
##chen
##cher
##chers
##ches
##chi
##chin
##ching
##chip
##chiral
##chit
##chitosan
##chlor
##chloride
##chloro
##chloroform
##cho
##choline
##chrom
##chromic
##ci
##cid
##cidyl
##ciences
##cin
##cinate
##cinating
##cine
##cing
##circ
##circle
##circles
##circuit
##circular
##cis
##cit
##cite
##cj
##ck
##cks
##cl
##class
##classical
##clay
##cle
##clean
##cleaning
##click
##clinical
##clip
##clipse
##clock
##clockwise
##close
##closed
##clusion
##clusions
##clusive
##cluster
##clusters
##cm
##cn
##co
##coal
##coat
##coated
##coating
##cod
##coded
##coh
##coherent
##coil
##col
##cold
##coll
##collinear
##color
##colored
##column
##com
##comb
##come
##comes
##coming
##comings
##common
##commut
##comp
##compare
##compared
##compati
##compens
##compensated
##complete
##complex
##component
##composite
##compound
##compression
##con
##concentration
##concept
##condens
##condensation
##condition
##conducting
##conductive
##conductivity
##cone
##conf
##configuration
##confined
##conform
##conjug
##conjugated
##conjugation
##conn
##connected
##cons
##conser
##conserving
##consist
##consistency
##consistent
##consistently
##const
##constant
##consuming
##cont
##contact
##containing
##content
##continu
##continuous
##continuum
##contrast
##control
##controll
##controlled
##conver
##conversion
##converted
##cool
##cooled
##cooling
##coord
##coordinate
##coordinated
##coordination
##cop
##cope
##copic
##copper
##copy
##cor
##cord
##cording
##core
##corpor
##corr
##corrected
##correlated
##correlation
##corresponding
##cos
##cosh
##cosity
##cost
##cot
##counter
##counting
##coupled
##coupling
##cour
##covalent
##cover
##covered
##covery
##cp
##cr
##crib
##cribed
##cription
##crit
##critical
##cross
##crossing
##crosslinked
##crown
##crystal
##crystall
##crystalline
##crystallization
##crystallized
##crystals
##cs
##ct
##ction
##ctions
##ctive
##ctor
##cu
##cubic
##cul
##cular
##culated
##culating
##culation
##culations
##culature
##culture
##cum
##cumin
##cup
##cur
##cured
##curing
##currence
##current
##cursion
##cursor
##curve
##curves
##cury
##cus
##cut
##cutaneous
##cx
##cy
##cyan
##cyano
##cyc
##cycl
##cycle
##cycles
##cyclic
##cyclization
##cyclo
##cyclodextrin
##cyclohex
##cyclohexane
##cyclopent
##cyl
##cym
##cymene
##cysteine
##cyt
##d
##dA
##dB
##dC
##dE
##dF
##dG
##dH
##dI
##dL
##dM
##dN
##dP
##dR
##dS
##dT
##dU
##dV
##dW
##da
##dam
##damped
##dark
##dash
##dashed
##data
##date
##day
##db
##dba
##dc
##dd
##ddd
##dden
##ddt
##de
##dead
##dec
##decane
##decay
##decorated
##ded
##def
##defect
##deficient
##defined
##deg
##degener
##degenerate
##degree
##dehyd
##dehyde
##dehydes
##del
##delay
##delivery
##delta
##dem
##den
##dend
##denoted
##dense
##density
##dentate
##denum
##deoxy
##dep
##depend
##dependence
##dependent
##deple
##deposited
##deposition
##depth
##der
##dered
##deriv
##derivative
##derived
##ders
##des
##described
##design
##designed
##desorption
##destructive
##det
##detection
##detector
##determined
##determining
##deuter
##developed
##device
##dew
##df
##dge
##dh
##di
##diag
##diagonal
##dial
##diameter
##diamin
##diamine
##diamond
##diaz
##dibromo
##dic
##dical
##dichlor
##dichloro
##dichlorobenzene
##dichloroethane
##died
##dielectric
##diene
##dies
##diethyl
##diff
##difference
##differential
##diffraction
##diffusion
##diffusive
##dig
##dihydro
##dihydroxy
##diisopropyl
##dil
##dim
##dimension
##dimensional
##dimer
##dimethoxy
##dimethyl
##dimethylamino
##dimethylsiloxane
##dimethylsilyl
##din
##ding
##dinger
##dio
##diol
##dione
##diox
##dioxane
##dip
##diphenyl
##dipolar
##dipole
##direct
##directed
##directing
##direction
##directional
##dis
##disc
##discharge
##discharging
##discip
##discus
##discussed
##disil
##disk
##disorder
##disper
##dispersed
##dispersion
##dispersive
##displacement
##diss
##dissip
##dist
##distance
##distribution
##disubstituted
##dition
##ditional
##ditionally
##ditions
##ditive
##dium
##div
##diyl
##dj
##dk
##dl
##dle
##dles
##dm
##dn
##do
##doctoral
##dodec
##dodecyl
##doi
##dom
##domain
##domains
##domin
##dominated
##don
##donating
##donor
##dop
##dopamine
##doped
##doping
##dor
##dose
##dot
##dots
##dotted
##doub
##double
##down
##dp
##dpp
##dq
##dr
##dra
##drain
##drawing
##dri
##drich
##dried
##driven
##drop
##drug
##dry
##drying
##ds
##dt
##du
##dual
##duc
##duce
##duced
##duces
##ducing
##duct
##duction
##ductive
##ducts
##due
##dust
##dv
##dw
##dx
##dy
##dye
##dyl
##dyn
##dynam
##dynamic
##dynamics
##dz
##e
##eB
##eV
##ea
##each
##ead
##eads
##eady
##ear
##earch
##eared
##earing
##ears
##earson
##earth
##east
##eb
##ec
##ecal
##ecause
##ece
##ech
##echan
##echanical
##echn
##echnology
##echo
##echst
##eck
##ecke
##ecker
##eco
##econd
##ecraft
##ect
##ectable
##ected
##ectic
##ectin
##ecting
##ection
##ections
##ective
##ectively
##ectiveness
##ectives
##ectivity
##ector
##ectors
##ects
##ecture
##eculi
##ecutive
##ed
##edance
##edded
##edge
##edges
##edical
##edicine
##edim
##eding
##edo
##edom
##ee
##eed
##een
##ees
##ef
##eff
##effect
##effective
##efficiency
##efficient
##efined
##eflon
##eft
##eful
##eg
##eh
##ei
##eik
##either
##ej
##ek
##el
##elastic
##eld
##eldom
##elect
##elected
##electric
##electrical
##electro
##electrochemical
##electrode
##electrodes
##electroly
##electrolyte
##electrolytes
##electron
##electronic
##electronics
##electrons
##electroph
##eled
##element
##elen
##eless
##elf
##eli
##elian
##elibrary
##elihood
##elike
##eline
##elines
##eling
##elivery
##ell
##ella
##ellar
##elle
##elled
##ellent
##eller
##elles
##elli
##ellig
##elling
##ello
##ellow
##ellowship
##ellular
##ellulose
##elow
##els
##elt
##elting
##elts
##elve
##elves
##em
##ema
##emade
##eman
##emann
##emat
##ematic
##emb
##embedded
##ember
##embered
##embers
##emble
##embran
##embrane
##embranes
##emens
##emi
##emia
##emic
##emis
##emission
##emitting
##emma
##emp
##emperature
##empirical
##empl
##empor
##emporal
##empty
##emulsion
##en
##ena
##enari
##enberg
##enc
##encaps
##encapsulated
##ence
##enced
##ences
##ench
##enching
##enchymal
##encies
##encil
##encing
##encl
##enclature
##ency
##end
##enda
##ende
##ended
##endence
##endent
##ender
##endi
##ending
##endix
##endo
##endor
##ends
##ene
##ened
##enedi
##enediamine
##enedioxy
##ener
##energetic
##energies
##energy
##enes
##enesis
##eness
##enesulf
##enet
##eng
##engineering
##ength
##enhanced
##enic
##ening
##enite
##enium
##enn
##enna
##ennard
##eno
##enoid
##enol
##enone
##enriched
##ens
##ensable
##ense
##ensi
##ensif
##ensile
##ensing
##ension
##ensis
##ensite
##ensitic
##ensities
##ensitive
##ensitivity
##ensity
##ensive
##ensor
##ensors
##ensurate
##ensus
##ent
##enta
##ental
##entally
##entang
##entate
##entation
##ented
##enter
##enti
##ential
##entially
##entin
##ention
##entioned
##ently
##enton
##entrant
##entries
##entry
##ents
##enty
##environment
##enyl
##enz
##enzel
##enzy
##enzymatic
##enzyme
##eor
##ep
##epar
##eper
##eping
##epit
##epitaxial
##epler
##epoxy
##ept
##eptide
##eptides
##eq
##eqn
##equ
##equation
##equilibrium
##equiv
##equivalent
##er
##eramic
##erant
##erate
##erated
##erately
##erating
##eration
##erator
##erature
##erc
##ercetin
##ere
##ered
##eren
##erence
##erences
##erent
##erenti
##erential
##erephthal
##erest
##erestingly
##eret
##erg
##erge
##erged
##ergic
##ergies
##ergonic
##ergy
##eria
##eries
##ering
##erite
##erm
##erman
##ermi
##ermitian
##ern
##ernst
##ero
##erometric
##erometry
##erosion
##erovsk
##erovskite
##err
##error
##ers
##erson
##ert
##ery
##eryth
##es
##esar
##escope
##ese
##esh
##esian
##eside
##esides
##esis
##esium
##especially
##ess
##essel
##essels
##essor
##est
##estab
##established
##ested
##ester
##esterification
##estern
##esters
##esthe
##estic
##estimated
##estinal
##esting
##estone
##estr
##estructive
##ests
##esults
##et
##eta
##etal
##etas
##etasizer
##etch
##etched
##etching
##eter
##eterm
##etermination
##etermined
##etermining
##eters
##etes
##eth
##ethan
##ethane
##ethanol
##ethanolamine
##ethe
##etheless
##ether
##ethered
##etherlands
##ethers
##ethoxy
##ethoxysilane
##ethyl
##ethylamine
##ethylene
##ethylenedioxy
##ethylhexyl
##ethynyl
##etic
##etin
##eton
##etra
##etri
##etric
##etry
##ets
##ett
##ette
##etter
##ettes
##etting
##etveld
##etw
##etween
##etwork
##ety
##etyl
##eu
##ev
##evapor
##evaporation
##even
##ever
##everal
##evertheless
##evolution
##ew
##ewis
##ewise
##ex
##exc
##except
##exchange
##exchanged
##excitation
##excited
##exciton
##existence
##existing
##exo
##exp
##expansion
##expensive
##experimental
##expl
##expon
##exponential
##exposed
##exposure
##expressed
##ext
##extended
##extraction
##exts
##ey
##ez
##f
##fa
##fabricated
##fac
##face
##faces
##facial
##fact
##factant
##factor
##factorily
##factors
##factory
##far
##fast
##fav
##fb
##fc
##fcc
##fd
##fe
##fect
##fected
##fection
##fections
##feed
##feld
##fen
##fer
##feren
##ference
##ferences
##ferential
##ferm
##fermion
##ferred
##ferrite
##ferro
##ferroc
##ferrocene
##ferroelectric
##ferromagnetic
##fers
##ff
##ffect
##ffee
##fi
##fib
##fiber
##field
##fields
##fig
##figuration
##figure
##figures
##fil
##fill
##filled
##filler
##filling
##film
##films
##filter
##filtered
##fin
##final
##fine
##finite
##fins
##fion
##first
##fish
##fit
##fitted
##fitting
##fixed
##fj
##fk
##fl
##flat
##flex
##flight
##flip
##flow
##flu
##fluence
##fluid
##fluidic
##fluidics
##fluids
##fluor
##fluoren
##fluorene
##fluorescence
##fluorescent
##fluoric
##fluoride
##fluorinated
##fluoro
##fluoroethylene
##fluoromethyl
##fluorophenyl
##flux
##fly
##fm
##fn
##fo
##focusing
##foil
##fol
##fold
##folded
##folding
##for
##force
##ford
##fore
##form
##formaldehyde
##formamide
##formance
##formation
##formed
##forming
##forms
##formyl
##formylation
##fort
##forth
##fortunately
##forward
##four
##fp
##fr
##fra
##frac
##fraction
##frame
##framework
##free
##frequency
##friendly
##from
##front
##fs
##ft
##fted
##ften
##fter
##fting
##fts
##fu
##fuel
##ful
##full
##fullerene
##fully
##function
##functional
##functionalized
##functions
##furan
##fused
##fv
##fvén
##g
##ga
##gal
##galact
##gamma
##gan
##ganese
##gap
##gaps
##gard
##gas
##gate
##gated
##gb
##gc
##ge
##gebra
##gebras
##ged
##gel
##gels
##gen
##gence
##gene
##gener
##generate
##generated
##generation
##genic
##gens
##gent
##geometric
##ger
##gered
##gers
##gery
##ges
##gest
##gested
##gestion
##get
##gether
##getic
##gg
##ggish
##gi
##gin
##gine
##gineered
##gineering
##ging
##gins
##given
##gl
##gland
##glass
##gler
##glomer
##glow
##gluc
##glucopyran
##glucose
##glut
##gly
##glycer
##glycero
##glycerol
##glycine
##glycol
##glycos
##gm
##gment
##gmentation
##gments
##gn
##go
##going
##gold
##gon
##gonal
##gp
##gr
##gra
##grad
##gradability
##gradable
##gradation
##grade
##graded
##gradi
##gradient
##grading
##graf
##graft
##grafted
##grafting
##grain
##grained
##gram
##grams
##gran
##granular
##graph
##graphene
##graphite
##graphs
##grav
##gravity
##gray
##gre
##gredi
##green
##greg
##gregation
##gressive
##grey
##grid
##gro
##ground
##group
##groups
##grown
##growth
##gs
##gth
##gthen
##gu
##guan
##gue
##guest
##guided
##gy
##h
##ha
##hai
##hair
##hal
##half
##halide
##halo
##halogen
##halose
##ham
##han
##hance
##hanced
##hancement
##hand
##handed
##hane
##hanes
##hang
##hanghai
##hannel
##hanol
##hao
##haps
##har
##hara
##hard
##hardening
##hardness
##harmon
##harmonic
##harves
##harvesting
##has
##hat
##haus
##havi
##havior
##haw
##hc
##hcp
##he
##head
##healing
##heat
##heated
##heating
##hed
##hedra
##hedral
##hedrally
##hedron
##heel
##height
##heim
##heimer
##hel
##helic
##helical
##helix
##hem
##hematic
##heme
##hemes
##hemical
##hemistry
##hemite
##hen
##hence
##hene
##heng
##henium
##henol
##henyl
##heological
##hept
##heptane
##her
##here
##hereafter
##hered
##herence
##herent
##heric
##herical
##hering
##hern
##herrer
##hers
##hertz
##hes
##heses
##hesion
##hesis
##hesive
##hest
##heter
##hetero
##heterocyclic
##hether
##hev
##hex
##hexa
##hexagonal
##hexane
##hexanes
##hexene
##hexyl
##hexylthiophene
##hf
##hfill
##hh
##hi
##hib
##hig
##high
##higher
##hil
##hile
##hill
##hing
##hip
##hiph
##hire
##his
##hk
##hkl
##hl
##hler
##hlet
##hm
##hmic
##hn
##ho
##hod
##hode
##hodes
##hof
##hol
##hold
##hole
##holes
##hollow
##hom
##homb
##hombic
##homogeneous
##hood
##hor
##host
##hot
##hou
##house
##how
##hp
##hr
##hrom
##hs
##ht
##http
##hu
##human
##hv
##hy
##hybrid
##hybridized
##hyd
##hyde
##hydrate
##hydrated
##hydrates
##hydration
##hydraz
##hydride
##hydrides
##hydrin
##hydro
##hydrodynamic
##hydrofuran
##hydrogen
##hydrogenation
##hydroph
##hydrophilic
##hydrophobic
##hydrophobicity
##hydrous
##hydrox
##hydroxide
##hydroxy
##hydroxyethyl
##hydroxyl
##hydroxylation
##hydroxymethyl
##hydroxyp
##hydroxyphenyl
##hyl
##hyle
##hyper
##hyth
##i
##iH
##iN
##iO
##iPP
##iPr
##ia
##iable
##iadi
##iadiazole
##iae
##ial
##ially
##ian
##iao
##iar
##iated
##iation
##iaz
##ib
##iba
##ibbon
##iber
##ibility
##ible
##ibles
##ibly
##ibrary
##ibration
##ibrational
##ic
##ica
##ical
##ically
##icals
##icate
##icated
##ication
##ications
##icc
##ice
##ices
##ich
##ichael
##icher
##ichi
##ichia
##ichiometric
##ichlet
##ichlor
##ichloro
##ici
##icial
##icidal
##iciencies
##iciency
##icient
##icients
##icillin
##icin
##icine
##icities
##icity
##ick
##ickel
##ickers
##icking
##ickness
##icle
##icles
##ico
##icro
##icrobial
##ics
##icular
##icyl
##id
##ida
##idal
##idase
##idated
##idation
##idden
##ide
##ideal
##ided
##idel
##idelines
##idelity
##iden
##idence
##idene
##ident
##identate
##identified
##ideo
##ider
##ides
##idespread
##idic
##idin
##idine
##idines
##iding
##idinium
##idinone
##idirection
##idirectional
##idity
##idium
##ido
##idone
##ids
##idth
##idual
##iducial
##ie
##ied
##ield
##ielect
##ielectric
##ien
##ience
##iences
##ienna
##ient
##ienti
##ientific
##iently
##ier
##ierarch
##ierarchical
##iers
##ies
##iest
##ieties
##iety
##iew
##iezo
##iezoelectric
##if
##ife
##ifer
##iff
##ific
##ifically
##ification
##ifications
##ified
##ifier
##ifiers
##ifies
##iflu
##iform
##iforn
##ifornia
##ifsh
##ifshitz
##ift
##ifth
##ify
##ifying
##ig
##igaku
##igan
##igand
##igen
##iger
##igh
##ighed
##ight
##ighted
##ighter
##ights
##igma
##ign
##ignal
##ignard
##igned
##igner
##ignific
##ignificant
##ignificantly
##ignin
##ignment
##igo
##igorous
##igration
##igt
##igu
##igure
##ii
##iii
##ij
##ijing
##ijk
##ijkl
##ik
##ike
##ikelihood
##iken
##ikov
##il
##ilane
##ilar
##ilarities
##ilateral
##ilation
##ilayer
##ilayers
##ilbert
##ild
##ilding
##ile
##iled
##ilent
##iler
##iles
##iley
##ili
##iliary
##ilib
##ilibri
##ilibria
##ilibrium
##ilic
##ilica
##iline
##ilinear
##iling
##ilips
##ilities
##ility
##ill
##illa
##illar
##illaries
##illars
##illary
##ille
##illed
##iller
##illers
##illi
##illin
##illing
##illion
##illipore
##illouin
##ills
##illus
##ilm
##ilms
##ils
##ilson
##ilst
##ilt
##iltration
##iluminescence
##ily
##im
##ima
##imad
##imadzu
##image
##imaging
##imal
##imals
##ime
##imed
##imension
##imensional
##imer
##imers
##imes
##imet
##imetallic
##imeter
##imeters
##imeth
##imethoxy
##imethoxysilane
##imethyl
##imetic
##imetric
##imetry
##imid
##imidazol
##imidazole
##imidazolium
##imide
##imides
##imin
##iminary
##imination
##imine
##imines
##imino
##imir
##immer
##immobil
##immobilized
##immun
##imolar
##imp
##impact
##impl
##implanted
##imprinted
##imum
##in
##ina
##inal
##inally
##inant
##inary
##inase
##inate
##inated
##inates
##inating
##ination
##inations
##inc
##incar
##incaré
##ince
##inceton
##inch
##incip
##including
##incorpor
##incorporated
##increasing
##inct
##inction
##inctive
##incub
##ind
##inde
##indentation
##independent
##inder
##index
##indicated
##inding
##indol
##indole
##indoles
##induced
##ine
##inear
##ined
##inement
##iner
##inery
##ines
##inese
##iness
##inetic
##inf
##infection
##infinite
##inflamm
##inflammatory
##infor
##inforced
##infrared
##ing
##inger
##ingle
##ingly
##ings
##inh
##inhib
##ini
##inic
##inical
##inin
##inine
##ining
##init
##inite
##inites
##initi
##initial
##initiated
##initiator
##initiators
##inities
##inition
##inity
##inium
##inj
##injection
##ink
##inking
##inn
##inner
##inning
##ino
##inol
##inone
##inorganic
##ins
##insertion
##inset
##insic
##insically
##insky
##inson
##insp
##inspired
##inst
##instein
##insulating
##insulator
##int
##inte
##integ
##integer
##integra
##integral
##integrated
##integration
##intensity
##inter
##interacting
##interaction
##intercal
##intercalation
##intered
##interface
##internal
##inters
##interscience
##intestinal
##intill
##intra
##ints
##intuitive
##inu
##inuclear
##inuous
##invariant
##invasive
##inyl
##inylated
##inz
##io
##iod
##iode
##iodes
##iodide
##iodo
##iol
##ion
##ional
##ionate
##ione
##ionic
##ionine
##ionization
##ionized
##ions
##ionyl
##iop
##ior
##iotic
##ious
##ip
##iper
##iph
##iphatic
##iphenyl
##ipher
##ipient
##ipitation
##ipolar
##ipore
##ipp
##ipped
##ipping
##ips
##ipso
##ipy
##iq
##iqu
##ique
##iqueness
##iques
##iquid
##ir
##ira
##irable
##irac
##iral
##iran
##irane
##iration
##irc
##ircon
##ircular
##ird
##ire
##irect
##irection
##ired
##ires
##irical
##irically
##iring
##irm
##iro
##iron
##irradi
##irradiated
##irradiation
##irror
##irst
##iré
##is
##isation
##isations
##isc
##iscent
##ischer
##iscus
##iscussion
##ise
##isecond
##ised
##isen
##isenberg
##iser
##ises
##iseuille
##ish
##ishaw
##ished
##isher
##ishes
##ishi
##ishing
##ising
##ision
##isite
##isk
##isker
##iskers
##isks
##ism
##ismic
##isms
##ismuth
##iso
##isobut
##isocyan
##isocyanate
##isol
##isolated
##isole
##isomer
##isomeric
##isomerization
##isomers
##ison
##isoprene
##isoprop
##isopropyl
##isothermal
##isotrop
##isotropic
##isp
##isper
##ispersed
##ispersion
##iss
##ission
##issociation
##issolved
##isson
##issue
##ist
##istal
##istance
##istant
##isted
##istence
##ister
##istic
##istically
##istine
##isting
##istive
##istivity
##istler
##iston
##istor
##istribution
##istry
##ists
##it
##ita
##itable
##itably
##itachi
##ital
##italic
##itance
##itary
##itate
##itated
##itating
##itation
##itational
##itch
##ite
##ited
##iter
##iterp
##ites
##ith
##ither
##itherto
##ithi
##ithiation
##ithiol
##ithiophene
##ithium
##ithley
##itic
##itics
##ities
##itin
##iting
##ition
##itions
##itive
##ito
##itol
##iton
##itone
##itons
##itor
##itoring
##itors
##itory
##itosan
##itrile
##itro
##itrogen
##itron
##its
##itt
##itted
##itter
##itting
##itu
##itud
##itude
##itudes
##itudinal
##ity
##ityl
##itz
##itzer
##ium
##ius
##iv
##ival
##ivalent
##ive
##ived
##iven
##iver
##ivered
##ivers
##iversal
##iversity
##ives
##ividual
##iving
##ivities
##ivity
##ivo
##iw
##iwan
##ix
##ixed
##ixel
##ixing
##iy
##iya
##iyaura
##iz
##izability
##izable
##ization
##izations
##ize
##ized
##izer
##izers
##izes
##izing
##iħ
##j
##ja
##je
##ject
##jected
##jection
##jective
##jects
##jet
##ji
##jiang
##jin
##jing
##jj
##jk
##jl
##jm
##jn
##jo
##joint
##jug
##junction
##junctions
##k
##kA
##kB
##kBT
##kD
##kF
##kJ
##kL
##kR
##kT
##kV
##ka
##kam
##kamak
##kb
##kc
##kcal
##kd
##ke
##keV
##kel
##kele
##ken
##ker
##kes
##ket
##ketch
##keto
##ketone
##key
##kf
##kg
##kh
##khorst
##ki
##kii
##kin
##kinetic
##king
##kingly
##kis
##kj
##kk
##kl
##kle
##km
##kn
##knowled
##knowledge
##knowledgements
##known
##ko
##koff
##kon
##kov
##kp
##kr
##ks
##kt
##kx
##ky
##kyne
##kyo
##kz
##l
##lB
##la
##lab
##label
##labeled
##labelled
##lact
##lactam
##lactic
##lactide
##laden
##lag
##lam
##lambda
##lamellar
##lamm
##lan
##lance
##land
##lands
##lap
##lar
##large
##las
##laser
##lasma
##lasov
##lass
##lassical
##last
##lastic
##lasts
##late
##lated
##lates
##lating
##lation
##lational
##lator
##lattice
##lattices
##law
##lay
##layer
##layered
##layers
##lb
##lc
##ld
##le
##leading
##lear
##learly
##lease
##leasing
##lec
##lect
##lectance
##lected
##lectic
##lecting
##lection
##lections
##lective
##lectivities
##lectivity
##lector
##lecul
##lecular
##lecule
##lecules
##led
##left
##leg
##leigh
##lement
##lemental
##lementary
##lements
##len
##length
##lenk
##lens
##ler
##lerene
##lers
##les
##less
##lest
##let
##lete
##lets
##lett
##lev
##levant
##level
##levels
##lex
##lexes
##lexible
##ley
##lf
##lg
##li
##lic
##licate
##licated
##licates
##lication
##lications
##lice
##lich
##licit
##licity
##lick
##licts
##lied
##lier
##liers
##lies
##liest
##life
##lig
##ligand
##light
##ligible
##like
##lim
##limited
##limiting
##lin
##linary
##line
##linear
##linearities
##linearity
##lined
##lines
##liness
##ling
##linic
##link
##linked
##linker
##linking
##links
##lip
##lipid
##liquid
##lis
##lish
##lished
##lishing
##lision
##lit
##lite
##lithium
##lived
##lk
##ll
##lla
##lled
##ller
##llip
##lm
##ln
##lo
##load
##loaddition
##loaded
##loading
##lob
##lobal
##lobin
##loc
##local
##localized
##location
##lock
##locked
##locking
##log
##lohex
##loidal
##lon
##long
##lood
##look
##loop
##lor
##lore
##losion
##loss
##lot
##low
##lower
##lowers
##loy
##loying
##loys
##lp
##ls
##lu
##luc
##luded
##luding
##lue
##luent
##lumin
##lution
##lux
##ly
##lyb
##lying
##lyl
##lymp
##lympus
##lys
##lysine
##lysis
##lyte
##m
##mA
##mC
##mK
##mL
##mM
##mN
##mPEG
##mSiO
##mT
##mV
##ma
##mable
##mac
##macro
##made
##mag
##magenta
##magn
##magnesium
##magnet
##magneti
##magnetic
##magnetized
##magnification
##main
##mainly
##maj
##major
##mal
##male
##mall
##man
##manif
##mann
##map
##mark
##marked
##mas
##mass
##mat
##matched
##matching
##material
##math
##matic
##matically
##matrix
##matter
##max
##maximum
##mb
##mbols
##mc
##md
##me
##meV
##meability
##meable
##mean
##meas
##measure
##measured
##mechanical
##med
##medi
##media
##mediate
##mediated
##mediately
##mediation
##medium
##mega
##mel
##melt
##melting
##mem
##membered
##membrane
##memory
##ment
##mentation
##mented
##mentioned
##ments
##mer
##merc
##mercapto
##meric
##mers
##mersion
##mes
##mesh
##meso
##met
##metal
##metalation
##metall
##metallic
##meter
##meth
##methacrylate
##methan
##methane
##methanol
##method
##methoxy
##methoxyphenyl
##methyl
##methylated
##methylation
##methylene
##metic
##mg
##mh
##mholtz
##mi
##mic
##micro
##micron
##mid
##middle
##midt
##mill
##milled
##milling
##mim
##min
##mine
##ming
##minist
##ministration
##mino
##minor
##mis
##misc
##mise
##missible
##mission
##mit
##mits
##mitt
##mittance
##mitte
##mitted
##mittee
##mitting
##mium
##mix
##mixed
##mixing
##mixture
##mj
##mk
##ml
##mm
##mma
##mmedia
##mmet
##mml
##mmm
##mmol
##mn
##mo
##mobil
##mobile
##mobility
##mod
##mode
##model
##modes
##modified
##modulated
##modulation
##modynamic
##mol
##molar
##molded
##mole
##molecular
##molecule
##molecules
##moment
##momentum
##mon
##monary
##monia
##monic
##monium
##mono
##monolayer
##monomer
##monomers
##monotonic
##more
##morph
##most
##motion
##mount
##moving
##mp
##mr
##ms
##msstrahlung
##mt
##mu
##multi
##mun
##munication
##mut
##mx
##my
##n
##nA
##nB
##nBu
##nC
##nF
##nH
##nT
##na
##nai
##nal
##namely
##nan
##nano
##nanoc
##nanometer
##nanop
##nanoparticle
##naphth
##naphthal
##naphthalene
##naphthyl
##nary
##nas
##nat
##natural
##nb
##nc
##nce
##ncy
##nd
##nder
##ndom
##ne
##near
##nearest
##neat
##neath
##nec
##necess
##neck
##necked
##ned
##neg
##negative
##negligible
##neigh
##neighbor
##nel
##nelling
##ner
##nergetic
##ners
##nes
##ness
##nest
##net
##neti
##netic
##netically
##network
##neum
##neutral
##never
##new
##nexp
##ney
##nf
##ng
##ngth
##nh
##ni
##nickel
##night
##nihil
##nikov
##ning
##nit
##nitride
##nitro
##nitrogen
##nitrop
##nitrophenol
##nitrophenyl
##nj
##nk
##nl
##nm
##nn
##no
##noble
##node
##noise
##non
##nor
##norm
##normal
##normalized
##not
##note
##nov
##np
##nq
##nr
##ns
##nsted
##nt
##nth
##nthe
##ntry
##nu
##nucle
##nuclear
##number
##nx
##ny
##nz
##nzer
##nzerhof
##o
##oamp
##oate
##ob
##obacter
##obacteria
##obal
##obenz
##obenzene
##obi
##obic
##obile
##obin
##obis
##oblast
##obor
##oborate
##obs
##observed
##obtained
##obut
##oc
##ocal
##ocalization
##ocalized
##ocally
##ocaloric
##ocamp
##ocar
##ocarb
##ocarbon
##ocat
##ocatalytic
##ocated
##ocation
##occup
##occupied
##ocell
##ocellulosic
##ocene
##ocent
##och
##ochastic
##oche
##ochemical
##ochemistry
##ochiral
##ochlor
##ochond
##ochrom
##ochromatic
##ochrome
##ochromic
##ochromism
##oci
##ociated
##ociation
##ociety
##ocities
##ocity
##ock
##ocking
##ocl
##oclassical
##oclay
##oclinic
##oco
##ococ
##ococcus
##ocompati
##ocompatibility
##oct
##octa
##octahedral
##octane
##octanol
##octene
##octoral
##octyl
##ocum
##ocurrent
##ocus
##ocused
##ocusing
##ocyan
##ocyanate
##ocyanine
##ocyanines
##ocyc
##ocycl
##ocycles
##ocyclic
##ocyt
##ocyte
##ocytes
##ocytosis
##od
##oda
##odal
##odd
##ode
##odec
##oded
##oder
##odes
##odext
##odextrin
##odi
##odiation
##odic
##odies
##odiimide
##odimer
##oding
##odium
##ods
##ody
##odymium
##odynamic
##odyne
##oe
##oelectric
##of
##off
##ofib
##ofl
##oflav
##oform
##ofuran
##og
##ogadro
##ogashira
##ogel
##ogels
##ogen
##ogene
##ogeneities
##ogeneity
##ogeneous
##ogener
##ogenesis
##ogenic
##ogenicity
##ogenous
##ogens
##ogether
##oglobin
##ogly
##oglycan
##ogn
##ognition
##ogonal
##ogra
##ogram
##ograms
##ograph
##ographed
##ographic
##ographical
##ographically
##ographies
##ographs
##ography
##ograv
##ogravimetric
##ogravimetry
##oh
##ohedral
##ohist
##ohl
##ohlra
##ohlraum
##ohm
##ohn
##ohns
##ohnson
##oi
##oic
##oid
##oidal
##oidally
##oids
##oil
##oin
##oint
##ok
##oke
##oked
##okes
##okinetic
##oking
##oks
##ol
##ola
##olab
##olane
##olar
##olarization
##olate
##olayer
##old
##olding
##olds
##ole
##olecular
##olefin
##olefins
##oleptic
##oles
##olester
##olet
##oli
##olic
##olide
##olig
##olin
##oline
##olines
##oling
##olinite
##olinium
##olip
##olis
##olite
##olith
##olithography
##olium
##olk
##oll
##ollary
##ollen
##ollow
##ollowing
##olm
##olmog
##olmogorov
##olo
##olog
##ologen
##ologic
##ological
##ologically
##ologies
##ology
##olor
##ols
##oltz
##oltzmann
##olu
##oluble
##oluene
##oluminescence
##oluminescent
##olution
##olved
##oly
##olyb
##olyl
##olymer
##olymers
##olysis
##olyte
##olytic
##om
##oma
##omagnetic
##omain
##omains
##omal
##omaly
##omaterials
##omatic
##omb
##ombination
##ome
##omechanical
##omel
##omen
##oment
##omer
##omeric
##omers
##omes
##omet
##ometal
##ometallic
##ometer
##ometers
##ometh
##omethane
##omethanes
##omething
##omethyl
##ometric
##ometrically
##ometries
##ometry
##omial
##omic
##omics
##omin
##ominal
##oming
##omit
##omm
##omo
##omon
##omonas
##omorph
##omorphic
##omorphism
##omotion
##omotive
##omp
##ompati
##omplex
##omponent
##ompos
##omposite
##omposites
##omposition
##oms
##omy
##omyc
##omycin
##on
##ona
##onal
##onate
##onates
##onation
##ond
##ondens
##onder
##ondo
##ondon
##onduc
##onduct
##onductance
##onducting
##onduction
##onductive
##onductivity
##onductor
##one
##oned
##onene
##onent
##onents
##ones
##oney
##ong
##ongation
##oni
##onic
##onical
##onically
##onics
##onin
##onine
##oning
##oniot
##onite
##onitrile
##onium
##onjug
##onlin
##onlinelibrary
##only
##onom
##onomic
##onomous
##onon
##onov
##ons
##onset
##onsid
##ont
##ontinuous
##ontrol
##onucle
##onuclear
##onucleo
##onversion
##ony
##onyl
##oo
##ood
##ool
##oom
##oor
##oot
##op
##opath
##ope
##oped
##open
##opening
##opent
##opeptide
##opeptides
##oper
##operative
##opes
##oph
##ophag
##ophane
##opharm
##ophen
##ophene
##ophenes
##ophenol
##ophenone
##ophenyl
##ophil
##ophilic
##ophobic
##ophore
##ophores
##ophosph
##ophosphate
##ophthal
##ophyl
##ophyll
##ophysical
##ophysics
##opic
##oping
##opl
##oplas
##oplastic
##ople
##opoly
##opolymer
##opolymerization
##opolymers
##oporous
##opper
##oprene
##opro
##oprop
##opropane
##opropyl
##oprotein
##ops
##opt
##optic
##optical
##optim
##optimal
##optimized
##optosis
##optotic
##opulation
##opy
##opyr
##opyran
##opyridine
##opyright
##or
##ora
##orage
##oral
##orange
##orated
##oration
##oratories
##oratory
##orb
##orbed
##orbit
##orbital
##orbitals
##orcin
##ord
##ordan
##order
##ordered
##ordering
##orders
##ordinate
##ordination
##ordon
##ore
##ored
##oredox
##oreg
##oregular
##oren
##orene
##orent
##orentz
##orenz
##orer
##ores
##orescein
##orescence
##orescent
##oresis
##oresist
##oresistance
##oresistive
##oret
##oretic
##org
##organ
##organic
##organization
##organized
##orhombic
##ori
##oric
##orient
##orientation
##oriented
##ories
##orig
##orill
##oring
##orious
##orith
##oriz
##orizon
##orizontal
##ork
##orld
##orm
##ormal
##orn
##oron
##orosity
##orous
##orov
##orph
##orphic
##orphological
##orphology
##orphous
##orphyrin
##orphyrins
##orpor
##orption
##orr
##orrelation
##orrosion
##ors
##orst
##ort
##orted
##orter
##orters
##ortex
##orth
##ortho
##orthogonal
##orthy
##orting
##ortion
##ortions
##orts
##ortun
##ortunately
##orubicin
##orus
##ory
##os
##osa
##osal
##osals
##osamine
##osan
##osc
##oscill
##oscope
##ose
##osecond
##osed
##oselective
##oselectivities
##oselectivity
##osen
##oser
##oses
##osh
##osidase
##oside
##osides
##osil
##osilane
##osilic
##osilicate
##osin
##osine
##osing
##osis
##osite
##osites
##osities
##osition
##ositions
##osity
##osm
##osmo
##osmotic
##osol
##osols
##osomal
##osome
##osomes
##osp
##ospace
##ospec
##ospecific
##osph
##osphere
##ospheres
##ospheric
##ospin
##ospital
##oss
##ossible
##ossil
##ost
##ostasis
##ostat
##ostatic
##oster
##osteric
##ostic
##ostructural
##ostructure
##ostructured
##ostructures
##osulf
##osure
##osyl
##ot
##ota
##otactic
##otal
##otation
##ote
##oted
##otenti
##otential
##oter
##oters
##otes
##otetra
##oth
##othe
##othel
##othelial
##other
##otherapy
##otherm
##othermal
##othermic
##otherms
##othi
##othiaz
##othiazole
##othiophene
##oti
##otic
##otin
##oting
##oto
##otonic
##otope
##otopic
##otor
##otors
##otox
##otoxic
##otoxicity
##otran
##otrans
##otri
##otron
##otrop
##otropic
##ots
##ott
##otted
##ottky
##ottom
##otton
##otyp
##otype
##ou
##oub
##oubted
##oubtedly
##ough
##oughness
##ouin
##ould
##ouling
##oun
##ounced
##ound
##oung
##ount
##our
##ource
##ources
##oured
##ournal
##ours
##ous
##ouse
##ously
##oustic
##out
##outer
##outh
##outhern
##output
##ov
##ova
##oval
##ovascular
##ove
##oven
##over
##overl
##overy
##oves
##ovian
##ovine
##ovsk
##ow
##owder
##owders
##ower
##owever
##owing
##owled
##owledge
##owler
##own
##ows
##owski
##ox
##oxacin
##oxal
##oxaline
##oxamide
##oxane
##oxanes
##oxazine
##oxazol
##oxazole
##oxazoline
##oxia
##oxic
##oxicity
##oxid
##oxidant
##oxidase
##oxidation
##oxidative
##oxide
##oxides
##oxidized
##oxime
##oxin
##oxo
##oxorubicin
##oxy
##oxyc
##oxycarbonyl
##oxygen
##oxyl
##oxylin
##oxyp
##oxyphenyl
##oxys
##oxysilane
##oy
##oyl
##oz
##ozone
##p
##pH
##pKa
##pV
##pVDZ
##pVQZ
##pVTZ
##pa
##pack
##packed
##packet
##pair
##paired
##palladium
##pan
##panel
##paper
##par
##para
##parallel
##param
##paramagnetic
##parameter
##parameters
##paration
##pared
##parg
##parin
##parity
##part
##partial
##partic
##particle
##particles
##parts
##pase
##pass
##path
##patterned
##pc
##pd
##pe
##peak
##peaks
##pec
##pecially
##pect
##pective
##pectives
##pen
##pend
##pended
##pendent
##pendicular
##penet
##pension
##pent
##penta
##pentane
##peptide
##peptides
##per
##performance
##perim
##perimental
##period
##periodic
##perovsk
##perovskite
##perpendicular
##pers
##pert
##perturb
##perturbative
##perturbed
##perture
##pes
##pet
##petroleum
##pez
##pf
##ph
##pha
##phal
##phase
##phases
##phasic
##phasing
##phe
##phed
##phen
##phenanth
##phenanthroline
##phene
##phenol
##phenols
##phenoxy
##phenyl
##phenyle
##phenylene
##phenylenediamine
##phenyleth
##pheres
##phi
##phone
##phonon
##phos
##phosph
##phosphate
##phosphine
##phosphino
##phosphonate
##phosphonium
##phosphor
##phot
##photo
##photon
##phthal
##physical
##physics
##pi
##pic
##pid
##piece
##pies
##pin
##pink
##pins
##pip
##piper
##pite
##pixel
##pj
##pk
##pl
##placement
##planar
##plane
##plas
##plasma
##plastic
##plate
##platin
##play
##ple
##plet
##plex
##plot
##plus
##pm
##pn
##po
##point
##points
##pol
##polar
##polarization
##polarized
##pole
##polished
##poly
##polymer
##polymerization
##polymers
##pon
##ponential
##ponse
##poor
##por
##pore
##porous
##porphyrin
##port
##pos
##pose
##posed
##posited
##position
##positions
##positive
##post
##pot
##potential
##pow
##power
##powered
##pp
##pped
##ppen
##ppenheimer
##pping
##ppler
##ppm
##ppy
##pq
##pr
##pre
##pread
##prec
##preced
##precedented
##precipitation
##precision
##predic
##prepared
##pres
##present
##preser
##pressed
##pressure
##princip
##principle
##principles
##print
##printed
##printing
##prints
##pris
##prise
##prisingly
##pro
##probe
##process
##processed
##processing
##produced
##product
##products
##prof
##program
##programmed
##prol
##prolifer
##proliferative
##proline
##prom
##promoted
##prop
##propag
##propagating
##propane
##propanol
##proper
##property
##proportion
##propyl
##propylene
##prot
##protected
##protein
##protic
##proton
##protonated
##ps
##pseudo
##pt
##pti
##ptic
##ption
##pul
##pull
##pulse
##pump
##pur
##pure
##purity
##purple
##put
##px
##py
##pyr
##pyran
##pyraz
##pyrene
##pyrid
##pyridin
##pyridine
##pyridinium
##pyridyl
##pyrim
##pyrro
##pyrrol
##pyrrole
##pyrrolidone
##pz
##q
##qe
##qi
##qj
##qk
##qm
##qn
##qp
##qr
##qs
##qt
##qu
##quad
##quadrup
##quadruplex
##quality
##quantitative
##quantum
##quartz
##quasi
##quat
##qubit
##que
##quee
##quenc
##quenched
##quenching
##queous
##ques
##quet
##qui
##quin
##quinolin
##quinoline
##quinone
##quiring
##quis
##quisite
##quist
##qx
##qz
##r
##rA
##rF
##rGO
##rN
##ra
##rab
##rac
##race
##racellular
##racene
##races
##ract
##racted
##ractical
##racting
##raction
##ractions
##ractive
##racture
##rad
##radi
##radiation
##radiative
##radic
##radical
##radius
##raft
##rafts
##rag
##rain
##rained
##ral
##rally
##rals
##ram
##ramatic
##ramb
##rami
##ramid
##ramidal
##ramolecular
##rams
##ran
##rance
##ranched
##rand
##random
##rane
##rang
##range
##ranged
##rangement
##rangements
##rangian
##ranging
##rank
##rans
##rant
##rants
##rap
##rapeu
##rapeutic
##raph
##rapies
##rapol
##rapped
##rapping
##rapure
##rapy
##raquinone
##rared
##raries
##rary
##ras
##rastructure
##rate
##rated
##rateg
##rates
##ratic
##rating
##ratio
##ration
##rations
##rative
##rator
##ratory
##raulic
##ravel
##raw
##ray
##rays
##raz
##razil
##razine
##rb
##rc
##rd
##re
##rea
##reaction
##reactive
##reactor
##read
##ready
##real
##rease
##reased
##reasing
##reated
##rec
##received
##recip
##recipitation
##recovery
##rect
##rected
##rection
##rections
##red
##redic
##redicted
##reduc
##reduced
##reducible
##reducing
##reduction
##ree
##reement
##reening
##reep
##reev
##ref
##refer
##reference
##referred
##reflection
##reg
##region
##regn
##regular
##regulated
##regulation
##rehen
##reinforced
##rel
##related
##relation
##relations
##relative
##relativistic
##relax
##relaxation
##relaxed
##release
##reliminary
##ren
##rence
##rene
##renes
##renkel
##rent
##rep
##represent
##represented
##req
##requ
##requencies
##requency
##rer
##res
##resent
##resentation
##resentative
##resh
##reshold
##resid
##residue
##resistance
##resistant
##resnel
##resol
##resolution
##resolved
##reson
##resonance
##resonant
##resp
##respective
##respectively
##respon
##respond
##responding
##respondingly
##response
##responsive
##ress
##ressed
##ressing
##ression
##ressive
##ressor
##ressure
##rest
##restim
##restrial
##ret
##retard
##retardant
##rete
##reted
##retion
##rett
##rever
##reversal
##reversible
##rex
##rf
##rh
##rhen
##rhenius
##rho
##rhod
##ri
##ria
##rial
##rib
##ributed
##ribution
##ributions
##ric
##rical
##rically
##rice
##rices
##rich
##riched
##richlor
##rick
##ricted
##riction
##rictive
##rid
##ride
##rides
##ridge
##ridine
##ridyl
##rie
##ried
##rief
##riefly
##riend
##riendly
##rient
##rier
##riers
##ries
##rif
##rification
##rifug
##rig
##right
##rigid
##rij
##ril
##rile
##riles
##rils
##rim
##rimary
##rimer
##rimers
##rimidine
##rimin
##rimination
##rin
##rine
##ring
##ringe
##ringes
##rings
##rink
##rins
##rinsic
##rint
##rinted
##rinting
##rints
##rion
##rior
##rip
##ript
##ription
##riptions
##ripts
##ris
##rise
##rist
##rit
##rite
##rites
##ritic
##ritical
##riting
##riton
##ritten
##rix
##rj
##rk
##rl
##rm
##rms
##rn
##ro
##road
##rob
##roc
##rocal
##rochemical
##rock
##rocyte
##rocytes
##rod
##roduced
##roducing
##roduction
##roelectric
##rog
##rogate
##rogen
##rogenic
##roid
##roids
##rol
##rolact
##rolactone
##role
##rolein
##roleum
##roline
##roll
##rolled
##rolling
##rolog
##rology
##rom
##romagnetic
##romatic
##rome
##romechanical
##romer
##romeritics
##rometer
##romethane
##rometric
##rometry
##romo
##ron
##rone
##ronectin
##rong
##ronic
##ronics
##ront
##room
##rop
##rope
##roph
##rophic
##rophy
##ropic
##ropium
##ropri
##ropriate
##ropy
##ropyl
##ror
##rors
##ros
##roscale
##roscop
##roscope
##roscopic
##roscopically
##roscopy
##rose
##rosine
##rosion
##rosp
##ross
##rost
##rosymmetric
##rot
##rotating
##rotation
##rotational
##rotaxane
##roton
##rotron
##rough
##rought
##round
##roup
##rous
##roved
##row
##rowave
##rowing
##rown
##rows
##rowth
##rox
##roxim
##roximately
##rozen
##rp
##rr
##rs
##rt
##ru
##ruct
##ructose
##ructural
##ructure
##ructuring
##rug
##ruit
##rum
##run
##rup
##rusion
##ry
##rying
##ryl
##ryp
##rys
##ryst
##rystal
##rystall
##rystalline
##rystallization
##rystals
##rö
##rödinger
##s
##sa
##sal
##salen
##salt
##sample
##samples
##sand
##sapphire
##sat
##sation
##saturated
##saturation
##satz
##sc
##scale
##scaled
##scaling
##scan
##scanning
##scatter
##scattered
##scattering
##sch
##scheme
##scher
##scherichia
##science
##scill
##sciss
##scre
##screw
##script
##scripts
##sd
##se
##sec
##second
##section
##sectional
##sections
##sed
##see
##seed
##seeded
##segment
##selected
##selective
##selectivity
##selen
##self
##sem
##semb
##semble
##sembles
##sembly
##semic
##semiconductor
##sen
##sensi
##sensing
##sensitive
##sensitivity
##sensitized
##sep
##separ
##separated
##separation
##sequ
##sequence
##sequent
##sequently
##ser
##series
##sert
##serting
##sertion
##served
##ses
##sesqui
##sesquioxane
##sess
##set
##sets
##seud
##seudo
##sey
##sf
##sgn
##sh
##shap
##shape
##shaped
##sharing
##she
##shear
##sheet
##sheets
##shell
##shield
##shif
##shift
##shifted
##shifting
##shifts
##ship
##shock
##short
##shot
##shown
##si
##siRNA
##sia
##sial
##sian
##sibility
##sible
##sibly
##side
##sided
##sient
##sif
##sight
##sigma
##sign
##signal
##sil
##silane
##sile
##silic
##silica
##silicon
##siloxane
##silver
##sily
##silyl
##silylation
##sim
##similar
##simp
##sin
##since
##sing
##single
##singlet
##sinh
##sintered
##sion
##sip
##sis
##sist
##sisted
##sistent
##site
##sites
##sities
##sition
##sitions
##sitive
##situ
##sity
##sive
##siveness
##sives
##sivity
##size
##sized
##sj
##sk
##ski
##skin
##sky
##sl
##slip
##slow
##sm
##small
##smo
##smooth
##sn
##so
##sodium
##soft
##sol
##solated
##solid
##soluble
##solute
##solution
##solv
##solved
##solvent
##some
##son
##sonic
##sor
##sorb
##sorp
##sorption
##sour
##source
##sover
##sozyme
##sp
##space
##spaces
##spacing
##sparent
##spec
##specially
##species
##specific
##spect
##spectra
##spectral
##spectrum
##speed
##sphere
##spherical
##spin
##spinning
##spiro
##spl
##split
##splitting
##sport
##spot
##spots
##spray
##spring
##spun
##sput
##sputtering
##sq
##sqrt
##squ
##square
##squared
##squares
##sr
##ss
##ssbauer
##st
##stabil
##stability
##stabilized
##stable
##stac
##stack
##stacked
##stacking
##stad
##stadt
##stage
##stained
##stalk
##stand
##standard
##standing
##stann
##stant
##star
##stat
##state
##states
##static
##station
##stationary
##ste
##steady
##sted
##steel
##stein
##stellar
##sten
##step
##ster
##stic
##stick
##stim
##stit
##stituted
##stituting
##stitution
##sto
##stock
##stoichi
##stoichiometric
##stoichiometry
##stone
##stood
##storage
##str
##stra
##stract
##straction
##strahl
##strahlung
##strain
##strained
##strand
##stranded
##strap
##strate
##strates
##stration
##stre
##stream
##strength
##strept
##streptomycin
##stress
##stret
##stretch
##stretching
##stri
##strip
##strom
##stron
##strong
##struc
##struct
##structed
##struction
##structions
##structive
##structural
##structure
##structured
##structures
##strum
##sts
##stu
##studied
##styrene
##styrenes
##su
##sub
##substit
##substituted
##substitution
##substrate
##such
##suitable
##sulf
##sulfon
##sulfonyl
##sulfur
##sum
##sup
##super
##supp
##support
##supported
##sur
##sure
##surf
##surface
##surfactant
##sus
##sw
##swit
##switched
##switching
##sy
##symbols
##symmetric
##symmetry
##syn
##synthe
##synthesis
##synthesized
##synthetic
##system
##t
##tBu
##ta
##tability
##table
##tableI
##tabletable
##tag
##tage
##tagged
##tail
##tain
##tained
##taining
##take
##taken
##tal
##tally
##tan
##tance
##taneous
##tanh
##target
##targeted
##targeting
##tation
##tau
##tb
##tc
##td
##tdt
##te
##ted
##teen
##tefact
##tein
##teins
##temp
##temperature
##template
##templated
##temporal
##ten
##tenance
##tenes
##teness
##tension
##tention
##ter
##tered
##tering
##terior
##terious
##term
##termin
##terminal
##terminated
##terminus
##tern
##ternal
##ternally
##ters
##tert
##tes
##test
##tet
##tetra
##tetrahydro
##tetramethyl
##tetraz
##tex
##text
##tf
##tg
##th
##thal
##that
##thaw
##the
##theless
##then
##thene
##theore
##ther
##there
##therm
##thermal
##thermally
##thermia
##thern
##theta
##thf
##thi
##thiaz
##thiazol
##thick
##thickness
##thien
##thienyl
##thin
##thing
##thio
##thiol
##thiophen
##thiophene
##third
##this
##though
##three
##threshold
##through
##throughput
##thus
##thyl
##ti
##tia
##tial
##tially
##tian
##tiary
##tible
##tic
##tical
##tically
##tice
##tices
##ticity
##ticle
##ticles
##tics
##tid
##tide
##tides
##tidine
##tier
##ties
##tif
##tifact
##tiff
##tific
##tification
##tificial
##tified
##tifies
##tify
##tifying
##tig
##tight
##tigue
##til
##tilage
##tilde
##tile
##tiles
##tilis
##tility
##till
##tilled
##tim
##timated
##time
##times
##tin
##tinent
##ting
##tingu
##tinguish
##tio
##tion
##tional
##tions
##tious
##tip
##tir
##tis
##tiss
##tissue
##tit
##titan
##tite
##titial
##tities
##tition
##titions
##titious
##titive
##titude
##titudes
##tity
##tium
##tiv
##tivated
##tivation
##tive
##tiveness
##tives
##tivities
##tivity
##tization
##tize
##tized
##tizer
##tizers
##tizing
##tj
##tk
##tl
##tle
##tleness
##tler
##tling
##tly
##tm
##tmorill
##tmorillonite
##tn
##to
##together
##tok
##tokes
##tol
##tolu
##toluene
##toluenesulf
##tolyl
##ton
##tone
##tonian
##toon
##tooth
##top
##tophan
##tor
##tosecond
##tosyl
##tot
##total
##totic
##toxic
##toxicity
##tp
##tpy
##tr
##tra
##trace
##tran
##trans
##transfer
##transferase
##transform
##transformed
##transition
##transp
##transparent
##transport
##transporting
##trap
##trapped
##trapping
##trast
##tration
##tre
##treat
##treated
##treatment
##treatments
##tri
##triangles
##triazine
##triazole
##tric
##trichlor
##trie
##triethoxysilane
##trifluor
##trifluoro
##trifluoromethyl
##trig
##triggered
##trimethoxysilane
##trimethyl
##trimethylsilyl
##triphenyl
##triplet
##tris
##trivial
##tron
##true
##ts
##tt
##ttp
##ttps
##tu
##tube
##tumor
##tun
##tunable
##tuned
##tuning
##tunnel
##turb
##ture
##tured
##tures
##turing
##turn
##tw
##two
##ty
##typ
##type
##typically
##tz
##u
##ua
##ual
##ually
##uals
##uan
##uary
##uate
##uated
##uation
##ub
##ubb
##ubbard
##ubber
##ubble
##ubbles
##ubbs
##ube
##uber
##ubes
##ubic
##ubicin
##ubility
##ubiqu
##uble
##ublic
##ubov
##ubric
##ubstituted
##uc
##uccess
##uccessful
##uccin
##uccinimide
##uce
##uced
##uch
##uche
##uchi
##uchy
##ucial
##ucid
##ucifer
##uciferase
##ucine
##ucing
##uck
##ucl
##ucle
##uclear
##ucleo
##ucleotide
##uclide
##uclidean
##ucose
##uct
##uction
##uctive
##uctu
##ud
##ude
##udes
##udop
##udsen
##ue
##ued
##uel
##uent
##uents
##uer
##ues
##uest
##uests
##ufact
##uff
##ufficient
##ug
##uge
##ugh
##ughen
##ughened
##ughening
##ugher
##ught
##ughter
##ugin
##ui
##uille
##uine
##uit
##uitive
##uits
##uj
##uk
##ukary
##ukawa
##uker
##uki
##ul
##ula
##ulant
##ular
##ularities
##ularly
##ulate
##ulated
##ulates
##ulating
##ulation
##ulations
##ulative
##ulator
##ulators
##ulatory
##ulcan
##uld
##ule
##uled
##ulence
##ulene
##uler
##ules
##ulf
##ulfate
##ulfide
##ulfonate
##ulfonic
##ulfonyl
##uli
##ulic
##ulin
##uling
##ulk
##ull
##ulomb
##ulos
##ulose
##ulosic
##ulph
##ulse
##ulsif
##ulsion
##ulsive
##ult
##ultaneous
##ulti
##ulties
##ultim
##ulting
##ultipl
##ultra
##ults
##ultural
##ulture
##ulturing
##ulum
##ulus
##uly
##um
##umably
##uman
##umann
##umar
##umarin
##umb
##umbbell
##umber
##umbers
##ume
##umed
##umen
##umer
##umerical
##umes
##umin
##umination
##umines
##uminescence
##uminescent
##uming
##umm
##ummar
##ummary
##ummy
##umn
##umor
##ump
##umption
##umptions
##un
##unc
##unch
##unched
##unches
##unching
##unct
##unction
##unctional
##unctions
##und
##undant
##undec
##under
##undlich
##undred
##une
##uned
##ung
##ungal
##ungsten
##uniform
##uniformity
##uning
##unit
##unk
##unnel
##unov
##unsaturated
##unt
##untain
##unte
##unted
##unter
##untered
##unting
##unts
##uosity
##uous
##up
##uple
##upled
##uples
##upling
##upp
##upper
##upro
##uprofen
##ups
##ur
##ura
##urability
##urable
##ural
##urally
##uran
##urance
##urate
##urated
##uration
##urations
##urb
##urban
##urbed
##ure
##urea
##ured
##ures
##ureth
##urethane
##urethanes
##urf
##urface
##urfaces
##urfural
##urg
##uric
##urine
##uring
##uristic
##urity
##urization
##urized
##urke
##urn
##urning
##uron
##uronic
##urrent
##urt
##urther
##urtz
##urtzite
##ury
##uryl
##us
##usc
##use
##used
##ush
##ushed
##ushes
##ushing
##using
##usion
##usive
##usivity
##usk
##usler
##uspended
##uss
##ust
##usted
##uster
##ustered
##usters
##ustion
##ustrated
##ustration
##usually
##ut
##utable
##utation
##utational
##utations
##ute
##uted
##uter
##utes
##uth
##uthal
##uthenium
##uther
##utherford
##uthors
##utile
##utin
##uting
##ution
##utional
##utions
##utive
##utral
##utron
##uts
##utta
##utter
##utting
##uture
##uty
##utyl
##uum
##uv
##uvate
##ux
##uy
##uz
##v
##vA
##vF
##va
##vable
##vac
##vacancy
##vacuum
##val
##valence
##valent
##valley
##vals
##valuation
##value
##valued
##values
##van
##vance
##vanced
##vanishing
##vanostatic
##vans
##vant
##vapor
##vaporation
##var
##vari
##variable
##variance
##variant
##varying
##vas
##vasive
##vate
##vated
##vating
##vation
##vative
##vature
##vc
##vdW
##ve
##vec
##vect
##vection
##vector
##vectors
##ved
##vel
##veld
##velocity
##velop
##veloped
##velopment
##ven
##veness
##vent
##vention
##ventional
##vents
##ver
##verage
##vere
##vered
##verestim
##vergence
##vern
##vers
##versal
##verse
##versely
##versing
##version
##versity
##versus
##verted
##vertical
##very
##ves
##vestig
##vex
##vey
##vg
##vi
##via
##vial
##vially
##vian
##viation
##vib
##vibrational
##vic
##vice
##vices
##vid
##vide
##vided
##vie
##vier
##view
##ville
##vin
##ving
##vinyl
##vinylidene
##violet
##vious
##viously
##vir
##viron
##vironment
##vis
##viscosity
##vised
##visible
##vision
##vities
##vitrogen
##vity
##vj
##vk
##vn
##vo
##voir
##vol
##volatile
##volta
##voltage
##voltaic
##volume
##voluted
##volution
##volved
##volving
##von
##vous
##vp
##vr
##vs
##vsk
##vt
##vw
##vx
##vy
##vz
##w
##wa
##wal
##wald
##wall
##walled
##war
##ward
##wards
##ware
##was
##water
##wave
##wavelength
##way
##ways
##we
##weak
##weight
##weighted
##well
##welling
##went
##wer
##wet
##wetting
##wh
##what
##when
##where
##which
##while
##white
##whm
##wi
##wich
##wide
##width
##wiley
##win
##wind
##wing
##wire
##wise
##wit
##with
##withdrawing
##within
##without
##witter
##wn
##wo
##wood
##work
##workers
##world
##woven
##wp
##ws
##wt
##ww
##www
##x
##xA
##xAl
##xAs
##xB
##xC
##xCox
##xF
##xFe
##xFex
##xG
##xGa
##xGex
##xH
##xL
##xM
##xMn
##xN
##xO
##xOy
##xS
##xSb
##xSe
##xSn
##xSr
##xSrx
##xT
##xTe
##xZn
##xa
##xc
##xchange
##xi
##xide
##xim
##xin
##xj
##xk
##xl
##xm
##xn
##xp
##xs
##xt
##xtran
##xx
##xy
##xyl
##xylene
##xz
##y
##yO
##yP
##ya
##yan
##yanide
##yano
##yc
##ycin
##ycl
##ycle
##ycles
##yclic
##ycline
##yclo
##yclohex
##yclohexyl
##ycomb
##yd
##ydberg
##ydro
##ye
##year
##yellow
##yer
##yes
##ygen
##yi
##yield
##ying
##yj
##yl
##ylamine
##ylate
##ylated
##ylation
##yle
##ylene
##ylidene
##ylind
##yll
##yllium
##ylon
##yloxy
##ym
##ymal
##ymmet
##ymmetri
##ymmetric
##ymmetrical
##ymmetry
##ymp
##yn
##ynam
##ynamic
##ynch
##ynchron
##ynchronous
##ynchrotron
##yne
##yner
##ynes
##ynit
##ynman
##ynolds
##ynthe
##ynthesis
##ynthetic
##ynyl
##yo
##yond
##yp
##ype
##ypt
##yr
##yrene
##yrenes
##yrin
##yrins
##yron
##yronitrile
##yryl
##ys
##ysi
##ysical
##ysics
##ysiological
##yson
##yst
##yste
##ysteine
##ystem
##ystems
##ystere
##ysteresis
##yt
##yte
##ytes
##ytic
##yx
##yy
##yz
##z
##za
##zag
##zation
##zations
##zawa
##ze
##zed
##zen
##zer
##zerland
##zero
##zers
##zes
##zeta
##zheimer
##zhou
##zi
##zinc
##zing
##zj
##zk
##zn
##zo
##zon
##zone
##zsch
##zu
##zy
##zyme
##zymes
##zz
##zzle
##zzles
##zzy
##{
##{(
##{1
##{2
##{[
##{\
##{{\
##{−
##|
##|(
##|)
##|+
##|,
##|.
##|/
##|2
##|2)
##|2+
##|2,
##|<
##|=
##||
##|∂
##|∇
##|−
##|≤
##}
##}$
##}(
##})
##}+
##},
##}.
##}2]
##}=
##}\
##}]
##}^{
##}{
##}}
##}}$
##}}}
##}}}$
##~
##~(
##~\
##©
##­
##­(
##­[
##­{1
##®
##®,
##°
##°)
##°),
##°).
##°,
##°.
##°;
##±
##±(
##±,
##±0.
##±0.0
##±0.00
##±0.01
##±0.02
##±0.05
##±0.1
##±0.2
##±0.3
##±0.4
##±0.5
##±1
##±2
##±3
##±5
##±=
##·
##·(
##·10
##·2
##·4
##··
##···
##·∇
##Ã
##Å
##×
##×(
##×1
##×10
##×100
##×1010
##×1011
##×1012
##×1013
##×1014
##×1015
##×1016
##×1017
##×1018
##×1019
##×1020
##×103
##×104
##×105
##×106
##×107
##×108
##×109
##×10−
##×10−1
##×10−10
##×10−2
##×10−3
##×10−4
##×10−5
##×10−6
##×10−7
##×10−8
##×10−9
##×2
##×3
##×4
##×5
##×[
##×∇
##á
##â
##ä
##é
##éel
##én
##ñ
##ö
##ör
##örster
##ø
##ønsted
##ü
##ück
##ückel
##üne
##üneisen
##Ĥ
##ħ
##ɛ
##ˆ
##ˆ(
##̂
##̃
##̄
##̅
##̇
##̱
##̲
##Γ
##Δ
##ΔΔ
##Δδ
##Δε
##Δθ
##Δλ
##Δμ
##Δν
##Δρ
##Δσ
##Δφ
##Δω
##Θ
##Λ
##Ξ
##Π
##Σ
##Υ
##Φ
##Ψ
##Ω
##α
##αα
##αβ
##αβγ
##αγ
##ασ
##β
##βα
##βγ
##γ
##δ
##δρ
##δφ
##ε
##ζ
##η
##θ
##ι
##κ
##λ
##μ
##μα
##μν
##ν
##ξ
##π
##πε
##ππ
##πρ
##πσ
##ρ
##ρσ
##σ
##σσ
##τ
##υ
##φ
##χ
##ψ
##ω
##ωτ
##‐
##‐(
##‐,
##‐0
##‐1
##‐1,
##‐1,2‐
##‐1,3‐
##‐1,4‐
##‐10
##‐100
##‐11
##‐12
##‐13
##‐15
##‐1‐
##‐2
##‐2,
##‐20
##‐2‐
##‐3
##‐3,
##‐30
##‐3‐
##‐4
##‐4,
##‐4‐
##‐5
##‐5,
##‐50
##‐5‐
##‐6
##‐6‐
##‐7
##‐8
##‐9
##‐[
##–
##–(
##–)
##–,
##–0
##–0.5
##–0.6
##–0.8
##–1
##–1)
##–1),
##–1).
##–1,
##–1.
##–1.0
##–1.2
##–1.5
##–10
##–100
##–1000
##–10].
##–11
##–1100
##–11].
##–12
##–120
##–1200
##–12].
##–13
##–13].
##–14
##–14].
##–15
##–150
##–15].
##–16
##–16].
##–17
##–17].
##–18
##–180
##–18].
##–19
##–19].
##–1;
##–2
##–2,
##–2.0
##–2.5
##–20
##–200
##–2000
##–20].
##–21
##–21].
##–22
##–22].
##–23
##–23].
##–24
##–24].
##–25
##–250
##–25].
##–26
##–26].
##–27
##–27].
##–28
##–28].
##–29
##–3
##–3.0
##–30
##–300
##–31
##–32
##–33
##–34
##–35
##–350
##–36
##–37
##–38
##–39
##–4
##–40
##–400
##–4000
##–41
##–42
##–43
##–44
##–45
##–450
##–46
##–47
##–48
##–49
##–4].
##–5
##–50
##–500
##–55
##–550
##–6
##–60
##–600
##–65
##–6].
##–7
##–70
##–700
##–75
##–7].
##–8
##–80
##–800
##–8].
##–9
##–90
##–900
##–9].
##–[
##––
##–––
##—
##——
##———
##————
##‖
##‖∇
##‘
##’
##’)
##’,
##’.
##“
##”
##”)
##”),
##”).
##”,
##”.
##†
##†(
##†)
##†+
##†,
##‡
##•
##••
##′
##′(
##′)
##′)(
##′)+
##′),
##′).
##′)=
##′)]
##′)−
##′+
##′,
##′-
##′.
##′/
##′2
##′;
##′=
##′[
##′]
##′|
##′‐
##′′
##′′(
##′′)
##′′),
##′′,
##′′-
##′′.
##′′‐
##′′′
##′−
##′∣
##′⟩
##⁡
##⁡(
##⃗
##←
##↑
##↑,
##↑↓
##→
##→(
##→)
##→,
##→0
##→0,
##→0.
##→1
##→2
##→3
##→4
##→−
##→∞
##→∞,
##→∞.
##↓
##↔
##↦
##∀
##∂
##∂(
##∂2
##∂2∂
##∂∂
##∇
##∇2
##∇×
##∈
##∈(0,
##∈[
##∈[0,
##∈{
##∊
##∏
##∑
##−
##−(
##−)
##−),
##−).
##−+
##−,
##−.
##−/
##−0.
##−0.0
##−0.00
##−0.3
##−0.4
##−0.5
##−0.6
##−0.7
##−0.8
##−1
##−1(
##−1)
##−1)(
##−1)+
##−1),
##−1).
##−1)2
##−1):
##−1);
##−1+
##−1,
##−1.
##−1.0
##−1.5
##−1/
##−1/2
##−10
##−11
##−12
##−12(
##−13
##−14
##−15
##−16
##−18
##−1;
##−1=
##−1[
##−1]
##−1−
##−2
##−2(
##−2)
##−2),
##−2).
##−2,
##−2.
##−20
##−22
##−23
##−3
##−3)
##−3),
##−3).
##−3,
##−3.
##−4
##−5
##−6
##−7
##−8
##−9
##−=
##−[
##−]
##−|
##−→
##−∂
##−∇
##−∑
##−−
##−⟨
##∓
##∕
##∕(
##∕2
##∕2)
##∕2,
##∕3
##∕4
##∕∂
##∗
##∗(
##∗)
##∗,
##∗=
##∘
##∘,
##∙
##∙∇
##√
##∝
##∞
##∞(
##∞)
##∞,
##∞.
##∞∞
##∣
##∣,
##∣2
##∣∣
##∥
##∥(
##∥,
##∥2
##∧
##∩
##∪
##∫
##∫0
##∫01
##∫02
##∫0∞
##∫−
##∫−∞
##∫−∞+∞
##∫−∞∞
##∫∫
##∼
##∼(
##∼1
##∼10
##≃
##≅
##≈
##≈1
##≈2
##≔
##≠
##≠0
##≠0,
##≠0.
##≡
##≡(
##≤
##≥
##≥0
##≪
##≪1
##≪1,
##≫
##≲
##≳
##⊂
##⊕
##⊗
##⊙
##⊥
##⊥(
##⊥)
##⊥,
##⊥2
##⊥=
##⋅
##⋅(
##⋅2
##⋅∇
##⋅⋅
##⋅⋅⋅
##⋆
##⋮
##⋯
##⋯,
##⋯⋯
##□
##○
##⟨
##⟩
##⟩(
##⟩)
##⟩+
##⟩,
##⟩.
##⟩=
##⟩=⟨
##⟩⟨
##⩽
##⩾
##⪡
##⿿
##〈
##〉
##〉,
##〉.
##〉=
##〉〈
##
##
##
##
##
##
##),
#1
$
$=
$\
${
${\
%
%)
%),
%).
%);
%,
%.
%;
&
(
(#
(%
(%)
(%):
((
()
(*
(+
(+)
(+)-
(+)‐
(-
(0
(0)
(0,
(0.
(0.0
(0.00
(0.01
(0.02
(0.05
(0.1
(0.10
(0.15
(0.2
(0.25
(0.3
(0.4
(0.5
(0.6
(0.7
(0.75
(0.8
(0.9
(00
(000
(0001)
(001)
(002)
(010)
(1
(1)
(1))
(1),
(1).
(1):
(1)]
(1)–(
(1,
(1-
(1.0
(1.1
(1.1)
(1.2
(1.3
(1.4
(1.5
(1.6
(1.7
(1.8
(1.9
(1/
(10
(10%
(10)
(10),
(10).
(10,
(100
(100)
(100),
(1000
(101
(101)
(11
(11)
(11),
(11).
(110
(110)
(110),
(111)
(111),
(112
(12
(12)
(12),
(12).
(120
(125
(126
(13
(13)
(13),
(13).
(14
(14)
(14),
(14).
(148
(15
(15)
(15),
(15).
(150
(16
(16)
(16),
(160
(17
(17)
(17),
(18
(18)
(18),
(180
(19
(19)
(19),
(197
(198
(199
(1:
(1:1
(1:1)
(1–
(1−
(2
(2)
(2),
(2).
(2,
(2-
(2.0
(2.1
(2.1)
(2.2
(2.3
(2.4
(2.5
(2.6
(2.7
(2.8
(2.9
(20
(20)
(20),
(200
(200)
(200),
(2000
(2010)
(2011)
(2012)
(2013)
(2014)
(2015)
(2016
(2016)
(2017)
(21
(21)
(21),
(22
(22)
(22),
(220)
(220),
(23
(23)
(23),
(24
(24)
(25
(25)
(250
(26
(26)
(27
(27)
(28
(28)
(29
(29)
(2×
(3
(3)
(3),
(3).
(3,
(3-
(3.0
(3.1
(3.2
(3.3
(3.4
(3.5
(3.6
(3.7
(3.8
(30
(30)
(300
(31)
(311)
(32
(32)
(33
(33)
(34
(34)
(35
(35)
(350
(36
(36)
(37
(37)
(38
(38)
(39)
(3×
(4
(4)
(4),
(4).
(4,
(4-
(4.0
(4.1
(4.2
(4.3
(4.4
(4.5
(4.6
(40
(40)
(400
(41)
(42)
(43)
(44)
(45
(45)
(46)
(48
(5
(5%
(5)
(5),
(5).
(5,
(5.0
(5.1
(50
(500
(55
(6
(6)
(6),
(6).
(6,
(60
(600
(65
(7
(7)
(7),
(7).
(7.5
(70
(700
(75
(77
(78
(8
(8)
(8),
(8).
(80
(800
(85
(9
(9)
(9),
(9).
(90
(93
(94
(95
(96
(97
(98
(99
(99.9
(99.99
(<
(<1
(<10
(=
(>
(>99
([
(|
(~
(°
(°)
(±
(×
(‐
(–
(—
(‘
(“
(•
(•)
(∂
(−
(−)
(−)-
(−)‐
(−1
(−2
(∼
(∼1
(∼10
(∼100
(∼2
(∼5
(≈
(≤
(≥
(□
(○
(○)
(
)
),
).
*
**
***
+
+1
+2
+3
,
-
.
..
...
...,
/
0
0%
0)
0),
0).
0,
0.
0.0
0.0,
0.00
0.000
0.001
0.001,
0.002
0.003
0.004
0.005
0.006
0.008
0.01
0.01)
0.01,
0.01.
0.012
0.015
0.02
0.02,
0.025
0.03
0.03,
0.04
0.04,
0.05
0.05%
0.05)
0.05).
0.05,
0.05.
0.06
0.07
0.075
0.08
0.09
0.1
0.1%
0.1)
0.1,
0.1.
0.10
0.10,
0.11
0.12
0.125
0.13
0.14
0.15
0.15,
0.154
0.16
0.17
0.18
0.19
0.1–
0.2
0.2%
0.2)
0.2,
0.2.
0.20
0.21
0.22
0.23
0.24
0.25
0.25,
0.26
0.27
0.28
0.29
0.2–
0.3
0.3%
0.3,
0.30
0.31
0.32
0.33
0.34
0.35
0.36
0.37
0.38
0.39
0.4
0.4,
0.40
0.41
0.42
0.43
0.44
0.45
0.46
0.47
0.48
0.49
0.5
0.5%
0.5)
0.5,
0.5.
0.50
0.51
0.52
0.53
0.54
0.55
0.56
0.57
0.58
0.59
0.6
0.6,
0.60
0.61
0.62
0.63
0.64
0.65
0.66
0.67
0.68
0.69
0.7
0.7,
0.70
0.71
0.72
0.73
0.74
0.75
0.75,
0.76
0.77
0.78
0.79
0.8
0.8,
0.80
0.81
0.82
0.83
0.84
0.85
0.86
0.87
0.88
0.89
0.9
0.9,
0.90
0.91
0.92
0.93
0.94
0.95
0.96
0.97
0.98
0.99
00
000
000,
03
09
0;
0<
0]
0°
0°,
0–
0≤
0⩽
1
1%
1%,
1%.
1(
1)
1),
1).
1+
1,
1,2,
1,2-
1,2‐
1,3,
1,3,5-
1,3-
1,3‐
1,4-
1,4‐
1-
1.
1.(
1.0
1.0,
1.0.
1.00
1.01
1.02
1.03
1.04
1.05
1.06
1.07
1.08
1.09
1.1
1.10
1.11
1.12
1.13
1.14
1.15
1.16
1.17
1.18
1.19
1.2
1.2,
1.20
1.21
1.22
1.23
1.24
1.25
1.26
1.27
1.28
1.29
1.3
1.30
1.32
1.33
1.34
1.35
1.36
1.37
1.38
1.39
1.4
1.40
1.42
1.43
1.44
1.45
1.46
1.47
1.48
1.5
1.5%
1.5,
1.50
1.53
1.54
1.55
1.56
1.57
1.58
1.6
1.60
1.63
1.64
1.65
1.66
1.67
1.68
1.7
1.74
1.75
1.76
1.77
1.78
1.8
1.85
1.86
1.88
1.9
1.95
1.96
1.98
1/
1/2
1/2,
1/3
1/4
10
10%
10%,
10%.
10(
10)
10),
10).
10,
10,000
10-
10.
10.0
10.10
10.1039/
10.2
10.3
10.4
10.5
10.6
10.7
10.8
10.9
100
100%
100%,
100%.
100,
100-
100.
1000
1000,
1000°
100°
100–200
101
1010
1011
1012
1013
1014
1015
1016
1017
1018
1019
102
1020
1021
1024
103
104
104,
105
1050
106
1064
107
1073
108
109
10°
10×
10‐
10–
10–12
10–15
10–20
10–3
10–4
10–5
10–6
10−
10−1
10−10
10−11
10−12
10−2
10−3
10−4
10−5
10−6
10−7
10−8
10−9
11
11%
11(
11)
11).
11,
11-
11.
11.0
11.2
11.3
11.4
11.5
11.6
11.7
110
1100
111
112
113
114
115
1150
116
117
118
119
12
12%
12(
12)
12).
12,
12-
12.
12.0
12.4
12.5
12.6
12.7
12.8
120
120,
1200
120°
121
122
123
124
125
1250
126
127
128
128.3,
128.4,
128.5,
128.6,
128.7,
129
13
13%
13(
13)
13).
13,
13.
13.5
13.6
130
130.
1300
131
132
133
134
135
1350
136
137
138
139
14
14%
14(
14)
14).
14,
14.
14.0
14.1
14.5
140
1400
141
142
143
144
145
1450
146
147
148
149
15
15%
15(
15)
15).
15,
15-
15.
15.0
150
150,
1500
150°
151
152
153
154
155
1550
156
157
158
159
15°
15–20
16
16%
16(
16)
16).
16,
16-
16.
160
1600
161
162
163
164
1640
165
1650
166
167
168
169
17
17%
17)
17).
17,
17.
17.5
170
1700
171
172
173
174
175
176
177
178
18
18%
18)
18,
18.
18.2
180
1800
180°
184
185
188
19
19)
19,
19.
190
192
193
195
196
1960
197
1970
198
1980
199
1990
1995
1996
1997
1998
1:
1:1
1:1,
1:2
1;
1]
1}
1°
1×
1‐
1–
1–10
1–2
1–3
1–4
1–5
1–6
1′
1−
1∕
2
2%
2(
2)
2),
2).
2+
2,
2,2
2,2,
2,2′-
2,2′‐
2,3-
2,3‐
2,4-
2,4‐
2,5-
2,5‐
2,6-
2,6‐
2-
2-(
2.
2.(
2.0
2.0,
2.00
2.04
2.05
2.08
2.1
2.1,
2.1.
2.10
2.14
2.15
2.16
2.17
2.18
2.2
2.2.
2.20
2.25
2.26
2.27
2.28
2.3
2.30
2.33
2.35
2.36
2.38
2.4
2.45
2.5
2.5%
2.5,
2.50
2.6
2.7
2.75
2.8
2.9
2/
2/3
20
20%
20%,
20%.
20)
20,
20-
20.
20.0
200
200,
2000
2000,
2001
2002
2003
2003,
2004
2004,
2005
2005,
2006
2006).
2006,
2007
2007).
2007,
2008
2008).
2008,
2009
2009).
2009,
2009;
200°
2010
2010).
2010,
2010;
2011
2011).
2011,
2011;
2012
2012).
2012,
2012;
2013
2013)
2013).
2013,
2013;
2014
2014)
2014),
2014).
2014,
2014;
2015
2015)
2015),
2015).
2015,
2015;
2016
2016)
2016),
2016).
2016,
2016;
2017
2017).
2017,
2018
2020
204
205
207
208
209
20°
20–30
21
21)
21,
21.
21.5
210
2100
211
212
213
214
215
216
217
218
22
22%
22)
22,
22.
22.5
220
2200
223
224
225
226
227
228
23
23,
23.
230
232
233
234
235
236
237
238
24
24)
24,
24-
24.
240
2400
245
248
25
25%
25)
25,
25.
25.0
250
250,
2500
254
255
256
25°
26
26,
26.
260
264
265
266
267
27
27,
270
273
275
278
28
28,
280
284
285
286
287
288
29
29,
290
293
295
296
297
298
298.15
299
2:
2:1
2;
2]
2].
2°
2×
2×2
2‐
2–
2–3
2–4
2–5
3
3%
3(
3)
3),
3).
3,
3,4-
3,5-
3-
3-(
3.
3.(
3.0
3.0,
3.00
3.1
3.1.
3.15
3.2
3.2.
3.25
3.3
3.35
3.4
3.5
3.5,
3.6
3.7
3.75
3.8
3.9
3/2
30
30%
30%,
30)
30,
30-
30.
300
300,
3000
300°
303
304
305
306
308
30°
31
31,
310
313
315
316
318
32
32,
320
323
325
328
33
33%
33,
330
333
334
335
336
337
338
339
34
34,
340
3400
343
344
345
348
35
35%
35,
350
3500
353
355
36
36,
360
3600
365
368
37
37,
370
373
375
37°
38
38,
380
385
39
390
393
395
398
399
3:
3:1
3;
3°
3‐
3–
3–4
3–5
3–6
3′
4
4%
4(
4)
4),
4).
4,
4,4
4,4′-
4,4′‐
4-
4-(
4.
4.(
4.0
4.0,
4.1
4.1.
4.2
4.25
4.3
4.4
4.5
4.5,
4.6
4.7
4.8
4.9
40
40%
40,
400
400,
4000
405
40°
41
410
415
42
42,
420
423
425
43
430
435
44
440
445
45
45%
45,
450
45°
45°,
46
460
465
47
470
473
475
48
48,
480
485
488
49
490
4:
4:1
4°
4‐
4–5
4–6
5
5%
5%,
5%.
5(
5)
5),
5).
5,
5-
5.
5.(
5.0
5.0,
5.1
5.2
5.3
5.4
5.5
5.6
5.7
5.8
5.9
50
50%
50%,
50%.
50,
50-
50/50
500
500,
5000
500°
50°
50–100
51
510
512
514
515
52
520
523
525
529
53
530
531
532
533
535
54
540
55
55%
55,
550
56
560
57
570
573
575
58
580
59
590
5:
5°
5‐
5–10
5–6
5–7
5–8
5′
5′-
5′‐
6
6%
6(
6)
6),
6).
6,
6-
6-31
6.
6.(
6.0
6.1
6.2
6.25
6.3
6.4
6.5
6.6
6.7
6.8
6.9
60
60%
60,
600
600,
6000
600°
60°
61
610
62
620
623
625
63
630
632.8
633
64
640
65
65%
650
66
660
67
670
673
68
68%
680
69
690
6:
6‐
6–8
7
7%
7(
7)
7),
7).
7,
7-
7.
7.(
7.0
7.0,
7.1
7.2
7.25
7.26
7.28
7.3
7.30
7.34
7.35
7.36
7.38
7.4
7.4)
7.4).
7.4,
7.4.
7.40
7.5
7.5,
7.6
7.7
7.8
7.9
70
70%
70,
700
7000
70°
71
710
72
720
73
730
74
740
75
75%
75,
750
76
760
77
773
78
780
785
79
7:
7‐
8
8%
8(
8)
8),
8).
8,
8-
8.
8.(
8.0
8.0,
8.1
8.2
8.3
8.4
8.5
8.6
8.7
8.8
8.9
80
80%
80,
800
800,
8000
800°
808
80°
81
82
82%
820
83
830
84
840
85
85%
850
86
87
870
873
88
88%
89
8‐
8–10
9
9%
9(
9)
9),
9).
9,
9-
9.
9.(
9.0
9.1
9.2
9.3
9.4
9.5
9.6
9.7
9.8
9.9
90
90%
90,
900
90°
90°,
90°.
91
91%
92
92%
93
93%
94
94%
95
95%
950
96
96%
96-
97
97%
973
98
98%
980
99
99%
99%)
99%),
99%,
99.9
99.99
9‐
:
;
<
<
<(
</
</s>
<0
<0,
<0.
<1
<1
<1,
<10
<10
<2
<s>
<unk>
=
>
>99
?
??
???
@
A
AA
AAO
AB
ABA
ABC
ABS
ABSTRACT
ABTS
AC
ACC
ACE
ACF
ACN
ACP
ACS
AD
ADC
ADM
ADP
AE
AEM
AES
AF
AFM
AG
AGN
AGNs
AH
AI
AIBN
AIE
AIMD
AL
ALD
ALP
AM
AMP
AMR
AN
ANALYSIS
AND
ANN
ANOVA
ANS
AO
AP
APC
APD
API
APP
APS
APT
APTES
AQ
AR
ARPES
AS
ASA
ASAP
ASC
ASD
ASE
AST
ASTM
ASupplementary
AT
ATCC
ATP
ATR
ATRP
AU
AUC
AV
AX
AXS
AZ
AZO
Ab
About
Above
Absolute
Absorb
Absorbance
Absorption
Abstract
Ac
AcOH
Academ
Academy
Accel
According
Accordingly
Accur
Acet
Acid
Acros
Act
Activation
Active
Activity
Actually
Ad
AdS
Adapted
Adding
Addition
Additional
Additionally
Adsorption
Advance
Advanced
Aer
Aesar
Af
Afric
After
Afterward
Afterwards
Ag
AgCl
AgI
AgNO
AgNP
AgNPs
AgNW
AgNWs
Again
Agency
Agilent
Ai
Air
Ak
Al
AlCl
AlGaAs
AlGaN
AlN
AlO
AlOx
Ala
Aladdin
Aldrich
Alex
Alexa
Alfa
Alfvén
Alg
Alice
Aliqu
Alk
All
Alloy
Almost
Along
Alq
Also
Altern
Alternatively
Although
Alumin
Aluminum
AlxGa
Alzheimer
Am
Amber
Americ
America
American
Among
Amorphous
Amp
Ampl
An
Anal
Analog
Analogous
Analy
Analyses
Analysis
Analytical
Analyzer
And
Anderson
Andreev
Ang
Angle
Animal
Anne
Annealing
Another
Ant
Anti
Any
Ap
Apart
App
Apparent
Apparently
Appendix
Appl
Application
Applications
Applied
Applying
Appro
Approximately
Aqueous
Ar
ArH
Arch
Archimed
Archimedes
Are
Area
Arg
Argon
Arm
Arrhenius
Arrows
As
Asp
Ass
Assay
Association
Assume
Assuming
Asymmetric
At
Atom
Atomic
Att
Attemp
Attempts
Au
AuCl
AuNCs
AuNP
AuNPs
AuNRs
Aug
Auger
Aust
Austral
Australia
Aut
Aux
Av
Avance
Average
Avrami
Award
Ax
Az
Azo
B
BA
BAL
BAS
BB
BBB
BC
BCC
BCN
BCP
BCPs
BCS
BD
BDE
BDT
BE
BEC
BET
BF
BFO
BG
BH
BHJ
BI
BJH
BL
BLG
BLYP
BM
BMG
BMGs
BMI
BMP
BN
BNT
BO
BODIPY
BP
BPA
BPO
BR
BS
BSA
BSE
BST
BT
BTO
BV
BW
BX
BY
BZ
Ba
BaFe
BaO
BaTiO
Back
Bader
Bal
Band
Bar
Barrett
Bas
Based
Basic
Bay
Bayesian
Bc
Be
Beam
Because
Before
Behavior
Beijing
Being
Bel
Bell
Below
Ben
Benz
Ber
Berg
Bern
Berry
Besides
Bessel
Bethe
Between
Beyond
Bi
BiFeO
BiO
BiOBr
BiOCl
BiOI
BiVO
Binding
Bio
Biological
Biom
Bios
Biot
Biotechnology
Bir
Bis
Bl
Black
Blends
Bloch
Block
Blue
Bn
Bo
Bob
Boc
Bode
Bog
Boh
Bohm
Bohr
Boltzmann
Bon
Bond
Bor
Born
Bose
Both
Bottom
Br
Bra
Bragg
Brazil
Bre
Briefly
Bright
Brillouin
Bro
Broad
Brown
Brownian
Bruker
Brun
Brunauer
Brønsted
Bu
Bulk
Bur
Burg
Burgers
But
Bx
By
Bz
C
CA
CAM
CAP
CAS
CASPT
CASSCF
CAT
CAs
CB
CBD
CBM
CBP
CBS
CC
CCD
CCDC
CCS
CCSD
CCT
CCTO
CCl
CD
CDCl
CDW
CDs
CE
CEA
CER
CEs
CF
CFD
CFO
CFT
CFU
CFs
CG
CH
CHA
CHAR
CHCl
CHF
CHI
CHO
CI
CID
CIE
CIF
CIGS
CIP
CIS
CK
CL
CLC
CLSM
CM
CMC
CME
CMOS
CMP
CMS
CN
CNC
CNCs
CNF
CNFs
CNR
CNS
CNT
CNTs
CO
COD
COF
COFs
COM
COMSOL
CONCLUSION
CONCLUSIONS
COO
COOH
COS
COSY
CP
CPA
CPC
CPD
CPE
CPL
CPM
CPP
CPT
CPU
CPs
CQ
CQD
CQDs
CR
CS
CSA
CSD
CSP
CT
CTA
CTAB
CTC
CTCs
CTE
CTS
CU
CV
CVD
CVs
CW
CX
CY
CYP
CZ
CZT
CZTS
CZTSSe
Ca
CaCO
CaCl
CaF
CaH
CaO
CaP
Cal
Calc
Calcd
Calculated
Calculation
Calculations
Calibration
California
Calor
Cam
Cambridge
Camp
Can
Canada
Cancer
Cap
Capac
Car
Carb
Carbon
Care
Carl
Carlo
Cart
Cartesian
Cary
Cas
Case
Casimir
Cassie
Cast
Cat
Catalyst
Catalysts
Catalytic
Cauchy
Cc
Cd
CdO
CdS
CdSe
CdTe
Ce
CeO
Cel
Celite
Cell
Cells
Cellular
Cellulose
Cent
Center
Central
Centre
Cer
Ceramic
Certain
Cf
Ch
Chain
Chan
Chand
Chang
Change
Changes
Changing
Char
Characteristic
Characteristics
Charge
Che
Chem
Chemical
Chemicals
Chemie
Chemistry
Chen
Cheng
Chern
Chi
China
Chinese
Chiral
Chitosan
Chlor
Cho
Chrom
Chromat
Ci
Circ
Cl
ClO
Class
Cle
Clearly
Clo
Close
Cluster
Cm
Cn
Co
CoCl
CoCr
CoFe
CoFeB
CoII
CoO
CoP
CoPt
CoS
Coating
Col
Cole
Coll
Collection
Color
Column
Com
Comb
Combined
Combining
Commerc
Commercial
Commission
Committee
Common
Communication
Comp
Company
Compar
Compared
Comparing
Comparison
Comparisons
Complete
Complex
Complexes
Components
Composite
Composites
Composition
Compound
Compounds
Compton
Computational
Con
Concent
Concentration
Concentrations
Concerning
Conclusions
Conditions
Conductivity
Conf
Confocal
Conjug
Consequently
Consid
Consider
Considering
Consistent
Constant
Cont
Contact
Content
Continu
Continuous
Contr
Contrary
Control
Conventional
Conversely
Conversion
Cooper
Coordination
Copolymer
Copolymers
Copper
Copyright
Cor
Core
Corning
Corollary
Corp
Corpor
Corporation
Correlation
Corresponding
Correspondingly
Cotton
Coulomb
Coulombic
Counc
Council
Coupling
Cox
Cp
Cr
CrO
Cre
Critical
Cross
Cry
Crystal
Crystall
Crystalline
Crystallization
Crystals
Cs
CsPb
CsPbBr
Ct
Cu
CuAAC
CuBr
CuCl
CuI
CuII
CuIn
CuInS
CuK
CuO
CuPc
CuS
CuSO
Culture
Cur
Curie
Current
Currently
Curve
Curves
Cy
Cyc
Cycl
Cyclic
Cycling
Cys
Cyt
Cz
D
DA
DAC
DAP
DAPI
DB
DBD
DBP
DBR
DBS
DBT
DBU
DC
DCC
DCE
DCF
DCM
DCP
DD
DDA
DDS
DE
DEA
DEM
DEP
DES
DETA
DETAILS
DF
DFT
DG
DGEBA
DH
DHA
DI
DIC
DIII
DIO
DISCUSSION
DISCUSSIONS
DL
DLC
DLS
DLTS
DM
DMA
DMAP
DMAc
DMC
DMD
DME
DMEM
DMF
DMI
DMP
DMPC
DMR
DMRG
DMS
DMSO
DN
DNA
DNP
DNS
DO
DOI
DOPC
DOS
DOX
DP
DPA
DPD
DPP
DPPC
DPV
DQ
DR
DRIFT
DRS
DRX
DS
DSA
DSC
DSS
DSSC
DSSCs
DT
DTA
DTG
DTT
DU
DV
DVB
DW
DWs
DY
Da
Dal
Dark
Dashed
Dat
Data
Dav
De
Debye
Dec
Def
Definition
Deg
Degradation
Deionized
Del
Dem
Den
Density
Dep
Department
Dependence
Depending
Deposition
Der
Deriv
Des
Design
Despite
Det
Detail
Detailed
Details
Detection
Determination
Determined
Development
Device
Devices
Dex
Di
Diamond
Dielectric
Diels
Diff
Differences
Different
Differential
Diffraction
Diffusion
Dig
Digital
Dimension
Dir
Dirac
Direct
Dirichlet
Dis
Disc
Discussion
Dispersion
Dist
Distribution
Dit
Div
Dn
Do
Don
Doping
Doppler
Dotted
Double
Dow
Dox
Dr
Dri
Drop
Drude
Drug
Dry
Ds
Du
Dual
Due
Dul
Dulbecco
Dun
During
Dy
Dye
Dynamic
Dynamics
E
EA
EB
EBL
EBSD
EC
ECAP
ECD
ECE
ECG
ECH
ECL
ECM
ECR
ECSA
ECs
ED
EDA
EDAX
EDC
EDL
EDS
EDTA
EDX
EE
EEG
EELS
EF
EG
EGF
EGFR
EH
EI
EIS
EIT
EL
ELF
ELISA
ELM
ELMs
EM
EMA
EMI
EML
EN
ENR
EO
EOM
EOS
EP
EPD
EPDM
EPR
EPS
EQ
EQE
EQU
EQUATION
ER
ES
ESA
ESCA
ESCALAB
ESI
ESR
ET
ETL
EU
EUV
EV
EVA
EW
EX
EXAFS
EXPERIMENT
EY
Ea
Each
Eagle
Ear
Earlier
Early
Earth
Eb
Ec
Eco
Ed
Educ
Education
Ef
Eff
Effect
Effective
Effects
Efficiency
Efficient
Eg
Eh
Ei
Einstein
Ek
El
Elastic
Elect
Electric
Electrical
Electro
Electrochemical
Electrode
Electron
Electronic
Electronics
Electrons
Electrosp
Element
Elemental
Elmer
Else
Elsevier
Em
Emission
Emp
Employing
En
Enanti
End
Energies
Energy
Engineering
Enhanced
Ent
Entry
Environment
Environmental
Eo
Ep
Epoxy
Eq
Eqn
Eqs
Equ
Equation
Equations
Equilibrium
Er
Error
Es
Escherichia
Especially
Ess
Estim
Estimated
Et
EtOAc
EtOH
Eth
Ethanol
Eu
Euclidean
Euler
Eulerian
Europe
European
Ev
Evaluation
Even
Event
Eventually
Every
Evid
Evidence
Evidently
Evolution
Ewald
Ex
Example
Examples
Exc
Excellent
Except
Excess
Exchange
Excitation
Exp
Experim
Experiment
Experimental
Experimentally
Experiments
Expl
Exposure
Expression
Ext
Extensive
Ey
Ez
F
FA
FAM
FB
FBG
FBS
FC
FCC
FCI
FCS
FD
FDA
FDTD
FE
FEA
FEG
FEI
FEL
FEM
FESEM
FET
FETs
FF
FFT
FG
FH
FI
FIB
FIG
FIR
FITC
FL
FLA
FLG
FM
FMR
FN
FO
FOR
FOV
FP
FR
FRET
FS
FSS
FT
FTIR
FTO
FTS
FW
FWHM
Fa
Fab
Fabrication
Fabry
Fac
Facility
Fact
Factory
Fano
Far
Faradaic
Faraday
Fast
Fc
Fd
Fe
FeCl
FeCo
FeII
FeIII
FeO
FeOOH
FePt
FeS
FeSe
Fenton
Fer
Fermi
Feynman
Fi
Fib
Fiber
Fick
Field
Fig
Figs
Figure
Figures
Fil
Film
Films
Fin
Final
Finally
Fine
Finite
First
Firstly
Fischer
Fisher
Fitting
Five
Fl
Flash
Flex
Flo
Floquet
Flory
Flow
Flu
Fluka
Fluor
Fluorescence
Fluorescent
Fm
Fmoc
Fn
Fo
Fock
Fok
Fokker
Following
For
Force
Form
Formation
Fortunately
Found
Foundation
Four
Fourier
Fr
Fra
Fraction
Frame
Fran
France
Franck
Frank
Fre
Free
Frenkel
Frequency
Fresnel
Freundlich
Fried
Friedel
From
Fu
Fuk
Ful
Full
Function
Functional
Fund
Further
Furthermore
Future
Förster
G
GA
GAG
GAM
GB
GBs
GC
GCD
GCE
GD
GDC
GE
GF
GFA
GFP
GG
GGA
GH
GHz
GI
GL
GM
GMA
GMR
GN
GNP
GNPs
GNR
GNRs
GNS
GO
GOx
GP
GPC
GPU
GPa
GQD
GQDs
GR
GRO
GS
GSH
GST
GT
GTP
GW
Ga
GaAs
GaN
GaP
GaSb
Gal
Galactic
Galvanostatic
Gao
Gas
Gauss
Gaussian
Gaussians
Gd
Ge
GeO
GeTe
GeV
Gel
GelMA
Gem
Gen
Gene
Gener
General
Generally
Generation
Geometry
Germ
German
Germany
Gi
Gib
Gibbs
Given
Gl
Glass
Glc
Global
Glu
Gly
Gmb
GmbH
Gn
Go
Gold
Good
Gr
Gra
Grain
Gram
Grant
Graph
Graphene
Graphite
Gre
Green
Grignard
Gro
Group
Growth
Grubbs
Gu
Guang
Guo
Gy
Gyr
H
HA
HAADF
HAP
HAT
HAp
HAuCl
HB
HBP
HBr
HC
HCC
HCHO
HCN
HCO
HCOOH
HCP
HCT
HCl
HClO
HD
HDA
HDO
HDPE
HE
HEA
HEK
HEM
HEMA
HEMT
HEMTs
HEPES
HER
HF
HG
HH
HHG
HI
HIF
HIP
HIV
HK
HKUST
HL
HM
HMBC
HMF
HN
HNO
HNTs
HO
HOMO
HOPG
HP
HPA
HPC
HPLC
HPT
HQ
HR
HRMS
HRP
HRS
HRTEM
HS
HSA
HSE
HSO
HSQC
HST
HT
HTL
HTM
HTS
HU
HUV
HUVECs
HV
HY
Ha
Had
Hal
Hall
Ham
Hamil
Hamilton
Hamiltonian
Hamiltonians
Han
Har
Hard
Hart
Hartree
Having
Hay
Hb
Hc
Hd
He
HeLa
Health
Heat
Heating
Heck
Heisenberg
Hel
Helmholtz
Hem
Hen
Hence
Henry
Hep
HepG
Her
Here
Herein
Herm
Hermitian
Hertz
Hes
Hessian
Heter
Heusler
Hex
Hf
HfO
Hg
Hi
Hig
Higgs
High
Higher
Highly
Hilbert
Hill
Hir
His
Hist
Hitachi
Hk
Ho
Hoechst
Hoff
Hol
Hom
Hong
Hop
Hopf
Hor
Horiba
Hot
How
However
Hs
Hu
Huang
Hubbard
Hug
Hugoniot
Hum
Human
Hummers
Hy
Hybrid
Hyd
Hydro
Hydrogels
Hydrogen
Hydroph
Hyper
Hz
I
IA
IB
IC
ICG
ICP
ICT
ID
IDS
IDT
IE
IEC
IF
IFN
IG
IGZO
II
III
IL
ILs
IM
IMC
IMF
IN
INS
INT
INTRODUCTION
IO
ION
IP
IPA
IPC
IPCE
IPN
IQE
IR
IS
ISC
ISM
ISO
IT
ITC
ITER
ITG
ITO
IU
IV
IX
Ia
Ib
Ic
Id
Ide
Ideally
Iden
If
Ig
IgG
Ih
Ill
Illustration
Im
Image
ImageJ
Images
Imaging
Immun
Imp
Impact
Impedance
Import
Importantly
Impro
In
InAs
InGaAs
InGaN
InN
InP
InSb
InSe
Inc
Incorpor
Incorporation
Increased
Increasing
Ind
Indeed
Index
India
Individual
Indust
Industrial
Industries
Industry
Inf
Influence
Information
Infrared
Inhib
Ini
Initi
Initial
Initially
Innov
Ins
Inset
Insets
Insp
Inspired
Inst
Instead
Instit
Institute
Instron
Instrum
Instrument
Instruments
Int
Integ
Integrated
Intensity
Inter
Interaction
Interactions
Interestingly
Interface
Intern
International
Introducing
Introduction
Investig
Investigation
InxGa
Ion
Ionic
Ions
Ip
Ir
IrO
Iron
Irradiation
Is
Ising
Iso
Isolated
It
Italy
Its
Iz
J
JA
JASCO
JC
JCPDS
JEM
JEOL
JET
JH
JP
JSC
JSM
JT
Jacob
Jacobi
Jacobian
Jahn
Jan
Janus
Japan
Jc
Je
Jeff
Ji
Jiang
Jo
Jobin
John
Johnson
Jones
Jose
Joseph
Josephson
Joule
Jsc
Jup
Just
K
KA
KB
KBr
KC
KCl
KD
KE
KF
KH
KI
KL
KM
KMnO
KNN
KNO
KO
KOH
KP
KR
KS
KT
Ka
Kal
Kap
Kapton
Kar
Kd
KdV
Ke
Keithley
Kel
Kelvin
Kepler
Kerr
Key
Ki
Killing
Kim
Kinetic
Kinetics
King
Kir
Kirk
Kit
Kle
Klein
Km
Kn
Knudsen
Ko
Kohn
Kolmogorov
Kondo
Kore
Korea
Kr
Kra
Kramers
Kre
Ks
Ku
Kub
Kur
Ky
L
LA
LAM
LAO
LB
LC
LCE
LCF
LCMO
LCO
LCP
LCR
LCST
LCs
LD
LDA
LDH
LDHs
LDOS
LDPE
LE
LED
LEDs
LEED
LES
LF
LFP
LG
LH
LHC
LI
LIB
LIBS
LIBs
LIF
LIG
LJ
LL
LLC
LLDPE
LM
LMO
LN
LNMO
LNO
LO
LOD
LOI
LP
LPS
LR
LRS
LS
LSC
LSCF
LSM
LSMO
LSP
LSPR
LSV
LT
LTO
LU
LUMO
LV
LW
LY
LZ
La
LaAlO
Lab
Laboratories
Laboratory
Lag
Lagrange
Lagrangian
Lam
Lamb
Lambda
Land
Landau
Langevin
Langmuir
Lapl
Laplace
Laplacian
Lar
Large
Larger
Larmor
Laser
Last
Lastly
Later
Lattice
Law
Lax
Layer
LbL
Lc
Le
Lead
Lee
Left
Leg
Legend
Legendre
Leica
Lemma
Lennard
Let
Letter
Leu
Lev
Level
Lewis
Li
LiCl
LiClO
LiCoO
LiF
LiFePO
LiMn
LiNbO
LiNi
LiO
LiOH
LiPF
LiTFSI
Lie
Life
Ligand
Light
Like
Likewise
Lim
Lin
Lind
Line
Linear
Lines
Liou
Liouville
Lip
Liquid
Lit
Lithium
Liu
Lix
Ln
Lo
Local
Log
London
Long
Lorentz
Lorentzian
Lorenz
Loss
Lou
Louis
Low
Lower
Lp
Ltd
Lu
Luminescence
Lx
Ly
Lyapunov
Lys
Lz
M
MA
MAA
MAE
MAI
MALDI
MAO
MAP
MAPbBr
MAPbI
MAS
MAT
MATLAB
MAX
MB
MBA
MBE
MC
MCC
MCD
MCE
MCF
MCM
MCP
MCS
MCT
MCs
MD
MDA
MDI
MDR
ME
MEA
MEH
MEMS
MEP
MES
MET
METHOD
METHODS
MF
MFC
MFCs
MFI
MFM
MG
MGs
MH
MHD
MHz
MI
MIC
MIL
MIM
MIP
MIPs
MIR
MIS
MIT
MJ
MK
ML
MLCT
MLG
MLs
MM
MMA
MMMs
MMP
MMT
MN
MNP
MNPs
MO
MOCVD
MOD
MODEL
MOF
MOFs
MOR
MOS
MOSFET
MOSFETs
MOs
MP
MPA
MPB
MPC
MPD
MPI
MPP
MPS
MPa
MPs
MQ
MQW
MQWs
MR
MRCI
MRI
MS
MSA
MSC
MSCs
MSD
MSM
MSN
MSNs
MT
MTJ
MTJs
MTS
MTT
MTX
MU
MV
MW
MWCNT
MWCNTs
MWD
MWNT
MWNTs
MX
MXene
MZ
Ma
Mac
Mach
Macro
Mad
Mag
Magn
Magnet
Magnetic
Magnetization
Main
Major
Majorana
Mal
Malvern
Man
Mann
Mannich
Many
Mar
Marangoni
Marc
Marcus
Mark
Markov
Markovian
Mart
Mass
Mat
Material
Materials
Matlab
Matrix
Max
Maximum
Maxwell
Maxwellian
May
Mb
Mc
Me
MeCN
MeOH
MeV
Mean
Meanwhile
Measure
Measured
Measurement
Measurements
Mechan
Mechanical
Mechanism
Med
Medical
Medium
Mel
Melting
Membrane
Membranes
Mer
Merck
Mercury
Mes
Met
Metal
Methanol
Method
Methods
Methyl
Mettler
Mg
MgAl
MgB
MgCl
MgH
MgO
MgSO
Mi
Mic
Michael
Micro
Micromeritics
Microp
Microscope
Microscopy
Microstructure
Microwave
Mid
Mie
Mil
Miller
Milli
Millipore
Min
Mini
Ministry
Mink
Minkowski
Mit
Mix
Mixed
Mn
MnO
MnOx
Mo
MoO
MoOx
MoS
MoSe
MoTe
Mod
Mode
Model
Modeling
Models
Modification
Modified
Mol
Molecular
Molecules
Mon
Monkhorst
Monomer
Monte
Mor
More
Moreover
Morphological
Morphology
Morse
Most
Mott
Movie
Mp
Mr
Ms
Mt
Mu
Much
Mul
Mull
Mulliken
Multi
Multiple
Mur
Mw
My
Myr
Mö
Mössbauer
Mü
N
NA
NAC
NAD
NADH
NB
NBD
NBI
NBO
NBR
NBS
NBT
NC
NCA
NCH
NCM
NCO
NCS
NCs
ND
NDI
NDR
NDs
NE
NET
NEXAFS
NEt
NF
NFs
NG
NGC
NH
NHC
NHE
NHS
NI
NIF
NIH
NIR
NIST
NJ
NK
NL
NLO
NLS
NM
NMC
NMP
NMR
NN
NO
NOE
NOESY
NOx
NP
NPB
NPC
NPT
NPs
NR
NRs
NS
NSC
NST
NSs
NT
NTs
NU
NV
NVP
NVT
NW
NWs
NY
Na
NaBH
NaCl
NaClO
NaF
NaH
NaHCO
NaI
NaNO
NaOH
NaYF
Nafion
Nag
Nak
Namely
Nan
Nano
Nanoc
Nanocomposites
Nanop
Nanoparticles
Nanos
Nanot
Nat
National
Natural
Nature
Navier
Nb
Nc
Nd
Ne
Near
Neg
Negative
Neither
Nernst
Net
Netherlands
Network
Neu
Neumann
Neutron
Nevertheless
New
Newton
Newtonian
Next
Ng
Ni
NiAl
NiCo
NiFe
NiII
NiO
NiOx
NiS
NiSi
NiTi
Nic
Nickel
Nicolet
Nikon
Nile
Nit
Nitrogen
Nm
No
Non
None
Nonetheless
Nor
Norm
Normal
Normalized
Normally
North
Nos
Not
Notably
Note
Notice
Nov
Novel
Now
Nowadays
Np
Ns
Nt
Nu
Nucle
Nuclear
Number
Numer
Numerical
Numerous
Ny
Nyquist
Néel
O
OA
OAM
OB
OC
OCH
OCP
OCT
OCV
OD
ODA
ODE
OE
OER
OF
OFET
OFETs
OFF
OG
OH
OL
OLED
OLEDs
OM
OMMT
OMe
ON
OP
OPE
OPV
OPVs
OR
ORR
ORTEP
OS
OSC
OSCs
OT
OTFTs
OTS
OV
OVA
Ob
Obser
Observ
Observations
Observed
Obtained
Obviously
Ocean
Oct
Oe
Of
Off
Office
Oh
Ohm
Ohmic
Oil
Ol
Olig
Olympus
On
Once
One
Only
Ons
Onsager
Op
Open
Oper
Optical
Optics
Optim
Optimization
Optimized
Or
Orange
Orbit
Organ
Organic
Organics
Orient
Orig
Os
Ost
Ostwald
Other
Otherwise
Our
Out
Over
Overall
Owing
Ox
Oxford
Oxid
Oxidation
Oxide
Oxygen
P
PA
PAA
PAAm
PAC
PAH
PAHs
PAM
PAMAM
PAN
PANI
PANalytical
PAni
PB
PBA
PBD
PBDT
PBE
PBG
PBI
PBO
PBS
PBT
PC
PCA
PCB
PCBM
PCE
PCEs
PCF
PCH
PCL
PCM
PCMs
PCN
PCP
PCR
PCS
PCs
PD
PDA
PDB
PDE
PDF
PDFs
PDI
PDMAEMA
PDMS
PDOS
PDT
PDs
PE
PEA
PEC
PECVD
PEDOT
PEEK
PEG
PEGDA
PEGylated
PEI
PEM
PEN
PEO
PES
PESs
PET
PF
PFA
PFC
PFM
PFO
PG
PGA
PGMA
PGS
PH
PHA
PHB
PHBV
PHEMA
PHI
PHO
PI
PIB
PIC
PID
PIL
PIM
PIP
PIV
PK
PL
PLA
PLD
PLE
PLGA
PLL
PLLA
PLQY
PLS
PM
PMA
PMF
PMMA
PMN
PMO
PMS
PMT
PN
PNA
PNIPAAm
PNIPAM
PNP
PO
POD
POE
POM
POMs
POPC
POSS
PP
PPA
PPC
PPD
PPE
PPG
PPI
PPO
PPP
PPS
PPT
PPV
PPh
PPy
PQ
PR
PRO
PROC
PS
PSA
PSC
PSCs
PSD
PSF
PSI
PSS
PSi
PT
PTA
PTB
PTC
PTFE
PTM
PTT
PTX
PU
PUs
PV
PVA
PVAc
PVC
PVDF
PVK
PVP
PW
PXRD
PY
PZ
PZT
Pa
Pack
Pal
Pan
Panel
Panels
Paper
Par
Parameter
Parameters
Park
Part
Partial
Partic
Particle
Particles
Particularly
Pas
Path
Paul
Pauli
Pb
PbI
PbO
PbS
PbSe
PbTe
PbTiO
Pc
Pd
PdCl
PdII
PdO
Pe
Peak
Peaks
Pearson
Pel
Peltier
Pen
Peptide
Per
Percentage
Perdew
Performance
Perhaps
Period
Periodic
Periodicals
Perkin
PerkinElmer
Pers
Pet
Petri
Pf
Ph
PhC
PhD
Pharm
Phase
Phe
Phen
Philips
Phosph
Phot
Photo
Photocatalytic
Photograph
Photographs
Photon
Phys
Physical
Physics
Pi
Pic
Pick
Pickering
Pin
Pl
Planck
Plas
Plasma
Plastic
Plot
Plots
Pluronic
Plus
Pm
Pn
Pnma
Po
Poincaré
Point
Poisson
Pol
Polar
Polarization
Poly
Polym
Polymer
Polymerization
Polymers
Por
Pore
Porous
Port
Pos
Positive
Possible
Post
Pot
Potassium
Potential
Powder
Power
Pp
Pr
Pre
Prec
Predic
Preliminary
Preparation
Prepared
Pres
Presence
Pressure
Previous
Previously
Pri
Primary
Princip
Prior
Pro
Prob
Probe
Procedure
Process
Processing
Product
Production
Products
Prof
Professor
Program
Project
Prom
Proof
Prop
Proper
Properties
Proposed
Proposition
Prot
Protein
Proteins
Proton
Prov
Province
Ps
Pseud
Pseudomonas
Pt
Pu
Pub
Publishing
Pul
Pur
Pure
Purification
Purity
Py
Pyr
Q
QA
QC
QCD
QCL
QCM
QD
QDs
QE
QL
QM
QP
QR
QS
QW
QWs
QY
Qi
Qu
Qual
Qualit
Quan
Quanta
Quantification
Quantitative
Quantum
R
RA
RAFT
RAS
RAW
RB
RBC
RBCs
RBS
RC
RCA
RCM
RCP
RD
RDF
RDFs
RE
REM
RES
RESULTS
RF
RG
RGB
RGD
RGO
RH
RHE
RHEED
RI
RIE
RL
RM
RMP
RMS
RMSD
RMSE
RN
RNA
RNase
RO
ROI
ROP
ROS
RP
RPA
RPM
RPMI
RR
RRAM
RS
RSD
RT
RTA
RTP
RV
RW
Ra
Rab
Rabi
Rad
Radi
Radiation
Radical
Ram
Raman
Random
Rapid
Rashba
Rate
Rather
Ratio
Raw
Ray
Rayleigh
Rb
Rc
Rct
Rd
Re
ReS
Reaction
Reactions
Reag
Reagent
Reagents
Real
Rec
Recall
Recent
Recently
Red
Reduction
Ref
Reference
Refs
Reg
Regarding
Regardless
Region
Rel
Relationship
Relative
Release
Rem
Remark
Remarkably
Removal
Ren
Rep
Repe
Repl
Representative
Reprinted
Reproduced
Republic
Res
Resear
Research
Resistance
Reson
Resonance
Response
Results
Ret
Rev
Rever
Review
Reynolds
Rf
Rg
Rh
RhB
Rhe
Rhod
Rhodamine
Ri
Ric
Rich
Richard
Richardson
Riemann
Rietveld
Rigaku
Right
Ring
River
Rm
Rn
Ro
Rob
Room
Ros
Ross
Rot
Rouse
Rout
Roy
Royal
Rp
Rs
Ru
RuO
Run
Rus
Rutherford
Ry
Rydberg
S
SA
SAC
SAED
SAM
SAMs
SAN
SANS
SAPO
SAR
SAW
SAXS
SB
SBA
SBF
SBH
SBR
SBS
SC
SCA
SCC
SCCM
SCE
SCF
SCLC
SCM
SCN
SCO
SCR
SCS
SCs
SD
SDC
SDS
SDSS
SE
SEBS
SEC
SED
SEI
SEM
SER
SERS
SET
SF
SFE
SFG
SFR
SG
SGS
SH
SHE
SHEL
SHG
SI
SIBs
SIM
SIMS
SIR
SIS
SK
SL
SLG
SLM
SLS
SLs
SM
SMA
SMC
SMF
SMM
SMP
SN
SNR
SNe
SO
SOC
SOD
SOFC
SOI
SOL
SP
SPA
SPC
SPD
SPE
SPEEK
SPI
SPION
SPM
SPP
SPPs
SPR
SPS
SPT
SPs
SQ
SQUID
SR
SRO
SRR
SRS
SS
SSA
SSC
SSP
ST
STA
STEM
STM
STO
STR
STS
SU
SV
SW
SWCNT
SWCNTs
SWNT
SWNTs
SY
SZ
Sa
Sal
Same
Sample
Samples
San
Sand
Santa
Sat
Sb
Sc
Scale
Scan
Scanning
Scattering
Sch
Schematic
Schematics
Scheme
Scherrer
Schiff
Schlenk
Schmidt
Schottky
Schrödinger
Schwar
Sci
Science
Sciences
Scientific
Scope
Se
Sec
Second
Secondary
Secondly
Secs
Section
Sections
See
Seebeck
Selected
Selective
Selectivity
Self
Semic
Separ
Separation
Sequ
Ser
Series
Set
Several
Sh
Shan
Shanghai
She
Shear
Shen
Shi
Shimadzu
Shock
Shockley
Short
Shown
Si
SiC
SiGe
SiH
SiN
SiNW
SiNWs
SiNx
SiO
SiOx
Side
Sigma
Sign
Significant
Significantly
Sil
Silic
Silica
Silicon
Silver
Sim
Similar
Similarly
Simp
Simple
Simulated
Simulation
Simulations
Simultaneous
Simultaneously
Sin
Since
Sing
Single
Sinopharm
Site
Six
Size
Sk
Sky
Sl
Slater
Sm
Small
Smart
Smith
Sn
SnCl
SnO
SnS
SnSe
So
Society
Sodium
Soft
Software
Sol
Solar
Solid
Solubility
Solution
Solutions
Solvent
Solvents
Some
Son
Sonogashira
Sons
Soret
Source
South
Sox
Soxhlet
Sp
Space
Spain
Span
Spatial
Spec
Special
Specific
Specifically
Specim
Specimens
Spect
Spectra
Spectral
Spectro
Spectrometer
Spectroscopic
Spectroscopy
Spectrum
Spin
Spitzer
Squ
Sr
SrO
SrTiO
St
Stability
Stable
Stage
Standard
Standards
Staphylococcus
Star
Stark
Starting
State
States
Statistical
Ste
Steady
Step
Stern
Still
Sto
Stock
Stokes
Storage
Strain
Strateg
Stre
Stren
Strength
Strept
Stress
Strong
Structural
Structure
Structures
Stu
Stud
Student
Studies
Study
Su
Sub
Subsequent
Subsequently
Substituting
Substitution
Substrate
Substrates
Such
Sulf
Summary
Sun
Sup
Super
Supp
Supplemental
Supplementary
Supporting
Suppose
Sur
Surface
Surprisingly
Survey
Sus
Suz
Suzuki
Sw
Swed
Swelling
Swit
Switzerland
Sy
Symbols
Syn
Synchrotron
Synthe
Synthesis
Synthetic
System
Systems
Sz
T
TA
TABLE
TADF
TAT
TB
TBA
TBAF
TBC
TBD
TBP
TBS
TC
TCA
TCE
TCI
TCNQ
TCO
TCP
TCS
TD
TDDFT
TDS
TE
TEA
TEC
TEG
TEM
TEMPO
TENG
TEOS
TES
TF
TFA
TFC
TFE
TFT
TFTs
TG
TGA
TGF
TH
THE
THF
THP
THz
TI
TIP
TIPS
TK
TL
TLC
TM
TMA
TMB
TMC
TMD
TMDs
TMP
TMR
TMS
TN
TNF
TNT
TO
TOC
TOF
TON
TP
TPA
TPD
TPE
TPP
TPR
TPS
TPU
TPV
TR
TRA
TS
TSC
TT
TTA
TTF
TU
TV
TW
TX
TZ
Ta
Table
Tables
Tafel
Taiwan
Tak
Taken
Taking
Tal
Tan
Tang
Target
Tauc
Taylor
Tb
Tc
Td
Te
TeO
TeV
Tec
Techn
Technologies
Technology
Tecnai
Teff
Teflon
Tel
Telescope
Temp
Temperature
Temperatures
Ten
Tensile
Ter
Tes
Test
Testing
Tests
Tetra
Tex
Tf
Tg
Th
ThT
Thanks
That
The
Their
Then
Theore
Theorem
Theoretical
Theoretically
Theory
Ther
There
Thereafter
Thereby
Therefore
Therm
Thermal
Thermo
Thermodynamic
These
They
Thickness
Thin
Third
This
Thom
Thomas
Thomson
Those
Though
Thr
Three
Through
Throughout
Thus
Ti
TiAl
TiB
TiC
TiCl
TiN
TiO
TiOx
Tian
Tianjin
Time
Tit
Titan
Titanium
Tl
Tm
Tmax
Tn
To
ToF
Together
Tokyo
Tol
Toledo
Toluene
Top
Tor
Torr
Total
Tow
Tp
Tr
Tra
Tran
Trans
Transfer
Transform
Transient
Transition
Transmission
Transport
Tre
Treatment
Tri
Tris
Triton
Trp
Ts
Tu
Tumor
Turb
Tw
Tween
Two
Tx
Ty
Typ
Type
Typical
Typically
Tyr
U
UA
UC
UCL
UCNP
UCNPs
UF
UHMWPE
UHV
UK
UL
UN
UO
UP
UPS
US
USA
UT
UV
Ub
Ueff
UiO
Ul
Ultim
Ultimately
Ultr
Ultra
Ultras
Un
Und
Under
Understanding
Unfortunately
Uni
Union
Unit
United
Universe
University
Unless
Unlike
Until
Up
Upon
Upper
Ur
Us
Use
Used
Using
Usually
Util
V
VA
VASP
VB
VBM
VC
VCSEL
VD
VDS
VE
VEGF
VF
VG
VGS
VH
VI
VII
VIII
VL
VLS
VM
VN
VO
VOC
VOCs
VP
VR
VS
VSM
VT
VUV
Va
Vac
Val
Values
Van
Vari
Varian
Variation
Variations
Various
Vb
Vc
Vd
Vds
Ve
Veg
Vel
Ver
Vertical
Very
Vf
Vg
Vi
Vickers
Video
Vienna
View
Vir
Vis
Viscosity
Visual
Vitro
Vlasov
Vm
Vo
Voc
Voigt
Vol
Voltage
Volume
Voron
Voronoi
Vp
Vs
Vth
W
WA
WAXD
WAXS
WB
WC
WCA
WD
WE
WF
WG
WI
WIT
WITH
WL
WO
WP
WPU
WR
WS
WSe
WT
WZ
Wa
Waals
Wang
Wannier
Warburg
Wat
Water
Waters
Wave
We
Weber
Weib
Weibull
Weight
Weiss
Well
West
Western
Weyl
Wh
What
When
Where
Whereas
Whether
While
White
Wi
Wide
Wigner
Wil
Wiley
Willi
Wilson
Wind
Wit
With
Within
Without
Wol
Wood
Work
World
Wu
X
XANES
XAS
XB
XC
XL
XMCD
XP
XPS
XR
XRD
XRF
XRR
XUV
XY
Xc
Xe
Xi
Xu
Y
YAG
YBCO
YIG
YSZ
Yam
Yan
Yang
Yb
Yellow
Yet
Yield
Yields
Young
Yu
Yukawa
Yvon
Z
ZA
ZB
ZFC
ZI
ZIF
ZPE
ZS
ZSM
ZT
Ze
Zeeman
Zeiss
Zeta
Zetasizer
Zh
Zhang
Zhao
Zhou
Zhu
Zinc
Zn
ZnCl
ZnFe
ZnII
ZnO
ZnPc
ZnS
ZnSe
ZnTe
Zr
ZrB
ZrC
ZrO
[
[%
[%]
[%][
[(
[0
[0,
[0001]
[001]
[010]
[1
[1,
[1,2].
[10
[10,
[100
[100]
[10]
[10],
[10].
[11
[11,
[110]
[111]
[11]
[11],
[11].
[12
[12,
[12]
[12],
[12].
[13
[13,
[13]
[13],
[13].
[14
[14,
[14]
[14],
[14].
[15
[15,
[15]
[15],
[15].
[16
[16,
[16,17
[16]
[16],
[16].
[17
[17,
[17,18
[17]
[17],
[17].
[18
[18,
[18,19
[18]
[18],
[18].
[19
[19,
[19,20
[19]
[19],
[19].
[1]
[1],
[1].
[1–
[1–3
[1–3].
[1–4].
[2
[2+
[2,
[20
[20,
[20]
[20],
[20].
[21
[21,
[21]
[21],
[21].
[22
[22,
[22]
[22],
[22].
[23
[23,
[23]
[23],
[23].
[24
[24,
[24]
[24],
[24].
[25
[25,
[25,26
[25]
[25],
[25].
[26
[26,
[26,27
[26]
[26],
[26].
[27
[27,
[27,28
[27]
[27],
[27].
[28
[28,
[28,29
[28]
[28],
[28].
[29
[29,30
[29]
[29],
[29].
[29–3
[2]
[2],
[2].
[2–
[3
[3,
[30
[30,
[30]
[30],
[30].
[31,
[31,32
[31]
[31],
[31].
[32,
[32]
[32],
[32].
[33,
[33]
[33],
[33].
[34,
[34]
[34],
[34].
[35,
[35]
[35],
[35].
[36,
[36]
[36],
[36].
[37]
[37],
[37].
[38]
[38].
[39]
[39].
[3]
[3],
[3].
[3–5
[4
[4,
[40
[40,
[40]
[40].
[41]
[41].
[42]
[42].
[43]
[43].
[44]
[44].
[45
[45]
[45].
[46]
[46].
[47]
[47].
[48]
[48].
[49].
[4]
[4],
[4].
[5
[5,
[50
[50].
[51].
[52].
[53].
[54].
[55].
[56].
[5]
[5],
[5].
[6
[6,
[60
[63
[64
[65
[66
[67
[68
[6]
[6],
[6].
[7
[7,
[70
[7]
[7],
[7].
[8
[8,
[8]
[8],
[8].
[9
[9,
[9]
[9],
[9].
[{
[°
[°]
[−
\
]
_
_0
_1
_2
_\
_{
_{\
_{{\
a
aa
ab
abbrevi
abbreviated
aber
aberration
aberrations
abilities
ability
ablated
ablation
able
abnormal
about
above
abovementioned
abras
abrasion
abrasive
abrup
abrupt
abruptly
abs
absciss
abscissa
absence
absent
absolute
absolutely
absor
absorb
absorbance
absorbed
absorbent
absorber
absorbers
absorbing
absorbs
absorp
absorption
absorptions
absorptivity
abstract
abstraction
abund
abundance
abundances
abundant
ac
academic
acc
accel
acceler
accelerate
accelerated
accelerates
accelerating
acceleration
accelerator
accep
accept
acceptable
acceptance
accepted
accepting
acceptor
acceptors
acces
access
accessed
accessibility
accessible
accessory
accid
acco
accom
accommod
accommodate
accommodated
accommodation
accomp
accompan
accompanied
accompany
accompanying
accomplish
accomplished
accord
accordance
according
accordingly
account
accounted
accounting
accounts
accretion
accum
accumulate
accumulated
accumulates
accumulation
accur
accuracy
accurate
accurately
acet
acetal
acetaldehyde
acetate
acetic
acetone
acetonitrile
acetophenone
acetyl
acetylation
acetylene
ach
achie
achievable
achieve
achieved
achievement
achievements
achieves
achieving
achiral
acid
acidic
acidified
acidity
acids
acknowled
acknowledge
acknowledged
acknowledges
acous
acoustic
acqui
acquire
acquired
acquires
acquiring
acquis
acquisition
across
acryl
acrylamide
acrylate
acrylic
acrylonitrile
act
acted
actin
acting
action
actions
activ
activate
activated
activates
activating
activation
activator
activators
active
actively
activities
activity
acts
actu
actual
actually
actuated
actuation
actuator
actuators
acute
acyclic
acyl
acylation
ad
adamant
adap
adapt
adaptation
adapted
adaptive
adatom
adatoms
add
added
addi
adding
addition
additional
additionally
additions
additive
additives
address
addressed
addresses
addressing
adds
adduct
adducts
aden
adenine
adenosine
adequ
adequate
adequately
adhe
adhere
adhered
adherence
adherent
adhesion
adhesive
adhesives
adi
adiab
adiabatic
adip
adj
adjacent
adjoint
adjus
adjust
adjustable
adjusted
adjusting
adjustment
adjustments
administ
administered
administration
admit
admits
admittance
admixture
adop
adopt
adopted
adopting
adoption
adopts
adsorb
adsorbate
adsorbates
adsorbed
adsorbent
adsorbents
adsorbing
adsorbs
adsorp
adsorption
adult
adv
advance
advanced
advancement
advances
advancing
advant
advantage
advantageous
advantages
advection
advent
adverse
adversely
aer
aerobic
aerodynamic
aerogel
aerogels
aerosol
aerosols
aerospace
aerugin
aeruginosa
aff
affect
affected
affecting
affects
affine
affinities
affinity
affor
afford
afforded
affording
affords
afore
aforementioned
after
afterglow
afterwards
ag
again
against
agar
agarose
agate
age
aged
ageing
agent
agents
ages
agglomer
agglomerate
agglomerated
agglomerates
agglomeration
aggreg
aggregate
aggregated
aggregates
aggregation
aggressive
aging
agitation
ago
agon
agonist
agre
agree
agreed
agreement
agrees
agric
agricultural
agriculture
ahead
ai
aid
aids
aim
aimed
aiming
aims
air
airc
aircraft
akin
al
alanine
alb
albeit
albumin
alcoh
alcohol
alcohols
ald
aldehyde
aldehydes
aldol
alg
algae
algebra
algebraic
algebras
alginate
algorith
algorithm
algorithms
align
aligned
aligning
alignment
alignments
aliphatic
aliqu
aliquot
aliquots
alk
alkal
alkali
alkaline
alkaloids
alkane
alkanes
alkene
alkenes
alkenyl
alkoxide
alkoxy
alkyl
alkylated
alkylation
alkyn
alkyne
alkynes
alkynyl
all
alle
allene
allevi
alleviate
allo
allosteric
allotrop
allow
allowed
allowing
allows
alloy
alloyed
alloying
alloys
ally
allyl
allylation
allylic
almost
alone
along
alongside
alpha
already
also
alter
alteration
alterations
altered
altering
altern
alternate
alternately
alternating
alternation
alternative
alternatively
alternatives
alters
although
alumin
alumina
aluminium
aluminosilicate
aluminum
always
am
amb
ambient
ambigu
ambiguity
ambiguous
ambipolar
amen
amenable
amid
amidation
amide
amides
amido
amin
amination
amine
amines
amino
ammon
ammonia
ammonium
amo
among
amongst
amorph
amorphization
amorphous
amount
amounts
amp
amperometric
amph
amphiph
amphiphiles
amphiphilic
ampl
amplification
amplified
amplifier
amplifiers
amplify
amplitude
amplitudes
ampo
ampoule
amu
amyl
amyloid
an
anaerobic
analog
analogous
analogously
analogs
analogue
analogues
analogy
analy
analyse
analysed
analyser
analyses
analysing
analysis
analyte
analytes
analytic
analytical
analytically
analyze
analyzed
analyzer
analyzing
anatase
anatom
anc
anch
anchor
anchored
anchoring
ancillary
and
anesthe
ang
angi
angiogenesis
angle
angles
angular
anharmon
anharmonic
anharmonicity
anhydride
anhydrous
anil
aniline
anilines
animal
animals
anion
anionic
anions
anisole
anisotrop
anisotropic
anisotropies
anisotropy
ann
anne
anneal
annealed
annealing
annihil
annihilation
annot
annual
annular
annulation
annulus
anod
anode
anodes
anodic
anodization
anodized
anomal
anomalies
anomalous
anomaly
anomeric
another
ansatz
answ
answer
ant
antagon
anten
antenna
antennas
anth
anthracene
anthrop
anti
antib
antibacterial
antibio
antibiotic
antibiotics
antibodies
antibody
antibonding
antic
anticancer
anticip
anticipate
anticipated
antif
antifer
antiferrom
antifouling
antifungal
antig
antigen
antigens
antim
antimicrobial
antimony
antioxid
antioxidant
antioxidants
antiparallel
antis
antisite
antisymmetric
antit
antitumor
antiv
anv
anvil
any
anymore
ap
apart
apatite
aperture
apertures
apex
apical
apo
apolar
apoptosis
apoptotic
app
apparatus
apparent
apparently
appe
appealing
appear
appearance
appeared
appearing
appears
appendix
applic
applicability
applicable
application
applications
applied
applies
apply
applying
apprec
appreci
appreciable
appreciably
appreciated
appro
approac
approach
approached
approaches
approaching
appropri
appropriate
appropriately
approved
approx
approxim
approximate
approximated
approximately
approximates
approximating
approximation
approximations
aprotic
apt
aptamer
aptamers
aq
aqu
aqua
aquatic
aqueous
ar
arbit
arbitr
arbitrarily
arbitrary
arc
arch
archit
architecture
architectures
arcs
are
area
areal
areas
arene
arenes
arg
arginine
argon
argue
argued
argum
argument
arguments
aris
arise
arises
arising
arith
arithmetic
arm
armchair
arms
aro
arom
aromatic
aromaticity
aromatics
arose
around
arranged
arrangement
arrangements
array
arrays
arrest
arri
arrival
arrive
arrives
arriving
arrow
arrows
arsen
arsenic
art
artefact
arter
artery
article
articles
artifact
artifacts
artific
artificial
artificially
aryl
arylation
as
asc
ascending
ascer
ascertain
ascertained
ascor
ascorbate
ascorbic
ascrib
ascribed
ash
aside
ask
asked
asp
aspect
aspects
asper
asph
asphal
asphalt
asphaltene
ass
assay
assayed
assays
assemb
assemble
assembled
assemblies
assembling
assembly
assess
assessed
assessing
assessment
assessments
assign
assigned
assigning
assignment
assignments
assis
assist
assistance
assisted
associ
associate
associated
association
associations
associative
assum
assume
assumed
assumes
assuming
assumption
assumptions
assure
ast
aster
asterisk
astron
astroph
astrophysical
asymmet
asymmetric
asymmetrical
asymmetries
asymmetry
asymp
asympt
asympto
asymptotic
asymptotically
asymptotics
at
atm
atmosp
atmosphere
atmospheres
atmospheric
atom
atomic
atomically
atomistic
atomization
atoms
atop
att
attach
attached
attaching
attachment
attack
attacks
attain
attainable
attained
attains
attemp
attempt
attempted
attempts
atten
attention
attenu
attenuated
attenuation
attract
attracted
attracting
attraction
attractions
attractive
attractor
attractors
attrib
attributable
attribute
attributed
attributes
au
aug
augmented
aure
aureus
aust
austen
austenite
austenitic
aut
auth
authen
authentic
author
authors
auto
autoc
autocl
autoclave
autocorrelation
autom
automated
automatic
automatically
automo
automotive
autonomous
autophag
autophagy
aux
auxiliary
av
avail
availability
available
aval
avalanc
avalanche
aven
avenue
aver
average
averaged
averages
averaging
avoid
avoided
avoiding
avoids
award
aware
away
ax
axes
axial
axially
axis
axisymmetric
az
aza
aze
azide
azides
azido
azim
azimuth
azimuthal
azir
azo
azobenzene
b
ba
back
backbone
backbones
background
backgrounds
backscatter
backscattered
backscattering
backside
backward
bacter
bacteri
bacteria
bacterial
bactericidal
bacterium
bad
bag
bain
baked
baking
bal
balance
balanced
balances
balancing
ball
ballistic
ballo
balls
bamboo
ban
band
bandgap
bandgaps
bandpass
bands
bandwidth
bank
bar
bare
barely
barium
baro
barrel
barri
barrier
barriers
bars
bary
bas
basal
base
based
baseline
bases
basic
basically
basicity
basin
basins
basis
batch
batches
bath
bathochromic
baths
batter
batteries
battery
bc
bcc
be
bead
beads
beaker
beam
beamline
beams
bear
bearing
bears
beat
beating
bec
became
because
become
becomes
becoming
bed
been
before
beg
began
begin
beginning
begins
beh
beha
behave
behaved
behaves
behavi
behavior
behaviors
behaviour
behaviours
behind
being
bel
belie
believe
believed
belong
belonging
belongs
below
belt
ben
bench
benchmark
bend
bending
bends
bene
beneath
benef
beneficial
benefit
benefits
benign
bent
benz
benzaldehyde
benzene
benzimidazole
benzo
benzoate
benzoic
benzophenone
benzoxazine
benzoyl
benzyl
benzylic
ber
beryllium
besides
best
bet
beta
better
between
beyond
bi
biaryl
bias
biased
biases
biasing
biaxial
bic
bicarbonate
bicontinuous
bicyclic
bidentate
bie
biexc
bif
bifunctional
bifur
bifurc
bifurcation
bifurcations
big
bigger
biggest
bil
bilayer
bilayers
bile
bilinear
billion
bim
bimetallic
bimodal
bimolecular
bin
binaries
binary
bind
binder
binders
binding
binds
bins
binuclear
bio
bioactive
bioactivity
bioavailability
bioc
bioch
biochar
biochemical
biocompati
biocompatible
bioconjug
biod
biode
biodegradable
biodegradation
biodies
biodiesel
biodistribution
biof
biofilm
biofilms
biog
bioimaging
biological
biologically
biology
biom
biomark
biomarker
biomarkers
biomass
biomaterial
biomaterials
biomedical
biomedicine
biomimetic
biomo
biomolecular
biomolecule
biomolecules
biop
biophysical
biopolymer
biopolymers
biore
bios
biosensing
biosensor
biosensors
biosynthesis
biosynthetic
biot
biotin
biotinylated
bip
bipar
bipartite
biphasic
biphenyl
bipolar
bipy
bir
biradical
biref
birefring
birefringence
birth
bis
bismuth
bisphenol
bist
bistability
bistable
bit
bits
bl
black
blackbody
bladder
blade
blades
blank
blanket
blast
ble
bleach
bleaching
blend
blended
blending
blends
blind
blo
blob
blobs
block
blockade
blockage
blocked
blocking
blocks
blood
blot
blotting
blow
blowing
blu
blue
bluesh
blueshif
blueshift
blur
bo
board
boat
bodies
body
boiling
bol
bold
bomb
bombard
bombardment
bond
bonded
bonding
bonds
bone
book
boost
boot
bootstrap
bor
borane
borate
border
bore
boric
born
boro
borohydride
boron
boronic
borosilicate
bos
boson
bosonic
bosons
both
bott
bottle
bottlen
bottleneck
bottles
bottom
boun
bounce
bound
boundaries
boundary
bounded
bounds
bovine
bow
bowl
box
boxes
bp
bpy
br
bra
brack
bracket
brackets
brain
bran
branch
branched
branches
branching
brass
bre
bread
break
breakage
breakdown
breaking
breaks
breakthrough
breakup
breast
breath
breathing
bremsstrahlung
brevity
brid
bridge
bridged
bridges
bridging
brief
briefly
bright
brighter
brightness
brine
bring
bringing
brings
brit
brittle
brittleness
bro
broad
broadband
broaden
broadened
broadening
broadens
broader
broadly
broken
brom
bromide
bromides
bromination
bromine
bromo
bron
broth
brought
brown
brush
brushes
bu
bub
bubb
bubble
bubbled
bubbles
bubbling
buck
buckled
buckling
bud
budget
buff
buffer
buffered
buffers
buil
build
building
builds
buildup
built
bul
bulge
bulk
bulky
bump
bunch
bunches
bund
bundle
bundles
buoy
buoyancy
bur
burden
buried
burn
burning
burst
bursts
bus
but
butadiene
butanol
butter
butterfly
buty
butyl
by
bypass
byproduct
byproducts
c
cDNA
cP
ca
cable
cables
cad
cadmium
caffe
caffeine
cage
cages
cake
cal
calc
calcd
calcein
calcination
calcined
calcite
calcium
calcul
calculate
calculated
calculates
calculating
calculation
calculations
calib
calibrate
calibrated
calibration
calix
call
called
calomel
calor
calorimeter
calorimetric
calorimetry
came
camer
camera
cameras
camp
campaign
can
canc
cancel
cancell
cancellation
cancer
cancers
candid
candidate
candidates
cannot
canonical
cantile
cantilever
cantilevers
cap
capabilities
capability
capable
capac
capacit
capacitance
capacitances
capacities
capacitive
capacitor
capacitors
capacity
capillaries
capillary
capital
capped
capping
caps
capsid
capsule
capsules
caption
capture
captured
captures
capturing
car
carb
carbamate
carbazole
carbene
carbenes
carbide
carbides
carbo
carbocation
carbohydrate
carbohydrates
carbon
carbonaceous
carbonate
carbonates
carbonization
carbonized
carbons
carbonyl
carbonyls
carboxy
carboxyl
carboxylate
carboxylates
carboxylic
carcin
carcinoma
card
cardi
cardiac
cardiomy
cardiovascular
care
careful
carefully
cargo
caro
caroten
carri
carried
carrier
carriers
carries
carry
carrying
cart
cartilage
cartridge
cas
casc
cascade
cascades
case
cases
caspase
cass
cast
casting
cat
catalog
cataly
catalysed
catalysis
catalyst
catalysts
catalytic
catalytically
catalyze
catalyzed
catalyzes
catalyzing
catast
catech
catechol
categ
categor
categories
categorized
category
cathod
cathode
cathodes
cathodic
cation
cationic
cations
caus
causal
cause
caused
causes
causing
caution
cav
cave
cavitation
cavities
cavity
cc
cd
ce
cell
cells
cellul
cellular
cellulose
cem
cement
cen
cent
center
centered
centerline
centers
centim
centimeter
central
centre
centred
centres
centrif
centrifug
centrifugal
centrifugation
centrifuge
centrifuged
centroid
centrosymmetric
century
cer
ceramic
ceramics
cere
ceria
cerium
cermet
certain
certainly
certified
cesium
cetyl
cf
ch
cha
chain
chains
chair
chal
chalcogen
chalcogenide
chalcogenides
challen
challenge
challenges
challenging
cham
chamber
chambers
chan
chance
change
changed
changes
changing
channel
channeling
channels
chaos
chaotic
chapter
char
character
characterised
characteristic
characteristics
characterize
characterized
characterizes
characterizing
characters
charge
charged
charges
charging
chart
che
cheap
cheaper
check
checked
checking
chelate
chelating
chelation
chem
chemical
chemically
chemicals
chemis
chemisorbed
chemisorption
chemist
chemistries
chemistry
chemists
chemo
chemos
chemoselective
chemothe
chemotherapy
chi
chick
child
children
chimer
chip
chips
chir
chiral
chirality
chirp
chirped
chit
chitin
chitosan
chlor
chloride
chlorides
chlorinated
chlorination
chlorine
chloro
chlorobenzene
chloroform
cho
choice
choices
cholester
cholesterol
choline
chond
choose
choosing
chopper
chord
chose
chosen
chrom
chromat
chromatic
chromaticity
chromatogram
chromatograms
chromatograph
chromatographic
chromatography
chromium
chromophore
chromophores
chron
chronic
chronoamp
ci
cinn
cir
circ
circle
circles
circuit
circuits
circul
circular
circularly
circulating
circulation
circum
circumference
circumst
circumstances
circumvent
cis
cisplatin
cit
cited
citrate
citric
cl
cladding
claim
claimed
clamp
clamped
clamping
clar
clarified
clarify
clarity
class
classes
classic
classical
classically
classif
classification
classified
classifier
classify
clath
clathrate
clay
clays
cle
clean
cleaned
cleaner
cleaning
clear
clearance
clearer
clearly
cleavage
cleave
cleaved
click
clim
climate
clin
clinical
clinically
clo
cloak
clock
clockwise
clog
clos
close
closed
closely
closer
closest
closing
closure
clot
cloth
cloud
clouds
clu
clump
cluster
clustered
clustering
clusters
cm
cn
co
coacer
coag
coagulation
coal
coales
coalesce
coalescence
coars
coarse
coarsening
coat
coated
coating
coatings
coaxial
cobalt
cocatalyst
cocrystal
cocrystals
code
coded
codes
coding
codoped
coeff
coefficient
coefficients
coerc
coercive
coercivity
coex
coexist
coexistence
coexisting
cofactor
coffee
cogn
cohere
coherence
coherent
coherently
cohesion
cohesive
coil
coiled
coils
coin
coinc
coincide
coincidence
coincident
coincides
coke
col
cold
coli
coll
collabor
collaboration
collagen
collap
collapse
collapsed
collapses
colle
colleag
colleagues
collect
collected
collecting
collection
collective
collectively
collector
collectors
colliding
collim
collimated
collimator
collinear
collision
collisional
collisionality
collisionless
collisions
collo
colloid
colloidal
colloids
colon
colonies
colony
color
coloration
colored
colorimetric
colorless
colors
colour
coloured
colourless
column
columnar
columns
com
comb
combin
combination
combinations
combinatorial
combine
combined
combines
combining
combustion
come
comes
comet
coming
comm
commensurate
comment
comments
commerc
commercial
commercialized
commercially
common
commonly
commun
communication
communications
communities
community
commut
commutation
commute
comonomer
comonomers
comp
compact
compacted
compaction
compactness
compacts
companies
companion
company
compar
comparable
comparably
comparative
comparatively
compare
compared
compares
comparing
comparison
comparisons
compart
compartment
compartments
compati
compatibil
compatibility
compatibilizer
compatible
compe
compens
compensate
compensated
compensating
compensation
compet
compete
competing
competition
competitive
compiled
comple
complement
complementary
complemented
complete
completed
completely
completeness
completes
completion
complex
complexation
complexed
complexes
complexing
complexity
compli
compliance
compliant
complic
complicated
complications
compon
component
components
compos
composed
composite
composites
composition
compositional
compositions
compound
compounding
compounds
comprehen
comprehensive
comprehensively
compres
compressed
compressibility
compressible
compression
compressive
compressor
compris
comprise
comprised
comprises
comprising
comprom
compromise
compromised
compromising
comput
computation
computational
computationally
computations
compute
computed
computer
computing
con
conc
concave
conce
conceiv
conceivable
concent
concentrate
concentrated
concentration
concentrations
concentric
concept
concepts
conceptual
conceptually
concer
concern
concerned
concerning
concerns
concerted
concise
conclu
conclude
concluded
concludes
concluding
conclusion
conclusions
conclusive
concomit
concomitant
concrete
concurrent
concurrently
cond
condens
condensate
condensation
condensed
condenser
condition
conditional
conditioned
conditioning
conditions
conduc
conducive
conduct
conductance
conducted
conducting
conduction
conductive
conductivities
conductivity
conductor
conductors
cone
cones
conf
confer
confidence
config
configuration
configurational
configurations
configure
configured
confine
confined
confinement
confining
confir
confirm
confirmation
confirmed
confirming
confirms
conflic
conflicts
conflu
confocal
conform
conformal
conformation
conformational
conformations
conformer
conformers
confusion
cong
congru
conical
conject
conjecture
conjug
conjugate
conjugated
conjugates
conjugation
conjunction
conn
connect
connected
connecting
connection
connections
connectivity
connects
cons
consecutive
consensus
consequ
consequence
consequences
consequent
consequently
conser
conservation
conservative
conserved
consid
consider
considerable
considerably
consideration
considerations
considered
considering
considers
consis
consist
consisted
consistency
consistent
consistently
consisting
consists
consol
const
constant
constantly
constants
constit
constitu
constituent
constituents
constitute
constituted
constitutes
constituting
constitutive
constra
constrain
constrained
constraining
constraint
constraints
constriction
construct
constructed
constructing
construction
constructive
constructs
consume
consumed
consumer
consuming
consumption
cont
contact
contacted
contacting
contacts
contain
contained
container
containers
containing
contains
contamin
contaminant
contaminants
contaminated
contamination
content
contents
context
contexts
contig
contiguous
contin
continu
continually
continuation
continue
continued
continues
continuing
continuity
continuous
continuously
continuum
contour
contours
contr
contract
contracted
contraction
contradic
contradict
contradiction
contradictory
contrary
contrast
contrasting
contrasts
contrib
contribut
contribute
contributed
contributes
contributing
contribution
contributions
contributor
contro
control
controll
controllability
controllable
controlled
controller
controllers
controlling
controls
controver
controversial
conv
conve
convection
convective
conven
convenience
convenient
conveniently
convention
conventional
conventionally
conver
converge
converged
convergence
convergent
converges
converging
converse
conversion
conversions
convert
converted
converter
converting
converts
convex
convinc
convolution
cool
cooled
cooler
cooling
cooper
cooperation
cooperative
cooperativity
coord
coordin
coordinate
coordinated
coordinates
coordinating
coordination
cop
copies
coplanar
copoly
copolyesters
copolymer
copolymers
copper
coprecipitation
copy
copyright
cor
cord
core
cores
corn
corne
corner
corners
coron
corona
coronal
corre
correct
corrected
correcting
correction
corrections
correctly
correl
correlate
correlated
correlates
correlating
correlation
correlations
correlator
correspond
corresponded
correspondence
corresponding
correspondingly
corresponds
corro
corrobor
corroborate
corroborated
corroborates
corrosion
corrosive
corrug
corrugated
corrugation
cortex
cortical
cos
cosine
cosm
cosmic
cosmological
cosolvent
cost
costly
costs
cot
cotton
could
coulomb
coulombic
coumarin
coun
count
counted
counter
counterion
counterions
counterpart
counterparts
counting
countries
counts
coup
couple
coupled
coupler
couples
coupling
couplings
cour
course
courses
coval
covalent
covalently
covariance
covariant
cover
coverage
coverages
covered
covering
covers
coverslip
cow
cowork
coworkers
cp
cr
cra
crack
cracked
cracking
cracks
crater
cre
create
created
creates
creating
creation
creep
cri
criter
criteria
criterion
critical
criticality
critically
crop
cros
cross
crossed
crosses
crosshead
crossing
crossings
crosslink
crosslinked
crosslinker
crosslinking
crosslinks
crossover
crosstalk
crow
crowded
crowding
crown
cruc
crucial
crucible
crude
crushed
crust
cry
cryo
cryogenic
cryostat
crypt
cryst
crystal
crystall
crystalline
crystallinity
crystallisation
crystallite
crystallites
crystallization
crystallize
crystallized
crystallizes
crystallography
crystals
cs
cub
cube
cubes
cubic
cues
cul
cultivation
culture
cultured
cultures
culturing
cum
cumbers
cumbersome
cumul
cumulant
cumulative
cup
cuprates
cur
curcumin
cure
cured
curing
current
currently
currents
curvature
curvatures
curve
curved
curves
cus
cusp
cust
custom
customized
cut
cutoff
cuts
cutting
cuv
cuvette
cw
cy
cyan
cyanide
cyano
cyc
cycl
cyclability
cycle
cycled
cycles
cyclic
cycling
cyclization
cyclo
cycload
cycloaddition
cycloadditions
cyclohex
cyclohexane
cyclohexanone
cyclohexene
cyclohexyl
cyclometal
cyclopent
cycloprop
cyclopropane
cyclotron
cyl
cylind
cylinder
cylinders
cylindrical
cyste
cysteine
cyt
cytochrome
cytok
cytokine
cytokines
cytometry
cytoplas
cytoplasm
cytoplasmic
cytos
cytosine
cytoskele
cytoskeleton
cytosol
cytotox
cytotoxic
cytotoxicity
d
dB
dI
dL
dS
dT
dV
da
daily
dam
damage
damaged
damages
damaging
damp
damped
damping
danger
dangling
dark
darker
dash
dashed
dat
data
datab
database
databases
datas
dataset
datasets
date
daughter
day
days
dc
dd
de
deactiv
deactivated
deactivation
dead
deal
dealing
dealloying
deals
dealt
death
deb
debate
debonding
debris
dec
decade
decades
decarboxyl
decarboxylation
decay
decaying
decays
decel
deceleration
decent
decide
decided
decis
decision
decisive
decl
declare
decline
declined
declines
deco
decoherence
decolor
decomp
decompos
decompose
decomposed
decomposes
decomposing
decomposition
decon
deconvoluted
deconvolution
decor
decorated
decoration
decoupled
decoupling
decre
decrease
decreased
decreases
decreasing
decrement
ded
dedicated
deduce
deduced
deem
deemed
deep
deeper
deeply
def
default
defect
defective
defects
defic
deficiencies
deficiency
deficient
define
defined
defines
defini
defining
definite
definitely
definition
definitions
definitive
deflected
deflection
deform
deformable
deformation
deformations
deformed
deg
degassed
degassing
degen
degener
degeneracy
degenerate
degra
degradable
degradation
degrade
degraded
degrades
degrading
degre
degree
degrees
dehyd
dehydrated
dehydration
dehydro
dehydrogen
dehydrogenase
dehydrogenation
deionized
del
delamination
delay
delayed
delays
dele
deleterious
deli
delib
delicate
delight
deline
delithiation
deliver
delivered
delivering
delivers
delivery
delocalization
delocalized
delta
dem
demagneti
demagnetization
demagnetizing
demand
demanding
demands
demixing
demon
demonstr
demonstrate
demonstrated
demonstrates
demonstrating
demonstration
den
denaturation
dend
dendrim
dendrimer
dendrimers
dendrite
dendrites
dendritic
dendron
dendrons
denomin
denominator
denote
denoted
denotes
denoting
dens
dense
densely
denser
densif
densification
densities
density
dental
deoxy
deoxygen
deoxygenated
deoxygenation
dep
depar
departure
depend
depended
dependence
dependences
dependencies
dependency
dependent
depending
depends
dephasing
depic
depict
depicted
depicting
depicts
deple
depleted
depletion
deploy
depolar
depolarization
depolymer
depos
deposit
deposited
depositing
deposition
depositions
deposits
depressed
depression
deprot
deprotection
deproton
deprotonated
deprotonation
depth
depths
der
deriv
derivation
derivative
derivatives
derivatization
derive
derived
derives
deriving
des
desal
desalination
desc
descending
describ
describe
described
describes
describing
descript
description
descriptions
descriptor
descriptors
deser
desicc
desiccator
design
designated
designed
designing
designs
desirable
desired
desol
desorb
desorbed
desorption
despite
dest
destabil
destabilization
destabilized
destabilizing
destr
destro
destroy
destroyed
destruction
destructive
desulf
desulfurization
det
detached
detachment
detail
detailed
details
detect
detectable
detected
detecting
detection
detections
detector
detectors
detects
deter
deterg
detergent
deterior
deteriorate
deteriorated
deterioration
determ
determin
determinant
determinants
determination
determinations
determine
determined
determines
determining
deterministic
detonation
detrim
detrimental
detuning
deuter
deuterated
deuterium
dev
develop
developed
developing
development
developments
develops
devi
deviate
deviated
deviates
deviation
deviations
devic
device
devices
devised
devoted
dewetting
dex
dextran
df
di
diab
diabatic
diabetes
diabetic
diag
diagn
diagnos
diagnosis
diagnostic
diagnostics
diagon
diagonal
diagonalization
diagram
diagrams
dialkyl
dialysis
dialyzed
diam
diamagnetic
diameter
diameters
diamine
diamines
diamond
diamonds
dianhydride
dianion
diaphrag
diaphragm
diaryl
diastere
diastereo
diastereomer
diastereomeric
diastereomers
diatom
diatomic
diaz
diazo
diazonium
diblock
dic
dication
dich
dichalcogen
dichalcogenides
dichlor
dichloromethane
dichro
dichroic
dichroism
dict
dictated
dictates
did
die
dielectric
dielectrics
dien
diene
dies
diesel
diet
dietary
diethyl
diff
diffe
differ
differe
differed
differen
difference
differences
different
differenti
differential
differentially
differentiate
differentiated
differentiating
differentiation
differently
differing
differs
diffic
difficult
difficulties
difficulty
diffract
diffracted
diffraction
diffractions
diffractogram
diffractograms
diffractometer
diffus
diffuse
diffused
diffuses
diffusing
diffusion
diffusional
diffusive
diffusivities
diffusivity
dig
diges
digested
digestion
digi
digit
digital
digly
dihedral
dihydrate
dihydro
dihydrogen
diisocyanate
dil
dilat
diluent
dilute
diluted
diluting
dilution
dilutions
dim
dimension
dimensional
dimensionality
dimensionless
dimensions
dimer
dimeric
dimerization
dimers
dimeth
dimethyl
dimin
diminish
diminished
diminishes
diminishing
dimp
din
dinuclear
diode
diodes
diol
diols
dioxane
dioxide
dioxygen
dip
dipeptide
diphenyl
dipolar
dipole
dipoles
dipped
dipping
dips
diradical
dire
direct
directed
directing
direction
directional
directionality
directions
directly
director
dis
disadvant
disadvantage
disadvantages
disag
disagreement
disapp
disappear
disappearance
disappeared
disappears
disassembly
disc
discarded
discer
discern
discernible
dischar
discharge
discharged
discharges
discharging
discl
disclosed
disco
disconnected
discontinu
discontinuities
discontinuity
discontinuous
discover
discovered
discovery
discre
discrep
discrepancies
discrepancy
discrete
discretization
discretized
discrimin
discriminate
discrimination
discs
discus
discuss
discussed
discusses
discussing
discussion
discussions
dise
disease
diseases
dish
dishes
disintegration
disk
disks
disloc
dislocation
dislocations
disorder
disordered
disorders
disp
disparity
dispens
disper
dispers
dispersant
disperse
dispersed
dispersibility
dispersing
dispersion
dispersions
dispersity
dispersive
displ
displace
displaced
displacement
displacements
display
displayed
displaying
displays
dispos
disposal
disproportion
disreg
disrup
disrupt
disrupted
disruption
diss
dissim
dissimilar
dissip
dissipate
dissipated
dissipation
dissipative
dissoci
dissociate
dissociated
dissociates
dissociation
dissociative
dissol
dissolution
dissolve
dissolved
dissolves
dissolving
dist
distal
distance
distances
distant
disti
distill
distillation
distilled
distin
distinct
distinction
distinctive
distinctly
distingu
distinguish
distinguishable
distinguished
distinguishing
distorted
distortion
distortions
distrib
distribute
distributed
distribution
distributions
disturb
disturbance
disturbances
disturbed
disulf
disulfide
dith
dithi
div
divalent
diver
diverge
divergence
divergent
diverges
diverging
diverse
diversity
divertor
divid
divide
divided
dividing
division
dl
dm
dn
do
docking
docum
documented
dodec
dodeca
dodecyl
does
dog
doing
dom
domain
domains
dome
domin
dominance
dominant
dominantly
dominate
dominated
dominates
dominating
domino
don
donating
donation
done
donor
donors
door
dop
dopamine
dopant
dopants
dope
doped
doping
dos
dosage
dose
doses
dosing
dot
dots
dotted
doub
double
doubled
doubles
doublet
doublets
doubling
doubly
doubt
down
downfield
downstream
downward
doxorubicin
dp
dpp
dr
dra
drag
drain
drainage
dramatic
dramatically
drastic
drastically
draw
drawback
drawbacks
drawing
drawn
dressed
dressing
dri
dried
drift
drifts
drilling
drinking
drive
driven
driver
drives
driving
dro
drop
droplet
droplets
dropped
dropping
drops
dropwise
drug
drugs
dry
drying
dryness
ds
dsDNA
dt
du
dual
duality
duc
duct
ductile
ductility
due
dumbbell
dup
duplex
duplexes
duplicate
durability
durable
duration
durations
during
dust
dusty
duty
dwar
dwarf
dwarfs
dwell
dx
dy
dyad
dyads
dye
dyed
dyeing
dyes
dynam
dynamic
dynamical
dynamically
dynamics
dys
dz
e
eV
each
ear
earlier
earliest
early
earth
eas
ease
easier
easily
easy
ec
eccentric
eccentricity
echo
eclip
eco
ecological
econ
econom
economic
economical
economically
economy
ecos
ed
eddies
eddy
edge
edges
educ
ee
eff
effect
effective
effectively
effectiveness
effects
effic
efficacy
effici
efficiencies
efficiency
efficient
efficiently
effluent
efflux
effort
efforts
eg
egg
ei
eigen
eigenfunction
eigenfunctions
eigenmode
eigenmodes
eigenstate
eigenstates
eigenval
eigenvalue
eigenvalues
eigenvector
eigenvectors
eight
either
eject
ejecta
ejected
ejection
el
elabor
elaborate
elaborated
elap
elapsed
elast
elastic
elastically
elasticity
elastomer
elastomeric
elastomers
ele
elect
electric
electrical
electrically
electricity
electro
electroactive
electrocat
electrocatalyst
electrochemical
electrochromic
electrode
electrodes
electrokinetic
electrol
electroless
electroly
electrolysis
electrolyte
electrolytes
electrolytic
electrom
electromagnetic
electron
electroneg
electronegative
electronic
electronically
electronics
electrons
electroph
electrophile
electrophiles
electrophilic
electrophoresis
electrophoretic
electropl
electroplating
electrosp
electrospinning
electrospray
electrospun
electrost
electrostatic
electrostatics
eleg
elegant
element
elemental
elementary
elements
elevated
elevation
elimin
eliminate
eliminated
eliminates
eliminating
elimination
ellip
ellips
ellipse
ellipso
ellipsoid
ellipsoidal
ellipsoids
ellipsometric
ellipsometry
elliptic
elliptical
ellipticity
elong
elongated
elongation
else
elsewhere
elu
elucid
elucidate
elucidated
elucidating
elucidation
eluent
elusive
eluted
eluting
elution
em
eman
emb
embed
embedded
embedding
embry
embryonic
embryos
emer
emerg
emerge
emerged
emergence
emergent
emerges
emerging
emis
emission
emissions
emissive
emissivity
emit
emits
emittance
emitted
emitter
emitters
emitting
emp
emphas
emphasis
emphasize
emphasized
emphasizes
emphasizing
empirical
empirically
employ
employed
employing
employment
employs
empty
emu
emulsif
emulsification
emulsifier
emulsion
emulsions
en
enab
enable
enabled
enables
enabling
enamine
enanti
enantio
enantiomer
enantiomeric
enantiomers
enantiop
enantiopure
enc
encaps
encapsulate
encapsulated
encapsulating
encapsulation
encl
enclosed
enco
encoded
encoding
encomp
encoun
encounter
encountered
encounters
encour
encourage
encouraged
encouraging
end
ende
ending
endo
endoc
endocytosis
endogenous
endothelial
endotherm
endothermic
endow
endowed
ends
endurance
energ
energe
energetic
energetically
energetics
energies
energy
enfor
enforced
eng
engage
engaged
engine
engineer
engineered
engineering
engines
enhan
enhance
enhanced
enhancement
enhancements
enhances
enhancing
enlar
enlarge
enlarged
enlargement
enol
enolate
enorm
enormous
enough
enrich
enriched
enrichment
ens
ensemble
ensembles
ensu
ensuing
ensure
ensured
ensures
ensuring
ent
entails
entang
entangle
entangled
entanglement
entanglements
enter
entered
entering
enters
enthal
enthalpic
enthalpies
enthalpy
enti
entire
entirely
entities
entity
entrain
entrance
entrap
entrapment
entrapped
entries
entrop
entropic
entropies
entropy
entry
envelop
envelope
envelopes
environ
environment
environmental
environmentally
environments
envis
envisaged
envision
envisioned
enzy
enzymatic
enzyme
enzymes
eosin
ep
epid
epiderm
epilayer
epilayers
epimer
epit
epitaxial
epitaxially
epitaxy
epithel
epithelial
epoch
epoxidation
epoxide
epoxides
epoxy
eq
eqn
eqs
equ
equal
equality
equally
equals
equation
equations
equator
equatorial
equi
equiaxed
equid
equilib
equilibrate
equilibrated
equilibration
equilibria
equilibrium
equimolar
equip
equipment
equipped
equiv
equival
equivalence
equivalent
equivalently
equivalents
er
erbium
erg
ergodic
erosion
err
errone
error
errors
eryth
es
escap
escape
escaping
especially
ess
essence
essential
essentially
est
estab
establis
establish
established
establishes
establishing
establishment
ester
esterification
esters
estim
estimate
estimated
estimates
estimating
estimation
estimations
estimator
et
etc
etch
etchant
etched
etching
eth
ethane
ethanol
ethene
ether
ethers
ethyl
ethylene
ethylenediamine
eu
eukary
europium
eut
eutectic
ev
evac
evacuated
evacuation
evalu
evaluate
evaluated
evaluating
evaluation
evaluations
evanes
evanescent
evapor
evaporate
evaporated
evaporating
evaporation
evaporator
even
evenly
event
events
eventual
eventually
ever
every
everywhere
evid
evidence
evidenced
evidences
evident
evidently
evol
evolution
evolutionary
evolutions
evolve
evolved
evolves
evolving
ex
exact
exactly
exam
examin
examination
examine
examined
examining
example
examples
exc
exceed
exceeded
exceeding
exceeds
excellent
except
exception
exceptional
exceptionally
exceptions
excess
excessive
exchan
exchange
exchanged
exchanger
exchanges
exchanging
excimer
excip
exciplex
excit
excitation
excitations
excite
excited
excites
exciting
exciton
excitonic
excitons
excl
exclu
exclude
excluded
excludes
excluding
exclusion
exclusive
exclusively
exec
executed
exempl
exemplified
exer
exerc
exercise
exert
exerted
exerts
exfol
exfoliated
exfoliation
exhaus
exhaust
exhaustive
exhib
exhibit
exhibited
exhibiting
exhibits
exis
exist
existed
existence
existing
exists
exit
exo
exogenous
exosomes
exothermic
exotic
exp
expand
expanded
expanding
expands
expansion
expansions
expect
expectation
expectations
expected
expects
expense
expensive
exper
experi
experience
experienced
experiences
experim
experiment
experimental
experimentally
experimentation
experiments
expl
explain
explained
explaining
explains
explan
explanation
explanations
explicit
explicitly
explo
exploit
exploitation
exploited
exploiting
explor
exploration
explore
explored
exploring
explosion
explosive
explosives
expon
exponent
exponential
exponentially
exponents
expose
exposed
exposing
exposure
exposures
express
expressed
expresses
expressing
expression
expressions
ext
extend
extended
extending
extends
extension
extensional
extensions
extensive
extensively
extent
extents
exterior
external
externally
extinction
extr
extra
extracellular
extract
extracted
extracting
extraction
extracts
extraord
extraordinary
extrapol
extrapolated
extrapolating
extrapolation
extre
extrem
extrema
extreme
extremely
extremes
extrinsic
extru
extrud
extruded
extruder
extrusion
eye
eyes
f
fa
fabric
fabricate
fabricated
fabricating
fabrication
fabrics
fac
face
faced
faces
facet
faceted
facets
facil
facile
facilit
facilitate
facilitated
facilitates
facilitating
facilities
facility
facing
fact
factor
factorization
factors
facts
fading
fail
failed
fails
failure
failures
faint
fair
fairly
fall
falling
falls
false
fam
famil
familiar
families
family
famous
fan
far
faradaic
farther
fas
fascinating
fashion
fast
faster
fastest
fat
fate
fatigue
fatty
fault
faults
fav
favor
favorable
favorably
favored
favoring
favors
favour
favourable
favoured
fc
fcc
fe
feas
feasibility
feasible
feature
featured
featureless
features
featuring
fed
feed
feedback
feeding
feedstock
feedstocks
fell
felt
fem
female
femtosecond
fer
ferm
fermentation
fermion
fermionic
fermions
ferr
ferric
ferrim
ferrimagnetic
ferrite
ferrites
ferritin
ferro
ferroc
ferrocene
ferroelectric
ferroelectrics
ferrofluid
ferrom
ferromagnet
ferromagnetic
ferromagnetism
ferrous
fertil
fetal
few
fewer
ff
fi
fib
fiber
fibers
fibr
fibre
fibres
fibril
fibrill
fibrillar
fibrils
fibrin
fibrinogen
fibro
fibrobl
fibroblast
fibroblasts
fibroin
fibronectin
fibrous
fic
fidelity
fiducial
field
fields
fifth
fig
figure
figures
fil
filam
filament
filamentary
filaments
file
files
fill
filled
filler
fillers
filling
film
films
filt
filter
filtered
filtering
filters
filtrate
filtration
fin
final
finally
financ
financial
find
finding
findings
finds
fine
finely
finer
fing
finger
fingerprint
fingerprints
fingers
finish
finished
finishing
finite
fire
fired
firing
firm
firmly
first
firstly
fish
fission
fit
fitness
fits
fitted
fitting
fittings
five
fix
fixation
fixed
fixing
fl
flag
flake
flakes
flame
flamm
flank
flapping
flare
flares
flash
flask
flasks
flat
flatness
flatten
flattened
flattening
flav
flavon
flavor
flaw
flex
flexibility
flexible
flexoelectric
flexural
flight
flip
flipping
flo
floating
floc
flocculation
flood
flooding
floor
flour
flow
flowed
flower
flowing
flows
flu
fluctu
fluctuate
fluctuates
fluctuating
fluctuation
fluctuations
flue
fluence
fluences
fluid
fluidic
fluidity
fluids
fluor
fluorene
fluores
fluorescein
fluorescence
fluorescent
fluorescently
fluoride
fluorides
fluorinated
fluorination
fluorine
fluorite
fluoro
fluorocarbon
fluorophore
fluorophores
flushed
flux
fluxes
fly
fm
fn
fo
foam
foaming
foams
foc
focal
focus
focused
focuses
focusing
foil
foils
fol
folate
fold
folded
folding
folds
follow
followed
following
follows
food
foods
foot
footprint
for
forbidden
force
forced
forces
forcing
fore
foreign
fores
forest
forests
form
formal
formaldehyde
formalism
formally
formamide
format
formate
formation
formations
formazan
formed
former
formic
forming
forms
formul
formula
formulae
formulas
formulate
formulated
formulation
formulations
forth
forward
fossil
fouling
found
foundation
four
fourfold
fourth
fr
fra
fract
fractal
fraction
fractional
fractionation
fractions
fracture
fractured
fractures
frag
fragile
fragility
fragment
fragmentation
fragmented
fragments
frame
frames
framework
frameworks
fre
free
freedom
freely
freest
freestanding
freeze
freezing
frequ
frequencies
frequency
frequent
frequently
fresh
freshly
fric
friction
frictional
friend
friendly
fringe
fringes
from
fron
front
frontier
fronts
frozen
fructose
fruit
frustrated
frustration
fs
fu
fuel
fuels
ful
fulf
fulfill
fulfilled
full
fulle
fullerene
fullerenes
fully
function
functional
functionalities
functionality
functionalize
functionalized
functionally
functionals
functioning
functions
fund
fundam
fundamental
fundamentally
funded
funding
fung
fungal
fungi
funnel
fur
furan
furfural
furn
furnace
furnish
furnished
further
furthermore
fused
fusion
future
fuzzy
g
ga
gadolinium
gain
gained
gaining
gains
gal
galact
galactic
galactose
galax
galaxies
galaxy
gall
gallium
galvan
galvanic
galvanostatic
gamma
gap
gapless
gapped
gaps
garn
garnet
gas
gaseous
gases
gasification
gasket
gasoline
gast
gastric
gastro
gate
gated
gates
gather
gathered
gating
gauche
gaug
gauge
gauges
gave
ge
gel
gelatin
gelation
gelator
gels
gem
gen
gene
gener
general
generality
generalization
generalize
generalized
generally
generate
generated
generates
generating
generation
generations
generator
generators
generic
genes
genetic
genome
genomic
gent
gentle
gently
genuine
genus
geodes
geodesic
geomet
geometric
geometrical
geometrically
geometries
geometry
germ
german
germanium
get
gets
getting
ghost
gi
giant
give
given
gives
giving
gl
glance
glass
glasses
glassy
gli
glide
glo
glob
global
globally
globular
glove
glovebox
glow
glu
gluc
glucose
glue
glued
glut
glutamate
glutar
glutaraldehyde
glutathione
gly
glyc
glycan
glycer
glycerol
glycidyl
glycine
glyco
glycol
glycop
glycopro
glycos
glycosyl
glycosylation
gm
go
goal
goals
goes
going
gold
golden
goni
goniometer
good
goodness
got
gover
govern
governed
governing
governs
gr
gra
grad
grade
graded
grades
gradi
gradient
gradients
gradual
gradually
graf
graft
grafted
grafting
grafts
grain
grains
gram
gran
grand
grant
granular
granules
graph
graphen
graphene
graphi
graphical
graphically
graphite
graphitic
graphitization
graphs
grate
grateful
gratefully
grating
gratings
grav
gravimetric
gravitational
gravity
gray
grazing
gre
great
greater
greatest
greatly
green
greenhouse
grew
grey
grid
grids
grin
grinding
gro
groove
grooves
gross
ground
grounded
groundwater
group
grouped
groups
grow
growing
grown
grows
growth
gu
guan
guanidine
guanine
guar
guarant
guarantee
guaranteed
guarantees
guess
guest
guests
guid
guidance
guide
guided
guidelines
guides
guiding
gum
gun
gut
gy
gyration
gyro
gyrokinetic
h
hBN
hMSCs
ha
hab
habit
had
hafn
hafnium
hair
hairpin
hal
half
halide
halides
hall
halo
halogen
halogenated
hamp
hampered
hand
handed
handle
handled
handling
happ
happen
happened
happens
har
hard
hardening
harder
hardly
hardness
hardware
harm
harmful
harmon
harmonic
harmonics
harness
harsh
harves
harvest
harvested
harvester
harvesting
has
have
having
haz
hazard
hazardous
haze
hc
hcp
he
head
headgroup
heads
healing
health
healthy
heart
heat
heated
heater
heating
heats
heavi
heavier
heavily
heavy
height
heights
hel
held
helic
helical
helices
helicity
helium
helix
help
helped
helpful
helps
hem
hemat
hematite
heme
hemi
hemic
hemicellulose
hemisp
hemisphere
hemispherical
hemoglobin
hence
hep
heparin
hepat
hepatic
hepatocytes
hept
heptane
her
here
hereafter
herein
heter
hetero
heteroaromatic
heteroatom
heteroatoms
heterocyc
heterocycle
heterocycles
heterocyclic
heterogeneities
heterogeneity
heterogeneous
heterojunction
heterojunctions
heteronuclear
heterostructure
heuristic
hex
hexa
hexadecane
hexafluor
hexagon
hexagonal
hexagons
hexahydrate
hexamer
hexamethyl
hexane
hexanes
hexap
hi
hidden
hierarch
hierarchical
hierarchically
hierarchy
hig
high
higher
highest
highl
highlight
highlighted
highlighting
highlights
highly
hill
hind
hinder
hindered
hindering
hinders
hindrance
hing
hinge
hipp
his
hist
histidine
histogram
histograms
histological
histone
histor
historical
histories
history
hit
hits
ho
hoc
hohlraum
hol
hold
holder
holding
holds
hole
holes
hollow
holog
holograph
holographic
hom
home
homemade
homeostasis
homo
homogen
homogeneity
homogeneous
homogeneously
homogenization
homogenized
homogenous
homolog
homologous
homology
homopolymer
homopolymers
hone
honeycomb
hop
hope
hopping
hor
horizon
horizontal
horizontally
horm
host
hosts
hot
hour
hours
hous
house
housing
how
however
hr
http
huge
hull
hum
human
humans
humid
humidified
humidity
hump
hundred
hundreds
hy
hyal
hybrid
hybridization
hybridized
hybrids
hyd
hydrate
hydrated
hydrates
hydration
hydraulic
hydraz
hydrazine
hydrazone
hydride
hydrides
hydro
hydrocarbon
hydrocarbons
hydrochlor
hydrochloric
hydrochloride
hydrodynamic
hydrodynamics
hydrofluoric
hydrog
hydrogel
hydrogels
hydrogen
hydrogenated
hydrogenation
hydrogenolysis
hydrogens
hydroly
hydrolys
hydrolysis
hydrolytic
hydrolyzed
hydroper
hydroph
hydrophilic
hydrophilicity
hydrophob
hydrophobic
hydrophobicity
hydroquinone
hydrosilylation
hydrostatic
hydrothermal
hydrothermally
hydrox
hydroxide
hydroxides
hydroxy
hydroxyapatite
hydroxyl
hydroxylated
hydroxylation
hydroxyls
hyg
hyp
hyper
hyperb
hyperbolic
hyperbranched
hyperfine
hyperpolar
hyperthermia
hypot
hypothe
hypotheses
hypothesis
hypothesize
hypothesized
hypothetical
hypoxia
hystere
hysteresis
hysteretic
i
iPP
iPr
ib
ic
ice
icosa
icosahedral
id
ide
idea
ideal
ideality
idealized
ideally
ideas
iden
identical
identically
identif
identification
identified
identifies
identify
identifying
identities
identity
if
ign
ignition
ignore
ignored
ignoring
ii
iii
ill
illumin
illuminated
illuminating
illumination
illust
illustrate
illustrated
illustrates
illustrating
illustration
illustrations
illustrative
im
imag
image
imaged
images
imaginary
imagine
imaging
imbalance
imid
imidazol
imidazole
imidazolium
imide
imine
imines
iminium
imino
imm
immedi
immediate
immediately
immense
immers
immersed
immersing
immersion
immisc
immiscible
immobil
immobile
immobilization
immobilize
immobilized
immun
immune
immuno
immunoassay
immunos
imp
impact
impacted
impacting
impacts
impair
impaired
impar
impart
imparted
imped
impedance
impede
imper
imperative
imperfect
imperfections
imping
impinge
impinging
impl
implant
implantation
implanted
implants
implement
implementation
implementations
implemented
implementing
implicated
implication
implications
implicit
implicitly
implied
implies
implosion
imply
implying
import
importance
important
importantly
impose
imposed
imposes
imposing
impossible
impregn
impregnated
impregnation
impressive
imprint
imprinted
imprinting
impro
improve
improved
improvement
improvements
improves
improving
impulse
impulsive
impur
impurities
impurity
in
inability
inac
inaccessible
inaccur
inaccurate
inactivation
inactive
inadequ
inadequate
inapp
inc
incid
incidence
incident
incipient
incl
inclination
inclined
inclu
include
included
includes
including
inclusion
inclusions
inco
incoherent
incoming
incomm
incommensurate
incomp
incompati
incompatibility
incompatible
incomplete
incompres
incompressible
incon
inconsist
inconsistent
incor
incorpor
incorporate
incorporated
incorporates
incorporating
incorporation
incorrect
incre
increase
increased
increases
increasing
increasingly
increment
incremental
increments
incub
incubated
incubating
incubation
incubator
ind
inde
indeed
indent
indentation
indenter
independ
independence
independent
independently
index
indexed
indexes
indi
indic
indicate
indicated
indicates
indicating
indication
indications
indicative
indicator
indicators
indices
indirect
indirectly
indis
indisp
indispensable
indistinguish
indium
individ
individual
individually
individuals
indole
indoles
indoor
induc
induce
induced
induces
inducing
induct
inductance
induction
inductive
inductively
indust
industri
industrial
industrially
industries
industry
ineffective
inefficient
inelastic
inequ
inequalities
inequality
inequivalent
iner
inert
inertia
inertial
inertness
inev
inevitable
inevitably
inexpensive
inf
infected
infection
infections
infer
inference
inferior
inferred
infilt
infiltrated
infiltration
infinite
infinitely
infinites
infinitesimal
infinity
inflamm
inflammation
inflammatory
inflation
inflection
inflow
influ
influence
influenced
influences
influencing
inform
information
informative
infra
infrared
infrastructure
infusion
ing
ingot
ingots
ingredi
ingredient
ingredients
inher
inherent
inherently
inhib
inhibit
inhibited
inhibiting
inhibition
inhibitor
inhibitors
inhibitory
inhibits
inhom
inhomogeneities
inhomogeneity
inhomogeneous
ini
initi
initial
initialized
initially
initiate
initiated
initiates
initiating
initiation
initiator
initiators
initio
inj
inject
injected
injecting
injection
injections
injector
injury
ink
inkjet
inks
inlet
inn
inner
innov
innovative
inoc
inoculated
inorganic
input
inputs
ins
insensitive
inser
insert
inserted
inserting
insertion
inserts
inset
insets
inside
insight
insights
insignificant
insol
insoluble
insp
inspect
inspected
inspection
inspired
inst
instabilities
instability
installation
installed
instance
instances
instant
instantaneous
instantaneously
instead
instit
instructions
instructive
instrum
instrument
instrumental
instrumentation
instruments
insufficient
insul
insulated
insulating
insulation
insulator
insulators
insulin
int
intact
intake
inte
integ
integer
integers
integr
integra
integrability
integrable
integral
integrals
integrand
integrate
integrated
integrating
integration
integrations
integrin
integrity
intellig
intended
intense
intensif
intensified
intensities
intensity
intensive
intensively
intention
intentionally
inter
interact
interacted
interacting
interaction
interactions
interactive
interacts
interatomic
interband
intercal
intercalated
intercalation
intercept
interchain
interchange
interconn
interconnect
interconnected
interconnection
interconnects
interconversion
interdiffusion
interdig
interdigitated
interest
interested
interesting
interestingly
interests
interf
interfac
interface
interfaces
interfacial
interfer
interfere
interference
interferences
interfering
interferometer
interferometric
interferometry
intergranular
interior
interlayer
interlayers
interle
intermedi
intermediate
intermediates
intermetallic
intermitt
intermittent
intermixing
intermolecular
intern
internal
internalization
internalized
internally
international
internuclear
interparticle
interpenet
interphase
interplanar
interplay
interpol
interpolated
interpolation
interpre
interpret
interpretation
interpretations
interpreted
interpreting
interrog
interrup
interrupted
inters
intersect
intersecting
intersection
intersections
interstellar
interstitial
interstitials
intersystem
intertw
interval
intervals
interven
intervention
intest
intestinal
intestine
intim
intimate
intimately
into
intr
intra
intraband
intrac
intracellular
intral
intramolecular
intraven
intravenous
intric
intricate
intrigu
intriguing
intrinsic
intrinsically
intro
introduce
introduced
introduces
introducing
introduction
intrusion
intuitive
intuitively
inv
inval
invari
invariance
invariant
invariants
invas
invasion
invasive
invent
inver
inverse
inversely
inversion
inverted
inverter
inves
invest
investig
investigate
investigated
investigates
investigating
investigation
investigations
investment
invis
inviscid
invisible
invoked
invol
involve
involved
involvement
involves
involving
inward
iod
iodide
iodides
iodine
iodo
ion
ionic
ionisation
ionization
ionized
ionizing
ionomer
ions
ip
ir
iridium
iron
irradi
irradiance
irradiated
irradiating
irradiation
irre
irreducible
irregular
irrelevant
irrespective
irrever
irreversibility
irreversible
irreversibly
is
ischem
island
islands
iso
isob
isobaric
isobut
isoc
isoch
isocyan
isocyanate
isocyanide
isoelectric
isoelectronic
isoform
isol
isolate
isolated
isolating
isolation
isomer
isomeric
isomerization
isomers
isomorphic
isomorphism
isoprene
isoprop
isopropanol
isopropyl
isos
isostructural
isosurface
isot
isotactic
isother
isotherm
isothermal
isothermally
isotherms
isothi
isothiocyanate
isotop
isotope
isotopes
isotopic
isotopolog
isotrop
isotropic
isotropy
iss
issue
issues
it
item
items
iter
iteration
iterations
iterative
iteratively
ith
itiner
itinerant
its
itself
iv
j
jet
jets
jitter
jo
join
joined
joining
joint
joints
journal
jth
ju
jud
judged
juice
jump
jumps
junction
junctions
jus
just
justified
justify
k
kA
kB
kBT
kDa
kF
kGy
kHz
kJ
kN
kOe
kPa
kT
kV
kW
ka
kaolin
kaolinite
kb
kc
kcal
kd
ke
keV
keep
keeping
keeps
kept
ker
keratin
kernel
kernels
ket
keto
ketone
ketones
key
kg
ki
kick
kid
kidney
kil
kill
killing
kin
kinase
kinases
kind
kindly
kinds
kine
kinematic
kinematics
kinetic
kinetically
kinetics
kink
kinks
kit
km
kn
kne
knee
knife
knock
knot
knots
know
knowing
knowledge
known
kp
kpc
kr
ks
kt
kth
kx
ky
kz
l
la
lab
label
labeled
labeling
labelled
labelling
labels
labile
laboratories
laboratory
lac
laccase
lack
lacking
lacks
lact
lactate
lactic
lactone
ladder
lag
lam
lamell
lamella
lamellae
lamellar
lamin
laminar
laminate
laminated
laminates
lamp
lamps
land
landsc
landscape
landscapes
lane
langu
language
lanthan
lanthanide
lanthanides
lanthanum
lap
lar
large
largely
larger
largest
las
laser
lasers
lasing
last
lasted
late
latent
later
lateral
laterally
latest
latex
lath
latitude
latter
lattice
lattices
launched
law
laws
lay
layer
layered
layering
layers
layout
le
leach
leached
leaching
lead
leading
leads
leaf
leak
leakage
leaky
lear
learn
learning
least
leave
leaves
leaving
lect
led
left
leg
legend
legs
lemma
len
length
lengthen
lengths
lens
lenses
lensing
lept
les
lesion
lesions
less
lesser
let
letter
letters
leuk
lev
level
levels
lever
levitation
li
lib
libraries
library
lid
lie
lies
lif
life
lifetime
lifetimes
lift
lifted
lifting
lig
ligament
ligand
ligands
ligation
light
lighter
lighting
lightly
lights
lightweight
lign
lignin
lignocellulosic
like
likelihood
likely
likewise
lim
limb
limit
limitation
limitations
limited
limiter
limiting
limits
lin
line
linear
linearity
linearized
linearly
liner
lines
linesh
lineshape
linewidth
linewidths
link
linkage
linkages
linked
linker
linkers
linking
links
lip
lipase
lipid
lipids
lipophilic
liposome
liposomes
liqu
liquef
liquid
liquids
liquidus
liquor
list
listed
lists
lit
literature
literatures
lith
lithiated
lithiation
lithium
lithographic
lithography
little
live
liver
lives
living
lm
ln
lo
load
loaded
loading
loadings
loads
lobe
lobes
loc
local
localised
localization
localize
localized
locally
locate
located
locates
locating
location
locations
lock
locked
locking
locus
log
logarith
logarithm
logarithmic
logic
logical
lone
long
longer
longest
longitudinal
look
looked
looking
looks
loop
loops
loose
loosely
lose
loses
losing
loss
losses
lost
lot
lots
low
lower
lowered
lowering
lowers
lowest
lubric
lubricant
lubrication
luciferase
lumen
lumin
luminance
luminescence
luminescent
luminosity
luminous
lump
lumped
lung
lungs
ly
lying
lymp
lymph
lyophil
lyophilized
lys
lysate
lysates
lysine
lysis
lysosomes
lysozyme
m
mA
mAb
mAh
mC
mF
mHz
mJ
mK
mL
mM
mN
mPEG
mPa
mRNA
mS
mT
mTorr
mV
mW
ma
mac
mach
machine
machined
machinery
machines
machining
macro
macrocycle
macrocycles
macrocyclic
macroinitiator
macrom
macromo
macromolecular
macromolecule
macromolecules
macromon
macrop
macroph
macrophage
macrophages
macropores
macroporous
macroscale
macroscopic
macroscopically
made
mag
magenta
magic
magn
magnesium
magnet
magneti
magnetic
magnetically
magnetisation
magnetism
magnetite
magnetization
magnetizations
magnetized
magneto
magnetoc
magnetocaloric
magnetoelectric
magnetometer
magnetometry
magnetost
magnetostatic
magnetron
magnets
magnification
magnifications
magnified
magnitude
magnitudes
magnon
magnons
main
mainly
maintain
maintained
maintaining
maintains
maintenance
major
majority
make
makes
making
mal
male
maleic
maleimide
malign
malignant
mamm
mammalian
man
manage
management
mand
mandatory
mangan
manganese
manganites
manif
manifest
manifestation
manifested
manifests
manifold
manifolds
manip
manipulate
manipulated
manipulating
manipulation
manipulations
mann
manner
mannose
manual
manually
manufact
manufacture
manufactured
manufacturer
manufacturing
manusc
manuscript
many
map
mapped
mapping
mappings
maps
mar
marg
margin
marginal
marginally
marine
mark
marked
markedly
marker
markers
market
marks
marrow
mart
martensite
martensitic
mas
maser
mask
masked
masking
masks
mass
masses
massive
massless
master
mat
match
matched
matches
matching
material
materials
mathem
mathematic
mathematical
mathematically
matrices
matrix
mats
matter
matters
maturation
mature
max
maxim
maxima
maximal
maximally
maximize
maximized
maximizing
maximum
may
maybe
mbar
mc
me
meV
mean
meaning
meaningful
means
meant
meantime
meanwhile
meas
measurable
measure
measured
measurement
measurements
measures
measuring
mechan
mechanical
mechanically
mechanics
mechanism
mechanisms
mechanistic
mechanochemical
med
medi
media
median
mediate
mediated
mediator
mediators
medic
medical
medicinal
medicine
medium
meet
meeting
meets
mel
melamine
melan
melanoma
melt
melted
melting
melts
mem
member
members
membran
membrane
membranes
memories
memory
memrist
men
meniscus
mention
mentioned
mentioning
mer
merc
mercury
mere
merely
merg
merge
merged
merger
merging
merid
merit
merits
mes
mesa
mesenchymal
mesh
meshes
mesityl
meso
mesoc
mesop
mesoph
mesophase
mesopore
mesopores
mesoporous
mesos
mesoscale
mesoscopic
mess
met
meta
metab
metabol
metabolic
metabolism
metabolite
metabolites
metal
metall
metallic
metallicity
metallization
metallo
metallocene
metallurg
metals
metam
metamaterial
metamaterials
metas
metast
metastable
metastasis
metastatic
metasurface
metathesis
meteor
meter
meth
methacrylate
methacrylic
methan
methane
methanol
methine
method
methodologies
methodology
methods
methoxy
methyl
methylated
methylation
methylene
metric
metrics
metrology
mg
mi
miR
miRNA
miRNAs
mic
mica
mice
micellar
micelle
micelles
micro
microarray
microb
microbalance
microbeads
microbes
microbi
microbial
microc
microcapsules
microcavity
microchannel
microchannels
microcr
microcracks
microcrystals
microdomains
microdrop
microemulsion
microf
microfib
microfibers
microfluidic
microfluidics
microgel
microgels
micrograph
micrographs
microhardness
microlens
microm
micromagnetic
micrometer
micrometers
micron
microns
microorgan
microorganisms
microp
microparticles
microphase
microplate
micropore
micropores
microporous
micropro
micror
microreactor
micros
microscale
microscop
microscope
microscopes
microscopic
microscopy
microsecond
microsp
microsphere
microspheres
microstructural
microstructure
microstructures
microt
microtub
microv
microw
microwave
microwaves
microwell
mid
middle
midplane
midpoint
mig
might
migrate
migrated
migrating
migration
mil
mild
mildly
milk
mill
milled
millimeter
milling
million
millisecond
mim
mimic
mimicking
mimics
min
mind
miner
mineral
mineralization
minerals
mini
miniat
miniature
miniaturization
miniaturized
miniemulsion
minim
minima
minimal
minimally
minimization
minimize
minimized
minimizes
minimizing
minimum
mining
minor
minority
minus
minute
minutes
mir
mirror
mirrors
mis
misalignment
misc
miscibility
miscible
misfit
mism
mismatch
mismatched
misorientation
miss
missing
mission
mist
mit
mitig
mitigate
mitigated
mitigation
mitochond
mitochondria
mitochondrial
mix
mixed
mixer
mixing
mixture
mixtures
ml
mm
mmHg
mmol
mo
mobile
mobilities
mobility
mod
modal
modalities
mode
model
modeled
modeling
modelled
modelling
models
moderate
moderately
modern
modes
modest
modification
modifications
modified
modifier
modifiers
modifies
modify
modifying
modul
modular
modulate
modulated
modulating
modulation
modulations
modulator
modulators
module
modules
moduli
modulus
moieties
moiety
moiré
moist
moisture
mol
molar
mold
molded
molding
molds
mole
molecul
molecular
molecularly
molecule
molecules
moles
molten
molyb
molybdenum
mom
moment
momenta
moments
momentum
mon
monit
monitor
monitored
monitoring
mono
monoc
monochrom
monochromatic
monochromator
monocl
monoclinic
monoclonal
monod
monodentate
monodisper
monodisperse
monodispersed
monof
monohydrate
monol
monolayer
monolayers
monolith
monolithic
monoliths
monom
monomer
monomeric
monomers
monometallic
mononuclear
monop
monopole
monos
monot
monoton
monotonic
monotonically
monotonously
monovalent
monoxide
month
months
montmorillonite
more
moreover
morph
morphological
morphologies
morphology
mort
mortality
mortar
mosa
mosaic
most
mostly
mot
mother
motif
motifs
motility
motion
motional
motions
motiv
motivated
motivation
motor
motors
mould
mount
mounted
mounting
mouse
movable
move
moved
movement
movements
moves
moving
mp
mrad
ms
mu
muc
much
muff
mul
mullite
multi
multic
multichannel
multicomponent
multif
multiferro
multiferroic
multifunctional
multilayer
multilayered
multilayers
multim
multimodal
multimode
multip
multiphase
multiphoton
multipl
multiple
multiples
multiplet
multiplets
multiplex
multiplexed
multiplexing
multiplic
multiplication
multiplicative
multiplicity
multiplied
multiplier
multipliers
multiply
multiplying
multipole
multireference
multiscale
multistep
multitude
multiv
multivalent
multivariate
multiwalled
muon
murine
mus
musc
muscle
muscles
must
mut
mutagenesis
mutant
mutants
mutation
mutations
mutual
mutually
my
myel
myocar
n
nA
nBu
nC
nF
nH
nM
nN
na
naked
name
named
namely
names
nan
nano
nanoant
nanob
nanobelts
nanoc
nanocages
nanocapsules
nanocar
nanocarbon
nanocarrier
nanocarriers
nanocatalysts
nanochannel
nanochannels
nanocl
nanoclay
nanocluster
nanoclusters
nanocol
nanocompos
nanocomposite
nanocomposites
nanocon
nanocrystal
nanocrystall
nanocrystalline
nanocrystals
nanocubes
nanod
nanode
nanodevices
nanodi
nanodiamond
nanodots
nanodrop
nanoemulsion
nanof
nanofib
nanofiber
nanofibers
nanofibrous
nanofiller
nanofillers
nanofl
nanoflakes
nanoflowers
nanofluid
nanofluids
nanog
nanogel
nanogels
nanogra
nanohybrid
nanohybrids
nanoimp
nanoindentation
nanol
nanom
nanomaterial
nanomaterials
nanometer
nanometers
nanometric
nanop
nanopartic
nanoparticle
nanoparticles
nanoph
nanopillar
nanopillars
nanoplate
nanoplatelets
nanoplates
nanopore
nanopores
nanoporous
nanopowder
nanopowders
nanopro
nanoprobe
nanor
nanore
nanoribbon
nanoribbons
nanorod
nanorods
nanos
nanosc
nanoscale
nanosecond
nanoseconds
nanoshe
nanosheet
nanosheets
nanoshell
nanosized
nanosphere
nanospheres
nanost
nanostructure
nanostructured
nanostructures
nanot
nanotechnology
nanotube
nanotubes
nanow
nanowire
nanowires
naphth
naphthal
naphthalene
narrow
narrowed
narrower
narrowing
nas
nascent
nat
national
native
natural
naturally
nature
nb
nc
nd
ne
near
nearby
nearest
nearly
neat
nebul
nec
necess
necessarily
necessary
necessit
necessitates
necessity
neck
necking
necro
necrosis
need
needed
needle
needles
needs
neg
negative
negatively
neglect
neglected
neglecting
neglects
neglig
negligible
negligibly
neigh
neighb
neighbor
neighborhood
neighboring
neighbors
neighbour
neighbouring
neither
nematic
neoclassical
neon
ner
nerve
nervous
nested
net
network
networks
neu
neur
neural
neuro
neuron
neuronal
neurons
neurot
neut
neutral
neutrality
neutralization
neutralized
neutrals
neutrin
neutrino
neutrinos
neutron
neutrons
never
nevertheless
new
newly
next
ng
ni
nic
nice
nicely
nickel
night
nine
niob
niobate
niobium
nit
nitrate
nitrates
nitric
nitrid
nitridation
nitride
nitrides
nitrile
nitriles
nitrite
nitro
nitrobenzene
nitrogen
nitroxide
nm
nmol
no
noble
nod
nodal
node
nodes
nois
noise
noises
noisy
nom
nomenclature
nominal
nominally
non
nonadiabatic
nonbonded
noncovalent
nond
nonde
nondegenerate
nondestructive
nondimensional
none
nonequilibrium
nonetheless
noninteracting
noninvasive
nonionic
nonisothermal
nonlinear
nonlinearities
nonlinearity
nonlocal
nonmagnetic
nonmonotonic
nonplanar
nonpolar
nonradiative
nonrelativistic
nonresonant
nonspecific
nonthermal
nontoxic
nontrivial
nonuniform
nonuniformity
nonvolatile
nonwoven
nonzero
nor
norbornene
norm
normal
normalised
normalization
normalize
normalized
normalizing
normally
north
northern
not
notable
notably
notation
notations
notch
notched
note
noted
notew
noteworthy
nothing
notic
notice
noticeable
noticeably
noticed
noting
notion
novel
now
nowadays
nozzle
np
ns
nt
nth
nuc
nucle
nuclear
nucleate
nucleated
nucleating
nucleation
nuclei
nucleic
nucleo
nucleob
nucleobase
nucleobases
nucleoph
nucleophile
nucleophiles
nucleophilic
nucleophilicity
nucleoside
nucleotide
nucleotides
nucleus
nude
null
num
number
numbered
numbering
numbers
numer
numerical
numerically
numerous
nut
nutri
nutrient
nutrients
nylon
o
ob
obe
obey
obeys
obj
object
objective
objectives
objects
obl
oblate
oblique
obsc
obser
observ
observable
observables
observation
observational
observations
observe
observed
observer
observes
observing
obstac
obstacle
obstacles
obtain
obtained
obtaining
obtains
obvious
obviously
oc
occ
occas
occasion
occasionally
occup
occupancies
occupancy
occupation
occupied
occupies
occupy
occupying
occur
occurred
occurrence
occurring
occurs
ocean
oct
octa
octahedra
octahedral
octahedron
odd
odor
of
off
offer
offered
offering
offers
offset
offsets
often
ohmic
oil
oils
ol
old
older
ole
oleate
olefin
olefinic
olefins
oleic
oleylamine
olig
oligo
oligomer
oligomeric
oligomerization
oligomers
oligonucleo
oligonucleotide
oligos
omit
omitted
on
once
one
ones
ongoing
online
only
onset
onto
op
opacity
opal
opaque
open
opened
opening
openings
opens
oper
operate
operated
operates
operating
operation
operational
operations
operative
operator
operators
opin
opinion
opp
opportun
opportunities
opportunity
opposed
opposing
opposite
oppositely
opt
optic
optical
optically
optics
optim
optimal
optimally
optimisation
optimised
optimization
optimizations
optimize
optimized
optimizing
optimum
option
options
opto
optoelectronic
optoelectronics
or
oral
orange
orbit
orbital
orbitals
orbits
ord
order
ordered
ordering
orders
ordinary
ordinate
organ
organelles
organic
organics
organism
organisms
organization
organized
organo
organocat
organoclay
organometallic
organs
orient
orientated
orientation
orientational
orientations
oriented
orif
orifice
orig
origami
origin
original
originally
originate
originated
originates
originating
origins
orth
ortho
orthog
orthogon
orthogonal
orthogonality
orthon
orthonormal
orthorhombic
os
oscill
oscillate
oscillates
oscillating
oscillation
oscillations
oscillator
oscillators
oscillatory
oscilloscope
osm
osmo
osmotic
oste
osteob
osteoblast
osteoblasts
osteoc
osteogenic
other
others
otherwise
our
ours
ourselves
out
outcome
outcomes
outdo
outer
outermost
outflow
outg
outgoing
outlet
outliers
outline
outlined
outlook
outper
output
outputs
outside
outstanding
outward
oval
ovari
oven
over
overall
overcome
overcomes
overcoming
overe
overestim
overestimate
overestimated
overestimates
overestimation
overexp
overl
overlaid
overlap
overlapped
overlapping
overlaps
overlay
overlayer
overnight
overpotential
overpotentials
oversh
overshoot
overtone
overview
overw
overwhel
ow
owing
own
ox
oxal
oxalate
oxalic
oxazol
oxid
oxidant
oxidants
oxidase
oxidation
oxidations
oxidative
oxide
oxides
oxidization
oxidize
oxidized
oxidizing
oxime
oxo
oxy
oxygen
oxygenated
oxygens
oxynit
ozone
p
pA
pC
pDNA
pF
pH
pHs
pKa
pM
pN
pO
pT
pa
pack
package
packages
packaging
packed
packet
packets
packing
pad
pads
page
paid
pain
paint
pair
paired
pairing
pairs
pairwise
pal
pale
palladium
palm
pan
panc
pancre
pancreatic
panel
panels
paper
papers
par
para
parab
parabolic
parad
paradig
paradigm
paraelectric
paraffin
paragraph
parall
parallel
param
paramagnetic
parameter
parameterized
parameters
parametri
parametric
parametrization
parametrized
paramount
paras
parasitic
parent
parentheses
parenthesis
parity
part
partial
partially
partic
particip
participants
participate
participating
participation
particle
particles
particular
particularly
particulate
partition
partitioned
partitioning
partitions
partly
partner
partners
parts
pass
passage
passed
passes
passi
passing
passivated
passivating
passivation
passive
past
paste
pastes
pat
patch
patches
path
pathogen
pathogenic
pathogens
pathological
paths
pathway
pathways
pati
patient
patients
pattern
patterned
patterning
patterns
pave
pay
pc
pe
peak
peaked
peaking
peaks
pear
pectin
peculi
peculiar
ped
pedest
pedestal
peel
peeled
peeling
pel
pelle
pellet
pellets
pen
penal
penalty
pencil
pend
pendant
pendulum
penet
penetrate
penetrated
penetrates
penetrating
penetration
penicillin
pent
penta
pentacene
pentagonal
pentane
people
pep
pepti
peptide
peptides
per
perc
perceived
percent
percentage
percentages
perchlor
perchlorate
percol
percolation
perf
perfect
perfectly
perfluor
perfluoro
perfor
perform
performance
performances
performed
performing
performs
perfusion
perhaps
peri
peric
perimeter
period
periodic
periodically
periodicity
periods
peripher
peripheral
periphery
perm
perman
permanent
perme
permeability
permeable
permeance
permeate
permeation
permission
permit
permits
permitted
permittivity
permutation
perovsk
perovskite
perovskites
perox
peroxidase
peroxide
perpendicular
perpendicularly
pers
persist
persistence
persistent
persists
person
personal
perspective
perspectives
persulfate
pertaining
pertinent
perturb
perturbation
perturbations
perturbative
perturbed
perturbing
perylene
pestic
pesticides
pet
petroleum
pg
ph
phag
phage
phantom
phantoms
pharm
pharmac
pharmaceutical
pharmaceuticals
pharmacokinetic
pharmacological
phase
phases
phen
phenanth
phenol
phenolic
phenols
phenomen
phenomena
phenomenon
phenotyp
phenotype
phenyl
phenylacetylene
phenylalanine
phenylene
phon
phonon
phononic
phonons
phosph
phosphatase
phosphate
phosphates
phosphide
phosphine
phosphines
phospholip
phospholipid
phospholipids
phosphonate
phosphonium
phosphor
phosphorene
phosphorescence
phosphorescent
phosphoric
phosphorous
phosphors
phosphorus
phosphorylated
phosphorylation
phot
photo
photoacoustic
photoactive
photoactivity
photoan
photoanode
photoanodes
photobleaching
photoc
photocat
photocatalysis
photocatalyst
photocatalysts
photocatalytic
photocathode
photochemical
photochemistry
photochrom
photochromic
photoconductive
photocurrent
photocurrents
photod
photode
photodet
photodetector
photodetectors
photodiode
photodiodes
photodynamic
photoelectric
photoelectrode
photoelectrodes
photoelectron
photoelectrons
photoemission
photoexcitation
photoexcited
photof
photogener
photogenerated
photograph
photographs
photoinduced
photoinitiator
photoionization
photolysis
photom
photometric
photometry
photomultipl
photomultiplier
photon
photonic
photonics
photons
photophysical
photopro
photore
photoredox
photoreduction
photoresist
photoresponse
photos
photosensi
photosensitive
photosensitizer
photost
photostability
photoswit
photosynthesis
photosynthetic
photothermal
photovolta
photovoltage
photovoltaic
photovoltaics
phr
phthal
phthalocyanine
phy
phys
physi
physic
physical
physically
physico
physicochemical
physics
physiological
physis
physisorbed
physisorption
phyt
pi
pic
pick
picked
picosecond
picoseconds
picture
pictures
pie
piec
piece
pieces
piecewise
piez
piezo
piezoelectric
piezoresistive
pig
pigment
pigments
pil
pile
pillar
pillars
pilot
pin
pincer
pinch
pinhole
pinholes
pink
pinned
pinning
pins
pione
pioneering
pip
pipe
pipeline
piper
piperidine
pipes
pipet
pipette
piston
pit
pitch
pits
pitting
piv
pivotal
pix
pixel
pixels
pl
pla
place
placed
placement
places
placing
plain
plan
planar
planarity
plane
planes
planet
planetary
planets
planned
planning
plans
plant
plants
plas
plasm
plasma
plasmas
plasmid
plasmon
plasmonic
plasmons
plastic
plasticity
plasticization
plasticized
plasticizer
plasticizers
plastics
plat
plate
plateau
plateaus
plated
platelet
platelets
plates
platform
platforms
plating
platinum
plausible
play
played
playing
plays
ple
plenty
plot
plots
plotted
plotting
plu
plug
plume
plus
pm
pn
pneum
pnic
po
pock
pocket
pockets
poin
point
pointed
pointing
points
poison
poisoning
pol
polar
polarisation
polarities
polariton
polaritons
polarity
polariz
polarizability
polarizable
polarization
polarizations
polarized
polarizer
polarizers
polarizing
polaron
polarons
pole
poled
poles
polic
policy
poling
polished
polishing
poll
pollut
pollutant
pollutants
pollution
poloidal
poly
polyacrylamide
polyamide
polyamides
polyaniline
polyatomic
polycarbonate
polycrystalline
polycyclic
polydisper
polydisperse
polydispersity
polydopamine
polyelectrolyte
polyester
polyesters
polyether
polyethylene
polyhedra
polyhedral
polyhedron
polyimide
polyimides
polymer
polymerase
polymeric
polymerisation
polymerization
polymerizations
polymerize
polymerized
polymers
polymersomes
polymorph
polymorphic
polymorphs
polyn
polynomial
polynomials
polyol
polyols
polyox
polypeptide
polypeptides
polyplex
polyplexes
polypropylene
polypyrrole
polys
polysaccharide
polysaccharides
polysiloxane
polystyrene
polysulf
polysulfide
polysulfides
polytetra
polyurethane
polyurethanes
polyvinyl
polyvinylidene
ponder
ponderomotive
pool
poor
poorer
poorly
pop
popular
populated
population
populations
por
porcine
pore
pores
porosities
porosity
porous
porphyrin
porphyrins
port
portable
portion
portions
ports
pos
pose
poses
posi
position
positional
positioned
positioning
positions
positive
positively
positron
positrons
possess
possessed
possesses
possessing
possi
possibilities
possibility
possible
possibly
post
poster
posterior
postulate
postulated
pot
potassium
potency
potent
potenti
potential
potentially
potentials
potentiometric
potentiostat
poured
pow
powder
powdered
powders
power
powered
powerful
powers
pp
ppb
ppm
pr
prac
practical
practically
practice
pre
prec
precatalyst
preced
preceding
precession
precious
precip
precipit
precipitate
precipitated
precipitates
precipitation
precise
precisely
precision
preclu
precursor
precursors
pred
predefined
predetermined
predic
predict
predictable
predicted
predicting
prediction
predictions
predictive
predicts
predomin
predominant
predominantly
prefactor
prefer
preferable
preferably
preferen
preference
preferences
preferential
preferentially
preferred
prefers
preformed
preheated
prel
preliminary
prem
premature
prep
prepar
preparation
preparations
preparative
prepare
prepared
preparing
prepolymer
prerequ
prerequisite
pres
prescribed
prescription
presence
present
presentation
presented
presenting
presently
presents
preser
preservation
preserve
preserved
preserves
preserving
press
pressed
pressing
pressur
pressure
pressures
pressurized
presumably
presumed
pretreated
pretreatment
prev
prevail
prevailing
prevalence
prevalent
prevent
prevented
preventing
prevention
prevents
previous
previously
pri
price
prices
prim
primarily
primary
prime
primer
primers
primitive
prin
princip
principal
principally
principle
principles
print
printed
printer
printing
prior
priori
priority
prism
prismatic
prisms
pristine
pro
prob
probabil
probabilistic
probabilities
probability
probable
probably
probe
probed
probes
probing
proble
problem
problematic
problems
procedure
procedures
proceed
proceeded
proceeding
proceeds
process
processability
processed
processes
processing
processor
prodrug
produc
produce
produced
produces
producing
product
production
productivity
products
prof
profil
profile
profiles
profiling
profilometer
profound
prog
progen
progenitor
program
programmable
programmed
programming
programs
progress
progresses
progression
progressive
progressively
prohib
prohibitive
proj
projec
project
projected
projectile
projection
projections
projective
projector
projects
prol
prolate
prolif
proliferation
proline
prolong
prolonged
prom
promin
prominent
promis
promise
promising
promote
promoted
promoter
promoters
promotes
promoting
promotion
promp
prompt
prompted
pron
prone
pronounced
proof
prop
propag
propagate
propagated
propagates
propagating
propagation
propagator
propane
proparg
propargyl
propargylic
propell
propene
propensity
proper
properly
properties
property
propor
proportion
proportional
proportionality
proportionally
proportions
proposal
propose
proposed
proposes
proposition
propulsion
propyl
propylene
prosp
prospect
prospective
prospects
prost
prostate
prot
prote
protease
protect
protected
protecting
protection
protective
protects
protein
proteins
protic
proto
protoc
protocol
protocols
proton
protonated
protonation
protons
prototyp
prototype
prototypical
protru
protruding
protrusion
protrusions
prov
prove
proved
proven
proves
provide
provided
provides
providing
proving
proxim
proximal
proximity
ps
pse
pseud
pseudo
pseudoc
pseudocapac
pseudop
pseudopotential
psi
pu
pub
public
publication
publications
published
puck
puff
pul
pull
pulled
pulling
pulp
puls
pulsar
pulse
pulsed
pulses
pulver
pump
pumped
pumping
pumps
punct
pur
purch
purchased
pure
purely
purge
purged
purging
purification
purified
purity
purp
purple
purpose
purposes
purs
pursu
pursued
push
pushed
pushing
put
putative
putting
px
py
pyr
pyram
pyramid
pyramidal
pyramids
pyran
pyraz
pyrazole
pyrene
pyrid
pyridine
pyridinic
pyridinium
pyridyl
pyrimidine
pyro
pyroch
pyrochlore
pyroelectric
pyroly
pyrolysis
pyrolytic
pyrolyzed
pyrro
pyrrol
pyrrole
pyrrolic
pyrrolidine
pz
q
qe
qi
qu
quad
quadr
quadrant
quadratic
quadrature
quadrup
quadruple
quadrupolar
quadrupole
qual
qualit
qualitative
qualitatively
qualities
quality
quan
quanta
quanti
quantif
quantification
quantified
quantifies
[...]
