<unk>	0
<s>	0
</s>	0
▁t	-0
he	-1
▁a	-2
in	-3
re	-4
on	-5
▁the	-6
ti	-7
▁s	-8
er	-9
▁o	-10
▁c	-11
en	-12
ed	-13
▁of	-14
al	-15
at	-16
▁p	-17
▁w	-18
tion	-19
or	-20
▁f	-21
nd	-22
es	-23
▁in	-24
is	-25
it	-26
▁d	-27
▁m	-28
▁b	-29
ro	-30
an	-31
▁and	-32
ic	-33
le	-34
ing	-35
ar	-36
as	-37
▁(	-38
▁e	-39
ct	-40
▁re	-41
▁to	-42
ation	-43
▁T	-44
ly	-45
ent	-46
ig	-47
▁th	-48
et	-49
mp	-50
ol	-51
▁l	-52
▁n	-53
us	-54
ul	-55
ve	-56
▁is	-57
ac	-58
ure	-59
▁for	-60
▁h	-61
ur	-62
st	-63
▁1	-64
ith	-65
ow	-66
id	-67
▁con	-68
▁st	-69
el	-70
▁with	-71
▁co	-72
▁The	-73
im	-74
il	-75
▁g	-76
ra	-77
ec	-78
ot	-79
tic	-80
ere	-81
ce	-82
si	-83
▁v	-84
▁at	-85
▁as	-86
▁be	-87
▁pro	-88
ter	-89
▁C	-90
▁A	-91
ff	-92
▁on	-93
▁ex	-94
ity	-95
▁S	-96
▁an	-97
um	-98
ate	-99
▁F	-100
▁by	-101
▁that	-102
om	-103
qu	-104
od	-105
▁2	-106
os	-107
res	-108
ated	-109
▁I	-110
0.	-111
▁are	-112
▁al	-113
▁was	-114
ri	-115
ab	-116
am	-117
ut	-118
ge	-119
ect	-120
▁res	-121
rom	-122
▁di	-123
uc	-124
▁P	-125
un	-126
▁sh	-127
ver	-128
▁de	-129
▁sp	-130
tive	-131
lect	-132
per	-133
iz	-134
ain	-135
),	-136
▁comp	-137
▁H	-138
▁M	-139
).	-140
di	-141
ir	-142
her	-143
pp	-144
ran	-145
▁from	-146
▁us	-147
▁ch	-148
igh	-149
▁N	-150
und	-151
se	-152
▁wh	-153
op	-154
▁3	-155
▁were	-156
nt	-157
▁en	-158
uct	-159
ment	-160
00	-161
oc	-162
ay	-163
▁ac	-164
ical	-165
▁i	-166
▁dis	-167
ine	-168
ich	-169
yst	-170
▁or	-171
ag	-172
ts	-173
ess	-174
ore	-175
th	-176
▁su	-177
ase	-178
▁elect	-179
▁show	-180
▁po	-181
ers	-182
if	-183
ell	-184
▁ob	-185
ations	-186
▁which	-187
ant	-188
▁can	-189
▁[	-190
▁E	-191
tions	-192
act	-193
▁inc	-194
orm	-195
▁In	-196
ature	-197
▁diff	-198
ace	-199
▁we	-200
ad	-201
▁B	-202
▁ph	-203
▁D	-204
sion	-205
up	-206
▁int	-207
em	-208
ave	-209
▁cont	-210
▁par	-211
able	-212
ous	-213
▁4	-214
ond	-215
ron	-216
all	-217
yl	-218
▁sol	-219
ater	-220
red	-221
les	-222
▁R	-223
and	-224
ted	-225
▁r	-226
igure	-227
▁this	-228
ak	-229
▁5	-230
duc	-231
lu	-232
cul	-233
ruct	-234
▁mod	-235
ap	-236
▁ad	-237
▁app	-238
▁inter	-239
ence	-240
emp	-241
ib	-242
▁mo	-243
▁L	-244
ide	-245
ved	-246
▁met	-247
og	-248
ne	-249
▁it	-250
ial	-251
amp	-252
erature	-253
ph	-254
▁per	-255
ution	-256
▁se	-257
ance	-258
▁0.	-259
▁tran	-260
form	-261
▁=	-262
▁ab	-263
ch	-264
ens	-265
de	-266
▁temp	-267
▁eff	-268
ue	-269
▁sur	-270
erg	-271
▁W	-272
▁resul	-273
ion	-274
tial	-275
▁pl	-276
action	-277
▁me	-278
face	-279
ates	-280
.1	-281
sis	-282
−1	-283
ther	-284
here	-285
▁G	-286
low	-287
ructure	-288
▁temperature	-289
▁differe	-290
ction	-291
end	-292
▁pre	-293
▁form	-294
etw	-295
ign	-296
ight	-297
ug	-298
▁Th	-299
▁pres	-300
.2	-301
rib	-302
tain	-303
▁k	-304
▁ne	-305
ric	-306
eld	-307
tiv	-308
▁nan	-309
age	-310
▁val	-311
▁incre	-312
ies	-313
ield	-314
ting	-315
▁have	-316
▁ra	-317
hen	-318
▁not	-319
ties	-320
▁O	-321
▁spect	-322
aly	-323
▁high	-324
ased	-325
ound	-326
tical	-327
▁using	-328
▁rep	-329
een	-330
so	-331
▁energ	-332
etween	-333
yd	-334
hem	-335
10	-336
▁between	-337
▁gro	-338
▁6	-339
▁un	-340
▁imp	-341
▁exp	-342
eter	-343
▁tw	-344
ill	-345
▁resp	-346
▁poly	-347
▁surface	-348
▁structure	-349
ree	-350
ser	-351
ite	-352
▁samp	-353
ents	-354
ating	-355
▁Fig	-356
▁sc	-357
ative	-358
▁le	-359
ility	-360
.5	-361
▁low	-362
vi	-363
vel	-364
▁meas	-365
.3	-366
ective	-367
▁tim	-368
▁two	-369
▁char	-370
cent	-371
▁also	-372
ization	-373
▁sub	-374
▁trans	-375
▁used	-376
ves	-377
ros	-378
▁10	-379
▁cor	-380
cess	-381
▁measure	-382
▁has	-383
▁energy	-384
uch	-385
ub	-386
ystem	-387
ary	-388
▁he	-389
▁This	-390
▁than	-391
▁7	-392
sition	-393
ugh	-394
▁fil	-395
▁obser	-396
▁rel	-397
▁cur	-398
enc	-399
▁dep	-400
ach	-401
▁cal	-402
▁K	-403
▁electron	-404
han	-405
ydro	-406
ized	-407
▁system	-408
uld	-409
mo	-410
▁different	-411
ort	-412
perim	-413
▁been	-414
▁qu	-415
ven	-416
▁ro	-417
▁stu	-418
ding	-419
▁car	-420
▁und	-421
ensity	-422
sor	-423
▁shown	-424
▁obtain	-425
ration	-426
▁nm	-427
ific	-428
▁V	-429
ms	-430
ied	-431
▁cr	-432
unction	-433
▁sim	-434
.4	-435
▁dec	-436
ally	-437
str	-438
▁equ	-439
ose	-440
▁mic	-441
aterial	-442
▁cell	-443
mer	-444
hod	-445
12	-446
▁°	-447
gen	-448
.0	-449
ari	-450
ong	-451
ip	-452
▁electro	-453
▁mag	-454
].	-455
ass	-456
ax	-457
der	-458
▁experim	-459
▁time	-460
▁gra	-461
▁results	-462
▁dist	-463
tivity	-464
▁sign	-465
lecul	-466
fter	-467
▁8	-468
▁des	-469
▁(1	-470
ll	-471
▁under	-472
▁im	-473
ues	-474
▁cl	-475
▁model	-476
tim	-477
▁partic	-478
▁ind	-479
▁sy	-480
te	-481
ix	-482
▁ox	-483
oth	-484
ined	-485
▁analy	-486
▁all	-487
ared	-488
▁these	-489
yp	-490
▁pe	-491
co	-492
▁calcul	-493
ene	-494
ard	-495
▁process	-496
▁effect	-497
▁material	-498
dition	-499
▁hydro	-500
▁reg	-501
ack	-502
▁field	-503
▁ion	-504
lic	-505
▁chan	-506
ors	-507
ges	-508
ases	-509
ox	-510
▁function	-511
ici	-512
ist	-513
▁U	-514
aus	-515
▁observed	-516
ential	-517
ile	-518
▁lar	-519
ork	-520
rop	-521
2,	-522
The	-523
ectively	-524
▁lay	-525
ry	-526
▁μ	-527
▁method	-528
▁obtained	-529
2)	-530
▁one	-531
ments	-532
rent	-533
gth	-534
▁into	-535
ption	-536
▁proper	-537
hed	-538
out	-539
ever	-540
ble	-541
our	-542
.6	-543
▁op	-544
▁cryst	-545
ep	-546
▁comple	-547
▁solution	-548
atter	-549
ener	-550
ize	-551
▁concent	-552
acter	-553
1,	-554
▁respectively	-555
▁where	-556
▁hig	-557
▁reaction	-558
▁phot	-559
▁peak	-560
▁other	-561
▁such	-562
▁col	-563
▁more	-564
▁perform	-565
▁cat	-566
▁phase	-567
▁y	-568
duced	-569
ency	-570
▁min	-571
▁9	-572
.8	-573
ability	-574
▁over	-575
50	-576
▁indic	-577
20	-578
▁ev	-579
Fig	-580
mon	-581
ata	-582
▁num	-583
▁molecul	-584
.7	-585
resp	-586
▁et	-587
owever	-588
▁due	-589
▁ar	-590
ection	-591
▁ag	-592
▁vari	-593
ast	-594
ered	-595
▁ass	-596
ame	-597
ber	-598
▁Figure	-599
▁both	-600
olog	-601
▁water	-602
ium	-603
▁atom	-604
▁spec	-605
fore	-606
▁sm	-607
yc	-608
▁properties	-609
▁gener	-610
▁For	-611
▁values	-612
par	-613
cur	-614
▁det	-615
mb	-616
1)	-617
▁group	-618
▁their	-619
▁no	-620
hemical	-621
▁vol	-622
ollow	-623
▁density	-624
netic	-625
ane	-626
.9	-627
▁line	-628
▁ref	-629
▁pot	-630
▁small	-631
iqu	-632
▁Z	-633
▁data	-634
respond	-635
▁only	-636
als	-637
ie	-638
ular	-639
▁its	-640
rm	-641
▁bec	-642
lo	-643
range	-644
bon	-645
nthe	-646
▁flu	-647
▁X	-648
▁cm	-649
irst	-650
▁We	-651
▁ext	-652
▁shows	-653
▁higher	-654
▁experiment	-655
▁correspond	-656
▁after	-657
▁non	-658
ected	-659
▁param	-660
mis	-661
est	-662
met	-663
▁appro	-664
ensi	-665
▁well	-666
▁const	-667
▁gi	-668
duct	-669
▁up	-670
urther	-671
▁samples	-672
▁J	-673
ces	-674
▁cons	-675
echan	-676
▁ver	-677
▁As	-678
▁dire	-679
ded	-680
EM	-681
▁out	-682
▁character	-683
eterm	-684
11	-685
uring	-686
▁potential	-687
▁exc	-688
3)	-689
▁It	-690
sorption	-691
Cl	-692
▁state	-693
0,	-694
▁present	-695
ick	-696
ture	-697
▁follow	-698
▁polymer	-699
▁sample	-700
▁but	-701
cop	-702
▁rate	-703
▁decre	-704
orted	-705
dy	-706
duction	-707
▁spectra	-708
▁when	-709
Figure	-710
ould	-711
.,	-712
ness	-713
▁therm	-714
▁conf	-715
iO	-716
▁band	-717
▁determ	-718
atic	-719
ength	-720
ome	-721
15	-722
rough	-723
ited	-724
▁current	-725
ress	-726
▁value	-727
▁mechan	-728
▁there	-729
ust	-730
▁bi	-731
▁simul	-732
fer	-733
formation	-734
cor	-735
▁addition	-736
▁same	-737
olar	-738
▁20	-739
▁layer	-740
ail	-741
▁first	-742
▁Al	-743
ilar	-744
▁Co	-745
▁found	-746
▁each	-747
nce	-748
ex	-749
▁att	-750
ear	-751
▁def	-752
3,	-753
roscop	-754
▁our	-755
▁However	-756
ause	-757
▁depend	-758
elect	-759
ia	-760
requ	-761
ke	-762
lec	-763
▁size	-764
▁studi	-765
yn	-766
▁mix	-767
▁z	-768
▁case	-769
▁synthe	-770
▁order	-771
▁complex	-772
actions	-773
tig	-774
iv	-775
▁cap	-776
int	-777
▁mon	-778
▁concentration	-779
ination	-780
osition	-781
▁12	-782
▁through	-783
▁rati	-784
mission	-785
ines	-786
▁region	-787
▁range	-788
▁bond	-789
amic	-790
▁analysis	-791
14	-792
▁study	-793
▁mm	-794
ites	-795
ribution	-796
▁typ	-797
▁sing	-798
▁grow	-799
▁could	-800
▁magnetic	-801
▁large	-802
▁signific	-803
ditions	-804
▁micro	-805
▁work	-806
▁do	-807
▁then	-808
ins	-809
usion	-810
▁number	-811
▁(2	-812
pl	-813
▁pow	-814
ced	-815
one	-816
▁formation	-817
raction	-818
ys	-819
▁loc	-820
hib	-821
vious	-822
▁wave	-823
▁consid	-824
ole	-825
ension	-826
▁ter	-827
▁materials	-828
ages	-829
▁three	-830
▁fin	-831
tit	-832
▁increase	-833
▁frequ	-834
itu	-835
eters	-836
▁measured	-837
▁significant	-838
▁fact	-839
16	-840
old	-841
vic	-842
hyl	-843
▁conditions	-844
▁tre	-845
▁may	-846
av	-847
alyst	-848
▁single	-849
▁am	-850
ral	-851
▁acid	-852
vestig	-853
▁reported	-854
▁fe	-855
13	-856
zed	-857
ling	-858
ross	-859
are	-860
rid	-861
▁investig	-862
▁carbon	-863
▁film	-864
▁prop	-865
ha	-866
▁substr	-867
asing	-868
icient	-869
oly	-870
▁×	-871
ator	-872
ilic	-873
▁films	-874
ma	-875
▁lower	-876
gan	-877
osed	-878
sure	-879
ike	-880
▁plas	-881
NT	-882
▁cells	-883
uted	-884
▁similar	-885
▁during	-886
▁calculated	-887
▁devic	-888
In	-889
▁desc	-890
omet	-891
▁cyc	-892
0.0	-893
ides	-894
▁pos	-895
con	-896
)=	-897
▁will	-898
econd	-899
▁set	-900
▁so	-901
orph	-902
▁stre	-903
▁ini	-904
▁es	-905
own	-906
sible	-907
ech	-908
▁level	-909
▁prov	-910
ger	-911
▁13	-912
2+	-913
▁thick	-914
▁stron	-915
▁pa	-916
istic	-917
▁while	-918
▁lead	-919
me	-920
▁pr	-921
its	-922
25	-923
▁corresponding	-924
▁based	-925
▁mat	-926
▁bl	-927
▁ratio	-928
gra	-929
▁applic	-930
tif	-931
▁experimental	-932
ual	-933
▁contro	-934
ef	-935
▁yield	-936
▁supp	-937
▁Q	-938
▁100	-939
▁beha	-940
ove	-941
ise	-942
▁further	-943
▁nanop	-944
ough	-945
▁radi	-946
ically	-947
CH	-948
ract	-949
▁oc	-950
▁sl	-951
▁light	-952
▁very	-953
▁repres	-954
▁metal	-955
▁charge	-956
olution	-957
▁±	-958
],	-959
artic	-960
18	-961
▁relative	-962
▁Cu	-963
▁because	-964
▁behavi	-965
▁ins	-966
velop	-967
ord	-968
echn	-969
▁compared	-970
▁disc	-971
▁man	-972
flu	-973
round	-974
▁structures	-975
utions	-976
▁parameters	-977
▁pressure	-978
▁lim	-979
▁particles	-980
17	-981
figure	-982
▁main	-983
ores	-984
▁result	-985
▁transition	-986
▁flow	-987
unt	-988
▁thermal	-989
ains	-990
▁most	-991
▁catalyst	-992
▁x	-993
MR	-994
▁corre	-995
▁measurements	-996
med	-997
imum	-998
▁eV	-999
▁mul	-1000
mmet	-1001
▁above	-1002
▁carri	-1003
▁lo	-1004
ath	-1005
▁These	-1006
ural	-1007
MS	-1008
▁states	-1009
▁There	-1010
emb	-1011
ati	-1012
to	-1013
▁product	-1014
▁given	-1015
▁describ	-1016
▁constant	-1017
ray	-1018
Ps	-1019
▁Fe	-1020
▁prep	-1021
ism	-1022
oci	-1023
▁−	-1024
▁performed	-1025
lear	-1026
▁cent	-1027
omp	-1028
▁+	-1029
▁crystall	-1030
4,	-1031
▁develop	-1032
▁chemical	-1033
▁compar	-1034
▁presence	-1035
▁molecular	-1036
ynamic	-1037
▁ang	-1038
▁prob	-1039
eff	-1040
30	-1041
▁inclu	-1042
▁coup	-1043
ood	-1044
rain	-1045
▁15	-1046
▁solv	-1047
▁Table	-1048
▁frequency	-1049
▁previous	-1050
▁Si	-1051
OH	-1052
pend	-1053
▁distribution	-1054
▁about	-1055
des	-1056
ified	-1057
▁molecules	-1058
▁compound	-1059
sc	-1060
▁she	-1061
PE	-1062
▁exhib	-1063
▁long	-1064
▁0	-1065
pt	-1066
lement	-1067
MA	-1068
fac	-1069
lied	-1070
▁j	-1071
▁mL	-1072
ays	-1073
▁%	-1074
ark	-1075
▁some	-1076
led	-1077
CO	-1078
▁second	-1079
ost	-1080
ock	-1081
IG	-1082
ft	-1083
▁length	-1084
▁red	-1085
▁strong	-1086
▁atoms	-1087
2(	-1088
qui	-1089
attern	-1090
.(	-1091
▁To	-1092
▁techn	-1093
▁spin	-1094
▁import	-1095
▁Eq	-1096
ind	-1097
▁fl	-1098
val	-1099
▁α	-1100
▁sti	-1101
▁super	-1102
ume	-1103
▁demon	-1104
▁0.0	-1105
▁sug	-1106
rum	-1107
ory	-1108
▁nanopartic	-1109
ink	-1110
▁solid	-1111
▁groups	-1112
roscopy	-1113
ton	-1114
tal	-1115
▁absorption	-1116
▁cross	-1117
ogra	-1118
verage	-1119
▁max	-1120
▁las	-1121
▁emission	-1122
▁der	-1123
▁increasing	-1124
xim	-1125
where	-1126
Al	-1127
4)	-1128
▁volt	-1129
▁within	-1130
ale	-1131
▁impro	-1132
▁gl	-1133
▁ions	-1134
▁systems	-1135
▁polar	-1136
▁increased	-1137
nel	-1138
▁demonstr	-1139
II	-1140
▁consis	-1141
ology	-1142
ince	-1143
PS	-1144
▁pattern	-1145
▁use	-1146
19	-1147
▁gre	-1148
cence	-1149
▁separ	-1150
▁figure	-1151
▁growth	-1152
phe	-1153
▁initial	-1154
▁thickness	-1155
▁sugges	-1156
ible	-1157
▁spectrum	-1158
▁mean	-1159
▁determined	-1160
▁rem	-1161
▁tak	-1162
embran	-1163
▁compos	-1164
▁Zn	-1165
alized	-1166
ob	-1167
imp	-1168
▁prepared	-1169
▁along	-1170
▁ir	-1171
▁change	-1172
eg	-1173
ward	-1174
▁vis	-1175
▁intensity	-1176
▁mixture	-1177
ities	-1178
▁applied	-1179
NA	-1180
Fe	-1181
40	-1182
▁multi	-1183
▁substrate	-1184
ning	-1185
mers	-1186
imension	-1187
▁dom	-1188
electric	-1189
▁oxid	-1190
▁occur	-1191
ching	-1192
tice	-1193
▁free	-1194
Si	-1195
▁optical	-1196
▁Δ	-1197
▁behavior	-1198
000	-1199
▁step	-1200
▁bound	-1201
▁com	-1202
22	-1203
ygen	-1204
▁mass	-1205
▁interaction	-1206
▁power	-1207
sed	-1208
ently	-1209
▁hydrogen	-1210
▁laser	-1211
▁CO	-1212
▁direct	-1213
get	-1214
▁those	-1215
5,	-1216
▁respon	-1217
▁linear	-1218
▁magn	-1219
▁tr	-1220
▁gas	-1221
▁Hz	-1222
▁area	-1223
▁∼	-1224
▁compon	-1225
▁membran	-1226
▁(3	-1227
ute	-1228
▁“	-1229
▁effects	-1230
ang	-1231
▁amo	-1232
▁transfer	-1233
ately	-1234
other	-1235
▁electrode	-1236
▁el	-1237
▁approxim	-1238
▁without	-1239
▁point	-1240
▁organ	-1241
▁studies	-1242
SI	-1243
itation	-1244
▁diam	-1245
▁should	-1246
cording	-1247
▁30	-1248
▁experiments	-1249
▁equation	-1250
based	-1251
▁conver	-1252
▁requi	-1253
▁various	-1254
sequ	-1255
▁represent	-1256
ample	-1257
rix	-1258
uce	-1259
Hz	-1260
▁neg	-1261
▁important	-1262
▁peaks	-1263
ctions	-1264
▁showed	-1265
▁plasma	-1266
▁oper	-1267
▁larger	-1268
▁aff	-1269
▁contain	-1270
iquid	-1271
vol	-1272
▁NMR	-1273
▁characteristic	-1274
▁comb	-1275
ving	-1276
ult	-1277
▁shif	-1278
sol	-1279
▁increases	-1280
60	-1281
omer	-1282
see	-1283
SC	-1284
▁bel	-1285
▁allow	-1286
▁capac	-1287
sive	-1288
▁images	-1289
▁̄	-1290
As	-1291
▁would	-1292
▁silic	-1293
▁nanoparticles	-1294
▁total	-1295
▁oxygen	-1296
▁PE	-1297
line	-1298
▁fib	-1299
▁tra	-1300
iden	-1301
▁new	-1302
FIG	-1303
▁performance	-1304
▁near	-1305
▁simp	-1306
▁conduc	-1307
ulation	-1308
▁posi	-1309
▁they	-1310
▁pred	-1311
rate	-1312
▁Å	-1313
(1	-1314
ison	-1315
▁ser	-1316
▁Therefore	-1317
▁pur	-1318
▁Ni	-1319
▁following	-1320
▁50	-1321
▁Na	-1322
lor	-1323
23	-1324
▁consider	-1325
▁prof	-1326
▁dri	-1327
tically	-1328
▁particle	-1329
ule	-1330
▁crystal	-1331
hes	-1332
▁temperatures	-1333
▁discus	-1334
▁cop	-1335
▁Ag	-1336
min	-1337
▁inde	-1338
▁optim	-1339
▁bin	-1340
▁pul	-1341
phene	-1342
▁dynamic	-1343
▁plot	-1344
3+	-1345
uration	-1346
▁δ	-1347
▁estim	-1348
▁iden	-1349
▁much	-1350
0.5	-1351
▁matrix	-1352
abric	-1353
▁thus	-1354
erest	-1355
▁bar	-1356
bility	-1357
tern	-1358
ulf	-1359
▁stability	-1360
▁nit	-1361
▁ach	-1362
▁CH	-1363
▁maximum	-1364
▁Y	-1365
sorb	-1366
▁mode	-1367
▁kn	-1368
▁1,	-1369
▁average	-1370
▁14	-1371
enz	-1372
lected	-1373
aling	-1374
▁coeff	-1375
▁tri	-1376
sp	-1377
▁200	-1378
▁bas	-1379
)2	-1380
osph	-1381
▁An	-1382
▁top	-1383
PA	-1384
▁effici	-1385
6,	-1386
▁achie	-1387
▁transp	-1388
▁voltage	-1389
▁thin	-1390
▁any	-1391
▁beam	-1392
▁clear	-1393
iod	-1394
▁interactions	-1395
▁prote	-1396
▁β	-1397
cer	-1398
▁mol	-1399
▁liquid	-1400
▁mg	-1401
▁curves	-1402
▁interface	-1403
▁times	-1404
▁II	-1405
heme	-1406
▁via	-1407
ants	-1408
▁expl	-1409
of	-1410
▁good	-1411
ged	-1412
▁fit	-1413
attice	-1414
▁volume	-1415
=1	-1416
24	-1417
▁difference	-1418
▁stand	-1419
ulk	-1420
bit	-1421
uster	-1422
rated	-1423
▁displ	-1424
▁Li	-1425
2.	-1426
faces	-1427
ump	-1428
▁direction	-1429
rical	-1430
▁formed	-1431
▁sour	-1432
▁species	-1433
▁room	-1434
elf	-1435
▁Sc	-1436
▁described	-1437
▁glass	-1438
80	-1439
▁disper	-1440
cept	-1441
▁stress	-1442
alytic	-1443
over	-1444
▁nuc	-1445
ually	-1446
▁approach	-1447
itude	-1448
▁resulting	-1449
▁techniqu	-1450
▁activity	-1451
gre	-1452
lis	-1453
ayer	-1454
▁Au	-1455
▁stren	-1456
stit	-1457
▁emp	-1458
▁possible	-1459
▁rec	-1460
▁less	-1461
ethyl	-1462
ression	-1463
▁even	-1464
app	-1465
▁dop	-1466
▁around	-1467
▁pH	-1468
▁fluores	-1469
▁mechanism	-1470
cl	-1471
▁fabric	-1472
row	-1473
21	-1474
▁applications	-1475
▁star	-1476
▁av	-1477
▁treat	-1478
▁electronic	-1479
▁med	-1480
▁control	-1481
ten	-1482
rations	-1483
▁contact	-1484
til	-1485
▁norm	-1486
ier	-1487
▁changes	-1488
oss	-1489
▁nanoc	-1490
ects	-1491
▁investigated	-1492
ograph	-1493
▁correl	-1494
▁ful	-1495
ryst	-1496
▁vel	-1497
▁effective	-1498
▁design	-1499
▁graphene	-1500
▁ent	-1501
ributed	-1502
antum	-1503
igand	-1504
▁content	-1505
▁synthesis	-1506
▁image	-1507
PC	-1508
inc	-1509
▁resist	-1510
▁remo	-1511
▁quan	-1512
▁efficiency	-1513
▁signal	-1514
▁After	-1515
▁reduction	-1516
▁coupling	-1517
▁confir	-1518
▁bulk	-1519
▁studied	-1520
▁amp	-1521
▁rele	-1522
/2	-1523
5)	-1524
▁vac	-1525
▁adsorption	-1526
ational	-1527
▁morph	-1528
▁activ	-1529
▁functional	-1530
▁integ	-1531
▁load	-1532
▁if	-1533
▁strength	-1534
▁predic	-1535
▁amount	-1536
sized	-1537
ets	-1538
▁methods	-1539
▁calculations	-1540
ological	-1541
▁inst	-1542
ructural	-1543
mit	-1544
aled	-1545
▁Thus	-1546
oid	-1547
▁example	-1548
▁reduced	-1549
▁scan	-1550
0)	-1551
SA	-1552
▁device	-1553
▁16	-1554
ful	-1555
▁decrease	-1556
▁ge	-1557
length	-1558
ons	-1559
▁layers	-1560
though	-1561
FT	-1562
▁detail	-1563
▁seen	-1564
ification	-1565
pendent	-1566
▁reson	-1567
27	-1568
ring	-1569
▁added	-1570
RD	-1571
like	-1572
▁drop	-1573
active	-1574
ging	-1575
▁back	-1576
▁sens	-1577
▁lattice	-1578
char	-1579
▁symmet	-1580
ably	-1581
28	-1582
less	-1583
▁ill	-1584
▁specific	-1585
▁phen	-1586
erence	-1587
els	-1588
▁shap	-1589
2-	-1590
▁reve	-1591
▁quantum	-1592
▁ax	-1593
▁strain	-1594
▁photo	-1595
▁devices	-1596
▁feature	-1597
▁significantly	-1598
medi	-1599
ade	-1600
▁compounds	-1601
▁sw	-1602
▁tes	-1603
▁cluster	-1604
▁hy	-1605
29	-1606
MO	-1607
▁solvent	-1608
inu	-1609
▁lines	-1610
▁active	-1611
▁expected	-1612
▁standard	-1613
▁At	-1614
▁particular	-1615
pm	-1616
▁comparison	-1617
▁diffusion	-1618
ive	-1619
▁cir	-1620
▁angle	-1621
▁ligand	-1622
▁interest	-1623
▁25	-1624
▁sever	-1625
▁end	-1626
▁conductivity	-1627
▁influ	-1628
▁wt	-1629
▁coord	-1630
▁presented	-1631
▁intro	-1632
▁contr	-1633
alu	-1634
ances	-1635
▁anti	-1636
radi	-1637
▁electric	-1638
▁rot	-1639
▁several	-1640
IR	-1641
▁(4	-1642
▁evalu	-1643
uble	-1644
ple	-1645
▁limit	-1646
▁local	-1647
▁force	-1648
ocity	-1649
▁four	-1650
az	-1651
▁1.	-1652
idth	-1653
ode	-1654
▁[3	-1655
▁factor	-1656
ilib	-1657
▁dependence	-1658
▁associ	-1659
2/	-1660
▁More	-1661
▁geomet	-1662
▁differen	-1663
▁considered	-1664
▁loss	-1665
que	-1666
▁organic	-1667
▁act	-1668
▁orig	-1669
▁reactions	-1670
▁sum	-1671
upp	-1672
▁solutions	-1673
ON	-1674
▁11	-1675
▁parameter	-1676
▁config	-1677
omb	-1678
ero	-1679
6)	-1680
arget	-1681
inetic	-1682
▁Further	-1683
−1)	-1684
▁19	-1685
ian	-1686
▁mmol	-1687
▁smaller	-1688
▁electrons	-1689
▁Mo	-1690
▁side	-1691
▁below	-1692
orous	-1693
▁velocity	-1694
▁space	-1695
▁sem	-1696
▁gap	-1697
▁distance	-1698
▁UV	-1699
▁close	-1700
▁related	-1701
▁fra	-1702
▁path	-1703
Cs	-1704
▁simulations	-1705
▁before	-1706
cos	-1707
▁Pt	-1708
abil	-1709
%)	-1710
▁nucle	-1711
▁pure	-1712
▁treatment	-1713
▁carried	-1714
▁weight	-1715
sh	-1716
Ds	-1717
▁position	-1718
▁theore	-1719
attering	-1720
−2	-1721
▁ampl	-1722
▁response	-1723
▁0.5	-1724
Co	-1725
unctions	-1726
8,	-1727
▁period	-1728
–3	-1729
–1	-1730
▁appear	-1731
▁bro	-1732
olymer	-1733
ived	-1734
▁energies	-1735
▁consist	-1736
ype	-1737
urb	-1738
▁origin	-1739
ote	-1740
▁oxide	-1741
▁PL	-1742
▁stable	-1743
astic	-1744
▁channel	-1745
▁like	-1746
err	-1747
▁phys	-1748
▁membrane	-1749
▁containing	-1750
▁oxidation	-1751
▁acco	-1752
▁need	-1753
▁bu	-1754
▁curve	-1755
▁diameter	-1756
rient	-1757
▁highly	-1758
▁wavelength	-1759
▁cer	-1760
▁observ	-1761
brid	-1762
7,	-1763
ake	-1764
vir	-1765
▁here	-1766
▁sites	-1767
▁ring	-1768
vant	-1769
ibration	-1770
▁weak	-1771
▁terms	-1772
▁diffraction	-1773
▁self	-1774
▁part	-1775
lue	-1776
▁resistance	-1777
ental	-1778
▁heat	-1779
0.3	-1780
ses	-1781
▁negative	-1782
▁measurement	-1783
cedure	-1784
▁alk	-1785
▁structural	-1786
chemical	-1787
▁recent	-1788
▁ed	-1789
ored	-1790
hydro	-1791
▁prec	-1792
26	-1793
▁Mn	-1794
▁sensi	-1795
ention	-1796
▁anne	-1797
▁u	-1798
CN	-1799
▁del	-1800
▁On	-1801
▁tun	-1802
▁concentrations	-1803
▁binding	-1804
▁spectroscopy	-1805
verse	-1806
▁target	-1807
▁core	-1808
▁theory	-1809
▁mechanical	-1810
▁indicates	-1811
onduct	-1812
lecule	-1813
▁orient	-1814
▁transport	-1815
▁caus	-1816
▁St	-1817
the	-1818
▁including	-1819
▁poin	-1820
▁surfaces	-1821
viron	-1822
▁many	-1823
Table	-1824
onic	-1825
▁enhan	-1826
py	-1827
▁does	-1828
▁fluorescence	-1829
ner	-1830
eed	-1831
ality	-1832
PP	-1833
▁conduct	-1834
TA	-1835
▁section	-1836
▁acc	-1837
▁excitation	-1838
ty	-1839
▁positive	-1840
put	-1841
anc	-1842
etwork	-1843
▁source	-1844
▁scattering	-1845
ilibri	-1846
lex	-1847
)]	-1848
ott	-1849
chan	-1850
▁All	-1851
ov	-1852
▁phosph	-1853
▁Ref	-1854
▁relax	-1855
▁being	-1856
▁wide	-1857
▁invol	-1858
▁type	-1859
semb	-1860
▁slight	-1861
▁procedure	-1862
▁composition	-1863
very	-1864
atis	-1865
▁kinetic	-1866
ES	-1867
ogene	-1868
tional	-1869
▁unit	-1870
loy	-1871
▁paper	-1872
▁continu	-1873
▁contrast	-1874
▁since	-1875
onal	-1876
▁polymers	-1877
▁den	-1878
▁proposed	-1879
ided	-1880
▁TiO	-1881
▁Ti	-1882
▁agree	-1883
▁composite	-1884
Cu	-1885
▁simulation	-1886
▁photoc	-1887
▁(5	-1888
▁resid	-1889
▁complexes	-1890
lled	-1891
etra	-1892
urn	-1893
▁demonstrated	-1894
Mn	-1895
▁mom	-1896
▁associated	-1897
▁Comp	-1898
70	-1899
apor	-1900
▁air	-1901
orting	-1902
▁eth	-1903
oph	-1904
▁known	-1905
otrop	-1906
▁nitro	-1907
▁processes	-1908
▁λ	-1909
▁network	-1910
▁defined	-1911
▁suc	-1912
▁inf	-1913
▁chain	-1914
0.9	-1915
ilibrium	-1916
▁real	-1917
)(	-1918
agnetic	-1919
ritical	-1920
lecular	-1921
▁complete	-1922
▁allo	-1923
imensional	-1924
▁synthesized	-1925
▁lit	-1926
▁modul	-1927
▁identif	-1928
umin	-1929
▁environ	-1930
stand	-1931
Se	-1932
▁σ	-1933
more	-1934
omes	-1935
▁employ	-1936
▁hand	-1937
ither	-1938
▁fraction	-1939
%,	-1940
ET	-1941
sitions	-1942
▁Ga	-1943
most	-1944
▁according	-1945
▁dynamics	-1946
▁24	-1947
PD	-1948
▁γ	-1949
▁toward	-1950
▁broad	-1951
▁diag	-1952
▁When	-1953
▁heter	-1954
▁40	-1955
queous	-1956
TO	-1957
▁selec	-1958
▁ke	-1959
▁test	-1960
▁2,	-1961
−1,	-1962
75	-1963
▁general	-1964
▁hom	-1965
▁attributed	-1966
▁ε	-1967
iss	-1968
▁developed	-1969
ject	-1970
▁PA	-1971
ead	-1972
-1	-1973
▁models	-1974
▁modes	-1975
▁irradi	-1976
type	-1977
▁eas	-1978
▁<	-1979
▁sus	-1980
▁improve	-1981
▁Con	-1982
greg	-1983
ening	-1984
▁PC	-1985
▁dielectric	-1986
▁deriv	-1987
▁shape	-1988
▁ppm	-1989
33	-1990
▁still	-1991
erm	-1992
▁deposition	-1993
▁components	-1994
▁whereas	-1995
(2	-1996
▁molecule	-1997
▁react	-1998
▁bet	-1999
art	-2000
▁pair	-2001
▁avail	-2002
Ga	-2003
▁equiv	-2004
▁relatively	-2005
ensities	-2006
▁coefficient	-2007
▁coating	-2008
▁condition	-2009
▁again	-2010
cm	-2011
45	-2012
▁Moreover	-2013
9,	-2014
▁indicating	-2015
CT	-2016
BS	-2017
▁short	-2018
▁fac	-2019
▁see	-2020
▁morphology	-2021
hance	-2022
▁therefore	-2023
▁conversion	-2024
grad	-2025
▁2.	-2026
▁provide	-2027
▁reac	-2028
×10	-2029
ire	-2030
▁reas	-2031
▁zero	-2032
▁numer	-2033
Pa	-2034
▁aqueous	-2035
▁products	-2036
▁foc	-2037
▁dr	-2038
▁plane	-2039
▁scale	-2040
▁acet	-2041
ily	-2042
ime	-2043
▁cases	-2044
▁efficient	-2045
▁shift	-2046
▁enhance	-2047
▁substit	-2048
aging	-2049
▁functions	-2050
▁characteristics	-2051
CD	-2052
▁Ac	-2053
▁decreases	-2054
ributions	-2055
oxy	-2056
▁previously	-2057
1−	-2058
▁had	-2059
neti	-2060
▁protein	-2061
▁barri	-2062
▁however	-2063
2−	-2064
▁hal	-2065
▁Mg	-2066
▁width	-2067
Ni	-2068
▁leads	-2069
▁sulf	-2070
ew	-2071
▁MHz	-2072
▁indicated	-2073
▁accur	-2074
▁electrical	-2075
▁points	-2076
▁agreement	-2077
iform	-2078
▁heating	-2079
▁consistent	-2080
▁critical	-2081
▁illust	-2082
▁circ	-2083
▁ult	-2084
▁ele	-2085
cal	-2086
▁err	-2087
▁recor	-2088
▁hybrid	-2089
);	-2090
PO	-2091
▁better	-2092
▁proton	-2093
▁levels	-2094
Me	-2095
▁electrodes	-2096
▁ZnO	-2097
):	-2098
▁60	-2099
clusion	-2100
▁information	-2101
▁made	-2102
▁ve	-2103
▁Ch	-2104
▁role	-2105
CS	-2106
ii	-2107
▁upon	-2108
▁indi	-2109
▁typical	-2110
ymmet	-2111
▁nitrogen	-2112
▁boundary	-2113
▁detect	-2114
▁proble	-2115
▁influence	-2116
Zn	-2117
pre	-2118
▁flux	-2119
lection	-2120
▁polarization	-2121
▁respect	-2122
ressed	-2123
▁fix	-2124
▁atomic	-2125
▁indicate	-2126
▁mel	-2127
ially	-2128
▁taken	-2129
amine	-2130
▁electroly	-2131
▁available	-2132
▁patterns	-2133
▁py	-2134
▁catalysts	-2135
▁wa	-2136
DA	-2137
fact	-2138
ained	-2139
SO	-2140
▁SEM	-2141
▁Me	-2142
▁block	-2143
Sc	-2144
ice	-2145
35	-2146
▁generated	-2147
▁NPs	-2148
▁orbit	-2149
▁depos	-2150
▁ep	-2151
duce	-2152
let	-2153
▁exhibit	-2154
▁hel	-2155
NTs	-2156
▁Furthermore	-2157
▁basis	-2158
charge	-2159
▁series	-2160
GO	-2161
▁evolution	-2162
iew	-2163
ER	-2164
por	-2165
▁conven	-2166
anol	-2167
▁bonds	-2168
adi	-2169
0.4	-2170
▁theoretical	-2171
▁0.1	-2172
(1)	-2173
change	-2174
▁cool	-2175
▁Re	-2176
▁pulse	-2177
aneous	-2178
▁simple	-2179
paration	-2180
7)	-2181
▁equilibrium	-2182
▁vers	-2183
▁vacu	-2184
▁environment	-2185
▁φ	-2186
▁either	-2187
izes	-2188
ety	-2189
▁substrates	-2190
▁separation	-2191
lying	-2192
▁neut	-2193
▁enhanced	-2194
▁achieved	-2195
vers	-2196
▁Here	-2197
▁CD	-2198
sequently	-2199
aman	-2200
▁aut	-2201
FM	-2202
▁catalytic	-2203
▁plan	-2204
▁dispersion	-2205
0.6	-2206
dimensional	-2207
▁TEM	-2208
NO	-2209
ram	-2210
ostructure	-2211
▁capacity	-2212
▁clearly	-2213
for	-2214
dop	-2215
▁resear	-2216
90	-2217
encies	-2218
▁electrochemical	-2219
osp	-2220
▁followed	-2221
0.8	-2222
▁θ	-2223
▁double	-2224
▁τ	-2225
▁18	-2226
▁slow	-2227
▁phases	-2228
▁17	-2229
iles	-2230
▁view	-2231
aced	-2232
▁follows	-2233
)+	-2234
32	-2235
▁With	-2236
▁Supp	-2237
ics	-2238
link	-2239
▁hydroph	-2240
▁technique	-2241
▁composites	-2242
▁fields	-2243
100	-2244
▁rates	-2245
▁focus	-2246
▁axis	-2247
▁XRD	-2248
alle	-2249
▁detection	-2250
zation	-2251
▁Ar	-2252
▁sequ	-2253
ogeneous	-2254
▁Bi	-2255
▁summ	-2256
▁additional	-2257
▁bre	-2258
aj	-2259
izing	-2260
pti	-2261
▁element	-2262
pped	-2263
▁component	-2264
▁Ph	-2265
ED	-2266
▁moment	-2267
scill	-2268
▁2(	-2269
▁equations	-2270
▁(10	-2271
ogen	-2272
ext	-2273
▁300	-2274
▁configuration	-2275
▁regions	-2276
▁prot	-2277
ots	-2278
▁>	-2279
▁Information	-2280
▁fer	-2281
▁off	-2282
31	-2283
▁discussed	-2284
▁recorded	-2285
▁sal	-2286
gradation	-2287
pec	-2288
▁probe	-2289
▁induced	-2290
▁few	-2291
▁Pd	-2292
▁required	-2293
▁decreased	-2294
▁situ	-2295
▁evid	-2296
▁semic	-2297
▁conn	-2298
Br	-2299
▁mes	-2300
ition	-2301
)-	-2302
order	-2303
▁carb	-2304
▁oscill	-2305
▁relaxation	-2306
▁intermedi	-2307
omers	-2308
▁profile	-2309
▁chains	-2310
aps	-2311
▁Ex	-2312
▁produced	-2313
CP	-2314
▁ρ	-2315
aw	-2316
▁10−	-2317
8)	-2318
▁approximately	-2319
not	-2320
allel	-2321
▁reference	-2322
pro	-2323
▁crystals	-2324
▁slightly	-2325
dical	-2326
–4	-2327
▁almost	-2328
▁term	-2329
▁gel	-2330
▁grain	-2331
▁rat	-2332
▁coordin	-2333
▁application	-2334
▁stir	-2335
▁reduc	-2336
ators	-2337
▁PV	-2338
▁correlation	-2339
▁class	-2340
▁deg	-2341
ottom	-2342
cursor	-2343
▁polymerization	-2344
mal	-2345
▁site	-2346
99	-2347
▁microscopy	-2348
resh	-2349
▁expression	-2350
▁directly	-2351
ient	-2352
▁normal	-2353
▁domin	-2354
▁features	-2355
▁modified	-2356
34	-2357
orpor	-2358
▁means	-2359
▁fluid	-2360
▁vibration	-2361
▁them	-2362
▁nature	-2363
CA	-2364
hile	-2365
henyl	-2366
▁lif	-2367
▁vacuum	-2368
▁Raman	-2369
linear	-2370
ulated	-2371
read	-2372
▁chlor	-2373
▁dimension	-2374
▁cre	-2375
inity	-2376
ud	-2377
TiO	-2378
tives	-2379
▁lab	-2380
amin	-2381
▁fixed	-2382
▁understand	-2383
▁reason	-2384
▁variation	-2385
sing	-2386
rich	-2387
▁uniform	-2388
electron	-2389
▁3.	-2390
time	-2391
▁nanos	-2392
▁1.5	-2393
▁Then	-2394
▁.	-2395
1(	-2396
▁DNA	-2397
▁center	-2398
allic	-2399
work	-2400
▁bands	-2401
▁1(	-2402
▁assum	-2403
▁precursor	-2404
BT	-2405
racted	-2406
GA	-2407
▁estimated	-2408
PL	-2409
▁sat	-2410
ze	-2411
▁down	-2412
▁physical	-2413
▁becomes	-2414
ish	-2415
▁spectral	-2416
▁magneti	-2417
3-	-2418
▁ω	-2419
▁fill	-2420
III	-2421
▁ground	-2422
▁edge	-2423
inally	-2424
−1.	-2425
lig	-2426
▁nano	-2427
▁prim	-2428
▁blue	-2429
▁leading	-2430
▁success	-2431
ynthe	-2432
▁blend	-2433
umn	-2434
vid	-2435
BA	-2436
rystall	-2437
ajor	-2438
layer	-2439
NH	-2440
▁dip	-2441
▁aggreg	-2442
▁tetra	-2443
Con	-2444
ols	-2445
▁irradiation	-2446
,(	-2447
▁stret	-2448
ompos	-2449
ube	-2450
▁Since	-2451
▁wall	-2452
▁symmetry	-2453
▁adj	-2454
))	-2455
▁atm	-2456
ellent	-2457
▁find	-2458
▁29	-2459
▁adsorb	-2460
▁inj	-2461
pid	-2462
tially	-2463
▁ear	-2464
▁suff	-2465
▁contribution	-2466
▁incorpor	-2467
▁vect	-2468
ography	-2469
molecular	-2470
OS	-2471
▁barrier	-2472
▁final	-2473
▁80	-2474
max	-2475
ering	-2476
▁mM	-2477
mic	-2478
▁3(	-2479
▁stra	-2480
▁drug	-2481
▁Ca	-2482
▁onto	-2483
▁loading	-2484
▁resolution	-2485
dependent	-2486
▁determine	-2487
structure	-2488
Ti	-2489
▁way	-2490
▁radical	-2491
▁chem	-2492
▁occurs	-2493
▁transform	-2494
HF	-2495
▁:	-2496
right	-2497
▁rapid	-2498
▁corresponds	-2499
oles	-2500
▁dim	-2501
ables	-2502
▁[4	-2503
▁silicon	-2504
▁employed	-2505
▁common	-2506
▁Pro	-2507
ched	-2508
▁From	-2509
cat	-2510
▁plate	-2511
We	-2512
▁deposited	-2513
▁excellent	-2514
▁diss	-2515
Ac	-2516
▁PD	-2517
▁relations	-2518
▁shear	-2519
▁exchange	-2520
igned	-2521
▁continuous	-2522
▁graph	-2523
▁characterized	-2524
ternal	-2525
state	-2526
aking	-2527
PT	-2528
▁annealing	-2529
▁extend	-2530
▁confirmed	-2531
arent	-2532
▁mainly	-2533
▁degradation	-2534
▁anion	-2535
by	-2536
▁Sn	-2537
▁excited	-2538
3.	-2539
▁activation	-2540
orts	-2541
isotrop	-2542
▁full	-2543
36	-2544
▁nec	-2545
▁mac	-2546
omen	-2547
▁By	-2548
▁magnitude	-2549
uter	-2550
▁inhib	-2551
▁hard	-2552
▁yields	-2553
▁stabil	-2554
ication	-2555
▁devi	-2556
exp	-2557
▁q	-2558
way	-2559
▁parallel	-2560
▁medium	-2561
▁improved	-2562
▁coun	-2563
0.7	-2564
▁amplitude	-2565
aving	-2566
▁mixed	-2567
au	-2568
acking	-2569
▁impact	-2570
Ag	-2571
▁pore	-2572
2),	-2573
▁radius	-2574
▁PS	-2575
▁Ad	-2576
▁radiation	-2577
2–	-2578
och	-2579
▁resonance	-2580
)/	-2581
▁chrom	-2582
▁quantit	-2583
▁major	-2584
39	-2585
▁Although	-2586
▁geometry	-2587
▁domain	-2588
▁soft	-2589
▁great	-2590
obic	-2591
ometer	-2592
▁intern	-2593
▁degree	-2594
▁mA	-2595
▁exist	-2596
▁profiles	-2597
▁versus	-2598
­(	-2599
▁dy	-2600
ope	-2601
▁minim	-2602
ining	-2603
rin	-2604
▁crystalline	-2605
▁phenomen	-2606
▁development	-2607
umines	-2608
▁intr	-2609
▁strongly	-2610
▁transmission	-2611
▁calc	-2612
▁π	-2613
▁column	-2614
▁absorb	-2615
istry	-2616
▁ran	-2617
▁semiconduct	-2618
▁differences	-2619
▁1.0	-2620
hest	-2621
▁derived	-2622
▁(1)	-2623
ndom	-2624
taneous	-2625
ries	-2626
car	-2627
▁fiber	-2628
▁literature	-2629
▁solar	-2630
▁give	-2631
▁elements	-2632
▁silica	-2633
(2)	-2634
▁display	-2635
▁production	-2636
▁rest	-2637
hyd	-2638
▁powder	-2639
▁anisotrop	-2640
▁spa	-2641
mol	-2642
▁frame	-2643
▁might	-2644
▁squ	-2645
▁500	-2646
zy	-2647
ired	-2648
▁isol	-2649
yt	-2650
▁external	-2651
Mo	-2652
▁Sim	-2653
To	-2654
▁detected	-2655
▁hex	-2656
▁rather	-2657
TS	-2658
▁microscop	-2659
▁successful	-2660
▁Supporting	-2661
Ph	-2662
▁dra	-2663
▁life	-2664
jug	-2665
set	-2666
sk	-2667
▁carrier	-2668
rel	-2669
▁propag	-2670
Ex	-2671
▁cycles	-2672
lished	-2673
▁provides	-2674
ij	-2675
▁MA	-2676
▁random	-2677
isms	-2678
man	-2679
itor	-2680
hematic	-2681
NPs	-2682
DS	-2683
emperature	-2684
ryl	-2685
▁units	-2686
▁decomp	-2687
=0	-2688
▁provided	-2689
▁nanocompos	-2690
▁treated	-2691
▁caused	-2692
1.	-2693
dis	-2694
▁abs	-2695
▁defects	-2696
wave	-2697
▁comput	-2698
▁util	-2699
osure	-2700
▁color	-2701
▁decay	-2702
▁problem	-2703
ylene	-2704
▁highest	-2705
▁motion	-2706
▁multiple	-2707
%.	-2708
doped	-2709
vis	-2710
4-	-2711
▁error	-2712
65	-2713
bal	-2714
▁(20	-2715
=−	-2716
▁cle	-2717
bor	-2718
▁index	-2719
▁research	-2720
▁signals	-2721
▁fo	-2722
▁photocat	-2723
▁best	-2724
CM	-2725
ults	-2726
▁hydrox	-2727
▁visible	-2728
9)	-2729
▁,	-2730
loc	-2731
▁initi	-2732
▁types	-2733
▁calculation	-2734
▁speed	-2735
▁sil	-2736
38	-2737
1–	-2738
▁electrolyte	-2739
▁limited	-2740
Fs	-2741
▁individ	-2742
▁represents	-2743
▁nat	-2744
ST	-2745
▁methan	-2746
▁equival	-2747
▁atmosp	-2748
▁clusters	-2749
acy	-2750
▁orientation	-2751
▁must	-2752
▁vary	-2753
▁swit	-2754
inal	-2755
tering	-2756
▁membranes	-2757
▁gradi	-2758
▁ionic	-2759
′′	-2760
▁controlled	-2761
▁Ab	-2762
ences	-2763
▁fast	-2764
▁equal	-2765
rateg	-2766
▁techniques	-2767
▁exhibited	-2768
▁necess	-2769
▁rough	-2770
ks	-2771
▁release	-2772
induced	-2773
▁preparation	-2774
ody	-2775
orphous	-2776
▁superc	-2777
▁inside	-2778
▁cannot	-2779
▁{	-2780
▁4.	-2781
▁–	-2782
methyl	-2783
Te	-2784
▁scanning	-2785
rene	-2786
oxide	-2787
ways	-2788
aries	-2789
▁dissol	-2790
▁right	-2791
▁alloy	-2792
rans	-2793
wise	-2794
▁doping	-2795
▁account	-2796
MP	-2797
▁benz	-2798
▁excit	-2799
OD	-2800
▁SA	-2801
uctu	-2802
hip	-2803
tered	-2804
ensive	-2805
ergy	-2806
tained	-2807
▁imaging	-2808
▁showing	-2809
1+	-2810
pping	-2811
vent	-2812
=2	-2813
▁generation	-2814
▁Cd	-2815
▁hydrog	-2816
imet	-2817
▁factors	-2818
ceed	-2819
▁investigate	-2820
▁intermediate	-2821
▁impl	-2822
alog	-2823
olds	-2824
rit	-2825
mod	-2826
▁ord	-2827
MF	-2828
▁another	-2829
▁hum	-2830
▁strateg	-2831
▁internal	-2832
perimental	-2833
▁dried	-2834
▁analyzed	-2835
oxyl	-2836
▁conventional	-2837
▁fabricated	-2838
▁combination	-2839
Th	-2840
▁SiO	-2841
▁turn	-2842
▁advant	-2843
▁fluctu	-2844
▁cycle	-2845
▁|	-2846
eration	-2847
▁shell	-2848
▁III	-2849
romatic	-2850
ashed	-2851
▁IR	-2852
▁flex	-2853
▁3,	-2854
▁transitions	-2855
▁cathod	-2856
▁90	-2857
1/	-2858
▁em	-2859
▁remain	-2860
assi	-2861
▁modulus	-2862
▁far	-2863
po	-2864
▁grown	-2865
37	-2866
▁diffic	-2867
ify	-2868
▁28	-2869
▁left	-2870
incip	-2871
▁revealed	-2872
▁conc	-2873
▁spectrom	-2874
Au	-2875
▁NH	-2876
▁ste	-2877
ymmetric	-2878
▁porous	-2879
▁allows	-2880
=0.	-2881
▁GO	-2882
▁numerical	-2883
cosity	-2884
ections	-2885
turb	-2886
alysis	-2887
▁Un	-2888
icients	-2889
▁monomer	-2890
▁independent	-2891
▁link	-2892
▁buff	-2893
esults	-2894
with	-2895
organ	-2896
NC	-2897
▁(0.	-2898
▁did	-2899
▁overall	-2900
▁fav	-2901
▁hyd	-2902
▁possi	-2903
▁sufficient	-2904
▁selected	-2905
▁amorphous	-2906
▁reco	-2907
off	-2908
entioned	-2909
▁easily	-2910
▁half	-2911
▁exhibits	-2912
▁frequencies	-2913
ior	-2914
ris	-2915
▁magnet	-2916
48	-2917
romagnetic	-2918
▁vs	-2919
)−	-2920
▁pan	-2921
▁coefficients	-2922
For	-2923
▁har	-2924
▁oil	-2925
plane	-2926
kn	-2927
▁regime	-2928
2]	-2929
▁minimum	-2930
Sn	-2931
▁(6	-2932
alled	-2933
▁precip	-2934
▁ide	-2935
▁4(	-2936
aged	-2937
▁discharge	-2938
▁Ge	-2939
phase	-2940
▁gives	-2941
▁later	-2942
▁pump	-2943
▁open	-2944
▁If	-2945
▁nanostructure	-2946
▁ability	-2947
ractive	-2948
▁bias	-2949
hy	-2950
▁mobility	-2951
merc	-2952
▁pepti	-2953
LA	-2954
itable	-2955
▁fully	-2956
▁least	-2957
▁gly	-2958
▁methyl	-2959
▁altern	-2960
▁nonlinear	-2961
▁evaluated	-2962
aff	-2963
▁assemb	-2964
Scheme	-2965
▁bottom	-2966
▁likely	-2967
▁pop	-2968
2‐	-2969
▁steps	-2970
orption	-2971
▁cation	-2972
▁located	-2973
▁specim	-2974
▁gold	-2975
▁FT	-2976
▁incid	-2977
▁He	-2978
▁(2)	-2979
▁constants	-2980
▁nanow	-2981
▁magnetization	-2982
atives	-2983
▁collected	-2984
LS	-2985
▁formul	-2986
▁400	-2987
▁against	-2988
▁deformation	-2989
▁sensor	-2990
44	-2991
wing	-2992
WC	-2993
pect	-2994
▁suggests	-2995
▁introduced	-2996
ansion	-2997
band	-2998
ique	-2999
.15	-3000
▁now	-3001
▁→	-3002
atively	-3003
▁recently	-3004
▁hole	-3005
col	-3006
ok	-3007
▁Finally	-3008
static	-3009
▁ratios	-3010
▁greater	-3011
▁densities	-3012
▁approximation	-3013
▁trend	-3014
field	-3015
▁transformation	-3016
CF	-3017
▁coupled	-3018
▁relationship	-3019
▁repe	-3020
Pt	-3021
▁individual	-3022
▁bonding	-3023
▁mark	-3024
uminescence	-3025
ubes	-3026
-2	-3027
▁absence	-3028
▁elastic	-3029
strum	-3030
bl	-3031
NI	-3032
▁produce	-3033
▁viscosity	-3034
atory	-3035
▁longer	-3036
3),	-3037
olymers	-3038
–5	-3039
TEM	-3040
▁One	-3041
▁Br	-3042
estab	-3043
Int	-3044
▁MO	-3045
cup	-3046
▁how	-3047
95	-3048
▁cost	-3049
▁depends	-3050
ensile	-3051
▁nanot	-3052
hex	-3053
▁sensitivity	-3054
uction	-3055
▁alumin	-3056
▁don	-3057
▁dry	-3058
▁ligands	-3059
▁spatial	-3060
Na	-3061
osen	-3062
lit	-3063
▁copolymer	-3064
▁promis	-3065
▁lith	-3066
benz	-3067
▁Se	-3068
▁Our	-3069
eren	-3070
▁ν	-3071
=(	-3072
lets	-3073
aterials	-3074
–2	-3075
▁fibers	-3076
▁require	-3077
but	-3078
▁ethanol	-3079
iral	-3080
LD	-3081
▁According	-3082
▁copper	-3083
▁green	-3084
▁vector	-3085
▁prac	-3086
acing	-3087
gment	-3088
▁expansion	-3089
icity	-3090
▁PP	-3091
▁positions	-3092
IS	-3093
acement	-3094
▁alg	-3095
facial	-3096
▁accel	-3097
SiO	-3098
▁fluor	-3099
tics	-3100
▁difficult	-3101
▁conducted	-3102
▁neutral	-3103
..	-3104
▁exposure	-3105
tri	-3106
taining	-3107
▁opp	-3108
▁capacit	-3109
ler	-3110
▁among	-3111
▁finite	-3112
▁discussion	-3113
▁counter	-3114
▁enhancement	-3115
▁ESI	-3116
MC	-3117
utes	-3118
▁noise	-3119
orage	-3120
▁support	-3121
.10	-3122
table	-3123
Li	-3124
▁η	-3125
▁crystallization	-3126
ND	-3127
amil	-3128
gether	-3129
▁together	-3130
roduction	-3131
▁cho	-3132
▁base	-3133
▁evapor	-3134
▁although	-3135
▁output	-3136
ters	-3137
▁black	-3138
▁fitting	-3139
▁across	-3140
▁become	-3141
bil	-3142
▁cut	-3143
ortion	-3144
▁construct	-3145
free	-3146
sequent	-3147
▁scal	-3148
ingly	-3149
▁relation	-3150
igen	-3151
▁chosen	-3152
NP	-3153
xt	-3154
▁dependent	-3155
▁thresh	-3156
bers	-3157
▁cooling	-3158
▁enzy	-3159
–7	-3160
odium	-3161
▁mechanisms	-3162
▁sizes	-3163
comp	-3164
DF	-3165
)‐	-3166
▁≈	-3167
▁reduce	-3168
ticle	-3169
▁inset	-3170
▁latter	-3171
▁diffus	-3172
▁stage	-3173
▁tiss	-3174
▁tested	-3175
▁Note	-3176
fluor	-3177
▁incub	-3178
3/	-3179
1.5	-3180
▁suitable	-3181
▁certain	-3182
pecially	-3183
tr	-3184
▁identified	-3185
▁lip	-3186
air	-3187
▁buffer	-3188
▁natural	-3189
tre	-3190
▁probability	-3191
▁lowest	-3192
▁analog	-3193
98	-3194
▁make	-3195
▁depth	-3196
equ	-3197
unts	-3198
▁perturb	-3199
wh	-3200
ologies	-3201
▁observation	-3202
▁tip	-3203
▁monol	-3204
she	-3205
▁commerc	-3206
▁charged	-3207
▁estab	-3208
IM	-3209
PR	-3210
sist	-3211
▁details	-3212
▁Cr	-3213
ense	-3214
▁arg	-3215
akes	-3216
dd	-3217
▁adhe	-3218
▁2.5	-3219
▁interfacial	-3220
ynthesis	-3221
▁selectivity	-3222
▁expon	-3223
73	-3224
▁predicted	-3225
ires	-3226
▁reflect	-3227
▁demonstrate	-3228
ending	-3229
▁obvious	-3230
be	-3231
▁They	-3232
0.00	-3233
▁exam	-3234
▁buil	-3235
▁Similar	-3236
▁gradient	-3237
▁height	-3238
▁1).	-3239
▁decomposition	-3240
▁exis	-3241
tle	-3242
amples	-3243
▁conjug	-3244
64	-3245
ured	-3246
▁repl	-3247
arrow	-3248
▁1.2	-3249
▁placed	-3250
▁proteins	-3251
▁break	-3252
▁70	-3253
▁Such	-3254
owled	-3255
▁35	-3256
▁Ω	-3257
85	-3258
ino	-3259
▁biom	-3260
tonian	-3261
▁dissolved	-3262
▁towards	-3263
vered	-3264
▁post	-3265
oted	-3266
▁sin	-3267
▁remains	-3268
▁detailed	-3269
3(	-3270
rating	-3271
▁combined	-3272
▁unique	-3273
▁ess	-3274
▁doped	-3275
▁Ind	-3276
uit	-3277
▁distributions	-3278
ION	-3279
▁split	-3280
▁tend	-3281
▁dil	-3282
ck	-3283
▁hydrophobic	-3284
▁5.	-3285
▁achieve	-3286
rap	-3287
▁dark	-3288
atom	-3289
▁key	-3290
▁eigen	-3291
▁ceramic	-3292
▁derivatives	-3293
coh	-3294
▁contrib	-3295
▁especially	-3296
DO	-3297
▁equivalent	-3298
▁necessary	-3299
▁wind	-3300
▁affect	-3301
▁rever	-3302
▁HR	-3303
mun	-3304
▁metallic	-3305
EA	-3306
▁princip	-3307
▁Pb	-3308
▁removed	-3309
▁valid	-3310
ceptor	-3311
▁fabrication	-3312
▁novel	-3313
▁noted	-3314
ecause	-3315
rior	-3316
▁approac	-3317
▁PM	-3318
▁note	-3319
▁satis	-3320
▁Ce	-3321
▁storage	-3322
▁microstructure	-3323
▁quality	-3324
▁angles	-3325
▁mV	-3326
▁van	-3327
▁tensile	-3328
▁overl	-3329
▁having	-3330
lision	-3331
▁loop	-3332
▁rotation	-3333
0(	-3334
▁Di	-3335
▁isolated	-3336
▁Cl	-3337
avity	-3338
ears	-3339
▁interesting	-3340
▁completely	-3341
▁Sec	-3342
CC	-3343
IV	-3344
itro	-3345
monic	-3346
▁statis	-3347
▁La	-3348
wo	-3349
apping	-3350
▁atmosphere	-3351
▁appears	-3352
▁phon	-3353
▁usually	-3354
oun	-3355
sess	-3356
▁essential	-3357
▁confirm	-3358
▁plots	-3359
▁Rec	-3360
ermi	-3361
yan	-3362
▁five	-3363
▁promising	-3364
allen	-3365
▁defect	-3366
▁stretching	-3367
herical	-3368
anti	-3369
▁assumed	-3370
▁optimized	-3371
▁normalized	-3372
▁secondary	-3373
▁150	-3374
▁methanol	-3375
sian	-3376
bond	-3377
▁1)	-3378
▁diagram	-3379
▁able	-3380
cont	-3381
▁amb	-3382
▁‘	-3383
▁Int	-3384
ground	-3385
BM	-3386
▁gu	-3387
▁explained	-3388
▁primary	-3389
▁plotted	-3390
late	-3391
▁4,	-3392
▁CA	-3393
▁often	-3394
▁log	-3395
▁tum	-3396
+1	-3397
▁threshold	-3398
▁coordination	-3399
▁report	-3400
▁pol	-3401
▁tit	-3402
phenyl	-3403
▁thermod	-3404
▁exact	-3405
▁perme	-3406
▁[1	-3407
▁simultaneous	-3408
▁microscope	-3409
▁suggested	-3410
▁solvents	-3411
insic	-3412
▁Hence	-3413
ky	-3414
▁recomb	-3415
▁NO	-3416
▁run	-3417
▁nanof	-3418
▁subst	-3419
ovsk	-3420
ropri	-3421
▁prom	-3422
roscopic	-3423
▁\	-3424
sin	-3425
▁eq	-3426
▁occup	-3427
valent	-3428
▁While	-3429
▁resulted	-3430
1.0	-3431
▁observations	-3432
Introduction	-3433
▁possess	-3434
erate	-3435
▁homogeneous	-3436
▁suggest	-3437
hedral	-3438
▁shar	-3439
▁Figs	-3440
▁bor	-3441
66	-3442
▁syn	-3443
▁kinetics	-3444
section	-3445
▁−1	-3446
−3	-3447
▁XPS	-3448
▁dissoci	-3449
▁0.2	-3450
▁grad	-3451
PM	-3452
icular	-3453
▁collision	-3454
▁until	-3455
PV	-3456
43	-3457
▁generally	-3458
▁resis	-3459
ches	-3460
▁framework	-3461
▁selective	-3462
ulsion	-3463
▁45	-3464
▁smo	-3465
▁areas	-3466
)).	-3467
ancy	-3468
▁[5	-3469
▁emit	-3470
ird	-3471
▁subsequent	-3472
▁mixing	-3473
▁challen	-3474
▁approaches	-3475
▁sequence	-3476
▁distin	-3477
▁narrow	-3478
owledge	-3479
▁reach	-3480
TM	-3481
sub	-3482
lementary	-3483
rif	-3484
▁upper	-3485
ask	-3486
▁experimentally	-3487
eful	-3488
ometric	-3489
▁original	-3490
orith	-3491
hal	-3492
▁starting	-3493
▁injection	-3494
▁glo	-3495
▁conduction	-3496
urations	-3497
EC	-3498
umption	-3499
▁37	-3500
.1,	-3501
:1	-3502
▁property	-3503
▁iron	-3504
▁summar	-3505
▁electrostatic	-3506
▁Hamil	-3507
42	-3508
▁MS	-3509
▁sodium	-3510
ik	-3511
▁processing	-3512
▁tube	-3513
▁excess	-3514
pension	-3515
certain	-3516
.25	-3517
rystalline	-3518
▁appropri	-3519
▁vertical	-3520
enes	-3521
▁aromatic	-3522
▁expressed	-3523
▁ultr	-3524
herent	-3525
Ws	-3526
ash	-3527
ducing	-3528
▁comparable	-3529
▁cyl	-3530
▁tests	-3531
46	-3532
▁synthetic	-3533
▁gate	-3534
▁avoid	-3535
▁useful	-3536
axial	-3537
urated	-3538
▁quas	-3539
▁square	-3540
▁AFM	-3541
▁coll	-3542
▁sensitive	-3543
imin	-3544
ights	-3545
▁nearly	-3546
▁alcoh	-3547
rup	-3548
▁days	-3549
any	-3550
gl	-3551
▁impur	-3552
NS	-3553
inyl	-3554
▁(100	-3555
°,	-3556
▁chemistry	-3557
▁vibrational	-3558
.)	-3559
▁enti	-3560
▁Both	-3561
78	-3562
hence	-3563
▁coated	-3564
▁simulated	-3565
pendicular	-3566
▁perovsk	-3567
▁conclu	-3568
▁algorith	-3569
▁successfully	-3570
▁washed	-3571
▁removal	-3572
IC	-3573
41	-3574
▁seem	-3575
▁varying	-3576
iding	-3577
ulture	-3578
Mg	-3579
▁modification	-3580
▁tor	-3581
▁partial	-3582
NR	-3583
▁adsorbed	-3584
▁finding	-3585
▁2-	-3586
▁Hamiltonian	-3587
▁iss	-3588
duces	-3589
▁potentials	-3590
aster	-3591
.16	-3592
▁chromat	-3593
▁Using	-3594
ibility	-3595
▁Zr	-3596
assemb	-3597
clusions	-3598
ience	-3599
▁suspension	-3600
rared	-3601
▁SO	-3602
▁vapor	-3603
.20	-3604
▁waves	-3605
▁quite	-3606
▁cathode	-3607
-3	-3608
▁place	-3609
ellow	-3610
▁extended	-3611
ones	-3612
▁solub	-3613
ready	-3614
▁orth	-3615
▁though	-3616
Pb	-3617
10)	-3618
▁melting	-3619
▁correct	-3620
electro	-3621
Bi	-3622
lective	-3623
49	-3624
▁cham	-3625
▁allowed	-3626
IP	-3627
▁thi	-3628
▁).	-3629
▁Ba	-3630
]+	-3631
olved	-3632
▁First	-3633
▁detector	-3634
▁extracted	-3635
▁deviation	-3636
▁widely	-3637
47	-3638
▁molar	-3639
▁Because	-3640
▁capacitance	-3641
inning	-3642
temperature	-3643
amide	-3644
▁Γ	-3645
alyzed	-3646
▁DO	-3647
▁central	-3648
▁estimate	-3649
▁recon	-3650
0.2	-3651
▁hence	-3652
water	-3653
▁whe	-3654
▁fund	-3655
imethyl	-3656
▁feed	-3657
▁include	-3658
▁strategy	-3659
▁scre	-3660
odes	-3661
▁flat	-3662
▁0.8	-3663
▁examined	-3664
▁identical	-3665
▁No	-3666
▁χ	-3667
▁dye	-3668
St	-3669
▁perpendicular	-3670
.1.	-3671
▁whole	-3672
aussian	-3673
▁nucleation	-3674
An	-3675
ubic	-3676
.2.	-3677
▁repro	-3678
▁orbital	-3679
▁salt	-3680
▁already	-3681
▁forms	-3682
orth	-3683
elling	-3684
′,	-3685
cyc	-3686
▁Fermi	-3687
▁incident	-3688
▁background	-3689
▁extre	-3690
▁Ru	-3691
▁stirred	-3692
▁depic	-3693
uture	-3694
▁DFT	-3695
.18	-3696
▁fract	-3697
▁rise	-3698
energy	-3699
▁cavity	-3700
▁assigned	-3701
uk	-3702
ads	-3703
view	-3704
▁distinct	-3705
)3	-3706
organic	-3707
4.	-3708
▁spectrometer	-3709
▁understanding	-3710
.5,	-3711
▁crosslink	-3712
▁contributions	-3713
▁implement	-3714
▁input	-3715
ride	-3716
▁5(	-3717
–6	-3718
▁enough	-3719
SION	-3720
▁desired	-3721
▁isother	-3722
▁facil	-3723
ivers	-3724
▁(7	-3725
▁Section	-3726
▁crack	-3727
Results	-3728
ription	-3729
gine	-3730
▁designed	-3731
▁conformation	-3732
▁scheme	-3733
▁apparent	-3734
▁vi	-3735
▁entire	-3736
▁amounts	-3737
.17	-3738
▁play	-3739
▁forces	-3740
▁take	-3741
▁decreasing	-3742
2).	-3743
▁mentioned	-3744
▁describe	-3745
LE	-3746
Ge	-3747
▁uncertain	-3748
phot	-3749
▁appropriate	-3750
▁(∼	-3751
▁anisotropy	-3752
▁MoS	-3753
▁composed	-3754
nm	-3755
▁discre	-3756
▁heated	-3757
urface	-3758
lysis	-3759
Ms	-3760
▁table	-3761
▁supported	-3762
▁sharp	-3763
atin	-3764
zo	-3765
▁shifts	-3766
isc	-3767
▁percent	-3768
arch	-3769
▁alloys	-3770
▁(3)	-3771
ware	-3772
▁computed	-3773
▁refer	-3774
▁Sch	-3775
▁hot	-3776
▁Addition	-3777
alk	-3778
▁separated	-3779
olor	-3780
▁biological	-3781
▁relevant	-3782
▁batter	-3783
10,	-3784
rot	-3785
▁intrinsic	-3786
TR	-3787
▁dipole	-3788
▁next	-3789
af	-3790
▁ultra	-3791
▁suggesting	-3792
▁residual	-3793
▁spherical	-3794
▁inner	-3795
▁pass	-3796
▁recombination	-3797
▁array	-3798
▁Four	-3799
▁assess	-3800
ylation	-3801
▁turb	-3802
▁configurations	-3803
Ch	-3804
▁Elect	-3805
▁1000	-3806
▁(8	-3807
▁go	-3808
▁numbers	-3809
▁online	-3810
▁accuracy	-3811
▁operation	-3812
▁dashed	-3813
MSO	-3814
▁panel	-3815
▁capture	-3816
struction	-3817
▁distances	-3818
ometry	-3819
ps	-3820
▁dam	-3821
▁aver	-3822
.14	-3823
.2,	-3824
▁semiconductor	-3825
▁bran	-3826
▁interpre	-3827
Zr	-3828
▁human	-3829
▁prior	-3830
▁ferro	-3831
acet	-3832
.4,	-3833
97	-3834
▁satisf	-3835
▁ambient	-3836
isted	-3837
▁copolymers	-3838
tile	-3839
(3)	-3840
▁contains	-3841
solute	-3842
▁included	-3843
(−	-3844
▁Sr	-3845
CE	-3846
▁culture	-3847
ned	-3848
▁generate	-3849
ramolecular	-3850
▁involved	-3851
▁fundam	-3852
▁CV	-3853
cular	-3854
jected	-3855
▁calculate	-3856
▁2.0	-3857
▁momentum	-3858
.13	-3859
ories	-3860
ids	-3861
▁che	-3862
▁adop	-3863
▁CDCl	-3864
ept	-3865
▁App	-3866
ignment	-3867
67	-3868
▁white	-3869
▁illustrated	-3870
▁chamber	-3871
▁photon	-3872
othe	-3873
▁channels	-3874
▁intensities	-3875
light	-3876
0.1	-3877
Sb	-3878
▁PEG	-3879
▁six	-3880
hyde	-3881
Pd	-3882
▁bacter	-3883
PI	-3884
▁6.	-3885
dehyde	-3886
▁instead	-3887
▁enc	-3888
55	-3889
ographic	-3890
▁maxim	-3891
eady	-3892
▁neigh	-3893
▁sources	-3894
▁precipit	-3895
▁years	-3896
▁22	-3897
zer	-3898
rol	-3899
▁requires	-3900
▁inser	-3901
▁ns	-3902
▁lifetime	-3903
ta	-3904
reg	-3905
▁Gaussian	-3906
▁imped	-3907
▁auth	-3908
▁analytical	-3909
▁disloc	-3910
▁donor	-3911
2=	-3912
land	-3913
4‐	-3914
osite	-3915
▁remark	-3916
gments	-3917
BE	-3918
▁valence	-3919
carbon	-3920
lier	-3921
Experimental	-3922
▁tunnel	-3923
▁host	-3924
3‐	-3925
▁attention	-3926
▁add	-3927
▁existence	-3928
▁typically	-3929
TP	-3930
prop	-3931
stract	-3932
inement	-3933
▁scaff	-3934
acryl	-3935
ensor	-3936
HE	-3937
▁investigation	-3938
▁1.3	-3939
)].	-3940
▁optimal	-3941
▁En	-3942
▁redox	-3943
▁accum	-3944
▁needed	-3945
▁interact	-3946
▁Am	-3947
▁formula	-3948
▁acids	-3949
tific	-3950
▁cyt	-3951
gram	-3952
▁0.05	-3953
▁emb	-3954
▁evidence	-3955
SS	-3956
▁IV	-3957
ened	-3958
▁corro	-3959
▁smooth	-3960
shell	-3961
4+	-3962
▁pairs	-3963
▁displacement	-3964
▁directions	-3965
▁5,	-3966
1),	-3967
(1−	-3968
▁nanocomposites	-3969
ised	-3970
▁0.00	-3971
▁regard	-3972
EG	-3973
▁domains	-3974
▁displayed	-3975
▁commercial	-3976
▁De	-3977
LU	-3978
▁facilit	-3979
load	-3980
arm	-3981
lin	-3982
▁radial	-3983
96	-3984
▁propagation	-3985
▁symmetric	-3986
▁thermodynamic	-3987
▁observe	-3988
▁metals	-3989
▁QDs	-3990
cc	-3991
▁Eu	-3992
▁connected	-3993
trans	-3994
▁reached	-3995
▁deli	-3996
▁anode	-3997
atch	-3998
▁phenomenon	-3999
▁fluctuations	-4000
▁HA	-4001
▁instrum	-4002
FA	-4003
▁kind	-4004
▁amino	-4005
▁last	-4006
▁rig	-4007
▁cond	-4008
▁grid	-4009
▁48	-4010
DT	-4011
.11	-4012
xy	-4013
–(	-4014
▁OH	-4015
▁tissue	-4016
▁orbitals	-4017
▁THF	-4018
ositions	-4019
version	-4020
▁slope	-4021
▁poor	-4022
▁120	-4023
-5	-4024
(0)	-4025
▁annealed	-4026
▁grains	-4027
▁HO	-4028
.12	-4029
.6,	-4030
▁nanoshe	-4031
scale	-4032
▁az	-4033
▁wet	-4034
▁extreme	-4035
▁lengths	-4036
▁termin	-4037
rays	-4038
ESI	-4039
▁brid	-4040
▁reag	-4041
▁$	-4042
idal	-4043
▁law	-4044
▁600	-4045
▁quantif	-4046
▁future	-4047
▁solubility	-4048
pite	-4049
vari	-4050
▁setup	-4051
▁0.3	-4052
.3,	-4053
▁consists	-4054
▁1/	-4055
rary	-4056
enet	-4057
coated	-4058
osity	-4059
▁asymmetric	-4060
graph	-4061
SM	-4062
▁PT	-4063
▁cycl	-4064
▁27	-4065
▁(12	-4066
▁third	-4067
Cr	-4068
▁controll	-4069
polar	-4070
▁favor	-4071
tz	-4072
agonal	-4073
▁MPa	-4074
▁0,	-4075
▁propor	-4076
.8,	-4077
▁perovskite	-4078
′)	-4079
▁forming	-4080
▁underg	-4081
ynam	-4082
enced	-4083
▁ones	-4084
▁photocatalytic	-4085
It	-4086
▁led	-4087
▁switching	-4088
▁outer	-4089
▁bene	-4090
IL	-4091
▁nanor	-4092
▁lithium	-4093
▁triple	-4094
▁Chemical	-4095
def	-4096
▁por	-4097
▁sensors	-4098
▁ionization	-4099
▁MD	-4100
.19	-4101
▁mid	-4102
▁always	-4103
▁bio	-4104
axis	-4105
▁Scheme	-4106
▁Also	-4107
▁indust	-4108
▁zone	-4109
6-	-4110
▁effectively	-4111
▁agent	-4112
▁makes	-4113
▁dimensions	-4114
▁pse	-4115
▁bil	-4116
rown	-4117
▁affected	-4118
▁pack	-4119
gest	-4120
▁κ	-4121
▁kV	-4122
tition	-4123
▁antib	-4124
▁carboxyl	-4125
▁absolute	-4126
▁fu	-4127
=0,	-4128
▁10.	-4129
▁reactive	-4130
▁⟨	-4131
arily	-4132
▁depending	-4133
ference	-4134
68	-4135
▁variety	-4136
▁sets	-4137
▁droplet	-4138
▁sensing	-4139
ours	-4140
▁fundamental	-4141
▁fitted	-4142
▁cause	-4143
▁stri	-4144
yrene	-4145
▁bending	-4146
eled	-4147
▁traject	-4148
▁angular	-4149
▁dominant	-4150
▁done	-4151
amely	-4152
van	-4153
▁exposed	-4154
▁ca	-4155
▁move	-4156
▁Abstract	-4157
urrent	-4158
▁ether	-4159
▁surfact	-4160
▁2).	-4161
▁nanostructures	-4162
ystere	-4163
licit	-4164
▁classical	-4165
▁ret	-4166
function	-4167
▁br	-4168
▁just	-4169
ares	-4170
ayers	-4171
inite	-4172
Ref	-4173
▁gain	-4174
▁dispersed	-4175
▁FTIR	-4176
▁cancer	-4177
▁get	-4178
SEM	-4179
▁Sub	-4180
▁accurate	-4181
▁reflection	-4182
▁window	-4183
▁CNT	-4184
rim	-4185
▁cyclic	-4186
▁olig	-4187
▁condens	-4188
▁peptide	-4189
–10	-4190
▁bub	-4191
▁evaluate	-4192
ressive	-4193
▁integrated	-4194
ligible	-4195
▁mixtures	-4196
▁phonon	-4197
.7,	-4198
▁clean	-4199
amer	-4200
▁steady	-4201
HA	-4202
zing	-4203
▁ideal	-4204
1).	-4205
▁boundaries	-4206
▁1.4	-4207
▁operating	-4208
tes	-4209
IT	-4210
▁silver	-4211
▁extensive	-4212
▁whether	-4213
▁reducing	-4214
side	-4215
▁carriers	-4216
▁oct	-4217
1-	-4218
▁algorithm	-4219
otes	-4220
▁chloride	-4221
▁authors	-4222
▁analyses	-4223
▁tumor	-4224
▁stronger	-4225
▁pores	-4226
▁chiral	-4227
▁bal	-4228
▁cubic	-4229
63	-4230
▁IL	-4231
MT	-4232
▁saturation	-4233
RA	-4234
fold	-4235
▁every	-4236
▁operator	-4237
12,	-4238
▁engine	-4239
▁Be	-4240
ina	-4241
▁scaling	-4242
2.5	-4243
ridine	-4244
containing	-4245
atically	-4246
dle	-4247
▁prog	-4248
riction	-4249
▁oxides	-4250
PEG	-4251
▁read	-4252
rect	-4253
▁considering	-4254
▁entrop	-4255
▁plastic	-4256
▁ensure	-4257
▁sulfur	-4258
▁earlier	-4259
▁roughness	-4260
▁graf	-4261
oprop	-4262
▁opposite	-4263
▁Eqs	-4264
▁mill	-4265
LC	-4266
rystal	-4267
▁Pl	-4268
▁sput	-4269
ached	-4270
▁holes	-4271
▁pulses	-4272
▁hyp	-4273
FE	-4274
▁Res	-4275
IB	-4276
rac	-4277
▁prevent	-4278
XRD	-4279
▁sto	-4280
▁Based	-4281
▁[2	-4282
▁practical	-4283
dt	-4284
▁derivative	-4285
▁gradually	-4286
rile	-4287
sat	-4288
▁possibility	-4289
▁purch	-4290
.9,	-4291
.0,	-4292
oxid	-4293
▁Inc	-4294
▁differential	-4295
▁undergo	-4296
▁23	-4297
▁circuit	-4298
▁localized	-4299
Re	-4300
▁Car	-4301
▁(%)	-4302
olic	-4303
3−	-4304
▁seed	-4305
ancies	-4306
▁nanoparticle	-4307
▁pie	-4308
▁particularly	-4309
▁variations	-4310
▁advantage	-4311
▁tolu	-4312
▁surround	-4313
▁basic	-4314
▁hystere	-4315
point	-4316
▁hyper	-4317
▁flexible	-4318
▁planar	-4319
▁250	-4320
▁Fourier	-4321
),(	-4322
–8	-4323
▁GaN	-4324
HT	-4325
cale	-4326
▁benef	-4327
▁Two	-4328
nder	-4329
▁purchased	-4330
▁proportional	-4331
▁0.7	-4332
▁constit	-4333
▁graphite	-4334
▁writ	-4335
▁blends	-4336
▁pub	-4337
4]	-4338
▁toluene	-4339
▁cations	-4340
HM	-4341
▁adhesion	-4342
kin	-4343
▁remove	-4344
▁media	-4345
Color	-4346
▁hydroxyl	-4347
▁periodic	-4348
▁rece	-4349
▁consequ	-4350
▁26	-4351
▁insul	-4352
lectivity	-4353
▁purp	-4354
▁whose	-4355
▁implies	-4356
▁conform	-4357
istine	-4358
▁takes	-4359
Bu	-4360
▁little	-4361
▁nanowires	-4362
▁substitution	-4363
▁impedance	-4364
▁kcal	-4365
▁filter	-4366
Comp	-4367
▁fail	-4368
Nb	-4369
▁dissociation	-4370
▁fr	-4371
▁rapidly	-4372
pheres	-4373
▁established	-4374
▁nanofib	-4375
▁substan	-4376
▁draw	-4377
4/	-4378
▁Per	-4379
cell	-4380
▁parts	-4381
1.3	-4382
▁represented	-4383
anes	-4384
-(	-4385
▁kept	-4386
ien	-4387
▁dot	-4388
▁chromatography	-4389
▁monolayer	-4390
▁improvement	-4391
▁quanti	-4392
▁focused	-4393
▁negligible	-4394
lation	-4395
▁monomers	-4396
▁too	-4397
▁resistivity	-4398
▁interfaces	-4399
▁presents	-4400
▁population	-4401
ellar	-4402
Ru	-4403
mes	-4404
▁7.	-4405
▁dose	-4406
ano	-4407
rangement	-4408
▁charges	-4409
ders	-4410
eared	-4411
▁var	-4412
▁computational	-4413
step	-4414
▁etching	-4415
▁help	-4416
▁extent	-4417
▁assume	-4418
▁responsible	-4419
▁importance	-4420
PF	-4421
▁75	-4422
▁alkal	-4423
▁explain	-4424
▁upt	-4425
▁representation	-4426
izations	-4427
▁sheet	-4428
▁description	-4429
6]	-4430
▁quen	-4431
▁dimer	-4432
treated	-4433
▁software	-4434
▁fron	-4435
▁compositions	-4436
▁Due	-4437
Ca	-4438
▁stim	-4439
▁alternative	-4440
1]	-4441
▁equi	-4442
ichi	-4443
▁extraction	-4444
▁accomp	-4445
▁determination	-4446
▁compare	-4447
vation	-4448
▁collo	-4449
down	-4450
Ox	-4451
▁MR	-4452
pe	-4453
▁splitting	-4454
oriz	-4455
known	-4456
shap	-4457
▁hydrophilic	-4458
▁working	-4459
1/2	-4460
▁quantitative	-4461
▁integration	-4462
crib	-4463
▁mig	-4464
▁0.6	-4465
▁hydrogel	-4466
UV	-4467
rates	-4468
yond	-4469
orter	-4470
▁identify	-4471
▁coordinates	-4472
▁mem	-4473
▁hysteresis	-4474
▁99	-4475
▁pathway	-4476
1.4	-4477
AS	-4478
ulose	-4479
▁cruc	-4480
▁scales	-4481
▁assay	-4482
▁yellow	-4483
▁except	-4484
▁nanom	-4485
▁Pre	-4486
▁nanotubes	-4487
▁sphe	-4488
▁800	-4489
▁obj	-4490
Elect	-4491
▁listed	-4492
.28	-4493
gap	-4494
DC	-4495
rystals	-4496
IF	-4497
inary	-4498
▁straight	-4499
▁aris	-4500
▁aggregation	-4501
Et	-4502
▁damage	-4503
▁Met	-4504
200	-4505
aces	-4506
ethylene	-4507
▁ammon	-4508
▁tail	-4509
▁foam	-4510
tices	-4511
▁micros	-4512
▁incorporation	-4513
▁alkyl	-4514
▁CF	-4515
▁simultaneously	-4516
▁Equ	-4517
▁ranging	-4518
andid	-4519
▁microwave	-4520
▁changed	-4521
▁precise	-4522
width	-4523
▁pristine	-4524
well	-4525
▁expect	-4526
▁ther	-4527
▁PBS	-4528
theless	-4529
orizon	-4530
ou	-4531
▁transmit	-4532
▁rings	-4533
erge	-4534
▁tox	-4535
▁1.6	-4536
%),	-4537
0.05	-4538
abilities	-4539
▁microp	-4540
▁Tg	-4541
▁monitor	-4542
▁spacing	-4543
▁proceed	-4544
▁instance	-4545
▁transi	-4546
×10−	-4547
▁0.4	-4548
▁specimens	-4549
▁variable	-4550
lood	-4551
▁DI	-4552
▁turbul	-4553
Ar	-4554
▁vib	-4555
This	-4556
▁NP	-4557
▁reports	-4558
phosph	-4559
▁reactivity	-4560
▁6(	-4561
▁Mic	-4562
drich	-4563
▁steel	-4564
▁CN	-4565
▁fluorescent	-4566
io	-4567
▁quad	-4568
BC	-4569
▁enanti	-4570
▁reveals	-4571
▁pseud	-4572
▁tension	-4573
▁Cs	-4574
▁GPa	-4575
▁inverse	-4576
▁addi	-4577
esides	-4578
▁map	-4579
itrile	-4580
▁reveal	-4581
▁transferred	-4582
▁reli	-4583
▁optimization	-4584
▁melt	-4585
▁phosphor	-4586
.27	-4587
][	-4588
▁probably	-4589
▁integral	-4590
▁evaporation	-4591
azole	-4592
.26	-4593
rial	-4594
▁infrared	-4595
▁owing	-4596
▁Additionally	-4597
sip	-4598
▁extract	-4599
BP	-4600
▁reduces	-4601
▁stirring	-4602
▁fracture	-4603
▁faster	-4604
▁Diff	-4605
▁namely	-4606
.3.	-4607
▁consisting	-4608
▁varied	-4609
ules	-4610
shif	-4611
▁DSC	-4612
▁resin	-4613
▁uptake	-4614
RR	-4615
GaN	-4616
▁beg	-4617
ln	-4618
▁exponential	-4619
▁summarized	-4620
gu	-4621
▁global	-4622
∫0	-4623
ror	-4624
ogn	-4625
▁CT	-4626
▁epit	-4627
▁qual	-4628
.24	-4629
inter	-4630
fect	-4631
stituted	-4632
▁mesop	-4633
US	-4634
ars	-4635
▁instability	-4636
▁reactor	-4637
▁embed	-4638
ref	-4639
▁ster	-4640
▁CS	-4641
▁candid	-4642
▁During	-4643
▁pic	-4644
ished	-4645
▁ps	-4646
▁pers	-4647
ini	-4648
▁bath	-4649
▁measuring	-4650
ocal	-4651
▁sections	-4652
fluid	-4653
stre	-4654
▁Indeed	-4655
AC	-4656
▁rigid	-4657
▁TM	-4658
▁alcohol	-4659
blue	-4660
▁expand	-4661
aring	-4662
ions	-4663
ronic	-4664
(3	-4665
▁planes	-4666
▁event	-4667
▁ml	-4668
.23	-4669
▁concer	-4670
▁shifted	-4671
▁CNTs	-4672
tingu	-4673
▁easy	-4674
▁equipped	-4675
′-	-4676
FC	-4677
▁conclusion	-4678
▁ordered	-4679
▁changing	-4680
▁Rep	-4681
solid	-4682
▁remaining	-4683
▁macro	-4684
▁elemental	-4685
agn	-4686
▁summary	-4687
iter	-4688
den	-4689
▁taking	-4690
′(	-4691
▁networks	-4692
▁ultras	-4693
▁Schematic	-4694
▁nanosheets	-4695
▁3).	-4696
▁piezo	-4697
▁bioc	-4698
▁reversible	-4699
▁choice	-4700
▁static	-4701
▁involving	-4702
▁variables	-4703
ils	-4704
▁etc	-4705
iii	-4706
▁ester	-4707
▁Recently	-4708
▁knowledge	-4709
▁marked	-4710
1‐	-4711
▁shock	-4712
▁distributed	-4713
oidal	-4714
oral	-4715
▁assembly	-4716
▁So	-4717
▁coatings	-4718
cribed	-4719
▁activated	-4720
erated	-4721
back	-4722
uting	-4723
▁triang	-4724
Es	-4725
▁1.8	-4726
▁crystallinity	-4727
mm	-4728
▁mut	-4729
▁PO	-4730
▁location	-4731
amm	-4732
requency	-4733
ivo	-4734
erestingly	-4735
adily	-4736
ds	-4737
▁arrow	-4738
CTION	-4739
▁inhibit	-4740
▁applying	-4741
▁acetate	-4742
Ce	-4743
ifically	-4744
spec	-4745
▁Each	-4746
llip	-4747
▁000	-4748
=3	-4749
RS	-4750
sm	-4751
▁Φ	-4752
▁sheets	-4753
▁21	-4754
▁Sh	-4755
▁TA	-4756
.35	-4757
otropic	-4758
SCs	-4759
crystalline	-4760
thal	-4761
ude	-4762
oses	-4763
▁55	-4764
▁wire	-4765
▁testing	-4766
▁Poly	-4767
▁horizon	-4768
+2	-4769
igma	-4770
endi	-4771
▁trig	-4772
fill	-4773
▁gave	-4774
▁causes	-4775
▁nanorod	-4776
▁kHz	-4777
▁penet	-4778
▁droplets	-4779
▁≤	-4780
▁rob	-4781
▁adjus	-4782
acent	-4783
▁occurred	-4784
11)	-4785
.22	-4786
.30	-4787
▁what	-4788
+(	-4789
▁cycling	-4790
aracter	-4791
▁ED	-4792
▁2)	-4793
oustic	-4794
▁hydrogels	-4795
▁compati	-4796
▁hist	-4797
arison	-4798
▁delivery	-4799
▁hetero	-4800
▁(4)	-4801
▁Figures	-4802
▁principle	-4803
▁Er	-4804
▁acqui	-4805
15,	-4806
▁program	-4807
▁coordinate	-4808
umination	-4809
ortex	-4810
▁correction	-4811
sem	-4812
▁arrays	-4813
▁incl	-4814
anium	-4815
▁powders	-4816
▁body	-4817
▁amine	-4818
▁article	-4819
jection	-4820
▁technology	-4821
▁entropy	-4822
94	-4823
dyn	-4824
▁contribute	-4825
RT	-4826
▁dissip	-4827
endix	-4828
▁nanocomposite	-4829
▁4-	-4830
+,	-4831
opy	-4832
▁displays	-4833
▁adding	-4834
▁energe	-4835
▁beyond	-4836
▁binary	-4837
omin	-4838
▁RT	-4839
▁permit	-4840
▁encaps	-4841
dx	-4842
▁exists	-4843
ste	-4844
▁rotational	-4845
▁Rh	-4846
▁respective	-4847
▁exceed	-4848
which	-4849
ferred	-4850
▁Ta	-4851
▁USA	-4852
3).	-4853
▁vivo	-4854
▁initially	-4855
▁consequence	-4856
▁Pa	-4857
▁edges	-4858
ucose	-4859
▁quasi	-4860
▁1-	-4861
▁advantages	-4862
▁restric	-4863
ital	-4864
we	-4865
▁gal	-4866
▁elong	-4867
bone	-4868
▁ξ	-4869
iety	-4870
EX	-4871
La	-4872
▁aluminum	-4873
ulate	-4874
▁stack	-4875
▁epoxy	-4876
▁seems	-4877
▁nuclear	-4878
▁hollow	-4879
▁written	-4880
com	-4881
▁purified	-4882
0=	-4883
▁partially	-4884
▁explo	-4885
▁behaviour	-4886
▁(200	-4887
▁utilized	-4888
EP	-4889
▁instrument	-4890
▁conductive	-4891
chit	-4892
▁ceramics	-4893
CV	-4894
▁luminescence	-4895
▁depicted	-4896
▁resonant	-4897
LY	-4898
▁cylind	-4899
▁protoc	-4900
evertheless	-4901
▁delay	-4902
▁superconduct	-4903
▁ellip	-4904
5-	-4905
▁residue	-4906
▁phosphate	-4907
rite	-4908
▁China	-4909
▁recogn	-4910
▁recovery	-4911
▁called	-4912
chlor	-4913
▁driven	-4914
▁enzyme	-4915
metal	-4916
BN	-4917
▁isomer	-4918
▁emerg	-4919
▁dig	-4920
Pro	-4921
CL	-4922
Conclusions	-4923
thermal	-4924
otential	-4925
onitrile	-4926
▁modeling	-4927
▁qualit	-4928
▁3.5	-4929
62	-4930
▁induce	-4931
▁residues	-4932
▁maintained	-4933
▁&	-4934
▁regular	-4935
▁moiety	-4936
elles	-4937
▁tunneling	-4938
▁issue	-4939
▁10%	-4940
▁ferroelectric	-4941
hane	-4942
▁attractive	-4943
RNA	-4944
▁ψ	-4945
▁simpl	-4946
53	-4947
▁aim	-4948
▁repeated	-4949
93	-4950
NTR	-4951
▁filled	-4952
▁Cal	-4953
▁minor	-4954
position	-4955
▁cooled	-4956
▁bright	-4957
gence	-4958
▁special	-4959
▁attached	-4960
▁bo	-4961
stable	-4962
nary	-4963
▁1.7	-4964
▁stain	-4965
iph	-4966
▁micrograph	-4967
▁kg	-4968
come	-4969
shaped	-4970
aph	-4971
hing	-4972
▁polymeric	-4973
▁diamond	-4974
▁superior	-4975
▁pron	-4976
▁commonly	-4977
▁centers	-4978
(11	-4979
▁protons	-4980
▁explicit	-4981
pared	-4982
1.6	-4983
▁neighbor	-4984
▁version	-4985
▁quenching	-4986
▁illumination	-4987
▁thereby	-4988
aldehyde	-4989
▁hexagonal	-4990
▁cas	-4991
WCNTs	-4992
+1)	-4993
▁subsequently	-4994
▁abund	-4995
UCTION	-4996
▁refractive	-4997
▁absorbance	-4998
▁greatly	-4999
▁keep	-5000
▁vir	-5001
▁adjacent	-5002
▁fuel	-5003
▁wavelengths	-5004
▁compression	-5005
12)	-5006
tide	-5007
▁making	-5008
▁specimen	-5009
▁lateral	-5010
▁substitu	-5011
▁fa	-5012
▁percentage	-5013
−(	-5014
.21	-5015
▁early	-5016
EL	-5017
onsid	-5018
▁Sm	-5019
▁introduction	-5020
▁belie	-5021
▁stream	-5022
▁Nb	-5023
▁transverse	-5024
▁damp	-5025
▁rub	-5026
▁closed	-5027
while	-5028
)|	-5029
▁bare	-5030
▁precursors	-5031
▁define	-5032
▁centrif	-5033
mobil	-5034
osis	-5035
▁errors	-5036
▁fine	-5037
▁calibration	-5038
ODUCTION	-5039
▁corrosion	-5040
AL	-5041
▁AND	-5042
tivities	-5043
▁template	-5044
▁statistical	-5045
gel	-5046
NTRODUCTION	-5047
BF	-5048
▁shorter	-5049
▁Under	-5050
workers	-5051
size	-5052
▁Nevertheless	-5053
▁Interestingly	-5054
▁33	-5055
▁comparing	-5056
fol	-5057
BD	-5058
▁incubated	-5059
▁vacancies	-5060
osing	-5061
ortun	-5062
▁modulation	-5063
▁onset	-5064
▁agents	-5065
▁meV	-5066
▁Im	-5067
▁representative	-5068
4(	-5069
▁2.4	-5070
...,	-5071
▁extremely	-5072
1.8	-5073
▁perturbation	-5074
▁SC	-5075
▁Et	-5076
▁6,	-5077
▁deep	-5078
▁interpret	-5079
apac	-5080
.29	-5081
semble	-5082
1.9	-5083
▁assumption	-5084
▁disapp	-5085
▁sphere	-5086
▁QD	-5087
VO	-5088
1=	-5089
isation	-5090
Cd	-5091
▁interval	-5092
▁yet	-5093
itudes	-5094
▁route	-5095
▁LC	-5096
▁dem	-5097
▁away	-5098
▁DMSO	-5099
bly	-5100
ung	-5101
ann	-5102
▁disti	-5103
▁NaCl	-5104
▁reasonable	-5105
modified	-5106
▁uncertainty	-5107
▁argon	-5108
▁128	-5109
▁blood	-5110
▁porosity	-5111
▁dynam	-5112
BO	-5113
▁readily	-5114
▁grav	-5115
▁front	-5116
dynamic	-5117
▁vortex	-5118
▁attemp	-5119
▁meth	-5120
ickel	-5121
BH	-5122
▁largest	-5123
▁95	-5124
▁driving	-5125
▁LS	-5126
ilm	-5127
▁Among	-5128
▁Phot	-5129
▁ques	-5130
▁brom	-5131
mann	-5132
▁constructed	-5133
▁lack	-5134
dimethyl	-5135
EO	-5136
ZnO	-5137
lim	-5138
3–	-5139
Supp	-5140
anth	-5141
▁Compared	-5142
▁DM	-5143
mL	-5144
hom	-5145
▁(9	-5146
▁correlated	-5147
▁separate	-5148
▁stoichi	-5149
▁sufficiently	-5150
▁action	-5151
rices	-5152
▁sintering	-5153
▁perfect	-5154
▁examples	-5155
▁quantities	-5156
▁fragment	-5157
▁Consequently	-5158
▁demonstrates	-5159
▁Mon	-5160
▁review	-5161
▁evident	-5162
▁8.	-5163
▁currents	-5164
▁circular	-5165
arb	-5166
▁alignment	-5167
td	-5168
▁transient	-5169
4),	-5170
illary	-5171
elastic	-5172
▁tex	-5173
▁7.4	-5174
inder	-5175
▁inorganic	-5176
▁filtered	-5177
▁manner	-5178
▁kJ	-5179
DM	-5180
▁36	-5181
▁cellular	-5182
▁balance	-5183
,2	-5184
).(	-5185
88	-5186
▁phenomena	-5187
▁2.1	-5188
▁distingu	-5189
{\	-5190
▁duration	-5191
▁dual	-5192
top	-5193
raz	-5194
butyl	-5195
▁spheres	-5196
▁dots	-5197
▁acceptor	-5198
▁̃	-5199
▁anions	-5200
1.7	-5201
oratory	-5202
▁schematic	-5203
▁axial	-5204
cing	-5205
▁compact	-5206
▁aer	-5207
imetric	-5208
DNA	-5209
▁Des	-5210
▁visual	-5211
▁Po	-5212
ulomb	-5213
%).	-5214
Ns	-5215
▁overlap	-5216
76	-5217
▁circles	-5218
▁pathways	-5219
▁iod	-5220
WCNT	-5221
ichlor	-5222
▁Ir	-5223
ild	-5224
▁reaches	-5225
▁dend	-5226
▁32	-5227
▁clar	-5228
ighted	-5229
00,	-5230
54	-5231
▁crucial	-5232
▁stiff	-5233
▁problems	-5234
▁dense	-5235
▁environmental	-5236
▁piezoelectric	-5237
▁GaAs	-5238
▁HCl	-5239
▁junction	-5240
▁denotes	-5241
▁aggregates	-5242
▁linearly	-5243
▁iner	-5244
▁phenyl	-5245
▁spread	-5246
▁ms	-5247
▁vitro	-5248
▁bis	-5249
▁concentrated	-5250
tration	-5251
DH	-5252
▁purification	-5253
catalyzed	-5254
▁%)	-5255
ecture	-5256
ufact	-5257
▁bars	-5258
▁radicals	-5259
ira	-5260
inition	-5261
▁Gd	-5262
SH	-5263
▁trap	-5264
ns	-5265
antly	-5266
▁capability	-5267
pr	-5268
rief	-5269
assembly	-5270
hene	-5271
resolution	-5272
cepti	-5273
▁Te	-5274
▁DMF	-5275
echanical	-5276
▁Op	-5277
)),	-5278
▁saturated	-5279
UL	-5280
▁blocks	-5281
)],	-5282
ordered	-5283
▁investigations	-5284
56	-5285
▁box	-5286
▁findings	-5287
▁ze	-5288
▁3-	-5289
ape	-5290
▁spon	-5291
Pr	-5292
▁limits	-5293
▁intermolecular	-5294
▁surfactant	-5295
br	-5296
vature	-5297
▁disco	-5298
▁surrounding	-5299
▁ly	-5300
▁throughout	-5301
apped	-5302
TT	-5303
▁complic	-5304
FP	-5305
▁coverage	-5306
▁tensor	-5307
▁centrifug	-5308
▁considerable	-5309
▁backbone	-5310
▁harmonic	-5311
▁pressures	-5312
DOT	-5313
▁aspect	-5314
▁contents	-5315
▁(0	-5316
▁cos	-5317
▁1:	-5318
▁1.9	-5319
▁actual	-5320
▁symb	-5321
ID	-5322
▁neutron	-5323
ank	-5324
pon	-5325
▁ball	-5326
prepared	-5327
57	-5328
=1,	-5329
Bs	-5330
▁created	-5331
▁zinc	-5332
adium	-5333
▁rpm	-5334
▁orders	-5335
▁GHz	-5336
activ	-5337
▁hypothe	-5338
/(	-5339
diff	-5340
▁robust	-5341
▁div	-5342
times	-5343
▁disorder	-5344
▁care	-5345
ellular	-5346
FS	-5347
▁octa	-5348
-4	-5349
2.0	-5350
.33	-5351
(1+	-5352
▁[11	-5353
▁oxidized	-5354
part	-5355
alysts	-5356
yclic	-5357
▁simply	-5358
▁incorporated	-5359
▁plays	-5360
▁supplementary	-5361
▁rare	-5362
▁immedi	-5363
▁TS	-5364
inated	-5365
▁EL	-5366
▁implant	-5367
roup	-5368
14,	-5369
▁itself	-5370
ision	-5371
▁oriented	-5372
azol	-5373
▁High	-5374
ull	-5375
ionized	-5376
rosp	-5377
58	-5378
▁explored	-5379
hole	-5380
▁stere	-5381
▁finally	-5382
▁works	-5383
▁lipid	-5384
▁PLA	-5385
otox	-5386
avy	-5387
▁micelles	-5388
▁predict	-5389
▁gene	-5390
▁anisotropic	-5391
phen	-5392
▁spectroscopic	-5393
▁concept	-5394
chang	-5395
▁0.01	-5396
no	-5397
▁Similarly	-5398
▁bilayer	-5399
▁SiC	-5400
cessive	-5401
.38	-5402
iated	-5403
▁favorable	-5404
itive	-5405
▁Sol	-5406
▁appeared	-5407
▁affinity	-5408
▁MW	-5409
▁0.9	-5410
ious	-5411
norm	-5412
assif	-5413
▁10,	-5414
▁immobil	-5415
▁archit	-5416
▁monit	-5417
▁ML	-5418
▁prin	-5419
▁figures	-5420
▁permeability	-5421
irc	-5422
▁curvature	-5423
77	-5424
ditional	-5425
left	-5426
▁activities	-5427
MnO	-5428
▁converted	-5429
frequency	-5430
▁segment	-5431
▁PMMA	-5432
▁suscepti	-5433
▁thermo	-5434
▁PDMS	-5435
3]	-5436
▁criter	-5437
poly	-5438
▁See	-5439
▁acetone	-5440
′‐	-5441
▁embedded	-5442
▁38	-5443
Here	-5444
▁impurity	-5445
particle	-5446
oh	-5447
▁evaluation	-5448
Rs	-5449
arding	-5450
▁manufact	-5451
▁code	-5452
▁cellulose	-5453
▁acidic	-5454
▁forward	-5455
▁CP	-5456
▁intense	-5457
▁migration	-5458
▁photoelectron	-5459
▁involves	-5460
▁contacts	-5461
▁arbit	-5462
orb	-5463
▁plates	-5464
iscus	-5465
▁(−	-5466
eu	-5467
romo	-5468
▁metab	-5469
▁manif	-5470
▁elimin	-5471
▁averaged	-5472
sisted	-5473
icial	-5474
▁morphologies	-5475
itud	-5476
▁spot	-5477
imer	-5478
▁(50	-5479
▁lens	-5480
▁photod	-5481
▁loaded	-5482
▁[18	-5483
▁memory	-5484
VA	-5485
▁ded	-5486
▁quantity	-5487
▁matrices	-5488
enari	-5489
▁polarized	-5490
▁includes	-5491
▁mir	-5492
AM	-5493
▁diver	-5494
▁events	-5495
▁wavegu	-5496
▁tool	-5497
▁situation	-5498
lab	-5499
▁prepare	-5500
▁ITO	-5501
▁34	-5502
▁ascribed	-5503
▁pyro	-5504
▁glucose	-5505
▁Vari	-5506
na	-5507
▁walls	-5508
▁hem	-5509
ffect	-5510
▁cover	-5511
ley	-5512
-2-	-5513
▁picture	-5514
▁providing	-5515
▁let	-5516
▁TE	-5517
▁conser	-5518
▁immun	-5519
▁31	-5520
▁prol	-5521
▁Sp	-5522
▁referred	-5523
▁reverse	-5524
=4	-5525
▁PI	-5526
52	-5527
▁subjected	-5528
▁sup	-5529
▁stacking	-5530
NG	-5531
▁Nan	-5532
▁trace	-5533
▁true	-5534
▁7(	-5535
=∑	-5536
▁ap	-5537
▁architecture	-5538
artz	-5539
hers	-5540
uation	-5541
▁ordering	-5542
▁moments	-5543
Synthesis	-5544
bi	-5545
▁confinement	-5546
▁180	-5547
▁monitored	-5548
▁extension	-5549
▁exciton	-5550
▁purpose	-5551
ierarch	-5552
ivity	-5553
▁0.25	-5554
▁acoustic	-5555
ograms	-5556
obenz	-5557
▁calcd	-5558
pH	-5559
▁(5)	-5560
iting	-5561
▁procedures	-5562
black	-5563
eck	-5564
▁volum	-5565
▁Nd	-5566
▁Mod	-5567
▁horizontal	-5568
▁allowing	-5569
exc	-5570
ounced	-5571
▁received	-5572
▁denote	-5573
▁spectro	-5574
▁swelling	-5575
lies	-5576
atform	-5577
▁eigenval	-5578
▁remained	-5579
▁injected	-5580
▁geometries	-5581
▁acquired	-5582
▁̇	-5583
dri	-5584
▁clos	-5585
▁isotropic	-5586
las	-5587
▁Let	-5588
▁plasm	-5589
▁island	-5590
AA	-5591
▁[16	-5592
itudinal	-5593
▁cold	-5594
▁access	-5595
▁packing	-5596
.37	-5597
▁thermally	-5598
▁invari	-5599
▁functionalized	-5600
oct	-5601
▁semi	-5602
20,	-5603
OAc	-5604
.36	-5605
▁desorption	-5606
▁engineering	-5607
abatic	-5608
86	-5609
ulations	-5610
▁sampling	-5611
▁nickel	-5612
▁Mean	-5613
▁catalysis	-5614
▁assuming	-5615
feren	-5616
▁mapping	-5617
▁released	-5618
▁constra	-5619
▁HF	-5620
▁aligned	-5621
▁salts	-5622
–12	-5623
▁friction	-5624
▁scenari	-5625
ogenic	-5626
▁aryl	-5627
respon	-5628
▁[7	-5629
▁isot	-5630
achment	-5631
DI	-5632
bs	-5633
▁purity	-5634
▁AC	-5635
▁fractions	-5636
▁keV	-5637
▁dislocation	-5638
osan	-5639
NCLU	-5640
▁building	-5641
▁probes	-5642
▁Experimental	-5643
oluminescence	-5644
bin	-5645
▁hydrolysis	-5646
▁3.0	-5647
▁classif	-5648
atus	-5649
▁interference	-5650
rink	-5651
.34	-5652
▁day	-5653
bra	-5654
9].	-5655
▁CB	-5656
PLC	-5657
ying	-5658
stream	-5659
▁appearance	-5660
izer	-5661
Sr	-5662
▁inters	-5663
°.	-5664
SE	-5665
ni	-5666
DFT	-5667
itting	-5668
▁conductance	-5669
.4.	-5670
yr	-5671
▁accumulation	-5672
▁unstable	-5673
▁[17	-5674
urally	-5675
ZT	-5676
▁discuss	-5677
6‐	-5678
▁nanowire	-5679
RO	-5680
▁context	-5681
▁Qu	-5682
ae	-5683
▁Spec	-5684
defined	-5685
02	-5686
▁Spect	-5687
▁7.5	-5688
rec	-5689
lohex	-5690
▁Besides	-5691
ission	-5692
▁pent	-5693
▁HOMO	-5694
▁DA	-5695
▁carbonyl	-5696
▁ferromagnetic	-5697
▁nanocrystals	-5698
▁slowly	-5699
▁gover	-5700
-8	-5701
▁boron	-5702
▁65	-5703
▁(0.0	-5704
▁NCs	-5705
▁adopted	-5706
▁former	-5707
amino	-5708
▁introduce	-5709
oids	-5710
▁5%	-5711
2+,	-5712
▁cour	-5713
▁underlying	-5714
▁conclude	-5715
▁SE	-5716
▁behaviors	-5717
▁indeed	-5718
▁trapped	-5719
▁physics	-5720
▁mice	-5721
▁filam	-5722
vated	-5723
▁ethyl	-5724
▁VO	-5725
▁mono	-5726
▁Flu	-5727
▁contained	-5728
▁pronounced	-5729
▁dissolution	-5730
▁mW	-5731
▁past	-5732
imide	-5733
.32	-5734
▁Pr	-5735
cep	-5736
▁proved	-5737
▁∂	-5738
▁matter	-5739
▁deform	-5740
▁AA	-5741
▁batteries	-5742
▁reflected	-5743
[(	-5744
▁Hf	-5745
▁700	-5746
▁disk	-5747
▁worth	-5748
tention	-5749
▁pix	-5750
▁ris	-5751
inate	-5752
▁diameters	-5753
▁Consid	-5754
ENT	-5755
▁heterogeneous	-5756
homb	-5757
ysical	-5758
NCLUSION	-5759
▁compens	-5760
tance	-5761
hemistry	-5762
▁PET	-5763
▁[10	-5764
iley	-5765
▁analyze	-5766
termin	-5767
▁jo	-5768
inf	-5769
▁heterostructure	-5770
▁denoted	-5771
HO	-5772
▁check	-5773
sulf	-5774
zz	-5775
(4)	-5776
▁jet	-5777
▁responses	-5778
▁SI	-5779
atile	-5780
▁(00	-5781
▁correlations	-5782
▁thicknesses	-5783
▁parent	-5784
▁transparent	-5785
▁predictions	-5786
▁oscillations	-5787
ionic	-5788
ymp	-5789
orbit	-5790
87	-5791
▁start	-5792
▁incubation	-5793
▁diagn	-5794
substituted	-5795
▁PVA	-5796
▁shapes	-5797
▁prediction	-5798
▁hierarch	-5799
–20	-5800
used	-5801
▁degre	-5802
=12	-5803
ieties	-5804
tage	-5805
▁sputtering	-5806
▁[19	-5807
▁zeol	-5808
eth	-5809
unted	-5810
upling	-5811
▁Equation	-5812
▁moderate	-5813
▁glasses	-5814
hydrogen	-5815
hel	-5816
92	-5817
log	-5818
▁enthal	-5819
▁Ltd	-5820
▁became	-5821
▁4).	-5822
▁And	-5823
ren	-5824
▁scaffolds	-5825
▁3.1	-5826
▁ket	-5827
▁arrangement	-5828
▁ice	-5829
▁needs	-5830
▁beams	-5831
Vis	-5832
styrene	-5833
DP	-5834
eq	-5835
LYP	-5836
▁longitudinal	-5837
▁TO	-5838
▁platform	-5839
▁DC	-5840
▁permittivity	-5841
▁TC	-5842
Eq	-5843
junction	-5844
aracterization	-5845
▁[(	-5846
▁construction	-5847
▁covered	-5848
5‐	-5849
balt	-5850
−1).	-5851
▁impurities	-5852
▁operators	-5853
▁definition	-5854
▁2‐	-5855
GC	-5856
▁Tc	-5857
uclear	-5858
▁til	-5859
cord	-5860
▁station	-5861
otal	-5862
▁viewed	-5863
▁mach	-5864
▁mesoporous	-5865
▁confined	-5866
▁peptides	-5867
▁retention	-5868
uran	-5869
▁photocurrent	-5870
▁ranges	-5871
▁create	-5872
▁capillary	-5873
▁photons	-5874
▁damping	-5875
▁mostly	-5876
omal	-5877
disper	-5878
▁topological	-5879
▁remarkable	-5880
,3	-5881
PSS	-5882
▁degrees	-5883
72	-5884
▁maps	-5885
▁moieties	-5886
▁colloidal	-5887
▁terminal	-5888
▁flows	-5889
▁differenti	-5890
uli	-5891
▁fits	-5892
▁pi	-5893
INTRODUCTION	-5894
HD	-5895
ompati	-5896
GS	-5897
▁cis	-5898
▁Cor	-5899
▁nanorods	-5900
▁PB	-5901
angle	-5902
▁Another	-5903
▁ole	-5904
−1),	-5905
▁segments	-5906
ientific	-5907
ifications	-5908
▁determining	-5909
olet	-5910
▁electromagnetic	-5911
▁Gener	-5912
▁reagents	-5913
alth	-5914
▁MC	-5915
ocyan	-5916
▁SS	-5917
▁net	-5918
licity	-5919
bar	-5920
rically	-5921
asure	-5922
▁closely	-5923
▁extra	-5924
▁synch	-5925
.−	-5926
oung	-5927
▁degen	-5928
▁characterize	-5929
6].	-5930
▁extr	-5931
▁[8	-5932
▁outside	-5933
▁Some	-5934
▁published	-5935
sibility	-5936
▁emulsion	-5937
.40	-5938
iation	-5939
role	-5940
▁compris	-5941
▁leak	-5942
▁cylindrical	-5943
▁labeled	-5944
74	-5945
▁PF	-5946
▁quick	-5947
▁SF	-5948
.31	-5949
XS	-5950
edge	-5951
▁Coulomb	-5952
othermal	-5953
term	-5954
▁SW	-5955
▁benzene	-5956
▁SnO	-5957
▁fre	-5958
▁coinc	-5959
▁bur	-5960
▁Synthesis	-5961
▁〈	-5962
▁-	-5963
▁dominated	-5964
tetra	-5965
▁(30	-5966
ymmetry	-5967
▁antic	-5968
changed	-5969
oper	-5970
conn	-5971
)–(	-5972
▁transist	-5973
▁singlet	-5974
▁cationic	-5975
▁trapping	-5976
Pre	-5977
▁~	-5978
▁Cell	-5979
▁afford	-5980
▁monitoring	-5981
▁replaced	-5982
▁EC	-5983
0+	-5984
▁CC	-5985
▁voltages	-5986
level	-5987
▁course	-5988
▁electrocat	-5989
▁stored	-5990
▁explore	-5991
▁spontaneous	-5992
▁realized	-5993
▁bios	-5994
▁nanofibers	-5995
▁giving	-5996
lyl	-5997
space	-5998
▁triplet	-5999
▁distilled	-6000
▁screening	-6001
▁diffuse	-6002
▁intramolecular	-6003
▁conve	-6004
▁centered	-6005
▁essentially	-6006
entation	-6007
▁hours	-6008
▁humid	-6009
▁schem	-6010
=5	-6011
▁quartz	-6012
FET	-6013
▁texture	-6014
hydroxy	-6015
ee	-6016
▁traditional	-6017
▁oxidative	-6018
▁infinite	-6019
VI	-6020
TC	-6021
▁broadening	-6022
▁dynamical	-6023
61	-6024
RES	-6025
▁SP	-6026
gg	-6027
▁Data	-6028
related	-6029
from	-6030
lates	-6031
▁permission	-6032
apan	-6033
▁plasmon	-6034
stood	-6035
▁[12	-6036
▁growing	-6037
2].	-6038
omic	-6039
ochrom	-6040
▁acryl	-6041
ophene	-6042
pos	-6043
▁occupied	-6044
heric	-6045
▁4.5	-6046
▁DS	-6047
▁inclusion	-6048
BR	-6049
▁compe	-6050
▁pel	-6051
▁mesh	-6052
arbon	-6053
oform	-6054
▁Hg	-6055
▁ethylene	-6056
▁attracted	-6057
▁efficiently	-6058
matic	-6059
▁rear	-6060
▁Other	-6061
etric	-6062
▁layered	-6063
▁chit	-6064
uker	-6065
▁failure	-6066
▁protocol	-6067
▁vectors	-6068
▁heavy	-6069
orr	-6070
4−	-6071
erc	-6072
flow	-6073
▁predomin	-6074
lar	-6075
WHM	-6076
mode	-6077
▁middle	-6078
carb	-6079
thick	-6080
▁concluded	-6081
.99	-6082
iscussion	-6083
ULTS	-6084
▁camer	-6085
ucle	-6086
▁belong	-6087
▁implemented	-6088
▁bind	-6089
uff	-6090
▁exper	-6091
quin	-6092
Pc	-6093
amination	-6094
.75	-6095
avage	-6096
oltz	-6097
intered	-6098
bound	-6099
▁rubber	-6100
▁fresh	-6101
Aldrich	-6102
▁deionized	-6103
▁NC	-6104
.[	-6105
▁7,	-6106
▁Second	-6107
erent	-6108
idine	-6109
▁conjugated	-6110
acrylate	-6111
▁maintain	-6112
▁vibrations	-6113
▁employing	-6114
▁capable	-6115
▁dyes	-6116
▁loops	-6117
oy	-6118
▁barriers	-6119
▁precipitation	-6120
Di	-6121
▁coherent	-6122
▁PU	-6123
▁conducting	-6124
orescence	-6125
can	-6126
▁deple	-6127
▁adap	-6128
▁NWs	-6129
ochemical	-6130
▁Hall	-6131
(111)	-6132
▁amide	-6133
Eu	-6134
▁vacancy	-6135
ocities	-6136
▁integr	-6137
▁accord	-6138
▁understood	-6139
eta	-6140
CONCLUSION	-6141
kBT	-6142
▁furn	-6143
▁fam	-6144
▁confirms	-6145
MD	-6146
▁overcome	-6147
standing	-6148
▁covalent	-6149
▁bacteria	-6150
▁Refs	-6151
iversity	-6152
▁imag	-6153
▁electrosp	-6154
3):	-6155
▁considerably	-6156
▁drift	-6157
▁inhibition	-6158
▁stages	-6159
irable	-6160
▁immediately	-6161
▁interpretation	-6162
69	-6163
▁trajectories	-6164
ower	-6165
▁wafer	-6166
infor	-6167
▁9.	-6168
▁FA	-6169
▁arbitrary	-6170
assive	-6171
▁discrete	-6172
vere	-6173
everal	-6174
0.25	-6175
▁NA	-6176
ings	-6177
▁beh	-6178
NMR	-6179
▁asymp	-6180
onent	-6181
HS	-6182
▁velocities	-6183
▁multip	-6184
▁Meanwhile	-6185
▁bubble	-6186
71	-6187
▁losses	-6188
urea	-6189
▁resonances	-6190
iver	-6191
▁inhom	-6192
▁diluted	-6193
▁350	-6194
.39	-6195
▁liquids	-6196
ld	-6197
▁dust	-6198
green	-6199
▁semiconductors	-6200
▁interlayer	-6201
,1	-6202
bis	-6203
▁substituted	-6204
▁[13	-6205
▁accept	-6206
▁examine	-6207
▁hydrogenation	-6208
▁divided	-6209
▁collect	-6210
▁acceleration	-6211
▁hardness	-6212
hang	-6213
uced	-6214
▁constrain	-6215
▁enables	-6216
▁drying	-6217
▁2.6	-6218
▁FE	-6219
▁Sb	-6220
ester	-6221
▁TGA	-6222
▁adjusted	-6223
▁enab	-6224
▁nuclei	-6225
▁But	-6226
polymer	-6227
▁systematic	-6228
▁battery	-6229
TF	-6230
.45	-6231
-1,	-6232
▁Therm	-6233
-7	-6234
84	-6235
▁swe	-6236
▁entry	-6237
glomer	-6238
▁commun	-6239
-6	-6240
▁fs	-6241
▁lam	-6242
▁laboratory	-6243
opolymer	-6244
▁varies	-6245
▁carbonate	-6246
▁setting	-6247
▁3)	-6248
▁cobalt	-6249
▁77	-6250
▁ensemble	-6251
▁GC	-6252
ensitive	-6253
▁85	-6254
ishing	-6255
▁acces	-6256
iline	-6257
orient	-6258
▁complicated	-6259
▁demand	-6260
▁grating	-6261
body	-6262
▁question	-6263
▁describes	-6264
▁approximate	-6265
▁beads	-6266
▁vor	-6267
▁selection	-6268
atinum	-6269
)­	-6270
TE	-6271
Ir	-6272
resolved	-6273
▁largely	-6274
dr	-6275
▁produces	-6276
▁crosslinking	-6277
▁CdS	-6278
3.5	-6279
▁RF	-6280
cin	-6281
▁industrial	-6282
Im	-6283
▁extensively	-6284
▁rect	-6285
▁formal	-6286
SCUS	-6287
▁ln	-6288
son	-6289
saturated	-6290
ERS	-6291
▁Materials	-6292
SCUSSION	-6293
site	-6294
▁Techn	-6295
▁[14	-6296
IE	-6297
–15	-6298
▁establis	-6299
PU	-6300
▁moving	-6301
itic	-6302
▁subject	-6303
0/	-6304
▁visc	-6305
▁hydrodynamic	-6306
–9	-6307
pris	-6308
▁controlling	-6309
▁exclu	-6310
▁head	-6311
Ta	-6312
▁NaOH	-6313
▁Japan	-6314
▁temporal	-6315
▁adi	-6316
▁complement	-6317
rapy	-6318
▁preferen	-6319
CSD	-6320
sil	-6321
▁affects	-6322
relation	-6323
lections	-6324
=7	-6325
▁clin	-6326
volution	-6327
ades	-6328
unctional	-6329
▁progress	-6330
▁analyzer	-6331
▁facilitate	-6332
ouse	-6333
▁resolved	-6334
▁atten	-6335
vanced	-6336
PB	-6337
▁nanoscale	-6338
DE	-6339
▁once	-6340
▁Germ	-6341
vinyl	-6342
▁stiffness	-6343
▁notice	-6344
NF	-6345
▁105	-6346
voltage	-6347
umber	-6348
▁feas	-6349
▁others	-6350
▁bone	-6351
▁regen	-6352
▁Their	-6353
ophilic	-6354
earch	-6355
▁possibly	-6356
▁Ob	-6357
SR	-6358
▁careful	-6359
Am	-6360
▁pin	-6361
AG	-6362
▁promote	-6363
▁apply	-6364
▁formulation	-6365
▁disordered	-6366
▁coil	-6367
▁shall	-6368
▁existing	-6369
1].	-6370
▁diffract	-6371
▁2.8	-6372
transfer	-6373
▁immers	-6374
▁potentially	-6375
PG	-6376
▁phy	-6377
culated	-6378
li	-6379
linked	-6380
▁performances	-6381
▁gaps	-6382
called	-6383
1.2	-6384
oxane	-6385
▁insight	-6386
▁NIR	-6387
▁strategies	-6388
night	-6389
At	-6390
▁microspheres	-6391
rence	-6392
Rh	-6393
mentioned	-6394
▁glycol	-6395
▁(15	-6396
▁(6)	-6397
00)	-6398
▁hydrothermal	-6399
▁supports	-6400
ogram	-6401
▁compressive	-6402
▁Results	-6403
surface	-6404
volta	-6405
king	-6406
▁gases	-6407
▁irradiated	-6408
▁intermediates	-6409
▁absorbed	-6410
▁DOX	-6411
▁consumption	-6412
▁calib	-6413
iving	-6414
4).	-6415
ulti	-6416
▁Hydro	-6417
▁125	-6418
▁anod	-6419
▁occurring	-6420
crystal	-6421
▁[15	-6422
ket	-6423
▁450	-6424
▁arrows	-6425
▁NiO	-6426
gonal	-6427
ogeneity	-6428
▁family	-6429
▁intercal	-6430
wit	-6431
▁Par	-6432
olding	-6433
▁manip	-6434
▁127	-6435
He	-6436
amb	-6437
iol	-6438
▁amplitudes	-6439
▁constitu	-6440
onduc	-6441
QDs	-6442
AB	-6443
▁text	-6444
▁arc	-6445
▁metast	-6446
auge	-6447
▁alone	-6448
▁5.0	-6449
OR	-6450
▁(0.5	-6451
tok	-6452
▁Over	-6453
▁50%	-6454
▁plasmas	-6455
▁Λ	-6456
anning	-6457
▁deviations	-6458
uest	-6459
▁steric	-6460
▁despite	-6461
▁filler	-6462
15)	-6463
mediated	-6464
▁dise	-6465
▁MB	-6466
igu	-6467
+)	-6468
nc	-6469
▁optimum	-6470
▁oscillation	-6471
usive	-6472
▁∣	-6473
▁soluble	-6474
vance	-6475
▁[25	-6476
▁ign	-6477
▁quenc	-6478
▁weaker	-6479
▁preser	-6480
▁neighboring	-6481
▁Sigma	-6482
▁waste	-6483
gebra	-6484
Tr	-6485
▁camera	-6486
▁word	-6487
VP	-6488
specific	-6489
▁fall	-6490
ether	-6491
▁chip	-6492
EMA	-6493
▁condensation	-6494
▁otherwise	-6495
▁insertion	-6496
▁129	-6497
▁convergence	-6498
ously	-6499
bottom	-6500
▁alumina	-6501
▁grafting	-6502
▁IC	-6503
▁micrographs	-6504
▁microscopic	-6505
oped	-6506
▁dissipation	-6507
‐1	-6508
vo	-6509
agen	-6510
▁stabilized	-6511
▁cleavage	-6512
▁Even	-6513
▁4.0	-6514
▁asympto	-6515
opropyl	-6516
▁2000	-6517
▁minimal	-6518
▁explan	-6519
▁SL	-6520
ollowing	-6521
▁reliable	-6522
▁row	-6523
ecting	-6524
ressure	-6525
▁collection	-6526
▁sintered	-6527
PER	-6528
▁3.6	-6529
▁referen	-6530
▁MgO	-6531
▁dat	-6532
▁wor	-6533
▁weights	-6534
89	-6535
has	-6536
channel	-6537
▁pseudo	-6538
▁University	-6539
▁serum	-6540
uming	-6541
▁(400	-6542
▁intra	-6543
83	-6544
su	-6545
▁nom	-6546
oll	-6547
▁affor	-6548
14)	-6549
▁influenced	-6550
▁inversion	-6551
▁modeled	-6552
lication	-6553
har	-6554
▁Ne	-6555
▁challenge	-6556
▁Comparison	-6557
▁address	-6558
▁ternary	-6559
▁verified	-6560
2:	-6561
▁LU	-6562
ended	-6563
▁gels	-6564
▁generalized	-6565
▁PH	-6566
▁overnight	-6567
▁stars	-6568
▁agglomer	-6569
▁irre	-6570
bonding	-6571
AN	-6572
ducts	-6573
▁turbulence	-6574
▁sweep	-6575
▁facile	-6576
▁reasons	-6577
▁solved	-6578
▁spectrophot	-6579
▁Typ	-6580
ibrary	-6581
ush	-6582
6.	-6583
▁limiting	-6584
▁primarily	-6585
▁2.7	-6586
▁mirror	-6587
▁absor	-6588
▁rGO	-6589
▁1.1	-6590
▁kinds	-6591
▁hind	-6592
lock	-6593
▁scans	-6594
▁stabilization	-6595
▁FIG	-6596
▁Or	-6597
▁sand	-6598
WO	-6599
ZO	-6600
meth	-6601
inations	-6602
▁distortion	-6603
LO	-6604
▁rod	-6605
Ba	-6606
high	-6607
−,	-6608
ception	-6609
▁autom	-6610
▁enable	-6611
▁accompan	-6612
▁emissions	-6613
▁2.2	-6614
10.	-6615
▁cylinder	-6616
▁)	-6617
iven	-6618
11,	-6619
▁native	-6620
▁stationary	-6621
(4	-6622
2.4	-6623
▁face	-6624
▁tuning	-6625
hand	-6626
▁mer	-6627
▁superconducting	-6628
▁offer	-6629
16,	-6630
▁cutoff	-6631
▁ultrasonic	-6632
SiC	-6633
–11	-6634
ript	-6635
▁Research	-6636
▁Imp	-6637
▁randomly	-6638
▁vic	-6639
▁stresses	-6640
▁rib	-6641
▁8,	-6642
▁monoc	-6643
▁subt	-6644
79	-6645
▁Dep	-6646
▁susceptibility	-6647
▁computation	-6648
▁multilayer	-6649
▁Not	-6650
▁dotted	-6651
attered	-6652
▁chitosan	-6653
▁penetration	-6654
▁8(	-6655
▁bonded	-6656
▁diode	-6657
▁gauge	-6658
▁Most	-6659
oring	-6660
▁Ass	-6661
ei	-6662
▁geometric	-6663
▁ves	-6664
etry	-6665
zero	-6666
▁exactly	-6667
▁metall	-6668
▁substantial	-6669
GaAs	-6670
▁neat	-6671
CB	-6672
)2]	-6673
acer	-6674
CNT	-6675
ss	-6676
//	-6677
agneti	-6678
atment	-6679
berg	-6680
▁dc	-6681
dec	-6682
aryl	-6683
▁asp	-6684
▁dopant	-6685
▁excitations	-6686
▁bandgap	-6687
▁numerous	-6688
▁(>	-6689
ammet	-6690
▁[20	-6691
▁improving	-6692
▁symbols	-6693
imid	-6694
▁waveguide	-6695
ativ	-6696
oline	-6697
▁entang	-6698
▁closer	-6699
−12	-6700
▁scaffold	-6701
▁titanium	-6702
ern	-6703
oselectivity	-6704
▁stretch	-6705
riefly	-6706
AP	-6707
eV	-6708
▁modify	-6709
▁Germany	-6710
GE	-6711
sectional	-6712
▁fragments	-6713
mat	-6714
chers	-6715
300	-6716
▁Cont	-6717
forward	-6718
▁cytotox	-6719
▁pulsed	-6720
▁acceler	-6721
▁flexibility	-6722
▁roughly	-6723
▁AM	-6724
▁solute	-6725
linic	-6726
4.5	-6727
Ts	-6728
▁expressions	-6729
▁put	-6730
▁calcium	-6731
▁transformed	-6732
▁illustrates	-6733
3)2	-6734
bilities	-6735
▁electroph	-6736
eling	-6737
▁acetonitrile	-6738
▁macroscopic	-6739
▁flask	-6740
▁ur	-6741
▁currently	-6742
▁3.8	-6743
▁coal	-6744
imes	-6745
vities	-6746
▁pati	-6747
▁nanotube	-6748
▁ferr	-6749
▁Gre	-6750
▁slip	-6751
rolled	-6752
▁fluctuation	-6753
▁microm	-6754
(0	-6755
▁LE	-6756
▁serve	-6757
▁crude	-6758
struct	-6759
yne	-6760
dashed	-6761
▁transmittance	-6762
▁portion	-6763
▁suppress	-6764
▁NS	-6765
▁EM	-6766
▁efforts	-6767
▁Young	-6768
RF	-6769
59	-6770
▁collap	-6771
▁initio	-6772
50,	-6773
arg	-6774
▁estimation	-6775
▁continuously	-6776
▁PCL	-6777
▁uniformly	-6778
▁producing	-6779
▁lign	-6780
▁trajectory	-6781
GF	-6782
▁1%	-6783
onate	-6784
▁linked	-6785
▁breakdown	-6786
▁accordance	-6787
▁[27	-6788
TAB	-6789
icles	-6790
▁sequences	-6791
▁platinum	-6792
▁electrolytes	-6793
▁reagent	-6794
▁drawn	-6795
RESULTS	-6796
▁supramolecular	-6797
oselective	-6798
rance	-6799
▁PANI	-6800
▁accompanied	-6801
▁why	-6802
▁involve	-6803
▁oven	-6804
vals	-6805
▁suppressed	-6806
▁5).	-6807
82	-6808
yrin	-6809
▁foil	-6810
▁majority	-6811
▁trends	-6812
▁weakly	-6813
▁cantile	-6814
▁substituents	-6815
▁Instrum	-6816
▁consideration	-6817
▁elongation	-6818
HR	-6819
shift	-6820
chain	-6821
▁accurately	-6822
▁PEDOT	-6823
ophen	-6824
assium	-6825
▁Tb	-6826
▁900	-6827
fluidic	-6828
pyr	-6829
squ	-6830
▁raw	-6831
2[	-6832
omial	-6833
▁polycrystalline	-6834
▁mis	-6835
FF	-6836
▁THz	-6837
rams	-6838
▁NW	-6839
▁toxicity	-6840
▁photovolta	-6841
▁imaginary	-6842
▁leakage	-6843
▁consequently	-6844
▁dislocations	-6845
rip	-6846
▁Upon	-6847
5.	-6848
▁metabol	-6849
tein	-6850
aratus	-6851
3/2	-6852
▁minutes	-6853
▁evol	-6854
▁analogous	-6855
ken	-6856
▁filtration	-6857
AT	-6858
▁alkaline	-6859
▁tendency	-6860
dot	-6861
},	-6862
edom	-6863
fluoro	-6864
rapol	-6865
▁tan	-6866
eness	-6867
▁72	-6868
▁Bruker	-6869
▁verify	-6870
arest	-6871
strain	-6872
electronic	-6873
▁1),	-6874
=8	-6875
▁match	-6876
▁acts	-6877
▁Despite	-6878
▁additive	-6879
▁110	-6880
herence	-6881
odal	-6882
▁strains	-6883
▁conformational	-6884
▁reflections	-6885
▁wee	-6886
▁environments	-6887
▁beneficial	-6888
▁virt	-6889
▁inherent	-6890
▁treatments	-6891
potential	-6892
▁Gra	-6893
▁coex	-6894
▁proof	-6895
rapeu	-6896
lattice	-6897
▁emphas	-6898
▁viscous	-6899
▁vinyl	-6900
▁objective	-6901
▁0)	-6902
▁viability	-6903
▁epitaxial	-6904
▁numerically	-6905
what	-6906
▁160	-6907
irac	-6908
▁BF	-6909
▁reinfor	-6910
arith	-6911
▁Several	-6912
▁FM	-6913
lecules	-6914
alladium	-6915
lux	-6916
}}	-6917
▁saf	-6918
▁ammonium	-6919
▁atmospheric	-6920
quis	-6921
▁drive	-6922
▁polyn	-6923
ca	-6924
▁candidate	-6925
tigue	-6926
(5)	-6927
ector	-6928
▁passi	-6929
ativistic	-6930
▁Yb	-6931
irical	-6932
▁highl	-6933
▁mi	-6934
▁continuum	-6935
▁drops	-6936
▁galax	-6937
▁introducing	-6938
▁identification	-6939
▁aging	-6940
16)	-6941
▁built	-6942
▁[28	-6943
▁shield	-6944
App	-6945
▁reproduc	-6946
From	-6947
▁Red	-6948
versal	-6949
▁skin	-6950
▁sequential	-6951
Tf	-6952
nan	-6953
▁tin	-6954
▁methodology	-6955
alc	-6956
▁differ	-6957
matically	-6958
▁CR	-6959
▁curing	-6960
ists	-6961
▁freedom	-6962
▁mask	-6963
ultim	-6964
▁substantially	-6965
ameter	-6966
▁Different	-6967
▁degra	-6968
▁drugs	-6969
omeric	-6970
▁uses	-6971
▁Subsequently	-6972
Met	-6973
ucid	-6974
fers	-6975
▁HPLC	-6976
discharge	-6977
knowledge	-6978
▁Wa	-6979
orphyrin	-6980
▁7.0	-6981
▁plateau	-6982
▁words	-6983
othermic	-6984
▁issues	-6985
▁big	-6986
forming	-6987
▁rule	-6988
▁Bra	-6989
▁yielding	-6990
odies	-6991
▁Tm	-6992
▁recyc	-6993
Py	-6994
▁immersed	-6995
angular	-6996
▁LUMO	-6997
stra	-6998
hanol	-6999
▁Samples	-7000
▁ho	-7001
▁imid	-7002
pi	-7003
▁fusion	-7004
▁twice	-7005
▁Considering	-7006
▁bridge	-7007
–13	-7008
En	-7009
▁diagonal	-7010
▁locations	-7011
arse	-7012
▁bearing	-7013
DMA	-7014
110	-7015
▁arises	-7016
▁inte	-7017
▁challenging	-7018
▁quickly	-7019
omethane	-7020
++	-7021
.3.2	-7022
▁HS	-7023
▁localization	-7024
▁PVDF	-7025
▁orientations	-7026
▁starts	-7027
▁artific	-7028
▁Tr	-7029
photon	-7030
▁adjust	-7031
▁Det	-7032
▁agre	-7033
▁isomers	-7034
cool	-7035
3].	-7036
▁CM	-7037
tt	-7038
▁miner	-7039
▁MOF	-7040
after	-7041
▁successive	-7042
continu	-7043
▁enthalpy	-7044
120	-7045
▁mism	-7046
▁carry	-7047
▁constraints	-7048
▁PES	-7049
▁oscillator	-7050
▁ζ	-7051
ider	-7052
▁targets	-7053
4].	-7054
▁chemicals	-7055
▁rhe	-7056
ewis	-7057
imetry	-7058
▁NR	-7059
rGO	-7060
▁severe	-7061
)2(	-7062
▁BP	-7063
▁squares	-7064
▁tetragonal	-7065
20)	-7066
▁SH	-7067
rochemical	-7068
▁[22	-7069
▁slower	-7070
▁researchers	-7071
perture	-7072
ery	-7073
▁39	-7074
Cp	-7075
▁reconstruction	-7076
IMENT	-7077
▁chemically	-7078
assisted	-7079
▁radii	-7080
PERIMENT	-7081
1.1	-7082
▁dest	-7083
▁98	-7084
▁somewhat	-7085
▁Trans	-7086
▁panels	-7087
pol	-7088
▁metric	-7089
▁transl	-7090
▁preferred	-7091
▁bacterial	-7092
▁Analysis	-7093
unc	-7094
▁orthog	-7095
▁theoretically	-7096
.44	-7097
▁obviously	-7098
ev	-7099
▁bubb	-7100
hydride	-7101
▁desirable	-7102
▁resultant	-7103
▁precision	-7104
NIPA	-7105
▁root	-7106
▁indirect	-7107
opyright	-7108
▁hierarchical	-7109
loaded	-7110
▁elevated	-7111
3.0	-7112
▁transformations	-7113
▁voltammet	-7114
oltzmann	-7115
block	-7116
▁precipitate	-7117
▁CL	-7118
▁[21	-7119
▁visco	-7120
▁eight	-7121
▁[29	-7122
▁HD	-7123
ifier	-7124
▁elucid	-7125
▁chloroform	-7126
▁induces	-7127
ux	-7128
▁(<	-7129
▁partition	-7130
isper	-7131
normal	-7132
▁PEO	-7133
)4	-7134
▁thiol	-7135
▁hydrocarbon	-7136
▁assembled	-7137
▁cyan	-7138
▁hypothesis	-7139
▁isotherms	-7140
▁arising	-7141
▁MnO	-7142
▁intervals	-7143
3+,	-7144
uth	-7145
gly	-7146
▁cry	-7147
▁pyridine	-7148
▁clay	-7149
▁contin	-7150
esium	-7151
Ther	-7152
liquid	-7153
▁RA	-7154
=6	-7155
RE	-7156
istance	-7157
▁Theore	-7158
▁Copyright	-7159
▁sides	-7160
▁extrapol	-7161
olysis	-7162
▁late	-7163
▁Three	-7164
▁operated	-7165
▁developing	-7166
▁New	-7167
osomes	-7168
▁stem	-7169
▁jump	-7170
5),	-7171
▁hydroxide	-7172
▁proportion	-7173
▁MP	-7174
▁nanomaterials	-7175
▁That	-7176
MM	-7177
▁[23	-7178
▁reflectance	-7179
Ad	-7180
▁meaning	-7181
▁limitations	-7182
sistent	-7183
,4	-7184
On	-7185
▁Dy	-7186
actic	-7187
▁0.15	-7188
▁tunable	-7189
▁connection	-7190
▁TD	-7191
Er	-7192
▁bip	-7193
▁inver	-7194
atomic	-7195
▁coordinated	-7196
▁humidity	-7197
▁≥	-7198
Is	-7199
acchar	-7200
▁DISCUSSION	-7201
▁excl	-7202
▁corrected	-7203
6),	-7204
isson	-7205
)–	-7206
▁opening	-7207
500	-7208
▁recovered	-7209
▁enzymes	-7210
▁efficiencies	-7211
spin	-7212
=0.0	-7213
▁biocompati	-7214
mark	-7215
▁tissues	-7216
▁Found	-7217
circ	-7218
▁interacting	-7219
TG	-7220
-1-	-7221
fl	-7222
13,	-7223
▁spots	-7224
▁toler	-7225
2.6	-7226
▁RNA	-7227
▁contour	-7228
▁regarding	-7229
▁demonstrating	-7230
▁Cur	-7231
vial	-7232
▁spectrometry	-7233
▁doub	-7234
▁dischar	-7235
lay	-7236
▁explanation	-7237
▁depletion	-7238
▁energetic	-7239
derived	-7240
▁grafted	-7241
aching	-7242
▁slab	-7243
▁(99	-7244
,,	-7245
▁carboxylic	-7246
▁minimize	-7247
▁wear	-7248
▁scope	-7249
▁Only	-7250
tides	-7251
▁arise	-7252
▁eqn	-7253
▁algebra	-7254
▁estimates	-7255
▁generating	-7256
▁antifer	-7257
▁grade	-7258
▁switch	-7259
▁Su	-7260
▁shrink	-7261
atase	-7262
▁104	-7263
▁calor	-7264
▁theorem	-7265
▁fatigue	-7266
ans	-7267
.48	-7268
▁[24	-7269
ortunately	-7270
▁exponent	-7271
▁dimensional	-7272
▁Lab	-7273
▁nor	-7274
▁solve	-7275
▁clinical	-7276
kl	-7277
▁tubes	-7278
▁traces	-7279
▁particip	-7280
▁exfol	-7281
▁reser	-7282
▁caps	-7283
▁scenario	-7284
▁straightforward	-7285
wall	-7286
.95	-7287
beam	-7288
▁sorption	-7289
▁movement	-7290
▁restricted	-7291
▁coli	-7292
▁advanced	-7293
SP	-7294
▁vicinity	-7295
rinted	-7296
▁#	-7297
obenzene	-7298
▁Max	-7299
▁*	-7300
▁negatively	-7301
▁modifications	-7302
▁unchanged	-7303
▁ammonia	-7304
▁lamp	-7305
▁Wh	-7306
▁spins	-7307
▁HRTEM	-7308
ophore	-7309
lications	-7310
articles	-7311
▁Lewis	-7312
PbI	-7313
.50	-7314
▁applicable	-7315
▁Compound	-7316
▁stoichiometric	-7317
4–	-7318
▁%,	-7319
▁(7)	-7320
▁bif	-7321
▁3.7	-7322
rant	-7323
▁accessible	-7324
▁KOH	-7325
▁clo	-7326
▁Ox	-7327
▁harves	-7328
▁diagrams	-7329
▁charging	-7330
COOH	-7331
▁LA	-7332
AFM	-7333
.42	-7334
current	-7335
iton	-7336
▁propose	-7337
▁dramatically	-7338
▁10−3	-7339
▁univers	-7340
▁bandwidth	-7341
▁diagnos	-7342
▁100%	-7343
Conclusion	-7344
▁illustration	-7345
▁distinguish	-7346
▁autoc	-7347
▁monot	-7348
▁fabricate	-7349
▁ST	-7350
∕2	-7351
▁specifically	-7352
▁unlike	-7353
hedra	-7354
▁10−1	-7355
▁rotating	-7356
▁supercapac	-7357
▁tuned	-7358
elled	-7359
osecond	-7360
.47	-7361
▁discrep	-7362
▁dichlor	-7363
density	-7364
essel	-7365
pended	-7366
▁combining	-7367
▁regimes	-7368
)−1	-7369
▁offset	-7370
bile	-7371
0−	-7372
rad	-7373
▁instant	-7374
Gd	-7375
go	-7376
▁incidence	-7377
xx	-7378
▁invariant	-7379
▁sense	-7380
▁0.02	-7381
0.15	-7382
.2.2	-7383
▁gray	-7384
▁actu	-7385
▁corrections	-7386
assembled	-7387
-10	-7388
▁2.3	-7389
▁round	-7390
2.8	-7391
.46	-7392
.43	-7393
ulating	-7394
▁date	-7395
▁illustrate	-7396
▁Science	-7397
▁SD	-7398
▁aspects	-7399
▁patterned	-7400
▁enco	-7401
orent	-7402
tran	-7403
▁photos	-7404
▁hopping	-7405
▁exception	-7406
▁CuO	-7407
▁breaking	-7408
▁collisions	-7409
▁potassium	-7410
▁Following	-7411
▁dimensionless	-7412
electrode	-7413
▁attrib	-7414
▁Temperature	-7415
iling	-7416
▁polynomial	-7417
▁morphological	-7418
▁requirements	-7419
EXPERIMENT	-7420
▁processed	-7421
orentz	-7422
▁roll	-7423
mu	-7424
▁cataly	-7425
▁indices	-7426
▁occurrence	-7427
idin	-7428
▁Bl	-7429
imal	-7430
▁polarity	-7431
▁interfer	-7432
ylated	-7433
▁helical	-7434
▁Waals	-7435
▁alter	-7436
▁separately	-7437
mix	-7438
▁tet	-7439
XPS	-7440
▁else	-7441
▁anionic	-7442
▁pyr	-7443
ishes	-7444
▁photonic	-7445
▁thor	-7446
▁AR	-7447
▁apparatus	-7448
=10	-7449
▁actually	-7450
▁acting	-7451
▁describing	-7452
▁equilib	-7453
▁sonic	-7454
−2)	-7455
▁44	-7456
▁uni	-7457
astere	-7458
icro	-7459
17,	-7460
▁aperture	-7461
cerol	-7462
▁nearest	-7463
▁mild	-7464
▁Appendix	-7465
BL	-7466
–16	-7467
▁298	-7468
▁radiative	-7469
▁computer	-7470
▁attachment	-7471
±0.0	-7472
formance	-7473
▁gy	-7474
▁beginning	-7475
ai	-7476
eline	-7477
omethyl	-7478
▁SERS	-7479
▁DE	-7480
▁orange	-7481
▁piec	-7482
▁argum	-7483
▁Py	-7484
group	-7485
▁health	-7486
▁fibro	-7487
▁20%	-7488
benzene	-7489
There	-7490
▁DMA	-7491
–18	-7492
Supporting	-7493
▁polystyrene	-7494
▁yielded	-7495
▁irrever	-7496
thi	-7497
αβ	-7498
▁Reaction	-7499
.60	-7500
viously	-7501
posited	-7502
▁nodes	-7503
▁140	-7504
▁ultim	-7505
HP	-7506
▁prove	-7507
▁evaporated	-7508
Figures	-7509
▁unknown	-7510
▁WO	-7511
▁candidates	-7512
tokes	-7513
dom	-7514
.90	-7515
▁Dirac	-7516
▁ORR	-7517
▁reaching	-7518
▁National	-7519
▁representing	-7520
hombic	-7521
▁[26	-7522
▁BSA	-7523
▁1‐	-7524
Gs	-7525
odec	-7526
▁Col	-7527
▁(40	-7528
▁independ	-7529
▁track	-7530
▁photovoltaic	-7531
▁technologies	-7532
▁qualitative	-7533
Preparation	-7534
▁EDS	-7535
▁neglected	-7536
▁look	-7537
▁CeO	-7538
RI	-7539
▁segreg	-7540
imination	-7541
▁isothermal	-7542
equilibrium	-7543
)[	-7544
istence	-7545
−2,	-7546
article	-7547
▁anomal	-7548
ustion	-7549
▁microc	-7550
‐2	-7551
▁scalar	-7552
▁quenched	-7553
▁compute	-7554
electroly	-7555
SD	-7556
→∞	-7557
▁106	-7558
▁initiator	-7559
▁phenol	-7560
peak	-7561
▁3.2	-7562
linking	-7563
▁volumes	-7564
xi	-7565
filled	-7566
▁Sample	-7567
uck	-7568
–14	-7569
▁holds	-7570
2.7	-7571
opt	-7572
coord	-7573
)=(	-7574
▁Le	-7575
resent	-7576
▁periods	-7577
▁lies	-7578
▁repulsion	-7579
▁rich	-7580
−1(	-7581
▁ME	-7582
▁BN	-7583
▁Monte	-7584
▁(111)	-7585
otic	-7586
arities	-7587
▁Green	-7588
▁precisely	-7589
vity	-7590
▁microfluidic	-7591
▁offers	-7592
▁tight	-7593
‐2‐	-7594
▁lumin	-7595
▁comes	-7596
▁commercially	-7597
-3-	-7598
▁quantitatively	-7599
▁strengths	-7600
▁SM	-7601
▁HRMS	-7602
▁paths	-7603
▁Measure	-7604
▁HT	-7605
▁additives	-7606
▁Micro	-7607
▁opto	-7608
▁plasmonic	-7609
▁decades	-7610
–30	-7611
▁Cat	-7612
▁4‐	-7613
▁maxima	-7614
▁Carlo	-7615
∂∂	-7616
▁simplified	-7617
▁helium	-7618
oxidation	-7619
▁methane	-7620
▁happ	-7621
▁therapeu	-7622
▁axes	-7623
▁insp	-7624
▁possesses	-7625
▁47	-7626
▁obtaining	-7627
▁SR	-7628
▁logarith	-7629
▁ske	-7630
▁stainless	-7631
▁collagen	-7632
▁8.0	-7633
▁furnace	-7634
▁runs	-7635
▁matching	-7636
▁diffractometer	-7637
▁EF	-7638
▁LD	-7639
▁tends	-7640
]:	-7641
)=−	-7642
▁systematically	-7643
▁receptor	-7644
eptide	-7645
dra	-7646
▁filling	-7647
▁ends	-7648
gered	-7649
▁reflux	-7650
▁satisfy	-7651
▁refinement	-7652
▁emitted	-7653
▁intrac	-7654
elen	-7655
/3	-7656
hydrous	-7657
▁deuter	-7658
▁explicitly	-7659
▁hydration	-7660
51	-7661
▁moist	-7662
▁benzyl	-7663
roph	-7664
bial	-7665
▁calibrated	-7666
400	-7667
▁fluids	-7668
▁derive	-7669
▁flame	-7670
attices	-7671
▁qualitatively	-7672
▁turbulent	-7673
▁afforded	-7674
VT	-7675
▁eventually	-7676
▁rectangular	-7677
▁acquis	-7678
violet	-7679
MoS	-7680
dc	-7681
▁nominal	-7682
▁(°	-7683
opes	-7684
▁Polymer	-7685
▁zeolite	-7686
=[	-7687
ircon	-7688
wn	-7689
PES	-7690
▁9,	-7691
▁Inter	-7692
-,	-7693
▁simplicity	-7694
▁projection	-7695
▁126	-7696
▁promin	-7697
▁Poisson	-7698
▁RO	-7699
▁quadrup	-7700
▁supply	-7701
With	-7702
then	-7703
iring	-7704
pa	-7705
▁establish	-7706
▁cantilever	-7707
tized	-7708
nat	-7709
titial	-7710
▁wires	-7711
▁bromide	-7712
▁solids	-7713
▁alcohols	-7714
ureth	-7715
▁metastable	-7716
▁nitrate	-7717
▁junctions	-7718
▁interconn	-7719
don	-7720
▁lasers	-7721
▁ten	-7722
▁eigenvalues	-7723
▁polariz	-7724
▁convenient	-7725
▁artificial	-7726
▁smallest	-7727
▁pharm	-7728
anar	-7729
▁adiabatic	-7730
▁physi	-7731
▁tough	-7732
2.2	-7733
NN	-7734
▁fibr	-7735
.41	-7736
▁sulfate	-7737
▁sec	-7738
lined	-7739
▁$\	-7740
MoO	-7741
▁performing	-7742
TOF	-7743
oming	-7744
.65	-7745
▁Herein	-7746
.49	-7747
▁masses	-7748
.00	-7749
▁conclusions	-7750
▁Boltzmann	-7751
*(	-7752
▁implementation	-7753
▁motif	-7754
functionalized	-7755
▁who	-7756
▁([	-7757
pin	-7758
▁Electron	-7759
voir	-7760
ynolds	-7761
▁MT	-7762
▁octahedral	-7763
▁supporting	-7764
▁elsewhere	-7765
▁RE	-7766
.%	-7767
▁believed	-7768
▁drain	-7769
▁confirming	-7770
driven	-7771
▁reacted	-7772
ius	-7773
▁resol	-7774
▁diastere	-7775
▁search	-7776
oyl	-7777
▁geometrical	-7778
alt	-7779
▁surpris	-7780
▁Accordingly	-7781
▁6).	-7782
▁5-	-7783
enyl	-7784
▁Energy	-7785
▁neur	-7786
▁ET	-7787
▁asymptotic	-7788
sten	-7789
▁scattered	-7790
▁Next	-7791
treatment	-7792
FeO	-7793
▁printing	-7794
responsive	-7795
▁uncertainties	-7796
▁references	-7797
culation	-7798
▁expanded	-7799
)}	-7800
▁lignin	-7801
onductivity	-7802
▁AB	-7803
▁complexity	-7804
▁dic	-7805
▁replic	-7806
▁magnification	-7807
17)	-7808
CONCLUSIONS	-7809
▁entries	-7810
▁Non	-7811
monium	-7812
▁synchron	-7813
Be	-7814
pressure	-7815
▁turned	-7816
controlled	-7817
▁determines	-7818
ench	-7819
titive	-7820
wt	-7821
▁amines	-7822
▁ann	-7823
▁gradients	-7824
▁compet	-7825
▁retained	-7826
▁causing	-7827
▁dimethyl	-7828
▁Pe	-7829
▁recrystall	-7830
▁ALD	-7831
ensors	-7832
hydrox	-7833
Rec	-7834
|2	-7835
ottky	-7836
fin	-7837
▁4)	-7838
iphatic	-7839
4.0	-7840
tex	-7841
▁criterion	-7842
Electronic	-7843
component	-7844
emission	-7845
▁CCD	-7846
CI	-7847
▁AlN	-7848
▁anten	-7849
▁broken	-7850
▁Ψ	-7851
Sim	-7852
rection	-7853
▁Inst	-7854
ulsive	-7855
▁Discussion	-7856
▁combinations	-7857
▁his	-7858
▁pit	-7859
.98	-7860
7].	-7861
ociety	-7862
▁56	-7863
▁insulating	-7864
▁proxim	-7865
ochastic	-7866
▁objects	-7867
4:	-7868
▁circle	-7869
▁orthogonal	-7870
No	-7871
▁etch	-7872
▁tung	-7873
▁68	-7874
ringe	-7875
film	-7876
QE	-7877
▁Σ	-7878
▁calculating	-7879
▁abundant	-7880
▁(8)	-7881
▁strand	-7882
▁synerg	-7883
▁anch	-7884
stim	-7885
▁palladium	-7886
onical	-7887
▁nucleus	-7888
lass	-7889
▁captured	-7890
▁prolif	-7891
▁Its	-7892
▁similarly	-7893
▁elast	-7894
▁clarity	-7895
▁elimination	-7896
▁43	-7897
▁thorough	-7898
▁object	-7899
▁know	-7900
-0	-7901
▁mismatch	-7902
▁Specifically	-7903
upled	-7904
idence	-7905
▁studying	-7906
▁DOS	-7907
▁Lorentz	-7908
umer	-7909
▁sn	-7910
Finally	-7911
/2)	-7912
▁Given	-7913
▁specified	-7914
▁usual	-7915
▁mim	-7916
tra	-7917
▁catalyzed	-7918
silic	-7919
▁food	-7920
▁powerful	-7921
ml	-7922
▁Reynolds	-7923
hiph	-7924
▁influences	-7925
▁complementary	-7926
ingle	-7927
▁AuNPs	-7928
▁isotherm	-7929
▁nM	-7930
usc	-7931
uminescent	-7932
▁branch	-7933
▁focusing	-7934
▁inert	-7935
▁synthesize	-7936
▁1:1	-7937
▁radio	-7938
▁comm	-7939
enti	-7940
▁ker	-7941
non	-7942
▁asymmetry	-7943
▁MeOH	-7944
18,	-7945
▁idea	-7946
*,	-7947
▁hold	-7948
mitted	-7949
vect	-7950
▁acquisition	-7951
▁consisted	-7952
THF	-7953
▁coerc	-7954
▁reservoir	-7955
▁2015	-7956
hydroph	-7957
acterial	-7958
▁filament	-7959
)=∑	-7960
▁assessed	-7961
▁46	-7962
▁machine	-7963
▁believe	-7964
▁km	-7965
ratic	-7966
▁selectively	-7967
▁RH	-7968
▁64	-7969
coupling	-7970
wards	-7971
▁System	-7972
▁strip	-7973
Tc	-7974
uniform	-7975
▁dimers	-7976
▁cyclohex	-7977
knowledgements	-7978
▁encapsulated	-7979
▁microstructures	-7980
▁spatially	-7981
▁moisture	-7982
25,	-7983
bonded	-7984
▁anodic	-7985
▁FR	-7986
)⟩	-7987
▁96	-7988
▁para	-7989
▁positively	-7990
▁DP	-7991
ograv	-7992
▁te	-7993
▁130	-7994
▁Molecular	-7995
▁reconstruct	-7996
lamm	-7997
.(3	-7998
hire	-7999
▁fore	-8000
BI	-8001
▁contrary	-8002
rehen	-8003
▁voltammetry	-8004
istribution	-8005
▁diffusivity	-8006
▁10−4	-8007
imeter	-8008
MI	-8009
roc	-8010
vey	-8011
▁Reg	-8012
▁mobile	-8013
▁combustion	-8014
,5	-8015
▁cracks	-8016
▁homogen	-8017
▁ast	-8018
▁STM	-8019
▁electronics	-8020
▁Rel	-8021
–17	-8022
orhombic	-8023
2;	-8024
ologically	-8025
edical	-8026
▁(1),	-8027
▁(25	-8028
▁diverse	-8029
▁solvation	-8030
scheme	-8031
▁evidenced	-8032
▁reflects	-8033
▁plant	-8034
▁5.5	-8035
▁traps	-8036
rowth	-8037
6).	-8038
▁enlar	-8039
▁recognition	-8040
−0.	-8041
▁prepar	-8042
▁recip	-8043
▁MOFs	-8044
▁550	-8045
ogel	-8046
▁mT	-8047
▁regarded	-8048
lastic	-8049
fortunately	-8050
▁land	-8051
▁casc	-8052
▁package	-8053
ME	-8054
Ne	-8055
91	-8056
bre	-8057
▁Once	-8058
MW	-8059
.80	-8060
▁dioxide	-8061
FTIR	-8062
.67	-8063
...	-8064
▁Structure	-8065
▁Yield	-8066
supp	-8067
▁therapy	-8068
▁cytotoxicity	-8069
▁Ri	-8070
▁FWHM	-8071
▁SU	-8072
)∂	-8073
▁phosphorus	-8074
▁accelerated	-8075
▁gran	-8076
▁deduced	-8077
▁methacrylate	-8078
▁57	-8079
▁ZrO	-8080
▁write	-8081
▁agrees	-8082
▁nitride	-8083
▁cloud	-8084
vice	-8085
Yb	-8086
▁living	-8087
hydrate	-8088
▁quantify	-8089
▁pixel	-8090
▁exhibiting	-8091
▁BT	-8092
Da	-8093
▁assign	-8094
anthan	-8095
NRs	-8096
▁neighb	-8097
▁(1.0	-8098
▁GA	-8099
9]	-8100
▁induction	-8101
.70	-8102
8].	-8103
▁anhydrous	-8104
Characterization	-8105
ifies	-8106
.85	-8107
mersion	-8108
arge	-8109
▁fulle	-8110
▁milling	-8111
▁BH	-8112
▁fluence	-8113
apphire	-8114
fit	-8115
▁interstitial	-8116
meric	-8117
▁scaled	-8118
▁TG	-8119
▁styrene	-8120
▁enhances	-8121
▁industry	-8122
LP	-8123
▁feedback	-8124
Figs	-8125
▁count	-8126
▁goal	-8127
▁constraint	-8128
▁MF	-8129
▁Bragg	-8130
arboxyl	-8131
ints	-8132
▁collapse	-8133
▁behind	-8134
/2,	-8135
diffusion	-8136
▁ɛ	-8137
alkyl	-8138
▁recording	-8139
▁9(	-8140
▁LED	-8141
▁variance	-8142
strate	-8143
▁stochastic	-8144
idene	-8145
▁weld	-8146
▁lifetimes	-8147
▁requirement	-8148
formed	-8149
▁conformations	-8150
▁iter	-8151
▁toxic	-8152
▁leg	-8153
oting	-8154
LEDs	-8155
activation	-8156
▁lamin	-8157
2.3	-8158
▁compatible	-8159
(6)	-8160
tity	-8161
▁columns	-8162
▁digital	-8163
▁67	-8164
urg	-8165
hedron	-8166
▁chir	-8167
cetic	-8168
Mod	-8169
▁trib	-8170
▁sealed	-8171
▁unre	-8172
▁utilizing	-8173
▁suppression	-8174
▁Val	-8175
▁choose	-8176
▁deco	-8177
▁OF	-8178
neg	-8179
▁guest	-8180
stein	-8181
▁[30	-8182
▁glassy	-8183
oxygen	-8184
▁spray	-8185
.96	-8186
▁∈	-8187
8]	-8188
▁interpreted	-8189
▁solving	-8190
▁module	-8191
▁Before	-8192
Ls	-8193
▁reader	-8194
▁statistics	-8195
Per	-8196
morph	-8197
▁Instruments	-8198
▁Surface	-8199
▁alkali	-8200
▁naturally	-8201
▁HP	-8202
▁6.5	-8203
▁couple	-8204
▁Cp	-8205
cd	-8206
▁ri	-8207
2@	-8208
▁enhancing	-8209
▁contributes	-8210
▁attack	-8211
▁protection	-8212
▁precipitates	-8213
pent	-8214
▁toughness	-8215
▁challenges	-8216
ophores	-8217
▁prominent	-8218
▁(300	-8219
▁started	-8220
▁repeat	-8221
▁undoped	-8222
▁return	-8223
′=	-8224
▁MWCNTs	-8225
▁washing	-8226
▁TR	-8227
▁empirical	-8228
pass	-8229
ocyt	-8230
▁minima	-8231
▁islands	-8232
ye	-8233
ulse	-8234
▁dispersive	-8235
▁urea	-8236
▁bubbles	-8237
binding	-8238
Ka	-8239
▁bring	-8240
Acknowledgements	-8241
▁hybridization	-8242
▁widths	-8243
▁10.10	-8244
▁disappear	-8245
EOL	-8246
▁comprehen	-8247
▁ee	-8248
onon	-8249
ateg	-8250
▁carefully	-8251
SF	-8252
▁methylene	-8253
▁signature	-8254
▁ways	-8255
▁Com	-8256
▁differentiation	-8257
▁2014	-8258
When	-8259
0),	-8260
▁select	-8261
rig	-8262
▁waven	-8263
▁immobilized	-8264
▁[1,	-8265
▁HER	-8266
▁capacities	-8267
▁held	-8268
}\	-8269
▁cit	-8270
▁mathem	-8271
▁ferm	-8272
▁functionality	-8273
▁FF	-8274
▁Dr	-8275
▁implying	-8276
▁dB	-8277
azine	-8278
−4	-8279
▁supplied	-8280
▁mounted	-8281
▁Ini	-8282
local	-8283
synthe	-8284
olu	-8285
▁crosslinked	-8286
▁Generally	-8287
▁motions	-8288
▁independently	-8289
▁generates	-8290
▁(100)	-8291
umm	-8292
3:	-8293
▁hol	-8294
▁transistors	-8295
▁equip	-8296
▁never	-8297
▁rins	-8298
ammonium	-8299
▁Scientific	-8300
process	-8301
▁calcination	-8302
▁biomass	-8303
▁increment	-8304
lemental	-8305
.68	-8306
illar	-8307
▁seven	-8308
▁bund	-8309
.97	-8310
▁elu	-8311
EXPERIMENTAL	-8312
▁travel	-8313
elle	-8314
▁ablation	-8315
▁Inset	-8316
▁BC	-8317
▁inhibitor	-8318
▁78	-8319
▁HE	-8320
▁EPR	-8321
▁universal	-8322
▁gravity	-8323
ranged	-8324
Sh	-8325
ented	-8326
▁DOI	-8327
▁incomp	-8328
inger	-8329
▁mole	-8330
▁disrup	-8331
▁diodes	-8332
▁tungsten	-8333
Effect	-8334
ili	-8335
▁subs	-8336
▁SDS	-8337
iminary	-8338
▁pip	-8339
▁pyrolysis	-8340
▁moves	-8341
▁58	-8342
▁principal	-8343
DMSO	-8344
symmetric	-8345
▁Society	-8346
▁11.	-8347
▁retard	-8348
inction	-8349
▁53	-8350
ectic	-8351
▁PVP	-8352
39/	-8353
abor	-8354
‐(	-8355
▁suspensions	-8356
▁perturbations	-8357
▁quantified	-8358
gthen	-8359
▁sound	-8360
▁oste	-8361
De	-8362
▁(0.1	-8363
▁antibody	-8364
▁Many	-8365
▁magneto	-8366
enter	-8367
▁ID	-8368
⋅⋅	-8369
▁sheath	-8370
▁detectors	-8371
▁valu	-8372
▁undergoes	-8373
▁therapeutic	-8374
initi	-8375
▁span	-8376
▁conjugate	-8377
embered	-8378
▁adhesive	-8379
cation	-8380
▁aliphatic	-8381
4@	-8382
aves	-8383
undred	-8384
600	-8385
▁sandw	-8386
Materials	-8387
▁topology	-8388
▁intracellular	-8389
0.10	-8390
QD	-8391
▁association	-8392
▁permeation	-8393
MB	-8394
factor	-8395
▁10−5	-8396
bye	-8397
▁Detail	-8398
–19	-8399
▁disturb	-8400
▁torque	-8401
▁inhomogeneous	-8402
▁nanod	-8403
cf	-8404
hexane	-8405
PH	-8406
Since	-8407
▁etched	-8408
▁[6	-8409
▁anatase	-8410
▁bridging	-8411
▁build	-8412
▁crossing	-8413
▁2016	-8414
▁prev	-8415
eper	-8416
‐1,	-8417
▁acetic	-8418
▁Ul	-8419
▁proven	-8420
▁zircon	-8421
polarized	-8422
▁199	-8423
−1;	-8424
unting	-8425
umptions	-8426
By	-8427
kg	-8428
5).	-8429
▁conjugation	-8430
▁maximal	-8431
5].	-8432
▁Form	-8433
COO	-8434
▁refined	-8435
Tm	-8436
▁crystallite	-8437
deposited	-8438
▁10.1039/	-8439
.66	-8440
ange	-8441
▁Optical	-8442
▁earth	-8443
direction	-8444
att	-8445
▁dehyd	-8446
▁relativistic	-8447
planar	-8448
{1	-8449
▁centrifugation	-8450
tified	-8451
,−	-8452
▁port	-8453
▁Effect	-8454
▁paramagnetic	-8455
▁thermoelectric	-8456
▁cores	-8457
▁tetrahedral	-8458
▁polyethylene	-8459
▁significance	-8460
2.1	-8461
▁dilute	-8462
▁49	-8463
▁dro	-8464
▁ink	-8465
▁EG	-8466
▁fluoride	-8467
▁highlight	-8468
itrogen	-8469
sen	-8470
▁econ	-8471
▁improves	-8472
7.5	-8473
▁measures	-8474
▁fat	-8475
ogels	-8476
7),	-8477
Hf	-8478
▁stated	-8479
▁comprehensive	-8480
▁propagating	-8481
angmu	-8482
regular	-8483
▁dichloromethane	-8484
▁Schottky	-8485
henium	-8486
▁Proper	-8487
ignific	-8488
athin	-8489
do	-8490
}$	-8491
▁simulate	-8492
▁entanglement	-8493
▁initiated	-8494
▁∼10	-8495
▁PCE	-8496
μν	-8497
zen	-8498
▁er	-8499
angmuir	-8500
aphthal	-8501
▁irreversible	-8502
▁effic	-8503
uling	-8504
▁shells	-8505
vs	-8506
▁Sci	-8507
Vs	-8508
▁proj	-8509
HC	-8510
▁cone	-8511
111	-8512
▁mangan	-8513
▁percol	-8514
▁coherence	-8515
▁pointed	-8516
0.12	-8517
conjug	-8518
▁notic	-8519
▁immersion	-8520
▁peroxide	-8521
▁opportun	-8522
▁aggregate	-8523
▁macromo	-8524
▁cage	-8525
▁averaging	-8526
▁CE	-8527
▁coarse	-8528
▁Notably	-8529
▁103	-8530
roton	-8531
▁twin	-8532
▁orthorhombic	-8533
▁categ	-8534
▁adequ	-8535
Cat	-8536
▁ii	-8537
idation	-8538
▁PZT	-8539
▁survi	-8540
▁66	-8541
▁Do	-8542
▁mAh	-8543
▁focal	-8544
▁collective	-8545
▁cha	-8546
▁Torr	-8547
▁suspended	-8548
▁tub	-8549
▁torsion	-8550
▁cyclization	-8551
bits	-8552
▁ATR	-8553
▁monolayers	-8554
▁noting	-8555
18)	-8556
▁nucleophilic	-8557
ostatic	-8558
grown	-8559
▁contamin	-8560
AR	-8561
▁	-8562
▁shad	-8563
asured	-8564
▁surfactants	-8565
⋅⋅⋅	-8566
PMMA	-8567
▁(9)	-8568
▁cultured	-8569
▁%.	-8570
▁resins	-8571
▁proliferation	-8572
▁NI	-8573
▁Method	-8574
▁staining	-8575
▁cavities	-8576
Sm	-8577
▁remarkably	-8578
solvent	-8579
▁phonons	-8580
▁fluxes	-8581
▁colour	-8582
▁2013	-8583
inte	-8584
▁monoclinic	-8585
−2.	-8586
▁Is	-8587
▁glycerol	-8588
▁Aldrich	-8589
▁toroidal	-8590
▁alternating	-8591
▁liver	-8592
▁inserted	-8593
VD	-8594
layers	-8595
▁Ho	-8596
atical	-8597
▁fem	-8598
.94	-8599
vin	-8600
▁Time	-8601
▁20,	-8602
3.2	-8603
▁..	-8604
electrolyte	-8605
.78	-8606
such	-8607
▁oligomers	-8608
umed	-8609
.5.	-8610
utive	-8611
-2,	-8612
▁emitting	-8613
ogravimetric	-8614
▁amphiph	-8615
rotron	-8616
▁directed	-8617
▁Gr	-8618
▁reflectivity	-8619
▁hundred	-8620
▁triangular	-8621
ensif	-8622
▁ribbon	-8623
▁couplings	-8624
gas	-8625
▁Gib	-8626
▁downstream	-8627
▁quin	-8628
▁titan	-8629
▁assumptions	-8630
ym	-8631
▁antim	-8632
▁10−6	-8633
▁distorted	-8634
▁EDX	-8635
det	-8636
through	-8637
.55	-8638
▁42	-8639
HCl	-8640
tly	-8641
IN	-8642
CPD	-8643
▁templates	-8644
licts	-8645
ather	-8646
.88	-8647
▁reactants	-8648
*)	-8649
▁fractional	-8650
SCF	-8651
▁calcined	-8652
nit	-8653
cap	-8654
▁Eg	-8655
IA	-8656
▁realistic	-8657
▁(0.3	-8658
▁instantaneous	-8659
▁modulated	-8660
‐3	-8661
▁multic	-8662
▁fair	-8663
ife	-8664
▁arm	-8665
▁mineral	-8666
1%	-8667
aver	-8668
ah	-8669
▁analogues	-8670
▁MeV	-8671
–100	-8672
▁keeping	-8673
▁ultraf	-8674
▁Model	-8675
▁gradual	-8676
′),	-8677
▁mot	-8678
▁GPC	-8679
▁sole	-8680
▁drag	-8681
▁ILs	-8682
conversion	-8683
▁targeted	-8684
▁Oe	-8685
▁hexane	-8686
▁afore	-8687
▁interior	-8688
ticity	-8689
▁realize	-8690
▁come	-8691
▁trunc	-8692
Tg	-8693
▁plus	-8694
cp	-8695
▁Ze	-8696
.64	-8697
RP	-8698
▁3.3	-8699
▁science	-8700
▁assays	-8701
rose	-8702
lete	-8703
▁54	-8704
▁Experim	-8705
▁iso	-8706
cope	-8707
▁determin	-8708
▁inhibitors	-8709
-20	-8710
▁wetting	-8711
graphene	-8712
5]	-8713
itors	-8714
▁pumping	-8715
▁extinction	-8716
(0,	-8717
▁Stu	-8718
▁uniaxial	-8719
uctive	-8720
▁biof	-8721
reasing	-8722
▁Thermal	-8723
▁slic	-8724
Note	-8725
▁achieving	-8726
▁cooper	-8727
▁IP	-8728
membered	-8729
urity	-8730
▁formalism	-8731
▁Water	-8732
▁cum	-8733
▁4.2	-8734
,6	-8735
pyrid	-8736
▁vesicles	-8737
CDCl	-8738
▁coales	-8739
▁unus	-8740
fib	-8741
▁singular	-8742
▁similarity	-8743
.76	-8744
▁repulsive	-8745
nes	-8746
▁odd	-8747
▁importantly	-8748
▁turns	-8749
▁6.0	-8750
hmic	-8751
▁regardless	-8752
▁dimin	-8753
▁∑	-8754
▁indium	-8755
▁populations	-8756
▁unity	-8757
▁amplification	-8758
Let	-8759
▁dev	-8760
▁photodet	-8761
▁attenuation	-8762
▁recover	-8763
▁(2),	-8764
▁encapsulation	-8765
▁discontinu	-8766
▁contamination	-8767
ba	-8768
▁aforementioned	-8769
rier	-8770
▁(001)	-8771
roduced	-8772
▁reversal	-8773
▁MoO	-8774
▁30%	-8775
▁OER	-8776
urethane	-8777
▁CdSe	-8778
8),	-8779
minist	-8780
▁kine	-8781
labeled	-8782
▁InAs	-8783
▁facets	-8784
Comparison	-8785
▁practice	-8786
▁flash	-8787
CVD	-8788
▁AG	-8789
SZ	-8790
▁porphyrin	-8791
mass	-8792
▁sustain	-8793
▁highlighted	-8794
150	-8795
▁relaxed	-8796
aken	-8797
▁approximated	-8798
▁Debye	-8799
▁conservation	-8800
icle	-8801
▁PG	-8802
ogener	-8803
])	-8804
visible	-8805
7).	-8806
▁abundance	-8807
new	-8808
▁circum	-8809
▁fluorine	-8810
astically	-8811
▁Americ	-8812
TION	-8813
▁rational	-8814
▁ultrathin	-8815
▁dendrim	-8816
▁generator	-8817
▁wider	-8818
▁creation	-8819
▁reproduce	-8820
▁cast	-8821
▁explor	-8822
▁stabilize	-8823
ameters	-8824
▁project	-8825
▁photocatalyst	-8826
If	-8827
▁carbons	-8828
▁dipolar	-8829
▁passive	-8830
EF	-8831
▁proceeds	-8832
.93	-8833
▁integrals	-8834
▁train	-8835
▁accom	-8836
▁patients	-8837
tor	-8838
▁PEI	-8839
anted	-8840
▁LDH	-8841
All	-8842
▁regression	-8843
▁joint	-8844
▁herein	-8845
▁express	-8846
▁RGO	-8847
▁insulator	-8848
▁Instead	-8849
▁degenerate	-8850
▁node	-8851
▁ultraviolet	-8852
▁criteria	-8853
▁feasible	-8854
ource	-8855
activity	-8856
▁brain	-8857
alent	-8858
▁cured	-8859
▁accommod	-8860
ident	-8861
omm	-8862
▁trigger	-8863
cr	-8864
El	-8865
etermined	-8866
▁physiological	-8867
Op	-8868
ese	-8869
tification	-8870
eller	-8871
▁pellets	-8872
LG	-8873
▁refers	-8874
▁nanostructured	-8875
▁2),	-8876
Ab	-8877
▁El	-8878
0.75	-8879
benzyl	-8880
▁biode	-8881
ecutive	-8882
NCs	-8883
▁integrating	-8884
.63	-8885
▁ICP	-8886
–25	-8887
iro	-8888
avi	-8889
▁NF	-8890
▁135	-8891
▁isolation	-8892
sity	-8893
Phot	-8894
entry	-8895
desorption	-8896
0.13	-8897
▁tools	-8898
dehyd	-8899
▁lanthan	-8900
wavelength	-8901
▁efficacy	-8902
▁rearrangement	-8903
▁prel	-8904
lip	-8905
uits	-8906
▁newly	-8907
▁monod	-8908
ido	-8909
▁90°	-8910
OC	-8911
▁resistive	-8912
▁assemblies	-8913
▁69	-8914
▁quater	-8915
▁indicative	-8916
▁schemes	-8917
▁discovery	-8918
▁enabled	-8919
DSC	-8920
▁Of	-8921
▁6-	-8922
▁stud	-8923
osa	-8924
▁stellar	-8925
anine	-8926
▁1200	-8927
.56	-8928
▁Langmuir	-8929
▁ce	-8930
cycle	-8931
▁satisfies	-8932
cut	-8933
▁frequently	-8934
▁thought	-8935
▁removing	-8936
▁hydroly	-8937
▁marg	-8938
emitting	-8939
▁empty	-8940
aked	-8941
amma	-8942
▁eliminate	-8943
▁CHCl	-8944
▁controls	-8945
▁my	-8946
||	-8947
.1)	-8948
▁EX	-8949
]−	-8950
▁GB	-8951
▁compatibility	-8952
▁CG	-8953
▁governed	-8954
using	-8955
cycl	-8956
atite	-8957
.77	-8958
bo	-8959
ci	-8960
▁substituent	-8961
VB	-8962
Cal	-8963
▁effort	-8964
▁targeting	-8965
▁casting	-8966
▁adv	-8967
.69	-8968
▁azim	-8969
▁passivation	-8970
rected	-8971
One	-8972
encing	-8973
▁implantation	-8974
▁rf	-8975
reep	-8976
▁heterojunction	-8977
▁noticed	-8978
▁cros	-8979
▁papers	-8980
▁mediated	-8981
pot	-8982
inset	-8983
▁decon	-8984
structural	-8985
▁purely	-8986
▁exclusive	-8987
▁90%	-8988
▁thicker	-8989
(5	-8990
ey	-8991
▁discrepancy	-8992
▁magnesium	-8993
▁(10)	-8994
iaz	-8995
sw	-8996
▁addressed	-8997
▁leaving	-8998
▁Maxwell	-8999
ethe	-9000
GD	-9001
▁AF	-9002
earing	-9003
▁initiation	-9004
▁mart	-9005
aid	-9006
MOS	-9007
▁spring	-9008
▁motiv	-9009
▁quadratic	-9010
▁antenna	-9011
▁viscoelastic	-9012
▁purposes	-9013
▁valuable	-9014
▁exceeds	-9015
▁limitation	-9016
▁Instit	-9017
▁97	-9018
▁reactant	-9019
▁lithography	-9020
▁arri	-9021
▁printed	-9022
phonon	-9023
hil	-9024
.86	-9025
opent	-9026
benzo	-9027
▁meet	-9028
MOF	-9029
▁inequ	-9030
▁vortices	-9031
omorph	-9032
umably	-9033
▁Current	-9034
zzle	-9035
▁CVD	-9036
19,	-9037
▁cycload	-9038
▁Mw	-9039
▁incorporating	-9040
▁proximity	-9041
ycin	-9042
▁0.5,	-9043
▁locally	-9044
▁month	-9045
▁sun	-9046
sitive	-9047
▁mold	-9048
elves	-9049
▁promoted	-9050
▁filters	-9051
▁biomedical	-9052
PEI	-9053
▁halogen	-9054
sities	-9055
▁imposed	-9056
bert	-9057
▁hydride	-9058
▁excluded	-9059
performance	-9060
▁Now	-9061
▁(500	-9062
▁Eff	-9063
(11)	-9064
/[	-9065
▁titration	-9066
▁Unfortunately	-9067
▁resonator	-9068
ming	-9069
▁optically	-9070
▁synergistic	-9071
▁7).	-9072
▁guide	-9073
▁lie	-9074
▁confocal	-9075
▁predominantly	-9076
Pl	-9077
0.000	-9078
▁survey	-9079
.87	-9080
uge	-9081
PCL	-9082
illed	-9083
QU	-9084
average	-9085
ZrO	-9086
▁age	-9087
13)	-9088
▁weeks	-9089
▁∇	-9090
▁perman	-9091
9).	-9092
▁utilization	-9093
▁branches	-9094
synthesized	-9095
pyridine	-9096
▁decays	-9097
▁serious	-9098
▁wells	-9099
▁ortho	-9100
9),	-9101
▁lamellar	-9102
▁contributed	-9103
▁bases	-9104
▁apprec	-9105
isting	-9106
Ln	-9107
▁bic	-9108
parts	-9109
tiveness	-9110
▁gen	-9111
▁excitons	-9112
2∕	-9113
▁ferrite	-9114
▁competition	-9115
▁PBE	-9116
▁vessel	-9117
▁Mat	-9118
Schematic	-9119
7-	-9120
——	-9121
▁VI	-9122
ione	-9123
▁displace	-9124
▁aldehyde	-9125
▁galaxies	-9126
▁capacitor	-9127
▁attract	-9128
▁analyzing	-9129
▁moduli	-9130
alytical	-9131
▁cathodic	-9132
▁regeneration	-9133
▁maintaining	-9134
▁650	-9135
▁batch	-9136
▁centre	-9137
ductive	-9138
tan	-9139
Sample	-9140
▁took	-9141
luding	-9142
▁dilution	-9143
▁poll	-9144
8).	-9145
=∫	-9146
▁theories	-9147
▁trip	-9148
ncy	-9149
▁canonical	-9150
▁formulations	-9151
▁anticip	-9152
▁decor	-9153
Un	-9154
▁intercalation	-9155
▁fourth	-9156
Our	-9157
5.0	-9158
kT	-9159
PPh	-9160
ocat	-9161
▁consecutive	-9162
▁PAA	-9163
▁mention	-9164
–1,	-9165
▁segregation	-9166
▁(11)	-9167
cross	-9168
▁experi	-9169
▁supernat	-9170
.3.3	-9171
uated	-9172
112	-9173
▁disease	-9174
olin	-9175
▁functionals	-9176
illi	-9177
▁irregular	-9178
▁Measurements	-9179
▁accep	-9180
▁lys	-9181
▁insights	-9182
bpy	-9183
▁standards	-9184
▁1.(	-9185
▁2012	-9186
▁mathematical	-9187
▁HM	-9188
▁transc	-9189
▁observable	-9190
▁equipment	-9191
▁corner	-9192
auer	-9193
lines	-9194
apsh	-9195
mg	-9196
▁Technology	-9197
▁Supplementary	-9198
hydrophobic	-9199
▁retain	-9200
▁PPy	-9201
ossible	-9202
kx	-9203
.89	-9204
▁classes	-9205
▁untreated	-9206
▁wafers	-9207
▁versatile	-9208
urable	-9209
▁diethyl	-9210
onium	-9211
3.3	-9212
.74	-9213
onlin	-9214
▁struct	-9215
▁projected	-9216
rhen	-9217
▁flo	-9218
doping	-9219
rs	-9220
▁identity	-9221
▁anomalous	-9222
▁0.03	-9223
°)	-9224
thyl	-9225
▁dispersions	-9226
Further	-9227
⟩,	-9228
tabletable	-9229
▁deproton	-9230
▁dehydrogen	-9231
▁Wiley	-9232
▁Rem	-9233
▁absorber	-9234
elibrary	-9235
onlinelibrary	-9236
▁illumin	-9237
▁2%	-9238
▁wiley	-9239
▁translational	-9240
–50	-9241
ald	-9242
▁%).	-9243
.54	-9244
▁powers	-9245
▁photograph	-9246
▁skele	-9247
SW	-9248
.92	-9249
▁neglect	-9250
▁LO	-9251
xO	-9252
▁Fluorescence	-9253
-15	-9254
▁lost	-9255
.84	-9256
▁passing	-9257
▁blocking	-9258
furan	-9259
12(	-9260
pha	-9261
ipher	-9262
▁AT	-9263
▁Chem	-9264
▁manufacturing	-9265
▁(±	-9266
▁inferred	-9267
▁Properties	-9268
▁DR	-9269
▁inlet	-9270
▁12,	-9271
▁115	-9272
▁zeta	-9273
▁transmitted	-9274
da	-9275
1000	-9276
.(2	-9277
▁optimize	-9278
dehydes	-9279
▁precipitated	-9280
▁cleaned	-9281
▁stric	-9282
▁stoichiometry	-9283
▁packed	-9284
▁prolong	-9285
EK	-9286
▁supercell	-9287
▁·	-9288
After	-9289
▁0.12	-9290
▁semiconducting	-9291
▁76	-9292
▁creating	-9293
azolium	-9294
ki	-9295
▁Tran	-9296
▁enzymatic	-9297
▁HC	-9298
▁59	-9299
mn	-9300
▁pyrid	-9301
cine	-9302
▁WS	-9303
sample	-9304
core	-9305
▁12.	-9306
ocyc	-9307
Sol	-9308
amed	-9309
Hs	-9310
▁spacer	-9311
rozen	-9312
▁photocatalysts	-9313
▁Prop	-9314
yste	-9315
/4	-9316
▁linker	-9317
ML	-9318
▁biomo	-9319
▁EA	-9320
rhenius	-9321
∂2	-9322
▁rods	-9323
▁Tables	-9324
▁donors	-9325
Qu	-9326
▁lowering	-9327
▁triangles	-9328
▁spinel	-9329
▁RS	-9330
▁expensive	-9331
▁Stokes	-9332
▁world	-9333
tization	-9334
till	-9335
▁Curie	-9336
states	-9337
▁Land	-9338
onically	-9339
▁BET	-9340
4)2	-9341
▁attempt	-9342
▁hydroxy	-9343
▁bench	-9344
▁ng	-9345
▁alkyn	-9346
▁broader	-9347
arn	-9348
−)	-9349
uthenium	-9350
▁counterparts	-9351
MMA	-9352
▁PLLA	-9353
▁CCSD	-9354
RGO	-9355
▁Gibbs	-9356
▁completed	-9357
▁optoelectronic	-9358
▁strengthen	-9359
Based	-9360
▁Lag	-9361
▁void	-9362
▁discovered	-9363
▁ramp	-9364
ouin	-9365
zone	-9366
▁Θ	-9367
vas	-9368
2%	-9369
▁5)	-9370
iciency	-9371
▁relationships	-9372
NW	-9373
.).	-9374
▁rhod	-9375
FETs	-9376
19)	-9377
▁easier	-9378
▁tilt	-9379
.79	-9380
▁aug	-9381
functional	-9382
▁Ln	-9383
▁shielding	-9384
tally	-9385
1,2	-9386
▁[1].	-9387
sover	-9388
independent	-9389
▁creep	-9390
illouin	-9391
1,...,	-9392
pc	-9393
▁stic	-9394
▁replace	-9395
▁replacement	-9396
atoms	-9397
▁63	-9398
princip	-9399
tBu	-9400
▁deliver	-9401
=0.5	-9402
centration	-9403
▁imply	-9404
3·	-9405
▁multif	-9406
▁AD	-9407
shifted	-9408
ashion	-9409
://	-9410
abrication	-9411
▁emitter	-9412
dotted	-9413
cel	-9414
▁deformed	-9415
atches	-9416
▁BM	-9417
▁3‐	-9418
▁Sur	-9419
,7	-9420
▁constrained	-9421
▁ZIF	-9422
▁Previous	-9423
▁Overall	-9424
hfill	-9425
)6	-9426
=−1	-9427
▁Reproduced	-9428
▁topography	-9429
▁hybrids	-9430
axy	-9431
▁routes	-9432
▁reconstructed	-9433
HB	-9434
factory	-9435
={	-9436
▁reliability	-9437
TGA	-9438
.73	-9439
DMF	-9440
ued	-9441
7]	-9442
▁quantification	-9443
>0	-9444
learly	-9445
−5	-9446
consistent	-9447
▁voids	-9448
Hg	-9449
ynthetic	-9450
▁eigenvalue	-9451
JH	-9452
▁folding	-9453
AFS	-9454
▁pixels	-9455
▁shoulder	-9456
▁antibacterial	-9457
▁recognized	-9458
▁flowing	-9459
▁MI	-9460
▁indication	-9461
−0.0	-9462
▁HfO	-9463
AgCl	-9464
CPDS	-9465
▁thermodynam	-9466
dW	-9467
▁blank	-9468
OM	-9469
▁QW	-9470
▁basal	-9471
correlation	-9472
▁cascade	-9473
▁baseline	-9474
▁Phys	-9475
CNTs	-9476
▁iodide	-9477
▁selen	-9478
01	-9479
actone	-9480
▁3.4	-9481
▁Typical	-9482
hai	-9483
▁dopants	-9484
▁progressive	-9485
▁117	-9486
▁fashion	-9487
▁preliminary	-9488
▁Solid	-9489
▁predicts	-9490
brom	-9491
▁manufacture	-9492
aceu	-9493
.83	-9494
▁normally	-9495
nov	-9496
▁slur	-9497
▁pinning	-9498
sivity	-9499
▁hydrochlor	-9500
▁satisfied	-9501
▁Gal	-9502
▁drawback	-9503
▁noticeable	-9504
▁intensive	-9505
▁analytic	-9506
metallic	-9507
▁MM	-9508
▁inverted	-9509
▁polymorph	-9510
▁voltamm	-9511
▁750	-9512
▁protonated	-9513
oluene	-9514
▁nanob	-9515
▁88	-9516
IBs	-9517
-4-	-9518
radiative	-9519
▁reasonably	-9520
▁overlapping	-9521
▁schematically	-9522
.62	-9523
▁reproduced	-9524
▁%),	-9525
Nd	-9526
These	-9527
▁photogener	-9528
▁sliding	-9529
▁bead	-9530
aste	-9531
▁heavi	-9532
▁Taking	-9533
RC	-9534
SnO	-9535
ners	-9536
sensitive	-9537
▁administ	-9538
(7)	-9539
▁datab	-9540
–40	-9541
▁genes	-9542
7.	-9543
▁absent	-9544
.),	-9545
tability	-9546
▁explains	-9547
adiene	-9548
▁FC	-9549
Equ	-9550
▁Xe	-9551
▁JEOL	-9552
▁glut	-9553
oxo	-9554
▁BA	-9555
/∂	-9556
)2,	-9557
▁envelop	-9558
▁binder	-9559
▁favored	-9560
▁stacked	-9561
▁validity	-9562
▁Dis	-9563
terminal	-9564
)1	-9565
▁kDa	-9566
aters	-9567
▁108	-9568
▁adjusting	-9569
arency	-9570
▁(+	-9571
pective	-9572
▁freeze	-9573
­[	-9574
idden	-9575
▁waveform	-9576
▁PAN	-9577
▁physically	-9578
▁mechanics	-9579
▁perfectly	-9580
itron	-9581
▁bounded	-9582
riend	-9583
mid	-9584
▁(1.5	-9585
ising	-9586
rocal	-9587
orn	-9588
umb	-9589
tert	-9590
▁polydisper	-9591
▁amplifier	-9592
magnetic	-9593
alcogen	-9594
▁dup	-9595
▁perm	-9596
▁assessment	-9597
netically	-9598
reson	-9599
ette	-9600
06	-9601
Supplementary	-9602
▁crystallites	-9603
activated	-9604
ophysical	-9605
roll	-9606
▁stained	-9607
Although	-9608
ectiveness	-9609
illing	-9610
▁matched	-9611
▁170	-9612
embrane	-9613
molecule	-9614
▁soil	-9615
▁124	-9616
▁probabilities	-9617
▁neither	-9618
▁Brillouin	-9619
fion	-9620
▁conductivities	-9621
▁safety	-9622
▁adopt	-9623
lexes	-9624
nihil	-9625
silyl	-9626
rer	-9627
:1)	-9628
▁Ste	-9629
ativity	-9630
imetallic	-9631
▁approximations	-9632
2)(	-9633
ppm	-9634
▁necessarily	-9635
etri	-9636
▁own	-9637
▁Various	-9638
▁ZnS	-9639
bip	-9640
▁MWCNT	-9641
anne	-9642
▁EP	-9643
▁brown	-9644
ulator	-9645
ulfide	-9646
▁ROS	-9647
LUMO	-9648
▁veh	-9649
▁thoroughly	-9650
3.1	-9651
TD	-9652
inear	-9653
▁graft	-9654
-12	-9655
Tb	-9656
anced	-9657
▁2.(	-9658
head	-9659
10]	-9660
▁RMS	-9661
ESEM	-9662
▁transduc	-9663
(00	-9664
▁notation	-9665
▁accounts	-9666
ematic	-9667
▁diagnostic	-9668
ona	-9669
sur	-9670
▁Far	-9671
▁attraction	-9672
0.11	-9673
▁),	-9674
riched	-9675
_{	-9676
usters	-9677
.2.3	-9678
agnet	-9679
▁roles	-9680
▁dominates	-9681
▁originates	-9682
responding	-9683
▁PDA	-9684
▁spreading	-9685
arc	-9686
▁competitive	-9687
▁fcc	-9688
▁revealing	-9689
▁exer	-9690
terminated	-9691
▁(60	-9692
▁applicability	-9693
▁annihil	-9694
▁outstanding	-9695
,8	-9696
▁complexation	-9697
aniline	-9698
SL	-9699
▁mJ	-9700
▁kernel	-9701
▁unusual	-9702
▁esters	-9703
▁Through	-9704
ras	-9705
hanced	-9706
adec	-9707
▁[%	-9708
iner	-9709
ethanol	-9710
▁structured	-9711
iable	-9712
▁crystallized	-9713
ilane	-9714
▁depicts	-9715
▁nozzle	-9716
utile	-9717
▁fragmentation	-9718
inding	-9719
▁220	-9720
▁affecting	-9721
1:	-9722
.(4	-9723
orene	-9724
▁SN	-9725
▁linewidth	-9726
▁noble	-9727
elow	-9728
▁87	-9729
)2+	-9730
▁vanishes	-9731
ritic	-9732
▁assignment	-9733
▁task	-9734
oluble	-9735
▁starch	-9736
▁107	-9737
emma	-9738
,10	-9739
matrix	-9740
ivered	-9741
}.	-9742
icated	-9743
▁algorithms	-9744
▁pitch	-9745
hood	-9746
▁dos	-9747
Temperature	-9748
domain	-9749
Eg	-9750
▁coexistence	-9751
▁Scanning	-9752
▁Single	-9753
▁omitted	-9754
tin	-9755
NiO	-9756
▁immobilization	-9757
▁scatter	-9758
▁micelle	-9759
▁physic	-9760
▁difficulty	-9761
▁PVC	-9762
▁74	-9763
▁energetically	-9764
ilms	-9765
mim	-9766
mi	-9767
▁wood	-9768
▁classification	-9769
dz	-9770
orthy	-9771
▁Top	-9772
▁interpol	-9773
lon	-9774
hybrid	-9775
%;	-9776
▁percolation	-9777
▁HeLa	-9778
▁considerations	-9779
▁statistically	-9780
▁frameworks	-9781
Res	-9782
▁fairly	-9783
▁bifur	-9784
▁goes	-9785
▁displacements	-9786
LDI	-9787
vac	-9788
onyl	-9789
Using	-9790
▁hour	-9791
▁mbar	-9792
layered	-9793
iliary	-9794
PEO	-9795
-9	-9796
.58	-9797
▁continued	-9798
raph	-9799
▁FET	-9800
razine	-9801
▁architectures	-9802
▁apt	-9803
▁American	-9804
▁transparency	-9805
etting	-9806
–22	-9807
▁bos	-9808
2⟩	-9809
▁merg	-9810
▁preferential	-9811
▁fillers	-9812
▁silicate	-9813
▁(0,	-9814
▁overpotential	-9815
▁Nano	-9816
▁bed	-9817
▁grows	-9818
0.99	-9819
However	-9820
spect	-9821
ada	-9822
▁isomerization	-9823
▁seeded	-9824
▁2011	-9825
averaged	-9826
▁collector	-9827
▁foams	-9828
ectivity	-9829
▁vertically	-9830
ceptors	-9831
▁equally	-9832
ophosph	-9833
▁metam	-9834
▁AP	-9835
len	-9836
optosis	-9837
▁colors	-9838
▁crossover	-9839
▁OD	-9840
zag	-9841
hard	-9842
▁abrup	-9843
asic	-9844
▁Arrhenius	-9845
▁elongated	-9846
▁condensed	-9847
LED	-9848
aceutical	-9849
NIPAM	-9850
ITC	-9851
▁cumul	-9852
▁EB	-9853
▁molten	-9854
▁electrically	-9855
NWs	-9856
▁presumably	-9857
▁entirely	-9858
▁la	-9859
elt	-9860
▁replacing	-9861
▁PR	-9862
▁luminescent	-9863
isomer	-9864
▁transistor	-9865
▁exothermic	-9866
▁jus	-9867
▁unc	-9868
▁guar	-9869
▁10(	-9870
▁preferentially	-9871
urability	-9872
0.14	-9873
▁benefit	-9874
ufficient	-9875
▁rules	-9876
ucleo	-9877
▁enabling	-9878
asma	-9879
∫−	-9880
ips	-9881
▁volumetric	-9882
▁mit	-9883
▁shrinkage	-9884
▁centrifuged	-9885
sts	-9886
▁slit	-9887
idel	-9888
▁Unlike	-9889
▁delivered	-9890
cas	-9891
.53	-9892
▁concerning	-9893
.]	-9894
hanghai	-9895
▁Within	-9896
▁2010	-9897
ectors	-9898
propylene	-9899
OCH	-9900
▁0.04	-9901
PVA	-9902
▁weighted	-9903
iltration	-9904
weight	-9905
▁capacitive	-9906
–1.	-9907
▁peripher	-9908
▁branched	-9909
▁Multi	-9910
180	-9911
▁IT	-9912
▁year	-9913
▁polished	-9914
▁Ear	-9915
▁satell	-9916
▁needle	-9917
tiary	-9918
rides	-9919
▁renew	-9920
aser	-9921
lated	-9922
▁accumulated	-9923
uv	-9924
athe	-9925
otype	-9926
ilent	-9927
▁graphitic	-9928
▁Briefly	-9929
aker	-9930
▁Where	-9931
regn	-9932
▁109	-9933
OMe	-9934
.05	-9935
oma	-9936
drawing	-9937
+12	-9938
ensing	-9939
▁photogenerated	-9940
▁iodine	-9941
▁aux	-9942
▁reductive	-9943
▁CI	-9944
▁ND	-9945
▁resemb	-9946
vision	-9947
▁translation	-9948
▁deeper	-9949
▁Import	-9950
▁dropwise	-9951
▁ni	-9952
ka	-9953
▁string	-9954
▁integer	-9955
▁infer	-9956
▁136	-9957
parallel	-9958
▁classified	-9959
▁reproducibility	-9960
▁rinsed	-9961
ramatic	-9962
idium	-9963
▁contraction	-9964
▁increasingly	-9965
▁unf	-9966
base	-9967
aven	-9968
▁coval	-9969
.57	-9970
▁0.10	-9971
▁comprising	-9972
▁intact	-9973
▁dich	-9974
open	-9975
integ	-9976
▁scientific	-9977
andem	-9978
beck	-9979
Sub	-9980
▁4.1	-9981
▁240	-9982
urate	-9983
▁warm	-9984
cooled	-9985
ested	-9986
▁HB	-9987
▁serves	-9988
▁optics	-9989
going	-9990
aved	-9991
▁shaped	-9992
▁Low	-9993
osilic	-9994
▁DT	-9995
▁supernatant	-9996
2.9	-9997
▁(≈	-9998
800	-9999
▁ta	-10000
▁originating	-10001
0.16	-10002
)=1	-10003
▁properly	-10004
▁stimuli	-10005
▁fullerene	-10006
IX	-10007
gent	-10008
▁undere	-10009
▁sapphire	-10010
▁Chan	-10011
osome	-10012
▁Wang	-10013
▁EIS	-10014
8-	-10015
8.	-10016
0.02	-10017
▁kPa	-10018
▁hyperb	-10019
▁logarithmic	-10020
▁mechanically	-10021
▁variability	-10022
anion	-10023
orbed	-10024
SB	-10025
▁nonzero	-10026
▁differs	-10027
▁tolerance	-10028
▁stretched	-10029
▁119	-10030
▁79	-10031
▁rew	-10032
coating	-10033
▁calorimetry	-10034
dV	-10035
3.4	-10036
–1)	-10037
▁operations	-10038
▁adsorbent	-10039
▁arranged	-10040
▁decomposed	-10041
▁ER	-10042
orientation	-10043
ochond	-10044
▁Lu	-10045
dip	-10046
▁carboxylate	-10047
▁ionized	-10048
IO	-10049
PDMS	-10050
PDA	-10051
circuit	-10052
trivial	-10053
.72	-10054
▁improvements	-10055
3.6	-10056
▁dramatic	-10057
ices	-10058
▁Again	-10059
Appendix	-10060
opic	-10061
CeO	-10062
)5	-10063
▁ferrom	-10064
▁attempts	-10065
CR	-10066
▁3000	-10067
▁pen	-10068
▁manifold	-10069
▁fused	-10070
▁86	-10071
‐5	-10072
probe	-10073
▁frozen	-10074
▁degener	-10075
SU	-10076
−3,	-10077
Oe	-10078
oxides	-10079
▁rend	-10080
aim	-10081
▁Clearly	-10082
▁screen	-10083
▁3.(	-10084
ato	-10085
period	-10086
▁effectiveness	-10087
▁Prof	-10088
▁Obviously	-10089
▁amphiphilic	-10090
▁accomplished	-10091
▁master	-10092
▁thio	-10093
▁mouse	-10094
negative	-10095
](	-10096
infrared	-10097
▁Cross	-10098
▁Organ	-10099
▁spaces	-10100
▁Altern	-10101
(13)	-10102
▁DB	-10103
▁stabilizing	-10104
▁Assuming	-10105
▁connecting	-10106
▁15,	-10107
vable	-10108
▁Theorem	-10109
▁slopes	-10110
▁95%	-10111
+1,	-10112
▁TB	-10113
▁prefer	-10114
gradable	-10115
restim	-10116
2|	-10117
▁Comb	-10118
▁fol	-10119
▁instabilities	-10120
▁114	-10121
rang	-10122
stage	-10123
1;	-10124
▁Recent	-10125
▁protected	-10126
▁(1).	-10127
▁80%	-10128
▁facilitates	-10129
▁CZ	-10130
NB	-10131
▁sulfide	-10132
▁surprising	-10133
▁micron	-10134
iers	-10135
▁exploited	-10136
isp	-10137
▁analogue	-10138
noise	-10139
▁misc	-10140
▁tens	-10141
▁guarant	-10142
▁vacuo	-10143
▁anhydride	-10144
,9	-10145
▁emerging	-10146
▁137	-10147
▁Hydrogen	-10148
ociation	-10149
▁si	-10150
▁filaments	-10151
▁halide	-10152
▁positioned	-10153
▁derivation	-10154
▁bim	-10155
STM	-10156
verestim	-10157
▁say	-10158
▁zones	-10159
▁Reag	-10160
▁circuits	-10161
exchange	-10162
irect	-10163
▁Hig	-10164
2],	-10165
▁stock	-10166
▁thems	-10167
▁1100	-10168
▁drastically	-10169
▁themselves	-10170
▁supplement	-10171
▁11,	-10172
,0	-10173
▁overestim	-10174
org	-10175
▁perspective	-10176
▁CoFe	-10177
sim	-10178
acted	-10179
ulph	-10180
▁gelation	-10181
▁inflamm	-10182
▁helix	-10183
▁lock	-10184
▁eye	-10185
▁finger	-10186
atil	-10187
▁holder	-10188
roid	-10189
harmonic	-10190
opolymers	-10191
.2)	-10192
▁rheological	-10193
▁89	-10194
▁chirality	-10195
day	-10196
conjugated	-10197
ury	-10198
▁1500	-10199
⟩=	-10200
▁detectable	-10201
▁pollut	-10202
acceptor	-10203
Method	-10204
▁TFT	-10205
▁experience	-10206
▁virtual	-10207
▁superposition	-10208
▁pend	-10209
▁neu	-10210
▁going	-10211
▁uniformity	-10212
▁stop	-10213
(∂	-10214
fa	-10215
▁rutile	-10216
▁lamell	-10217
cost	-10218
ford	-10219
agnetism	-10220
▁briefly	-10221
zyme	-10222
▁costs	-10223
▁sac	-10224
▁Ly	-10225
nu	-10226
CoO	-10227
HV	-10228
▁unexp	-10229
0.01	-10230
ignificant	-10231
ubb	-10232
.52	-10233
quist	-10234
▁Carbon	-10235
▁originate	-10236
▁spinning	-10237
agon	-10238
rep	-10239
▁designing	-10240
▁Foundation	-10241
▁combine	-10242
▁underestim	-10243
uthal	-10244
▁tune	-10245
[−	-10246
▁nanospheres	-10247
▁colorless	-10248
0.17	-10249
▁FL	-10250
izable	-10251
▁fulf	-10252
▁Fl	-10253
▁students	-10254
.”	-10255
tot	-10256
−1]	-10257
▁structurally	-10258
ont	-10259
▁principles	-10260
▁repetition	-10261
▁SB	-10262
▁partly	-10263
obut	-10264
atorial	-10265
,12	-10266
utral	-10267
▁aust	-10268
ClO	-10269
olester	-10270
▁planet	-10271
▁adduct	-10272
ondens	-10273
▁tryp	-10274
▁analyte	-10275
▁pock	-10276
▁capping	-10277
▁manganese	-10278
▁exponentially	-10279
gate	-10280
▁organized	-10281
2)2	-10282
▁DF	-10283
rangements	-10284
▁apoptosis	-10285
▁motor	-10286
eli	-10287
ysteine	-10288
▁enter	-10289
▁protonation	-10290
‐4	-10291
ading	-10292
ulus	-10293
heter	-10294
▁Chemistry	-10295
▁electrospun	-10296
gs	-10297
▁nematic	-10298
▁acrylate	-10299
▁tumors	-10300
▁aldehydes	-10301
▁surrounded	-10302
▁appearing	-10303
▁00	-10304
▁bilayers	-10305
▁facet	-10306
▁functionalities	-10307
▁unless	-10308
81	-10309
edim	-10310
xN	-10311
itational	-10312
▁eut	-10313
enedi	-10314
▁8).	-10315
▁zig	-10316
(8)	-10317
MgO	-10318
▁contours	-10319
,11	-10320
▁TP	-10321
▁ellipso	-10322
accharide	-10323
▁tertiary	-10324
▁reciprocal	-10325
oil	-10326
▁©	-10327
▁compares	-10328
ttp	-10329
zu	-10330
▁lung	-10331
(1,	-10332
fine	-10333
▁computing	-10334
▁Cells	-10335
▁electrospinning	-10336
▁compres	-10337
▁history	-10338
umar	-10339
▁0.75	-10340
▁532	-10341
▁ketone	-10342
fig	-10343
coupled	-10344
▁duc	-10345
▁mechanistic	-10346
/6	-10347
▁STO	-10348
▁DLS	-10349
▁steep	-10350
icrobial	-10351
0.03	-10352
▁regi	-10353
▁tang	-10354
rought	-10355
Gener	-10356
play	-10357
▁implanted	-10358
∫0∞	-10359
▁anth	-10360
oom	-10361
5+	-10362
Sigma	-10363
iso	-10364
▁technical	-10365
▁argument	-10366
▁clim	-10367
haps	-10368
▁branching	-10369
tid	-10370
.(2)	-10371
▁isotope	-10372
VE	-10373
.82	-10374
cury	-10375
▁116	-10376
quiring	-10377
versely	-10378
▁Voc	-10379
▁inject	-10380
▁Polym	-10381
▁(13)	-10382
▁(3),	-10383
thiophene	-10384
▁proceeded	-10385
lower	-10386
▁convert	-10387
▁elucidate	-10388
OTf	-10389
▁vial	-10390
▁agglomeration	-10391
fluoromethyl	-10392
▁discharges	-10393
▁deflection	-10394
ophenyl	-10395
ifying	-10396
imals	-10397
▁analysed	-10398
▁counterpart	-10399
centered	-10400
dies	-10401
▁Institute	-10402
area	-10403
▁Prior	-10404
30)	-10405
squares	-10406
▁Exp	-10407
▁accepted	-10408
▁loadings	-10409
▁flakes	-10410
▁(1,	-10411
▁syringe	-10412
0.20	-10413
▁receptors	-10414
Yield	-10415
25)	-10416
achi	-10417
▁elementary	-10418
−3)	-10419
▁mini	-10420
▁ES	-10421
▁wound	-10422
▁((	-10423
▁wavenumber	-10424
▁probed	-10425
KBr	-10426
▁TF	-10427
▁accelerating	-10428
▁altered	-10429
2	-10430
▁Ny	-10431
lyb	-10432
▁nanocl	-10433
▁triggered	-10434
ocyanate	-10435
▁availability	-10436
▁pellet	-10437
▁checked	-10438
▁insufficient	-10439
antom	-10440
▁distinguished	-10441
ancer	-10442
▁TOF	-10443
▁exclusively	-10444
cast	-10445
▁dipoles	-10446
tosecond	-10447
ITO	-10448
eflon	-10449
–21	-10450
▁investigating	-10451
xp	-10452
▁permanent	-10453
oriented	-10454
▁feasibility	-10455
▁assist	-10456
▁prevents	-10457
sted	-10458
▁84	-10459
▁TN	-10460
▁compressed	-10461
((	-10462
▁138	-10463
”,	-10464
▁austen	-10465
1′	-10466
aseous	-10467
▁Ser	-10468
.59	-10469
ostat	-10470
=9	-10471
urning	-10472
▁quaternary	-10473
ster	-10474
acene	-10475
▁imper	-10476
▁elasticity	-10477
▁cycloaddition	-10478
▁Nat	-10479
▁convection	-10480
.61	-10481
▁rout	-10482
▁adequate	-10483
▁KCl	-10484
▁harmon	-10485
.08	-10486
▁solit	-10487
▁medi	-10488
EN	-10489
130	-10490
▁strongest	-10491
▁decl	-10492
PANI	-10493
0.04	-10494
▁inhibited	-10495
CdS	-10496
▁saline	-10497
use	-10498
haus	-10499
▁dehydration	-10500
ligand	-10501
selective	-10502
▁notew	-10503
▁risk	-10504
▁wettability	-10505
▁slurry	-10506
▁doublet	-10507
▁ruthenium	-10508
▁rock	-10509
▁autocl	-10510
▁align	-10511
NbO	-10512
▁noteworthy	-10513
▁Ther	-10514
only	-10515
ru	-10516
▁bulky	-10517
▁solely	-10518
▁Min	-10519
▁begins	-10520
▁moved	-10521
instein	-10522
▁TL	-10523
Cont	-10524
▁Super	-10525
▁SOC	-10526
▁Calculated	-10527
▁LEDs	-10528
▁hardly	-10529
▁notable	-10530
quality	-10531
▁biot	-10532
▁colored	-10533
▁nanofiber	-10534
▁mal	-10535
▁alb	-10536
▁Nafion	-10537
▁TiN	-10538
occup	-10539
▁covering	-10540
▁label	-10541
▁indentation	-10542
Sp	-10543
▁ATP	-10544
▁enlarged	-10545
▁VB	-10546
▁1–3	-10547
▁azimuthal	-10548
GG	-10549
▁pet	-10550
▁glycos	-10551
▁interested	-10552
▁Da	-10553
lating	-10554
isher	-10555
Mw	-10556
,”	-10557
▁disks	-10558
▁windows	-10559
▁phenolic	-10560
)∣	-10561
assed	-10562
optical	-10563
▁(80	-10564
NIR	-10565
onductor	-10566
▁Seebeck	-10567
0.06	-10568
phthal	-10569
‐1‐	-10570
▁male	-10571
cape	-10572
▁triangle	-10573
▁112	-10574
▁specificity	-10575
▁hexa	-10576
.91	-10577
/10	-10578
^{	-10579
]=	-10580
▁Values	-10581
lest	-10582
▁lig	-10583
▁germ	-10584
▁lowered	-10585
PLA	-10586
ker	-10587
LDH	-10588
▁dodec	-10589
▁latex	-10590
▁practically	-10591
▁(12)	-10592
▁heights	-10593
ources	-10594
▁Preparation	-10595
According	-10596
▁lipids	-10597
riendly	-10598
▁tert	-10599
▁shallow	-10600
+.	-10601
▁dropped	-10602
▁signaling	-10603
retion	-10604
oresis	-10605
target	-10606
▁stands	-10607
Time	-10608
_{\	-10609
▁insoluble	-10610
volume	-10611
enn	-10612
ntry	-10613
▁brief	-10614
▁computations	-10615
▁Ts	-10616
▁RI	-10617
positive	-10618
▁134	-10619
box	-10620
▁THE	-10621
▁drawing	-10622
▁benchmark	-10623
3.8	-10624
cyclic	-10625
▁tips	-10626
resentative	-10627
principles	-10628
ocyclic	-10629
▁sedim	-10630
ometallic	-10631
▁reversed	-10632
PET	-10633
▁deter	-10634
(100)	-10635
▁Norm	-10636
▁durability	-10637
▁parab	-10638
▁symmetries	-10639
▁capabilities	-10640
▁scenarios	-10641
▁plants	-10642
oco	-10643
▁sampled	-10644
▁monochrom	-10645
▁antibodies	-10646
▁strained	-10647
▁coalescence	-10648
▁labeling	-10649
]).	-10650
soluble	-10651
esis	-10652
▁equivalents	-10653
▁Typically	-10654
▁imaged	-10655
▁faces	-10656
▁cyclo	-10657
mean	-10658
27,	-10659
▁RC	-10660
about	-10661
▁electrom	-10662
▁divergence	-10663
▁phosphors	-10664
2}	-10665
▁hydrated	-10666
response	-10667
▁6)	-10668
▁Period	-10669
▁snapsh	-10670
▁preparing	-10671
▁database	-10672
▁azide	-10673
▁devoted	-10674
aned	-10675
▁switched	-10676
▁Perkin	-10677
▁deposit	-10678
GM	-10679
▁absorbing	-10680
▁multipl	-10681
▁allyl	-10682
bromo	-10683
▁hydrate	-10684
0.18	-10685
▁alkyne	-10686
▁ranged	-10687
BCO	-10688
▁ultimately	-10689
▁speeds	-10690
▁oscillatory	-10691
▁DW	-10692
▁controllable	-10693
▁aid	-10694
▁[9	-10695
bes	-10696
ski	-10697
▁sacrif	-10698
▁disappeared	-10699
▁Cy	-10700
→0	-10701
▁microchannel	-10702
color	-10703
avor	-10704
ascular	-10705
▁Rb	-10706
KS	-10707
▁Group	-10708
▁viable	-10709
▁patterning	-10710
▁94	-10711
▁gets	-10712
▁Thermo	-10713
igorous	-10714
▁vap	-10715
aug	-10716
▁(14)	-10717
▁begin	-10718
▁degraded	-10719
▁7.2	-10720
▁sonication	-10721
▁BO	-10722
▁tandem	-10723
depend	-10724
▁SrTiO	-10725
▁brit	-10726
▁spher	-10727
▁screw	-10728
▁monolith	-10729
effect	-10730
▁satisfactory	-10731
▁enrich	-10732
AD	-10733
ighter	-10734
6/	-10735
esters	-10736
▁US	-10737
▁magnitudes	-10738
▁detecting	-10739
▁0.99	-10740
heses	-10741
▁Importantly	-10742
▁realization	-10743
aphthalene	-10744
▁synchrotron	-10745
▁fibre	-10746
▁NRs	-10747
ises	-10748
▁decade	-10749
28,	-10750
▁mil	-10751
▁diseases	-10752
▁molyb	-10753
▁gaseous	-10754
▁bit	-10755
▁simplest	-10756
▁DL	-10757
▁Up	-10758
jk	-10759
▁popular	-10760
▁protective	-10761
itachi	-10762
▁nanometer	-10763
▁Gu	-10764
expon	-10765
temp	-10766
andard	-10767
▁mitochond	-10768
▁52	-10769
▁inductive	-10770
▁antioxid	-10771
▁thinner	-10772
▁impregn	-10773
▁carbide	-10774
▁extrusion	-10775
▁manipulation	-10776
▁118	-10777
▁3),	-10778
PAA	-10779
effective	-10780
▁symmetrical	-10781
▁exit	-10782
excited	-10783
▁datas	-10784
▁‐	-10785
×10−1	-10786
▁communication	-10787
3;	-10788
▁named	-10789
▁tris	-10790
apl	-10791
▁lattices	-10792
emulsion	-10793
▁comparisons	-10794
▁poloidal	-10795
.10,	-10796
Par	-10797
▁silk	-10798
▁Mer	-10799
▁nanocrystalline	-10800
,13	-10801
▁relies	-10802
methoxy	-10803
▁deterior	-10804
,17	-10805
▁perovskites	-10806
▁promotes	-10807
amides	-10808
▁exfoliation	-10809
0.95	-10810
▁4000	-10811
▁galvan	-10812
▁vorticity	-10813
exponential	-10814
eptides	-10815
▁extending	-10816
power	-10817
illars	-10818
.06	-10819
▁analytically	-10820
EDS	-10821
renes	-10822
▁5000	-10823
▁expectation	-10824
▁(110)	-10825
▁Ber	-10826
▁thermop	-10827
▁da	-10828
▁apart	-10829
▁glob	-10830
▁SPR	-10831
.07	-10832
ui	-10833
▁creates	-10834
▁escape	-10835
yle	-10836
prot	-10837
mented	-10838
▁training	-10839
▁gravitational	-10840
▁destro	-10841
▁280	-10842
MeOH	-10843
icine	-10844
3.7	-10845
▁MG	-10846
covalent	-10847
▁insets	-10848
owder	-10849
▁(75	-10850
▁subun	-10851
▁pointing	-10852
▁confidence	-10853
▁2017	-10854
▁BaTiO	-10855
▁AO	-10856
excitation	-10857
oxyp	-10858
▁microstructural	-10859
irradi	-10860
▁apparently	-10861
=13	-10862
▁played	-10863
HCO	-10864
▁Electrochemical	-10865
▁capacitors	-10866
trimethyl	-10867
▁CdTe	-10868
▁Chen	-10869
▁doses	-10870
0.08	-10871
▁kW	-10872
▁skeleton	-10873
▁Ray	-10874
▁tric	-10875
▁pig	-10876
▁evaluating	-10877
+/	-10878
▁attain	-10879
140	-10880
▁unsaturated	-10881
scattering	-10882
▁SPE	-10883
▁benefits	-10884
ilbert	-10885
▁contributing	-10886
▁hydrocarbons	-10887
▁unexpected	-10888
▁call	-10889
▁photoan	-10890
··	-10891
▁intersection	-10892
▁MCF	-10893
▁nonlinearity	-10894
▁brack	-10895
▁cust	-10896
ubric	-10897
▁avoided	-10898
▁auxiliary	-10899
rö	-10900
▁emerged	-10901
▁TI	-10902
▁hardening	-10903
▁nond	-10904
▁normalization	-10905
▁(0.4	-10906
▁fatty	-10907
▁quadrupole	-10908
▁bott	-10909
imad	-10910
▁coercivity	-10911
▁MOS	-10912
▁web	-10913
▁competing	-10914
▁dominate	-10915
▁oligomer	-10916
▁Ea	-10917
sif	-10918
▁0.06	-10919
occupied	-10920
Vari	-10921
▁(0.2	-10922
roleum	-10923
▁lear	-10924
▁Comparing	-10925
▁pyram	-10926
▁accounted	-10927
▁tap	-10928
olyl	-10929
5(	-10930
roxim	-10931
▁compensation	-10932
▁40%	-10933
▁CDs	-10934
NM	-10935
−6	-10936
PBE	-10937
▁gall	-10938
▁30,	-10939
STEM	-10940
▁SAXS	-10941
diphenyl	-10942
▁vigorous	-10943
▁claim	-10944
glass	-10945
racellular	-10946
went	-10947
war	-10948
▁covalently	-10949
Thus	-10950
ummary	-10951
▁medical	-10952
▁Dec	-10953
)∕	-10954
▁supercapacitors	-10955
▁vul	-10956
imadzu	-10957
▁record	-10958
▁situations	-10959
functions	-10960
▁acidity	-10961
▁hindered	-10962
▁homopolymer	-10963
▁indexed	-10964
▁dependences	-10965
▁constituent	-10966
ylon	-10967
▁stimulated	-10968
▁tape	-10969
vironment	-10970
▁interconnected	-10971
▁acetyl	-10972
▁massive	-10973
inium	-10974
▁protocols	-10975
▁destabil	-10976
▁outlined	-10977
▁spite	-10978
160	-10979
▁indicator	-10980
▁BD	-10981
▁chemis	-10982
▁Magnetic	-10983
▁hydrophobicity	-10984
▁respond	-10985
▁advances	-10986
▁validated	-10987
▁MV	-10988
▁musc	-10989
hertz	-10990
▁Like	-10991
+∑	-10992
▁incomplete	-10993
▁GS	-10994
▁gelatin	-10995
hydrofuran	-10996
▁[40	-10997
▁benzo	-10998
substrate	-10999
▁buck	-11000
–28	-11001
▁shot	-11002
aromatic	-11003
▁(2.5	-11004
▁recomm	-11005
ycl	-11006
▁Aug	-11007
▁validation	-11008
▁periodicity	-11009
▁antibio	-11010
▁curved	-11011
law	-11012
▁assisted	-11013
▁DCM	-11014
▁acceptable	-11015
▁AgNPs	-11016
,18	-11017
▁TMS	-11018
▁controller	-11019
rapped	-11020
′−	-11021
▁Teflon	-11022
▁potenti	-11023
▁pharmaceutical	-11024
▁NT	-11025
umerical	-11026
▁magnets	-11027
ohedral	-11028
WA	-11029
▁ultrasound	-11030
(2),	-11031
dinger	-11032
▁diffusive	-11033
▁adapted	-11034
];	-11035
ringes	-11036
▁13.	-11037
3[	-11038
rangian	-11039
001	-11040
▁impacts	-11041
Poly	-11042
▁olefin	-11043
▁clarify	-11044
▁zigzag	-11045
▁113	-11046
▁bigger	-11047
▁undes	-11048
▁coils	-11049
▁substances	-11050
▁glove	-11051
radical	-11052
▁upd	-11053
ystems	-11054
▁polarizability	-11055
DOX	-11056
▁vanadium	-11057
RH	-11058
▁broadband	-11059
▁war	-11060
▁acceptors	-11061
▁sputtered	-11062
▁cardi	-11063
LT	-11064
▁Scale	-11065
kz	-11066
▁2.9	-11067
ticles	-11068
▁counting	-11069
▁(15)	-11070
▁cleaning	-11071
▁operate	-11072
▁Pan	-11073
▁vertex	-11074
▁examination	-11075
▁technological	-11076
Dy	-11077
▁73	-11078
▁emis	-11079
▁Nyquist	-11080
acetyl	-11081
▁Landau	-11082
▁reinforce	-11083
Nx	-11084
gn	-11085
▁lot	-11086
+3	-11087
Elmer	-11088
▁stimulation	-11089
.51	-11090
▁disulfide	-11091
▁possibilities	-11092
▁assumes	-11093
acetic	-11094
quinone	-11095
Max	-11096
▁chaotic	-11097
oint	-11098
▁occupation	-11099
▁silicone	-11100
▁brightness	-11101
▁densif	-11102
▁oxidant	-11103
▁STEM	-11104
▁phantom	-11105
PCE	-11106
▁deb	-11107
gels	-11108
▁femtosecond	-11109
,19	-11110
pair	-11111
▁100,	-11112
▁10−2	-11113
▁145	-11114
▁[18].	-11115
apsules	-11116
▁QM	-11117
.71	-11118
▁conjugates	-11119
typ	-11120
▁reflecting	-11121
ovine	-11122
▁death	-11123
▁antimicrobial	-11124
pic	-11125
0001)	-11126
dden	-11127
–27	-11128
PbBr	-11129
▁[16].	-11130
▁designs	-11131
▁mobilities	-11132
amate	-11133
JCPDS	-11134
▁envelope	-11135
ensite	-11136
▁excessive	-11137
▁sudden	-11138
High	-11139
.,,	-11140
▁zeolites	-11141
supported	-11142
.09	-11143
cis	-11144
isen	-11145
MMT	-11146
aylor	-11147
ls	-11148
phenol	-11149
shown	-11150
▁rhomb	-11151
▁matches	-11152
▁spik	-11153
▁mitig	-11154
ret	-11155
▁∼2	-11156
▁Hy	-11157
ushes	-11158
.11,	-11159
▁FTO	-11160
▁equals	-11161
ocalized	-11162
▁monodisper	-11163
▁brush	-11164
▁shed	-11165
isopropyl	-11166
▁firstly	-11167
▁volatile	-11168
▁advantageous	-11169
▁thermost	-11170
EB	-11171
2·	-11172
Hydro	-11173
–29	-11174
▁deal	-11175
advant	-11176
▁outcome	-11177
–23	-11178
▁raised	-11179
▁prolonged	-11180
▁scaven	-11181
oxic	-11182
addle	-11183
▁RhB	-11184
▁chlorine	-11185
▁[20].	-11186
▁lubric	-11187
▁pairing	-11188
ausible	-11189
=0.3	-11190
ael	-11191
▁∼1	-11192
▁UK	-11193
6(	-11194
▁conserved	-11195
▁harmonics	-11196
▁PDI	-11197
▁inelastic	-11198
tility	-11199
▁chose	-11200
▁questions	-11201
▁sometimes	-11202
ocalization	-11203
cho	-11204
▁[17].	-11205
.12,	-11206
▁ration	-11207
▁[19].	-11208
contact	-11209
▁attempted	-11210
10),	-11211
▁gained	-11212
▁meter	-11213
ynyl	-11214
leigh	-11215
tilde	-11216
▁PSCs	-11217
/5	-11218
▁eliminated	-11219
▁generic	-11220
▁corrobor	-11221
▁RHE	-11222
magn	-11223
▁lact	-11224
silica	-11225
zers	-11226
▁(11	-11227
▁pieces	-11228
▁clustering	-11229
▁animal	-11230
ambigu	-11231
▁colon	-11232
▁advance	-11233
▁[15].	-11234
▁thank	-11235
2′	-11236
▁perturbed	-11237
oplas	-11238
▁Parameters	-11239
▁∼5	-11240
emic	-11241
Discussion	-11242
▁bent	-11243
prec	-11244
▁[21].	-11245
▁anticipated	-11246
▁SWCNT	-11247
▁bimetallic	-11248
Cell	-11249
EI	-11250
▁nucleoph	-11251
FWHM	-11252
▁liposomes	-11253
Des	-11254
More	-11255
▁monotonically	-11256
pack	-11257
▁kOe	-11258
entries	-11259
LL	-11260
▁destr	-11261
center	-11262
embers	-11263
▁representations	-11264
▁[14].	-11265
square	-11266
ivalent	-11267
▁aged	-11268
▁Phase	-11269
veld	-11270
ithi	-11271
▁valve	-11272
▁happens	-11273
,20	-11274
▁variants	-11275
Diff	-11276
even	-11277
BSA	-11278
▁comprised	-11279
▁83	-11280
eng	-11281
▁CAS	-11282
▁fold	-11283
=0)	-11284
▁suffer	-11285
▁integra	-11286
.04	-11287
▁0.1,	-11288
▁supercapacitor	-11289
▁defines	-11290
Flu	-11291
growth	-11292
1∕	-11293
Theore	-11294
▁2:	-11295
cepts	-11296
▁0.35	-11297
▁sulfon	-11298
asks	-11299
product	-11300
0]	-11301
–24	-11302
UC	-11303
tifact	-11304
acid	-11305
▁ħ	-11306
▁Brown	-11307
▁360	-11308
kam	-11309
vector	-11310
▁(2).	-11311
▁actuator	-11312
▁IS	-11313
▁miss	-11314
▁leaves	-11315
▁alginate	-11316
fs	-11317
generation	-11318
▁4.8	-11319
▁(0.6	-11320
ubstituted	-11321
▁positron	-11322
3);	-11323
ulties	-11324
▁inducing	-11325
ionization	-11326
▁autoclave	-11327
▁50,	-11328
▁pKa	-11329
▁tom	-11330
Raman	-11331
▁covers	-11332
▁integrity	-11333
▁disadvant	-11334
▁bend	-11335
▁∞	-11336
▁NiCo	-11337
▁Owing	-11338
▁defining	-11339
pulse	-11340
oni	-11341
ats	-11342
▁[13].	-11343
▁rigorous	-11344
▁approaching	-11345
▁helic	-11346
imeth	-11347
▁0.45	-11348
▁hone	-11349
ipolar	-11350
▁list	-11351
▁lift	-11352
▁originally	-11353
––	-11354
▁huge	-11355
125	-11356
▁rup	-11357
▁Ext	-11358
▁magnetron	-11359
actor	-11360
▁SWCNTs	-11361
▁tracking	-11362
▁mimic	-11363
▁compositional	-11364
tun	-11365
▁Increasing	-11366
▁running	-11367
0.19	-11368
▁thermodynamics	-11369
▁Kr	-11370
▁correctly	-11371
▁4.3	-11372
Another	-11373
5/2	-11374
▁routine	-11375
ichael	-11376
▁redshift	-11377
denum	-11378
▁preserved	-11379
elected	-11380
Thermal	-11381
1/3	-11382
▁cathodes	-11383
▁TBA	-11384
nitro	-11385
esian	-11386
22,	-11387
▁photochemical	-11388
▁reads	-11389
▁inertial	-11390
aggreg	-11391
▁GSH	-11392
(001)	-11393
▁ease	-11394
106	-11395
▁preced	-11396
▁predominant	-11397
uals	-11398
▁ultrafast	-11399
⟩⟨	-11400
▁extends	-11401
▁Hc	-11402
▁[22].	-11403
▁custom	-11404
▁unambigu	-11405
▁totally	-11406
onite	-11407
▁gamma	-11408
▁narrower	-11409
orescent	-11410
dried	-11411
▁123	-11412
▁sily	-11413
▁EQE	-11414
▁4.6	-11415
etveld	-11416
▁passed	-11417
▁meta	-11418
▁Optim	-11419
▁ordinary	-11420
Recently	-11421
▁annihilation	-11422
▁ensures	-11423
▁resistances	-11424
▁termination	-11425
▁nine	-11426
‐2,	-11427
▁Lagrangian	-11428
▁consumed	-11429
ji	-11430
acrylamide	-11431
FR	-11432
▁Mass	-11433
▁Jsc	-11434
▁Ha	-11435
situ	-11436
▁compart	-11437
antit	-11438
▁ally	-11439
▁Ep	-11440
▁reconn	-11441
▁summarizes	-11442
,14	-11443
value	-11444
fins	-11445
▁[12].	-11446
▁Ver	-11447
▁emulsions	-11448
▁BFO	-11449
▁fewer	-11450
inic	-11451
▁Electro	-11452
▁unmodified	-11453
50)	-11454
▁[23].	-11455
▁her	-11456
rong	-11457
▁cow	-11458
▁cholester	-11459
.13,	-11460
▁interplay	-11461
▁difficulties	-11462
▁graphs	-11463
▁cracking	-11464
▁community	-11465
▁healing	-11466
▁4.(	-11467
▁artifact	-11468
arbonyl	-11469
▁immune	-11470
▁pm	-11471
▁GR	-11472
▁emitters	-11473
▁brought	-11474
▁[11].	-11475
▁Vol	-11476
umor	-11477
▁133	-11478
▁renewable	-11479
▁41	-11480
arting	-11481
▁aniline	-11482
▁Jan	-11483
▁sie	-11484
▁neighbors	-11485
▁...,	-11486
Surface	-11487
transp	-11488
chrom	-11489
▁transforms	-11490
‐6	-11491
▁uns	-11492
▁MHD	-11493
total	-11494
▁MMA	-11495
▁defini	-11496
.3)	-11497
▁sky	-11498
▁ASupplementary	-11499
▁neural	-11500
105	-11501
2)+	-11502
ocum	-11503
▁Alternatively	-11504
▁Ed	-11505
corrected	-11506
▁breast	-11507
▁utility	-11508
▁[6,	-11509
ogenesis	-11510
▁incorporate	-11511
▁IM	-11512
ogenous	-11513
▁valley	-11514
▁resources	-11515
▁rats	-11516
catalyst	-11517
▁attained	-11518
entally	-11519
▁FS	-11520
▁syntheses	-11521
▁Rf	-11522
olate	-11523
0.22	-11524
▁Material	-11525
(2,	-11526
▁BL	-11527
▁Cyclic	-11528
0.45	-11529
▁months	-11530
olith	-11531
▁sinus	-11532
0.23	-11533
▁[24].	-11534
▁cutting	-11535
▁legend	-11536
▁correlate	-11537
asis	-11538
▁1/2	-11539
GB	-11540
▁fluorinated	-11541
▁voltammograms	-11542
,15	-11543
.15,	-11544
▁(18	-11545
▁degeneracy	-11546
▁pole	-11547
▁hindrance	-11548
▁PEC	-11549
▁facilitated	-11550
▁sccm	-11551
▁safe	-11552
▁wastewater	-11553
▁nut	-11554
class	-11555
.1,2	-11556
=14	-11557
▁nanosheet	-11558
▁rotated	-11559
▁3%	-11560
▁corresponded	-11561
▁inequality	-11562
▁purple	-11563
0.85	-11564
▁(16	-11565
▁scanned	-11566
condens	-11567
closed	-11568
▁RD	-11569
▁prism	-11570
▁stereoc	-11571
atest	-11572
)3]	-11573
racting	-11574
▁counts	-11575
▁analytes	-11576
▁solidification	-11577
▁upstream	-11578
▁metabolic	-11579
▁race	-11580
loading	-11581
▁smart	-11582
ADF	-11583
▁pain	-11584
▁accordingly	-11585
0.24	-11586
▁thread	-11587
▁closure	-11588
▁governing	-11589
▁multifunctional	-11590
▁helpful	-11591
▁strictly	-11592
jet	-11593
▁exfoliated	-11594
▁SAED	-11595
▁impossible	-11596
▁[10].	-11597
▁satisfying	-11598
hannel	-11599
0.50	-11600
▁Ke	-11601
▁[3,	-11602
phosphate	-11603
▁⩽	-11604
BB	-11605
Next	-11606
▁deactivation	-11607
▁served	-11608
–26	-11609
▁silane	-11610
▁recycling	-11611
▁photothermal	-11612
=±	-11613
▁(4),	-11614
ressing	-11615
▁EO	-11616
jects	-11617
▁sharply	-11618
.(3)	-11619
▁spiral	-11620
▁citrate	-11621
ipitation	-11622
▁physicochemical	-11623
▁behave	-11624
TI	-11625
ycomb	-11626
including	-11627
)×	-11628
–200	-11629
▁attribute	-11630
▁Zhang	-11631
AlO	-11632
dep	-11633
▁stacks	-11634
ahertz	-11635
/1	-11636
▁Π	-11637
▁rupture	-11638
aq	-11639
▁190	-11640
▁coming	-11641
▁absorp	-11642
2,3	-11643
▁rigidity	-11644
▁GW	-11645
▁mutual	-11646
▁ketones	-11647
▁library	-11648
10-	-11649
▁tangent	-11650
▁AlGaN	-11651
▁helps	-11652
−3.	-11653
uler	-11654
▁occupy	-11655
▁epitaxy	-11656
artree	-11657
asts	-11658
▁scr	-11659
)→	-11660
▁lasing	-11661
coordinated	-11662
▁superimp	-11663
▁Methods	-11664
0.07	-11665
▁seeds	-11666
anck	-11667
▁Bar	-11668
osphere	-11669
▁poured	-11670
▁EE	-11671
▁nonpolar	-11672
lease	-11673
▁passes	-11674
kamak	-11675
organization	-11676
▁AS	-11677
▁continues	-11678
▁Additional	-11679
fra	-11680
▁completion	-11681
▁originated	-11682
bic	-11683
▁lanthanide	-11684
▁(16)	-11685
▁HNO	-11686
▁Rietveld	-11687
opper	-11688
ift	-11689
ismuth	-11690
▁carrying	-11691
xj	-11692
Val	-11693
(9)	-11694
Conf	-11695
▁Type	-11696
▁degassed	-11697
▁ultimate	-11698
▁modern	-11699
oded	-11700
▁magnetically	-11701
▁BE	-11702
racene	-11703
▁deuterium	-11704
4.6	-11705
▁Bo	-11706
onucleo	-11707
licate	-11708
hexyl	-11709
▁consistency	-11710
rying	-11711
.14,	-11712
ibbon	-11713
▁shifting	-11714
▁persist	-11715
▁Dynamic	-11716
▁smoothly	-11717
▁amplified	-11718
▁WA	-11719
-100	-11720
▁Hu	-11721
cein	-11722
▁FP	-11723
relax	-11724
data	-11725
▁[25].	-11726
▁alloying	-11727
PEDOT	-11728
▁rad	-11729
redic	-11730
▁dihedral	-11731
▁polydispersity	-11732
▁biased	-11733
echnology	-11734
▁constituents	-11735
▁promoting	-11736
0.30	-11737
PDI	-11738
▁oxy	-11739
▁dissolving	-11740
▁Light	-11741
acetate	-11742
▁Remark	-11743
iller	-11744
▁virus	-11745
)=0,	-11746
▁pretreatment	-11747
.81	-11748
▁aggregated	-11749
▁fringes	-11750
▁0.08	-11751
▁terminated	-11752
▁extrapolation	-11753
▁fabricating	-11754
▁reacting	-11755
▁continue	-11756
▁hair	-11757
▁incoming	-11758
▁bridges	-11759
▁modules	-11760
▁environmentally	-11761
heating	-11762
▁[9].	-11763
▁analogy	-11764
▁consistently	-11765
oric	-11766
▁Mc	-11767
▁econom	-11768
▁reacts	-11769
▁grids	-11770
▁filtering	-11771
products	-11772
▁Rayleigh	-11773
HOMO	-11774
▁animals	-11775
0).	-11776
▁minimized	-11777
▁pumped	-11778
▁markers	-11779
▁eutectic	-11780
▁discussions	-11781
orrelation	-11782
Proof	-11783
otyp	-11784
▁requiring	-11785
pyrrol	-11786
▁paste	-11787
▁70%	-11788
Fc	-11789
▁BiO	-11790
▁Kn	-11791
▁backward	-11792
▁SAM	-11793
▁markedly	-11794
▁disappears	-11795
▁ignored	-11796
▁0.13	-11797
▁[26].	-11798
▁harvesting	-11799
osol	-11800
tia	-11801
▁nonequilibrium	-11802
iff	-11803
▁hyperfine	-11804
9.	-11805
▁potent	-11806
separ	-11807
▁diges	-11808
▁siRNA	-11809
▁oscillating	-11810
▁1,2-	-11811
▁flexural	-11812
▁Act	-11813
withdrawing	-11814
▁truncated	-11815
rors	-11816
29,	-11817
▁Elemental	-11818
▁extru	-11819
▁members	-11820
iPr	-11821
▁xen	-11822
ocytes	-11823
accharides	-11824
ollen	-11825
dichlor	-11826
enhanced	-11827
▁separator	-11828
∞(	-11829
▁Hel	-11830
▁homogeneity	-11831
▁Lemma	-11832
▁His	-11833
▁missing	-11834
▁orbits	-11835
▁cumulative	-11836
ilt	-11837
▁landsc	-11838
dT	-11839
▁endothermic	-11840
fection	-11841
xn	-11842
▁carbo	-11843
▁preventing	-11844
erential	-11845
▁linkage	-11846
▁cylinders	-11847
▁macrop	-11848
▁fibrils	-11849
▁fuels	-11850
7‐	-11851
icals	-11852
▁[5,	-11853
▁blending	-11854
▁dehydrogenation	-11855
PW	-11856
▁treating	-11857
Ind	-11858
▁comprom	-11859
▁boiling	-11860
▁underwent	-11861
–60	-11862
′+	-11863
▁8.5	-11864
▁unclear	-11865
▁sugar	-11866
sibly	-11867
▁disappearance	-11868
▁formulas	-11869
▁nanoporous	-11870
TZ	-11871
▁ferroc	-11872
▁Whereas	-11873
▁outlet	-11874
▁RB	-11875
▁ON	-11876
Sch	-11877
rödinger	-11878
▁∫	-11879
▁biomolecules	-11880
▁exciting	-11881
0.35	-11882
LM	-11883
rug	-11884
▁unreacted	-11885
▁139	-11886
EE	-11887
▁Representative	-11888
101	-11889
**	-11890
opro	-11891
▁850	-11892
▁symbol	-11893
▁accelerate	-11894
▁cure	-11895
▁conformers	-11896
ctive	-11897
▁trivial	-11898
▁validate	-11899
▁Sw	-11900
vices	-11901
▁modifying	-11902
ohn	-11903
▁InGaN	-11904
dic	-11905
▁IN	-11906
▁sandwich	-11907
▁BS	-11908
Teller	-11909
tier	-11910
sets	-11911
▁histogram	-11912
▁InP	-11913
odynamic	-11914
▁[8].	-11915
Two	-11916
del	-11917
∫−∞	-11918
▁bovine	-11919
station	-11920
▁pressed	-11921
CHO	-11922
▁doubly	-11923
0.27	-11924
▁General	-11925
First	-11926
▁lying	-11927
olecular	-11928
mium	-11929
olip	-11930
▁home	-11931
▁substituting	-11932
▁differently	-11933
alumin	-11934
700	-11935
▁corona	-11936
▁Firstly	-11937
stabil	-11938
ranched	-11939
▁unfol	-11940
▁operational	-11941
▁satellite	-11942
▁cowork	-11943
▁coincides	-11944
▁mercury	-11945
▁concern	-11946
▁MIL	-11947
▁[4,	-11948
▁anodes	-11949
▁−5	-11950
3)3	-11951
▁93	-11952
XD	-11953
▁inspection	-11954
▁plausible	-11955
▁bifurcation	-11956
▁unoccupied	-11957
▁logic	-11958
▁belonging	-11959
1],	-11960
4.2	-11961
–300	-11962
▁adducts	-11963
.3.4	-11964
oside	-11965
▁hydrophilicity	-11966
▁photoinduced	-11967
afel	-11968
▁formaldehyde	-11969
hm	-11970
Eff	-11971
2+(	-11972
▁median	-11973
▁nanometers	-11974
▁Gel	-11975
sheet	-11976
▁imine	-11977
▁propagate	-11978
ATR	-11979
123	-11980
curve	-11981
ethane	-11982
struc	-11983
silane	-11984
▁solubil	-11985
′.	-11986
▁transducer	-11987
▁oscillators	-11988
▁eluent	-11989
awa	-11990
▁230	-11991
▁patient	-11992
▁14,	-11993
.2.4	-11994
▁week	-11995
4.8	-11996
▁thiophene	-11997
▁atomistic	-11998
oresistance	-11999
▁Image	-12000
ana	-12001
▁burst	-12002
▁Photo	-12003
▁incon	-12004
▁seconds	-12005
▁equilibration	-12006
hept	-12007
▁25%	-12008
DR	-12009
▁minimization	-12010
▁0.16	-12011
▁320	-12012
▁meso	-12013
▁MALDI	-12014
▁vanish	-12015
▁chromophore	-12016
)=2	-12017
▁rank	-12018
▁shut	-12019
▁[27].	-12020
▁cup	-12021
▁amin	-12022
monomer	-12023
▁0.11	-12024
tis	-12025
▁clock	-12026
▁PTFE	-12027
▁11(	-12028
▁unlikely	-12029
▁martensite	-12030
▁0.20	-12031
GR	-12032
▁60%	-12033
▁abrupt	-12034
▁[2,	-12035
fluence	-12036
▁Lapl	-12037
▁coworkers	-12038
gi	-12039
speed	-12040
▁variational	-12041
▁Ig	-12042
▁separations	-12043
▁visualized	-12044
ughen	-12045
▁famil	-12046
▁survival	-12047
FO	-12048
etheless	-12049
hesive	-12050
▁extracellular	-12051
▁cot	-12052
▁null	-12053
▁Fc	-12054
▁perhaps	-12055
▁frames	-12056
▁additionally	-12057
=15	-12058
▁15%	-12059
aku	-12060
▁VG	-12061
▁13,	-12062
first	-12063
esh	-12064
▁stepwise	-12065
▁RES	-12066
▁arsen	-12067
rete	-12068
ICP	-12069
▁twisted	-12070
▁phthal	-12071
▁slu	-12072
▁polyurethane	-12073
▁amyl	-12074
CNPs	-12075
▁circulation	-12076
▁Mark	-12077
ifer	-12078
,(1)	-12079
▁inhibitory	-12080
▁galaxy	-12081
Electrochemical	-12082
▁PLGA	-12083
rimin	-12084
▁CTAB	-12085
▁sidewall	-12086
0.33	-12087
▁dendritic	-12088
▁answ	-12089
othel	-12090
▁Natural	-12091
ney	-12092
▁rely	-12093
▁Lorentzian	-12094
▁heterogeneity	-12095
▁reproducible	-12096
limited	-12097
03	-12098
dipole	-12099
▁Lie	-12100
▁walk	-12101
▁metabolism	-12102
▁exponents	-12103
▁enrichment	-12104
21,	-12105
amond	-12106
Model	-12107
▁kink	-12108
stration	-12109
▁LB	-12110
▁live	-12111
0.5,	-12112
▁Details	-12113
abs	-12114
▁tokamak	-12115
▁tilted	-12116
▁conductor	-12117
HG	-12118
ushed	-12119
gin	-12120
HI	-12121
▁financ	-12122
▁Conversely	-12123
acting	-12124
▁implications	-12125
▁MRI	-12126
Pe	-12127
▁(“	-12128
▁illuminated	-12129
▁0.14	-12130
▁9).	-12131
▁extracts	-12132
▁letter	-12133
efficient	-12134
”.	-12135
▁[7].	-12136
▁LT	-12137
0.28	-12138
▁Silic	-12139
▁14.	-12140
▁optimizing	-12141
4.7	-12142
▁twist	-12143
▁Exc	-12144
MWCNT	-12145
▁chalcogen	-12146
second	-12147
▁topic	-12148
▁acyl	-12149
▁nearby	-12150
▁Experiments	-12151
▁TT	-12152
ventional	-12153
▁freshly	-12154
▁introduces	-12155
▁utilize	-12156
▁choosing	-12157
▁brittle	-12158
▁unitary	-12159
▁4.4	-12160
irection	-12161
▁honeycomb	-12162
▁probing	-12163
▁heart	-12164
▁Transmission	-12165
▁engineered	-12166
ZnS	-12167
▁eng	-12168
▁ds	-12169
aday	-12170
atistical	-12171
.16,	-12172
▁LDA	-12173
walled	-12174
omycin	-12175
▁[6].	-12176
,16	-12177
(10)	-12178
.5%	-12179
RAM	-12180
bulk	-12181
▁modelling	-12182
▁macroph	-12183
▁die	-12184
(6	-12185
ustration	-12186
▁preference	-12187
allyl	-12188
]­	-12189
▁formulated	-12190
▁Ms	-12191
▁probable	-12192
▁freezing	-12193
▁260	-12194
▁TMA	-12195
···	-12196
▁filt	-12197
(1),	-12198
▁Bio	-12199
▁rolling	-12200
rope	-12201
▁RAFT	-12202
▁Spectra	-12203
▁characterizing	-12204
versity	-12205
23,	-12206
30,	-12207
▁rid	-12208
▁polysulf	-12209
▁concerns	-12210
entate	-12211
uple	-12212
ulates	-12213
0|	-12214
▁compatibil	-12215
olarization	-12216
▁balanced	-12217
▁implicit	-12218
oding	-12219
▁comparative	-12220
▁arguments	-12221
▁FESEM	-12222
▁auto	-12223
▁Absorption	-12224
▁belongs	-12225
▁aure	-12226
script	-12227
▁0.05,	-12228
▁Tris	-12229
▁summarize	-12230
earth	-12231
DL	-12232
kyo	-12233
cs	-12234
1/2,	-12235
▁standing	-12236
▁[28].	-12237
▁SEC	-12238
▁conical	-12239
▁AL	-12240
▁Small	-12241
▁mesopores	-12242
▁sulph	-12243
ferro	-12244
▁superlattice	-12245
▁robustness	-12246
▁bra	-12247
opening	-12248
2000	-12249
▁anticancer	-12250
izers	-12251
pur	-12252
▁Schrödinger	-12253
▁alkynes	-12254
variant	-12255
▁organization	-12256
▁Crystall	-12257
▁mind	-12258
long	-12259
.03	-12260
otron	-12261
neigh	-12262
PBS	-12263
stant	-12264
stac	-12265
NL	-12266
inase	-12267
lattices	-12268
CAL	-12269
▁conformal	-12270
=1.	-12271
tm	-12272
diameter	-12273
05	-12274
▁upward	-12275
▁Metal	-12276
▁subset	-12277
▁[5].	-12278
sensi	-12279
ylamine	-12280
▁observing	-12281
▁parabolic	-12282
location	-12283
▁din	-12284
▁sputter	-12285
▁Agilent	-12286
imidazole	-12287
▁EtOH	-12288
▁0°	-12289
.4)	-12290
donating	-12291
▁connectivity	-12292
▁strands	-12293
TFSI	-12294
▁instruments	-12295
isk	-12296
▁loads	-12297
atility	-12298
▁Selected	-12299
▁GGA	-12300
witter	-12301
▁opens	-12302
▁relevance	-12303
▁diblock	-12304
▁coag	-12305
▁austenite	-12306
utational	-12307
iode	-12308
strand	-12309
endence	-12310
▁multilayers	-12311
dark	-12312
perturb	-12313
▁shadow	-12314
1|	-12315
▁/	-12316
▁tag	-12317
▁aluminium	-12318
DB	-12319
▁TPA	-12320
▁continuity	-12321
▁Obser	-12322
▁5‐	-12323
24,	-12324
▁elabor	-12325
▁definite	-12326
rinting	-12327
▁views	-12328
▁actuation	-12329
▁Cent	-12330
▁poorly	-12331
▁reconnection	-12332
▁expanding	-12333
▁aureus	-12334
model	-12335
▁bioactive	-12336
Furthermore	-12337
cyclohex	-12338
▁Ion	-12339
▁(70	-12340
urtz	-12341
comes	-12342
▁[7,	-12343
ochromatic	-12344
▁[4].	-12345
grained	-12346
▁failed	-12347
▁delocalized	-12348
cession	-12349
▁7)	-12350
▁share	-12351
Similar	-12352
▁Gl	-12353
plate	-12354
▁210	-12355
OSS	-12356
▁6.8	-12357
▁UC	-12358
1.00	-12359
ogens	-12360
cooling	-12361
▁monomeric	-12362
▁7.6	-12363
▁PMA	-12364
ideo	-12365
▁conversions	-12366
▁minority	-12367
▁platelets	-12368
▁biref	-12369
illin	-12370
▁collisional	-12371
▁lag	-12372
▁sorb	-12373
▁NB	-12374
0.26	-12375
rometer	-12376
VTZ	-12377
▁POM	-12378
▁%;	-12379
▁FO	-12380
▁formic	-12381
▁[3].	-12382
▁learning	-12383
▁electricity	-12384
▁cyclohexane	-12385
▁compli	-12386
▁birefring	-12387
▁[2].	-12388
▁colloids	-12389
AlN	-12390
▁electrophilic	-12391
▁SG	-12392
116	-12393
▁420	-12394
▁octahedra	-12395
udop	-12396
▁intrigu	-12397
electrochemical	-12398
5/	-12399
▁alkenes	-12400
reduc	-12401
‐3‐	-12402
▁motifs	-12403
▁rising	-12404
KE	-12405
▁docum	-12406
acac	-12407
CST	-12408
▁Tafel	-12409
structures	-12410
▁resolve	-12411
▁0.07	-12412
)≡	-12413
▁besides	-12414
ZSM	-12415
▁62	-12416
▁rotor	-12417
PVP	-12418
bridge	-12419
4.1	-12420
▁4%	-12421
Micro	-12422
▁regulation	-12423
▁destroy	-12424
▁HDPE	-12425
▁Crystal	-12426
▁molybdenum	-12427
▁applies	-12428
Now	-12429
▁ozone	-12430
▁FRET	-12431
▁10°	-12432
▁fed	-12433
tizer	-12434
▁∼3	-12435
▁reversibility	-12436
trie	-12437
▁opportunity	-12438
▁capped	-12439
▁declare	-12440
27)	-12441
Inter	-12442
127	-12443
loop	-12444
▁Structural	-12445
▁emphasize	-12446
ortions	-12447
▁transportation	-12448
etal	-12449
5.5	-12450
▁iteration	-12451
▁photoemission	-12452
▁PCR	-12453
▁obstac	-12454
▁ble	-12455
▁365	-12456
▁breaks	-12457
▁[29].	-12458
▁ArH	-12459
osilicate	-12460
2+.	-12461
▁diversity	-12462
▁electroneg	-12463
▁ellips	-12464
▁summation	-12465
MPa	-12466
▁ic	-12467
din	-12468
▁Tri	-12469
▁Lo	-12470
▁PW	-12471
PVDF	-12472
structions	-12473
radic	-12474
=|	-12475
▁dependency	-12476
▁0.22	-12477
▁distill	-12478
▁sk	-12479
▁Quantum	-12480
▁http	-12481
▁Complex	-12482
▁Ma	-12483
protein	-12484
▁0.000	-12485
.17,	-12486
▁soliton	-12487
▁MTT	-12488
▁thanks	-12489
]2	-12490
▁directional	-12491
3+/	-12492
Rel	-12493
▁Though	-12494
▁favour	-12495
▁Vis	-12496
▁patch	-12497
lassical	-12498
▁computationally	-12499
▁deformations	-12500
generated	-12501
▁conjunction	-12502
▁nanoribbon	-12503
ularly	-12504
▁hundreds	-12505
▁INTRODUCTION	-12506
▁diaz	-12507
▁manage	-12508
▁visualization	-12509
▁polys	-12510
scan	-12511
▁discrimin	-12512
ams	-12513
wide	-12514
▁Auger	-12515
case	-12516
▁Mar	-12517
▁simpler	-12518
smo	-12519
▁possessing	-12520
▁Def	-12521
▁timescale	-12522
▁modest	-12523
▁cages	-12524
tw	-12525
▁arms	-12526
▁Faraday	-12527
▁ohmic	-12528
▁pyrene	-12529
▁KS	-12530
crystall	-12531
▁densification	-12532
othi	-12533
CuO	-12534
▁accommodate	-12535
▁LL	-12536
tail	-12537
.02	-12538
▁dx	-12539
▁supposed	-12540
▁What	-12541
▁Studies	-12542
+-	-12543
transition	-12544
ISA	-12545
ura	-12546
▁coincide	-12547
▁neurons	-12548
▁muscle	-12549
4.3	-12550
Ep	-12551
▁Hitachi	-12552
phosphine	-12553
▁photosensi	-12554
▁developments	-12555
▁mRNA	-12556
▁1,4‐	-12557
▁parametric	-12558
▁bipolar	-12559
▁administration	-12560
QC	-12561
iy	-12562
Bz	-12563
▁excitonic	-12564
▁slide	-12565
4.4	-12566
▁MX	-12567
imine	-12568
▁mTorr	-12569
▁signs	-12570
▁chromium	-12571
▁Technologies	-12572
▁enriched	-12573
▁Laboratory	-12574
én	-12575
VS	-12576
▁tel	-12577
▁supplemented	-12578
peptide	-12579
Pi	-12580
GCE	-12581
gal	-12582
▁Variation	-12583
▁bundle	-12584
▁−2	-12585
urf	-12586
▁embedding	-12587
▁contradic	-12588
▁(17)	-12589
▁KBr	-12590
▁nanoclusters	-12591
QW	-12592
▁Taylor	-12593
▁labels	-12594
Dep	-12595
rij	-12596
▁GF	-12597
11+	-12598
GGA	-12599
osine	-12600
kB	-12601
HH	-12602
▁collim	-12603
carboxyl	-12604
utation	-12605
▁[8,	-12606
beit	-12607
Cy	-12608
▁wake	-12609
▁restriction	-12610
Os	-12611
▁pick	-12612
che	-12613
absorption	-12614
▁Program	-12615
▁convex	-12616
▁Radi	-12617
TB	-12618
▁evolved	-12619
▁[9,	-12620
ANES	-12621
▁biochemical	-12622
0.29	-12623
▁broadened	-12624
▁concepts	-12625
Imp	-12626
▁emergence	-12627
▁Mac	-12628
▁rms	-12629
▁mp	-12630
▁screened	-12631
40)	-12632
▁breath	-12633
▁Rs	-12634
▁APT	-12635
cyan	-12636
▁minimizing	-12637
▁pollutants	-12638
PCs	-12639
▁1,4-	-12640
12+	-12641
oxys	-12642
450	-12643
▁polyester	-12644
▁acrylic	-12645
▁separating	-12646
▁aimed	-12647
▁installed	-12648
▁homogeneously	-12649
▁1–	-12650
rest	-12651
▁forcing	-12652
quad	-12653
ixed	-12654
▁Mach	-12655
▁Peak	-12656
▁wherein	-12657
eman	-12658
▁folded	-12659
(|	-12660
igaku	-12661
▁inactive	-12662
▁SnS	-12663
two	-12664
2+2	-12665
▁cooperative	-12666
=16	-12667
ithium	-12668
▁pseudop	-12669
▁(2.0	-12670
▁PN	-12671
▁vit	-12672
Reference	-12673
▁lib	-12674
▁polypropylene	-12675
without	-12676
▁sustainable	-12677
▁variant	-12678
▁magnetism	-12679
▁becoming	-12680
▁accounting	-12681
sour	-12682
▁halides	-12683
▁Tre	-12684
▁vital	-12685
▁tell	-12686
▁metabolites	-12687
▁Initially	-12688
▁concerned	-12689
▁SEI	-12690
Reaction	-12691
▁antioxidant	-12692
antitative	-12693
▁[30].	-12694
28)	-12695
▁rotations	-12696
▁heavily	-12697
ighed	-12698
▁dead	-12699
▁exceeding	-12700
▁overview	-12701
EIS	-12702
]+,	-12703
▁HI	-12704
▁grin	-12705
-3,	-12706
▁spac	-12707
uj	-12708
ymmetrical	-12709
▁holding	-12710
▁identifying	-12711
▁4),	-12712
▁waveguides	-12713
oster	-12714
▁constitute	-12715
ille	-12716
Therefore	-12717
▁magnified	-12718
graf	-12719
eft	-12720
.18,	-12721
▁OA	-12722
▁quasip	-12723
▁interacts	-12724
▁alkene	-12725
atories	-12726
kinetic	-12727
▁spiro	-12728
▁columnar	-12729
▁nonuniform	-12730
▁DD	-12731
▁binds	-12732
001]	-12733
▁(2.1	-12734
▁saddle	-12735
▁none	-12736
vier	-12737
▁retrie	-12738
arene	-12739
bands	-12740
▁SMA	-12741
▁linearity	-12742
▁chromophores	-12743
▁interferometer	-12744
▁iterative	-12745
▁sinusoidal	-12746
urtzite	-12747
ulsif	-12748
▁isoprop	-12749
▁giant	-12750
▁examin	-12751
▁mutant	-12752
▁{\	-12753
▁nonlocal	-12754
▁resistant	-12755
‐8	-12756
▁diagnostics	-12757
▁imidazole	-12758
▁proves	-12759
(2‐	-12760
fil	-12761
▁tightly	-12762
unch	-12763
▁ESR	-12764
▁CMC	-12765
df	-12766
drug	-12767
▁quench	-12768
0.09	-12769
CCSD	-12770
▁3.9	-12771
▁Fisher	-12772
▁rhombohedral	-12773
/20	-12774
▁compensate	-12775
ogether	-12776
▁phosphine	-12777
umbers	-12778
▁sustained	-12779
therm	-12780
▁capsule	-12781
▁downward	-12782
TH	-12783
>0,	-12784
▁piece	-12785
▁1600	-12786
dp	-12787
:1,	-12788
intill	-12789
4],	-12790
vapor	-12791
TABLE	-12792
▁actin	-12793
▁erg	-12794
▁LM	-12795
▁eigenstates	-12796
▁depths	-12797
▁Consider	-12798
▁possessed	-12799
chip	-12800
PPy	-12801
▁(5),	-12802
▁detachment	-12803
▁rises	-12804
nsted	-12805
▁divid	-12806
dig	-12807
▁remote	-12808
▁electrolysis	-12809
).3	-12810
▁certainly	-12811
▁colloid	-12812
▁pp	-12813
▁45°	-12814
▁Standard	-12815
▁demonstration	-12816
▁60°	-12817
▁NV	-12818
▁falls	-12819
EDX	-12820
▁promise	-12821
initiator	-12822
uss	-12823
adiabatic	-12824
▁Formation	-12825
▁sized	-12826
▁SWNTs	-12827
zi	-12828
▁bomb	-12829
▁pharmac	-12830
▁transcription	-12831
While	-12832
▁51	-12833
▁dendrimers	-12834
▁NaBH	-12835
▁nA	-12836
:2	-12837
▁blocked	-12838
▁arrangements	-12839
▁granular	-12840
param	-12841
▁cleaved	-12842
saturation	-12843
▁Euler	-12844
▁distortions	-12845
▁Hep	-12846
▁nontrivial	-12847
▁[10,	-12848
▁lone	-12849
▁loose	-12850
▁decorated	-12851
▁lamellae	-12852
▁linkages	-12853
issociation	-12854
points	-12855
▁Without	-12856
upper	-12857
▁codes	-12858
▁NG	-12859
▁Higher	-12860
▁VOC	-12861
▁wrink	-12862
▁Av	-12863
BG	-12864
▁0.18	-12865
▁(19	-12866
–400	-12867
aa	-12868
ceived	-12869
▁homo	-12870
▁averages	-12871
life	-12872
▁stabilities	-12873
▁reinforced	-12874
▁steam	-12875
▁brushes	-12876
▁parametri	-12877
▁clamp	-12878
otherapy	-12879
▁1,2‐	-12880
omit	-12881
proton	-12882
▁resonators	-12883
atop	-12884
▁highlights	-12885
Bn	-12886
▁tubular	-12887
allo	-12888
▁switches	-12889
othelial	-12890
▁dichro	-12891
▁biodegradable	-12892
▁appendix	-12893
▁bismuth	-12894
▁manifest	-12895
bipy	-12896
▁SHG	-12897
▁suited	-12898
3=	-12899
▁photore	-12900
▁5.2	-12901
▁wild	-12902
oresist	-12903
▁aden	-12904
normalized	-12905
▁exhaus	-12906
▁healthy	-12907
▁induct	-12908
▁promp	-12909
▁ignition	-12910
▁grey	-12911
made	-12912
▁trial	-12913
▁Cart	-12914
▁fibrous	-12915
▁repeating	-12916
▁interatomic	-12917
.19,	-12918
uitive	-12919
ancing	-12920
ho	-12921
anone	-12922
▁occupancy	-12923
▁0.17	-12924
▁polyelectrolyte	-12925
MWCNTs	-12926
untered	-12927
▁Mechan	-12928
▁emer	-12929
▁PHB	-12930
optim	-12931
empl	-12932
▁cotton	-12933
▁Periodicals	-12934
EMS	-12935
semic	-12936
6.5	-12937
=2,	-12938
▁entrance	-12939
×10−3	-12940
▁intriguing	-12941
▁ECM	-12942
▁270	-12943
▁nucleic	-12944
×10−4	-12945
▁synchronization	-12946
condensation	-12947
elting	-12948
▁0.1%	-12949
▁pool	-12950
▁delayed	-12951
▁encountered	-12952
▁7.8	-12953
▁•	-12954
,(2)	-12955
structured	-12956
onuclear	-12957
▁−20	-12958
▁Reagent	-12959
▁MAS	-12960
▁comparatively	-12961
▁mN	-12962
▁[11,	-12963
▁inversely	-12964
▁SPS	-12965
▁sector	-12966
▁polyimide	-12967
▁blended	-12968
0.98	-12969
▁initiate	-12970
.•	-12971
▁carbene	-12972
▁trimethyl	-12973
sphere	-12974
▁behaves	-12975
▁climate	-12976
104	-12977
▁hinder	-12978
▁molding	-12979
.1–3	-12980
▁zirconia	-12981
▁Above	-12982
▁leaf	-12983
cid	-12984
▁intercalated	-12985
expensive	-12986
▁180°	-12987
▁allylic	-12988
olytic	-12989
ydberg	-12990
▁individually	-12991
.6.	-12992
▁CNF	-12993
PN	-12994
2)]	-12995
▁Hilbert	-12996
▁Liu	-12997
▁Atomic	-12998
UT	-12999
0.40	-13000
▁Depending	-13001
▁pentacene	-13002
▁macromolecules	-13003
UR	-13004
▁[31].	-13005
▁Total	-13006
▁favors	-13007
▁Ec	-13008
▁settings	-13009
toluene	-13010
rice	-13011
Conflicts	-13012
copic	-13013
▁10−7	-13014
anta	-13015
idirection	-13016
▁marker	-13017
▁decline	-13018
sch	-13019
▁writing	-13020
oter	-13021
▁dm	-13022
▁rejection	-13023
▁ped	-13024
▁ec	-13025
▁(0.8	-13026
rd	-13027
▁(002)	-13028
▁predicting	-13029
▁DH	-13030
electronics	-13031
▁tailored	-13032
▁NiFe	-13033
▁paras	-13034
▁fibres	-13035
▁oligonucleo	-13036
▁inertia	-13037
▁Michael	-13038
▁evolve	-13039
yellow	-13040
arium	-13041
LDPE	-13042
▁Cys	-13043
angling	-13044
▁Entry	-13045
▁tent	-13046
▁vdW	-13047
adder	-13048
deficient	-13049
▁Sun	-13050
4·	-13051
respective	-13052
,(2	-13053
Nan	-13054
▁(199	-13055
AF	-13056
▁hep	-13057
▁conflicts	-13058
▁rarely	-13059
”)	-13060
▁ATRP	-13061
▁175	-13062
▁25,	-13063
▁dict	-13064
YAG	-13065
.(5	-13066
▁16,	-13067
▁(3).	-13068
▁Partic	-13069
kt	-13070
▁subtle	-13071
‐,	-13072
▁inev	-13073
▁titania	-13074
▁4.7	-13075
▁Ra	-13076
▁progressively	-13077
NSs	-13078
115	-13079
▁brine	-13080
▁ABS	-13081
–80	-13082
▁ith	-13083
erately	-13084
▁Below	-13085
▁LP	-13086
denoted	-13087
▁Indust	-13088
▁(150	-13089
▁laws	-13090
▁heater	-13091
▁equilibrated	-13092
▁Brownian	-13093
▁floating	-13094
▁10-	-13095
▁EtOAc	-13096
ophenone	-13097
▁Earth	-13098
▁entangled	-13099
eculi	-13100
Trans	-13101
xS	-13102
▁293	-13103
▁constructing	-13104
▁propylene	-13105
formamide	-13106
▁MNPs	-13107
ilayer	-13108
▁soph	-13109
▁concomit	-13110
▁residence	-13111
ula	-13112
oratories	-13113
(10	-13114
▁oxidizing	-13115
▁Relative	-13116
▁Design	-13117
mh	-13118
▁[12,	-13119
▁Nanop	-13120
▁freely	-13121
▁flav	-13122
▁boost	-13123
▁yt	-13124
rally	-13125
▁magnetite	-13126
▁biocompatible	-13127
ubiqu	-13128
▁Shanghai	-13129
quee	-13130
▁ultrahigh	-13131
04	-13132
▁SWNT	-13133
▁leaching	-13134
▁−78	-13135
▁Chemicals	-13136
itated	-13137
▁[45	-13138
[0,	-13139
print	-13140
29)	-13141
ampl	-13142
ibrational	-13143
▁closest	-13144
voluted	-13145
▁ribbons	-13146
GT	-13147
▁triethyl	-13148
▁Inf	-13149
gluc	-13150
▁qubit	-13151
▁vertices	-13152
adsorb	-13153
▁opposed	-13154
▁(18)	-13155
diagonal	-13156
▁kinematic	-13157
specially	-13158
Ea	-13159
▁zwitter	-13160
▁scintill	-13161
▁198	-13162
▁subtracted	-13163
Equation	-13164
▁maximize	-13165
▁Gmb	-13166
▁aerogel	-13167
▁blow	-13168
ica	-13169
▁fractal	-13170
▁0.33	-13171
▁unable	-13172
0)=	-13173
)〉	-13174
▁sandwic	-13175
▁spontaneously	-13176
istant	-13177
▁pyrrole	-13178
xc	-13179
▁cysteine	-13180
▁IF	-13181
tium	-13182
▁phr	-13183
▁gyro	-13184
(2-	-13185
▁nylon	-13186
▁0),	-13187
▁SET	-13188
Ste	-13189
▁10).	-13190
ocking	-13191
6−	-13192
▁option	-13193
▁deprotonation	-13194
protected	-13195
PCBM	-13196
▁market	-13197
▁inexpensive	-13198
that	-13199
imetic	-13200
▁pillar	-13201
inn	-13202
seud	-13203
′′(	-13204
▁viol	-13205
▁foot	-13206
ands	-13207
▁CW	-13208
▁haz	-13209
omaly	-13210
▁Shimadzu	-13211
▁encour	-13212
▁suit	-13213
▁adsorbents	-13214
AuCl	-13215
▁Gly	-13216
amines	-13217
,[	-13218
▁delocalization	-13219
Vol	-13220
tivation	-13221
gener	-13222
▁TPE	-13223
ochromic	-13224
▁protect	-13225
▁NM	-13226
▁peculi	-13227
stituting	-13228
*=	-13229
▁sequentially	-13230
+4	-13231
▁prototype	-13232
▁swollen	-13233
▁Europe	-13234
▁minute	-13235
atterned	-13236
▁TFA	-13237
Le	-13238
OP	-13239
▁semicirc	-13240
Optical	-13241
▁wurtzite	-13242
2−1	-13243
▁DPP	-13244
▁capsules	-13245
neighbor	-13246
uman	-13247
▁recur	-13248
▁pocket	-13249
▁Error	-13250
▁detrim	-13251
ophil	-13252
balance	-13253
▁compensated	-13254
▁experienced	-13255
aphth	-13256
▁consequences	-13257
▁superconductors	-13258
3.9	-13259
▁linkers	-13260
grade	-13261
▁albumin	-13262
▁bundles	-13263
)12	-13264
ønsted	-13265
▁Graphene	-13266
▁dissolve	-13267
PDM	-13268
vised	-13269
super	-13270
bu	-13271
siloxane	-13272
▁terahertz	-13273
▁photographs	-13274
▁POSS	-13275
▁monochromator	-13276
▁InGaAs	-13277
ditionally	-13278
NE	-13279
TAT	-13280
▁penetrate	-13281
∞,	-13282
▁blu	-13283
▁Arg	-13284
▁trigonal	-13285
▁recall	-13286
▁notably	-13287
▁simplify	-13288
▁sink	-13289
▁[13,	-13290
1,2,	-13291
▁148	-13292
nk	-13293
▁cav	-13294
▁pseudoc	-13295
▁opportunities	-13296
▁landscape	-13297
▁prevented	-13298
▁ss	-13299
▁monochromatic	-13300
sto	-13301
▁superconductor	-13302
▁[2]	-13303
▁146	-13304
▁rows	-13305
▁cholesterol	-13306
·(	-13307
athesis	-13308
CNF	-13309
▁basically	-13310
▁comprises	-13311
ppler	-13312
.20,	-13313
▁began	-13314
▁1,3-	-13315
Gly	-13316
▁restrict	-13317
penet	-13318
▁nonradiative	-13319
▁regist	-13320
▁actuators	-13321
▁percentages	-13322
PAN	-13323
▁LIBs	-13324
▁converge	-13325
gredi	-13326
▁biofilm	-13327
▁damaged	-13328
▁LH	-13329
ocatalytic	-13330
▁132	-13331
culations	-13332
vectors	-13333
▁appreciable	-13334
pyrrole	-13335
▁obtains	-13336
▁[32].	-13337
coming	-13338
osomal	-13339
▁biology	-13340
▁GmbH	-13341
(1-	-13342
▁activate	-13343
▁0.2,	-13344
▁relate	-13345
▁fibrobl	-13346
obor	-13347
▁Especially	-13348
nth	-13349
▁adsorbate	-13350
rous	-13351
▁interf	-13352
▁anomaly	-13353
Total	-13354
250	-13355
▁DSSCs	-13356
]0	-13357
▁PRO	-13358
–500	-13359
▁guided	-13360
▁NHC	-13361
bearing	-13362
ria	-13363
▁dosage	-13364
sl	-13365
▁financial	-13366
▁zer	-13367
▁147	-13368
▁FEI	-13369
0⟩	-13370
roximately	-13371
▁hydrazine	-13372
osyl	-13373
▁polarizations	-13374
▁cement	-13375
yclo	-13376
▁virtually	-13377
▁sophistic	-13378
▁anchoring	-13379
.(4)	-13380
▁Very	-13381
▁photophysical	-13382
MSCs	-13383
▁cy	-13384
▁assignments	-13385
▁RP	-13386
Ho	-13387
New	-13388
orphology	-13389
▁termed	-13390
erephthal	-13391
bias	-13392
▁MeCN	-13393
tidine	-13394
▁diagnosis	-13395
▁drawbacks	-13396
▁tangen	-13397
▁Rydberg	-13398
bidden	-13399
▁redistribution	-13400
uning	-13401
▁GP	-13402
corresponding	-13403
▁sear	-13404
▁155	-13405
▁vibronic	-13406
▁indole	-13407
Calculated	-13408
.9%	-13409
aturing	-13410
▁8)	-13411
▁dendrimer	-13412
▁photode	-13413
dependence	-13414
▁trimer	-13415
▁carbonization	-13416
▁diamagnetic	-13417
▁interpolation	-13418
agnetization	-13419
amers	-13420
▁1–4	-13421
▁reviewed	-13422
▁stopped	-13423
▁ceria	-13424
▁15.	-13425
▁superimposed	-13426
▁sket	-13427
▁aptamer	-13428
Then	-13429
▁biosensor	-13430
ests	-13431
(4-	-13432
▁fault	-13433
▁Center	-13434
▁hept	-13435
▁correspondence	-13436
▁aerogels	-13437
▁mirrors	-13438
kh	-13439
▁VA	-13440
ritten	-13441
▁Zh	-13442
▁149	-13443
strained	-13444
▁fabrics	-13445
▁AuNP	-13446
ociated	-13447
▁polymerized	-13448
~\	-13449
▁CZTS	-13450
▁weighed	-13451
▁converged	-13452
▁Detailed	-13453
▁drastic	-13454
▁CoO	-13455
frac	-13456
]/[	-13457
▁elastomer	-13458
periodic	-13459
ught	-13460
▁vanishing	-13461
aceous	-13462
dihydro	-13463
healing	-13464
▁0.24	-13465
▁filtrate	-13466
icking	-13467
guest	-13468
ynch	-13469
▁cube	-13470
▁usage	-13471
▁nucleo	-13472
108	-13473
▁sandwiched	-13474
▁2.1.	-13475
avorable	-13476
▁welding	-13477
▁1300	-13478
alloy	-13479
▁reinforcement	-13480
ibly	-13481
acob	-13482
▁avoiding	-13483
YF	-13484
oto	-13485
▁softening	-13486
▁Os	-13487
ga	-13488
▁aliqu	-13489
▁165	-13490
▁FeCl	-13491
inorganic	-13492
▁insulin	-13493
▁microparticles	-13494
lution	-13495
3],	-13496
▁insensitive	-13497
▁(13	-13498
titude	-13499
▁forced	-13500
)≈	-13501
Spect	-13502
loss	-13503
▁stripe	-13504
▁7.3	-13505
▁beta	-13506
▁144	-13507
▁(90	-13508
▁Fm	-13509
▁sake	-13510
acrylic	-13511
6,27	-13512
TPP	-13513
▁8-	-13514
inde	-13515
▁halo	-13516
pread	-13517
propanol	-13518
▁connections	-13519
▁plu	-13520
)]+	-13521
CG	-13522
▁PDF	-13523
ielect	-13524
▁turnover	-13525
▁ZT	-13526
▁microporous	-13527
symmetry	-13528
▁homogenous	-13529
▁Later	-13530
▁Pur	-13531
stabilized	-13532
▁illustrating	-13533
QUID	-13534
▁inhomogeneity	-13535
▁pull	-13536
nano	-13537
affected	-13538
▁parentheses	-13539
▁ty	-13540
vention	-13541
▁fermions	-13542
complex	-13543
▁progression	-13544
pVTZ	-13545
▁snapshots	-13546
▁(17	-13547
22+	-13548
▁hydrogenated	-13549
ulin	-13550
▁microt	-13551
▁thermoplastic	-13552
)6]	-13553
▁Us	-13554
▁Reprinted	-13555
Consid	-13556
▁AN	-13557
▁coercive	-13558
omponent	-13559
5–	-13560
▁meaningful	-13561
DEG	-13562
tian	-13563
▁ubiqu	-13564
idone	-13565
▁[%]	-13566
yte	-13567
▁nc	-13568
semiconductor	-13569
▁IB	-13570
▁intercept	-13571
cus	-13572
estern	-13573
6+	-13574
▁micrometer	-13575
▁Brønsted	-13576
wood	-13577
Rep	-13578
▁orientational	-13579
▁photocatalysis	-13580
▁1,3‐	-13581
plasma	-13582
▁epoxide	-13583
▁nanosecond	-13584
Or	-13585
▁Mott	-13586
▁[14,	-13587
annealed	-13588
IPY	-13589
yrins	-13590
▁divertor	-13591
▁5.6	-13592
42−	-13593
▁plume	-13594
▁vesicle	-13595
imers	-13596
iled	-13597
mma	-13598
▁bounds	-13599
acoustic	-13600
▁tempor	-13601
▁protecting	-13602
(0)=	-13603
capped	-13604
▁periodically	-13605
▁1.25	-13606
▁petroleum	-13607
preced	-13608
▁Bu	-13609
,26	-13610
CMC	-13611
▁albeit	-13612
▁Cas	-13613
▁exploration	-13614
omorphic	-13615
▁Direct	-13616
▁repair	-13617
▁ner	-13618
▁EXAFS	-13619
′′)	-13620
22)	-13621
▁RR	-13622
Hc	-13623
▁duplex	-13624
=11	-13625
▁exempl	-13626
▁Notice	-13627
prisingly	-13628
=0.4	-13629
▁opened	-13630
▁MMT	-13631
▁1400	-13632
RY	-13633
▁overlapped	-13634
▁steels	-13635
▁economic	-13636
▁designated	-13637
▁Pn	-13638
4;	-13639
▁Hartree	-13640
▁[33].	-13641
▁mort	-13642
▁MAPbI	-13643
▁Pure	-13644
}{	-13645
utable	-13646
^2	-13647
▁BZ	-13648
▁microbial	-13649
▁OLEDs	-13650
Molecular	-13651
Ec	-13652
lob	-13653
=1,2,	-13654
OT	-13655
▁synthesi	-13656
heated	-13657
▁multiv	-13658
▁IA	-13659
▁Ro	-13660
▁0.001	-13661
stock	-13662
▁merit	-13663
▁micellar	-13664
▁isotopic	-13665
EGF	-13666
vasive	-13667
▁slice	-13668
▁Density	-13669
6.0	-13670
▁nitric	-13671
odi	-13672
▁PXRD	-13673
neutral	-13674
.(1)	-13675
▁gates	-13676
itz	-13677
▁dependencies	-13678
×10−5	-13679
▁Jo	-13680
▁bifunctional	-13681
▁areal	-13682
precedented	-13683
▁adaptive	-13684
▁tetrahydrofuran	-13685
▁40,	-13686
both	-13687
▁[15,	-13688
ham	-13689
▁20.	-13690
▁peripheral	-13691
▁CaCO	-13692
▁1–2	-13693
▁ingredi	-13694
idespread	-13695
▁transit	-13696
▁convective	-13697
hi	-13698
▁131	-13699
nn	-13700
inctive	-13701
▁CuI	-13702
fv	-13703
-11	-13704
▁decompose	-13705
orphyrins	-13706
▁vascular	-13707
†(	-13708
Water	-13709
indole	-13710
▁tomography	-13711
▁Ultra	-13712
▁digestion	-13713
▁resc	-13714
▁renormal	-13715
WS	-13716
▁extrapolated	-13717
▁grinding	-13718
▁3.1.	-13719
DD	-13720
LR	-13721
▁Blue	-13722
▁inclusions	-13723
▁nanocrystal	-13724
ilst	-13725
▁counterions	-13726
mechanical	-13727
▁Large	-13728
▁user	-13729
▁dielectrics	-13730
▁Company	-13731
▁fluorophore	-13732
▁milled	-13733
▁endow	-13734
idirectional	-13735
6-31	-13736
▁cd	-13737
▁5.1	-13738
▁5.4	-13739
▁connect	-13740
▁projections	-13741
VM	-13742
▁ray	-13743
insically	-13744
▁striking	-13745
▁dangling	-13746
)=∫	-13747
▁Kinetic	-13748
▁detrimental	-13749
▁organs	-13750
▁decided	-13751
Non	-13752
arded	-13753
▁12(	-13754
▁reactors	-13755
▁photolysis	-13756
Us	-13757
▁streamwise	-13758
▁iridium	-13759
▁au	-13760
▁photoresist	-13761
▁resembles	-13762
▁PbS	-13763
▁380	-13764
▁evac	-13765
▁birefringence	-13766
straction	-13767
▁subspace	-13768
▁Nonetheless	-13769
▁ever	-13770
.6)	-13771
▁InN	-13772
▁inac	-13773
equation	-13774
▁participate	-13775
▁SBA	-13776
▁vulcan	-13777
▁exclusion	-13778
FePO	-13779
processed	-13780
hode	-13781
▁measurable	-13782
imides	-13783
micro	-13784
▁logarithm	-13785
▁widespread	-13786
▁triblock	-13787
▁motivated	-13788
▁cytoplas	-13789
adding	-13790
STO	-13791
▁NN	-13792
▁BCP	-13793
▁(0.7	-13794
▁card	-13795
▁refrig	-13796
Prop	-13797
fiber	-13798
▁uncon	-13799
▁multim	-13800
▁mere	-13801
▁squee	-13802
np	-13803
▁Analy	-13804
▁insert	-13805
acetone	-13806
0.55	-13807
dispersive	-13808
▁(20)	-13809
▁entering	-13810
IBN	-13811
PAM	-13812
rag	-13813
▁holog	-13814
▁(6),	-13815
⁡(	-13816
▁sophisticated	-13817
▁Equations	-13818
▁inputs	-13819
〉,	-13820
▁Einstein	-13821
connected	-13822
▁groove	-13823
Because	-13824
charged	-13825
▁polynomials	-13826
▁tangential	-13827
‐4‐	-13828
ethoxy	-13829
-[	-13830
wald	-13831
▁Theoretical	-13832
▁thermoco	-13833
▁(19)	-13834
Ei	-13835
LAB	-13836
lectivities	-13837
▁tiny	-13838
▁ferromagnetism	-13839
obs	-13840
▁saw	-13841
▁trials	-13842
ends	-13843
▁oxal	-13844
0.65	-13845
▁definitions	-13846
▁immediate	-13847
▁LSPR	-13848
hl	-13849
▁She	-13850
▁whereby	-13851
▁strengthening	-13852
small	-13853
▁format	-13854
nucle	-13855
▁acetylene	-13856
uki	-13857
▁trem	-13858
▁Weyl	-13859
▁alpha	-13860
8.5	-13861
▁fouling	-13862
▁trade	-13863
▁displaced	-13864
etermination	-13865
▁LDPE	-13866
▁responsive	-13867
xC	-13868
Thermo	-13869
parameter	-13870
fts	-13871
lived	-13872
▁OCH	-13873
▁Tokyo	-13874
▁Yang	-13875
▁galvanostatic	-13876
▁disruption	-13877
▁HSA	-13878
nal	-13879
▁unprecedented	-13880
knowled	-13881
▁cyclotron	-13882
▁displaying	-13883
▁silyl	-13884
▁spaced	-13885
cle	-13886
8(	-13887
▁Cartesian	-13888
▁130.	-13889
swit	-13890
General	-13891
▁distillation	-13892
▁Compounds	-13893
figuration	-13894
▁degrade	-13895
BET	-13896
▁adjustment	-13897
▁Field	-13898
▁manufacturer	-13899
mA	-13900
.3.1	-13901
.25,	-13902
▁kid	-13903
7.0	-13904
ilibria	-13905
▁unw	-13906
▁[001]	-13907
Measure	-13908
103	-13909
▁monodisperse	-13910
GP	-13911
▁122	-13912
arboxylic	-13913
▁name	-13914
▁10.0	-13915
▁antigen	-13916
▁vast	-13917
▁biologically	-13918
▁magnetized	-13919
▁71	-13920
▁LF	-13921
▁intended	-13922
▁dividing	-13923
▁catech	-13924
brevi	-13925
taken	-13926
▁equatorial	-13927
▁340	-13928
raft	-13929
Gl	-13930
Ob	-13931
▁spe	-13932
ives	-13933
▁correlates	-13934
ysics	-13935
▁Med	-13936
▁102	-13937
▁viscosities	-13938
▁Kerr	-13939
▁ductility	-13940
RMS	-13941
▁Doppler	-13942
▁stay	-13943
▁convention	-13944
erosion	-13945
▁kB	-13946
sections	-13947
▁links	-13948
▁8.4	-13949
16/	-13950
▁(~	-13951
▁NMP	-13952
yy	-13953
−.	-13954
(1)(	-13955
▁Fran	-13956
0.67	-13957
Spec	-13958
▁susceptible	-13959
▁parity	-13960
▁Part	-13961
▁catalyze	-13962
orbital	-13963
▁recrystallized	-13964
aracteristic	-13965
▁slides	-13966
▁AZ	-13967
▁Fluor	-13968
,21	-13969
pz	-13970
gineering	-13971
▁couples	-13972
HRTEM	-13973
▁bcc	-13974
▁reman	-13975
▁fung	-13976
▁mar	-13977
▁pendant	-13978
▁distinctive	-13979
atent	-13980
▁Tf	-13981
ami	-13982
HL	-13983
▁0.23	-13984
)=12	-13985
▁diet	-13986
Js	-13987
▁[34].	-13988
▁flake	-13989
onductive	-13990
.22,	-13991
▁publications	-13992
▁tab	-13993
qi	-13994
▁0.5%	-13995
ODIPY	-13996
▁kinetically	-13997
▁(2,	-13998
▁placing	-13999
Rn	-14000
▁PCBM	-14001
source	-14002
▁[0	-14003
▁Linear	-14004
▁solvothermal	-14005
▁irrespective	-14006
5%	-14007
▁readout	-14008
DOS	-14009
10).	-14010
ried	-14011
.21,	-14012
=∂	-14013
▁ald	-14014
SiMe	-14015
cons	-14016
▁unfavorable	-14017
▁soon	-14018
reaction	-14019
obtained	-14020
▁unambiguously	-14021
▁Aut	-14022
Car	-14023
Po	-14024
▁recommended	-14025
=100	-14026
▁innov	-14027
▁achievable	-14028
▁contaminants	-14029
spacing	-14030
▁chips	-14031
▁tails	-14032
▁roots	-14033
▁torsional	-14034
pan	-14035
▁5.3	-14036
▁sulfuric	-14037
▁observables	-14038
▁iPP	-14039
▁hydrochloride	-14040
▁Appl	-14041
ifiers	-14042
▁click	-14043
▁obl	-14044
propyl	-14045
▁dissipative	-14046
▁tBu	-14047
▁sonicated	-14048
8‐	-14049
thin	-14050
▁divalent	-14051
▁photodetector	-14052
▁(−1	-14053
▁conformer	-14054
2);	-14055
▁[1]	-14056
▁implied	-14057
▁Emission	-14058
▁think	-14059
+∞	-14060
▁evolves	-14061
)/(	-14062
▁950	-14063
▁EDTA	-14064
oxysilane	-14065
ek	-14066
▁pseudopotential	-14067
UM	-14068
-13	-14069
10−	-14070
▁finds	-14071
▁bodies	-14072
unter	-14073
▁squared	-14074
▁fire	-14075
ielectric	-14076
▁[100	-14077
shape	-14078
▁genetic	-14079
uum	-14080
▁shortest	-14081
▁handling	-14082
▁turning	-14083
▁endothelial	-14084
▁Anal	-14085
▁melts	-14086
Phase	-14087
▁Those	-14088
resonant	-14089
LF	-14090
interacting	-14091
GPC	-14092
▁emu	-14093
inities	-14094
107	-14095
▁organisms	-14096
ucl	-14097
▁Tw	-14098
▁scar	-14099
▁Td	-14100
corpor	-14101
environment	-14102
▁attributable	-14103
.23,	-14104
oxyc	-14105
,(3	-14106
▁pressing	-14107
Form	-14108
▁interparticle	-14109
▁0.50	-14110
-1)	-14111
la	-14112
values	-14113
=⟨	-14114
cluster	-14115
▁BiVO	-14116
+−	-14117
ILs	-14118
▁Lip	-14119
AuNPs	-14120
▁jets	-14121
▁vice	-14122
urization	-14123
▁deprot	-14124
}}}$	-14125
▁Plot	-14126
membrane	-14127
▁JEM	-14128
▁Janus	-14129
ripts	-14130
▁TFTs	-14131
▁Rg	-14132
▁82	-14133
▁olefins	-14134
,29	-14135
▁exploring	-14136
avail	-14137
▁330	-14138
,0)	-14139
▁facilitating	-14140
▁5.(	-14141
hern	-14142
▁SNR	-14143
▁mica	-14144
alanine	-14145
▁Third	-14146
▁publication	-14147
ycle	-14148
▁existed	-14149
.5)	-14150
▁**	-14151
▁imidazolium	-14152
sives	-14153
▁Major	-14154
▁management	-14155
outh	-14156
bb	-14157
Chemical	-14158
▁YSZ	-14159
enta	-14160
▁PEM	-14161
yi	-14162
▁Man	-14163
=20	-14164
rc	-14165
▁(1.2	-14166
ijing	-14167
▁spike	-14168
▁Sil	-14169
istically	-14170
▁substitute	-14171
▁polymerizations	-14172
▁magnetost	-14173
900	-14174
separated	-14175
▁prone	-14176
▁generators	-14177
oves	-14178
Ri	-14179
anding	-14180
▁tren	-14181
▁4,4	-14182
Polymer	-14183
▁CNC	-14184
stoichi	-14185
▁intrinsically	-14186
test	-14187
itter	-14188
3+.	-14189
▁vehicles	-14190
/2.	-14191
▁automatically	-14192
▁antiparallel	-14193
▁υ	-14194
sozyme	-14195
▁erosion	-14196
▁≠	-14197
oks	-14198
concentration	-14199
,28	-14200
Energy	-14201
YP	-14202
▁tensors	-14203
▁subtracting	-14204
▁PSS	-14205
▁methoxy	-14206
▁HL	-14207
phasing	-14208
▁sunlight	-14209
PMA	-14210
▁rays	-14211
▁Control	-14212
EtOAc	-14213
▁microb	-14214
|,	-14215
▁exclude	-14216
▁autocorrelation	-14217
omo	-14218
▁FD	-14219
▁Average	-14220
NOVA	-14221
ATION	-14222
▁focuses	-14223
▁30°	-14224
▁delta	-14225
▁gun	-14226
▁(21)	-14227
▁insulators	-14228
▁PNIPAM	-14229
Gr	-14230
,22	-14231
▁modulate	-14232
▁WC	-14233
▁ASTM	-14234
▁2–3	-14235
Lu	-14236
▁greatest	-14237
(1)–	-14238
∗(	-14239
IGS	-14240
▁destruction	-14241
▁integrate	-14242
▁wavefunction	-14243
Red	-14244
omy	-14245
▁sublattice	-14246
▁0.19	-14247
mentation	-14248
▁singularity	-14249
▁bul	-14250
▁Initial	-14251
▁equilibria	-14252
reduction	-14253
6.6	-14254
▁men	-14255
▁ripp	-14256
-5-	-14257
▁examining	-14258
▁status	-14259
▁thresholds	-14260
▁RL	-14261
▁relates	-14262
▁versa	-14263
rites	-14264
▁(0.9	-14265
onducting	-14266
▁deposits	-14267
▁Gold	-14268
▁dataset	-14269
▁Hi	-14270
▁acknowled	-14271
▁constructs	-14272
road	-14273
apted	-14274
▁extraord	-14275
▁XANES	-14276
▁emulsif	-14277
(12)	-14278
▁oils	-14279
fi	-14280
▁isolate	-14281
chair	-14282
▁ubiquit	-14283
▁luminosity	-14284
Gra	-14285
▁furan	-14286
4[	-14287
▁emerge	-14288
‐7	-14289
▁(–	-14290
▁RuO	-14291
orange	-14292
▁thermos	-14293
▁container	-14294
8.0	-14295
▁159	-14296
▁disturbance	-14297
▁[35].	-14298
▁WT	-14299
axially	-14300
▁balls	-14301
0000	-14302
▁BR	-14303
essels	-14304
▁inv	-14305
▁tremend	-14306
▁severely	-14307
alse	-14308
▁convenience	-14309
▁heterocyc	-14310
▁packet	-14311
gran	-14312
GN	-14313
▁thr	-14314
′′,	-14315
▁Gram	-14316
▁Ill	-14317
▁acted	-14318
angles	-14319
artment	-14320
▁Process	-14321
▁iterations	-14322
▁deuterated	-14323
▁pollution	-14324
▁Mechanical	-14325
×2	-14326
ularities	-14327
erences	-14328
.3.2.	-14329
lands	-14330
ultaneous	-14331
▁supercritical	-14332
▁said	-14333
▁cultures	-14334
esar	-14335
▁microcapsules	-14336
▁neighbour	-14337
▁depositing	-14338
valence	-14339
acetylene	-14340
▁(3.1	-14341
▁Corpor	-14342
octyl	-14343
▁LI	-14344
lm	-14345
▁285	-14346
▁facility	-14347
Compound	-14348
covered	-14349
Mon	-14350
▁defective	-14351
{(	-14352
▁unaffected	-14353
▁HV	-14354
UA	-14355
▁Can	-14356
▁surprisingly	-14357
⋅(	-14358
▁momenta	-14359
▁PBA	-14360
4.9	-14361
▁Ohmic	-14362
▁friendly	-14363
Rb	-14364
▁signatures	-14365
)=0	-14366
40,	-14367
▁refraction	-14368
▁Rigaku	-14369
▁cryogenic	-14370
0.47	-14371
±(	-14372
.7%	-14373
ocytosis	-14374
▁successively	-14375
▁million	-14376
▁multiplied	-14377
▁rotary	-14378
also	-14379
ails	-14380
▁ash	-14381
▁rhodium	-14382
▁deduce	-14383
osc	-14384
▁Spectroscopy	-14385
impl	-14386
▁infiltration	-14387
▁ses	-14388
▁Her	-14389
this	-14390
oscope	-14391
mitt	-14392
▁biomaterials	-14393
▁gallium	-14394
▁spint	-14395
POSS	-14396
MAS	-14397
▁TH	-14398
▁‖	-14399
▁transported	-14400
▁(1.1	-14401
sal	-14402
LI	-14403
+1(	-14404
▁slices	-14405
▁NSs	-14406
,(3)	-14407
▁PBT	-14408
▁infinity	-14409
henol	-14410
But	-14411
▁dynamically	-14412
atio	-14413
tite	-14414
▁Reactions	-14415
▁10)	-14416
▁organometallic	-14417
coordinate	-14418
▁constitutive	-14419
▁marks	-14420
▁laminar	-14421
▁considers	-14422
wetting	-14423
▁alkylation	-14424
▁6.4	-14425
phenylene	-14426
critical	-14427
▁leave	-14428
170	-14429
21/	-14430
▁Intern	-14431
identate	-14432
▁adjustable	-14433
▁Introduction	-14434
▁biaxial	-14435
▁determinant	-14436
▁therein	-14437
oked	-14438
▁Organic	-14439
▁Actually	-14440
0.60	-14441
rolactone	-14442
.24,	-14443
▁Corporation	-14444
▁∼100	-14445
▁propagates	-14446
▁Structures	-14447
▁positioning	-14448
▁acquire	-14449
▁Suz	-14450
▁dialysis	-14451
▁impregnation	-14452
▁tried	-14453
Stokes	-14454
‐10	-14455
ilities	-14456
▁intermetallic	-14457
▁pedest	-14458
pies	-14459
▁sterically	-14460
▁compressibility	-14461
burg	-14462
▁Fib	-14463
▁[°	-14464
ienti	-14465
ometers	-14466
uronic	-14467
▁coaxial	-14468
▁manufactured	-14469
▁submic	-14470
▁Merck	-14471
▁Cer	-14472
▁subtraction	-14473
grams	-14474
▁crucible	-14475
▁(4).	-14476
▁0.28	-14477
fen	-14478
.7)	-14479
▁piez	-14480
▁BB	-14481
▁mesos	-14482
▁drives	-14483
▁Laser	-14484
▁feedstock	-14485
gers	-14486
▁pc	-14487
▁feeding	-14488
oxyphenyl	-14489
▁elliptical	-14490
▁Har	-14491
▁Physical	-14492
deg	-14493
▁jumps	-14494
enediamine	-14495
▁photoanode	-14496
▁timing	-14497
misc	-14498
▁PbI	-14499
index	-14500
idelity	-14501
6],	-14502
▁Out	-14503
reshold	-14504
▁7.1	-14505
pump	-14506
▁Apart	-14507
enzy	-14508
▁categories	-14509
▁sacrificial	-14510
▁imping	-14511
mixed	-14512
▁wing	-14513
▁stripes	-14514
▁strips	-14515
▁PDT	-14516
Over	-14517
atization	-14518
.2.2.	-14519
109	-14520
▁Van	-14521
▁Zeeman	-14522
▁echo	-14523
▁1.0,	-14524
▁vapour	-14525
getic	-14526
▁TLC	-14527
▁extrinsic	-14528
ko	-14529
▁Eth	-14530
▁enters	-14531
white	-14532
▁Protein	-14533
▁constitutes	-14534
dots	-14535
▁jud	-14536
olithography	-14537
▁Microscopy	-14538
▁Long	-14539
OA	-14540
▁platforms	-14541
similar	-14542
dm	-14543
128	-14544
▁tree	-14545
▁repeatedly	-14546
2)−	-14547
isenberg	-14548
▁isopropanol	-14549
▁singly	-14550
▁polyvinyl	-14551
zes	-14552
ouling	-14553
▁FITC	-14554
▁unbound	-14555
▁Systems	-14556
kJ	-14557
▁QWs	-14558
▁marginal	-14559
weighted	-14560
▁inductively	-14561
▁Bloch	-14562
sonic	-14563
▁transfection	-14564
*.	-14565
▁aqu	-14566
omechanical	-14567
▁gluc	-14568
▁symp	-14569
totic	-14570
epoxy	-14571
▁61	-14572
Jones	-14573
▁Likewise	-14574
xk	-14575
▁cad	-14576
▁dedicated	-14577
▁Images	-14578
▁crosses	-14579
−1+	-14580
PCR	-14581
▁92	-14582
correlated	-14583
ocusing	-14584
▁cytometry	-14585
▁Tra	-14586
▁Apparent	-14587
▁polishing	-14588
▁Remarkably	-14589
ceramic	-14590
▁histograms	-14591
ilarities	-14592
▁photodetectors	-14593
deposition	-14594
▁energetics	-14595
capac	-14596
icillin	-14597
▁3:	-14598
▁brackets	-14599
▁−10	-14600
▁[1–	-14601
▁0.95	-14602
fully	-14603
▁produc	-14604
▁Ka	-14605
▁tank	-14606
▁5.8	-14607
6–	-14608
▁inco	-14609
▁estimating	-14610
depth	-14611
▁agglomerates	-14612
▁satur	-14613
▁subjects	-14614
drop	-14615
▁automated	-14616
▁MDA	-14617
KA	-14618
▁passage	-14619
idity	-14620
methanol	-14621
▁peculiar	-14622
▁antif	-14623
▁12.5	-14624
▁hydrochloric	-14625
▁biosensors	-14626
▁nanopores	-14627
holes	-14628
▁isos	-14629
mc	-14630
117	-14631
▁correspondingly	-14632
uled	-14633
▁argued	-14634
oren	-14635
▁Particularly	-14636
▁bow	-14637
1[	-14638
uly	-14639
Structure	-14640
FL	-14641
▁descript	-14642
▁vehicle	-14643
▁canc	-14644
DPP	-14645
▁foils	-14646
▁concomitant	-14647
purity	-14648
satz	-14649
▁instrumental	-14650
▁outward	-14651
▁0.30	-14652
imolar	-14653
▁480	-14654
hn	-14655
▁ECL	-14656
grafted	-14657
▁1,2,	-14658
▁FePt	-14659
EDA	-14660
▁priori	-14661
▁1.00	-14662
▁throughput	-14663
oretic	-14664
×10−6	-14665
HPLC	-14666
▁lists	-14667
azoles	-14668
+∂	-14669
uz	-14670
0.80	-14671
▁(1:	-14672
▁GI	-14673
▁ethers	-14674
▁paid	-14675
▁outcomes	-14676
Cor	-14677
ogeneities	-14678
Experim	-14679
ember	-14680
▁titanate	-14681
▁differing	-14682
▁LPS	-14683
▁∥	-14684
CNQ	-14685
dk	-14686
▁annular	-14687
▁6.6	-14688
.01	-14689
▁weakened	-14690
▁0.09	-14691
bonds	-14692
▁algebraic	-14693
▁UiO	-14694
gens	-14695
▁fractured	-14696
▁persistent	-14697
▁[36].	-14698
▁macromolecular	-14699
▁Planck	-14700
122	-14701
–35	-14702
▁Vg	-14703
,23	-14704
▁290	-14705
MOFs	-14706
▁≃	-14707
Herein	-14708
▁buckling	-14709
▁uranium	-14710
▁accumulate	-14711
CAS	-14712
east	-14713
33,	-14714
ubility	-14715
▁exceptional	-14716
▁EV	-14717
BSD	-14718
▁eqs	-14719
▁metathesis	-14720
bed	-14721
▁manusc	-14722
ondon	-14723
▁alle	-14724
▁monotonic	-14725
angevin	-14726
▁guarantee	-14727
opolymerization	-14728
(1/	-14729
▁Bond	-14730
▁LJ	-14731
▁implants	-14732
▁corrug	-14733
va	-14734
▁ferrocene	-14735
ZIF	-14736
▁Currently	-14737
ULA	-14738
absorb	-14739
▁OR	-14740
▁reorganization	-14741
yield	-14742
elihood	-14743
▁permeate	-14744
actide	-14745
ifth	-14746
▁(14	-14747
▁pictures	-14748
▁CaCl	-14749
tious	-14750
▁Mö	-14751
perturbed	-14752
▁LN	-14753
▁Lee	-14754
▁naphthalene	-14755
paired	-14756
▁India	-14757
▁kBT	-14758
▁joints	-14759
▁patches	-14760
▁OT	-14761
▁daily	-14762
)∈	-14763
▁cytotoxic	-14764
toxic	-14765
▁colorimetric	-14766
▁neutrin	-14767
▁158	-14768
▁≡	-14769
dimension	-14770
[2	-14771
9.5	-14772
▁mentioning	-14773
▁BG	-14774
▁520	-14775
▁Sin	-14776
isite	-14777
▁rewritten	-14778
0.97	-14779
▁pillars	-14780
▁hydrostatic	-14781
house	-14782
▁5),	-14783
▁adapt	-14784
▁Sciences	-14785
▁fas	-14786
chemistry	-14787
▁biomark	-14788
▁dimerization	-14789
ographs	-14790
▁Jacob	-14791
60,	-14792
▁OM	-14793
)·	-14794
▁develops	-14795
ards	-14796
▁glycine	-14797
Average	-14798
sinh	-14799
SY	-14800
▁10−8	-14801
▁regulated	-14802
</	-14803
quinoline	-14804
▁AgNO	-14805
▁corners	-14806
maximum	-14807
▁grew	-14808
▁augmented	-14809
,30	-14810
last	-14811
▁entropic	-14812
mixing	-14813
▁hemisp	-14814
stack	-14815
isomers	-14816
▁micropores	-14817
▁intest	-14818
▁anharmonic	-14819
Xe	-14820
osal	-14821
▁chelating	-14822
Moreover	-14823
▁taut	-14824
relaxation	-14825
=0.1	-14826
stitution	-14827
▁physis	-14828
▁populated	-14829
▁OPV	-14830
▁0.27	-14831
▁shaded	-14832
−1):	-14833
PEND	-14834
reducible	-14835
pyridyl	-14836
▁gratings	-14837
▁crystallography	-14838
ectin	-14839
▁choices	-14840
▁uncoated	-14841
+1−	-14842
▁emphasized	-14843
0.70	-14844
▁inflammatory	-14845
▁elution	-14846
′|	-14847
▁fish	-14848
▁Gas	-14849
▁LiF	-14850
▁discrepancies	-14851
otoxicity	-14852
3+-	-14853
▁ka	-14854
▁kit	-14855
▁IgG	-14856
nitrop	-14857
sy	-14858
▁spherul	-14859
▁yttri	-14860
YSZ	-14861
▁20°	-14862
▁vessels	-14863
▁pipe	-14864
▁cc	-14865
km	-14866
1/2)	-14867
▁discontinuous	-14868
▁Subsequent	-14869
’,	-14870
▁emerges	-14871
▁str	-14872
▁0.26	-14873
▁18,	-14874
▁solitons	-14875
▁fringe	-14876
junctions	-14877
▁exerted	-14878
VG	-14879
tip	-14880
▁cyclopent	-14881
gray	-14882
bauer	-14883
▁Adsorption	-14884
▁twinning	-14885
plex	-14886
▁plasticity	-14887
[1+	-14888
inflamm	-14889
3,4	-14890
▁Pi	-14891
umarin	-14892
2+/	-14893
▁blade	-14894
VC	-14895
▁MgSO	-14896
▁(7),	-14897
▁microgels	-14898
▁electrophoresis	-14899
▁Black	-14900
born	-14901
▁−3	-14902
▁miscibility	-14903
osin	-14904
Hm	-14905
ithley	-14906
▁macrophages	-14907
thickness	-14908
Data	-14909
▁lesser	-14910
▁∼20	-14911
bell	-14912
−10	-14913
optic	-14914
▁abstraction	-14915
▁portions	-14916
▁hypothesized	-14917
▁Mor	-14918
▁Normalized	-14919
0.48	-14920
calc	-14921
▁HMF	-14922
Fock	-14923
▁xenon	-14924
teness	-14925
▁invariance	-14926
adj	-14927
▁FFT	-14928
▁ascor	-14929
${	-14930
▁VII	-14931
▁combines	-14932
▁brings	-14933
2(1−	-14934
▁presenting	-14935
▁assistance	-14936
pq	-14937
▁featuring	-14938
ensitic	-14939
▁sponge	-14940
▁triplicate	-14941
▁(22)	-14942
▁documented	-14943
relativistic	-14944
riers	-14945
▁photodiode	-14946
aro	-14947
▁forth	-14948
=−2	-14949
enoid	-14950
polarization	-14951
▁FIB	-14952
uty	-14953
▁FOR	-14954
▁enthalpies	-14955
▁stimulus	-14956
ikelihood	-14957
▁antisymmetric	-14958
▁pione	-14959
▁Surprisingly	-14960
velopment	-14961
▁circumst	-14962
11),	-14963
▁lithiation	-14964
▁Fre	-14965
▁CaO	-14966
amid	-14967
Ra	-14968
▁HAADF	-14969
cosh	-14970
▁fluctuating	-14971
▁graded	-14972
▁Ising	-14973
culating	-14974
298	-14975
▁2009	-14976
▁dissociated	-14977
▁terephthal	-14978
▁Mal	-14979
▁(98	-14980
▁transfers	-14981
Ci	-14982
0.90	-14983
▁diphenyl	-14984
oment	-14985
▁additions	-14986
ool	-14987
1,32	-14988
ople	-14989
▁Nic	-14990
▁artifacts	-14991
emann	-14992
ennard	-14993
▁happen	-14994
Col	-14995
ulic	-14996
▁deviate	-14997
▁infection	-14998
▁upconversion	-14999
ensurate	-15000
▁Secondly	-15001
Mean	-15002
▁∝	-15003
▁accompany	-15004
▁puls	-15005
▁old	-15006
eqn	-15007
▁scalable	-15008
▁undergoing	-15009
▁Starting	-15010
▁partitioning	-15011
▁carbonaceous	-15012
▁crystallize	-15013
▁crow	-15014
▁Evolution	-15015
2/3	-15016
▁reorientation	-15017
Rg	-15018
▁lemma	-15019
▁releasing	-15020
▁≪	-15021
ophosphate	-15022
Pn	-15023
▁demands	-15024
▁chemisorption	-15025
▁16.	-15026
▁precession	-15027
affin	-15028
eno	-15029
SiH	-15030
injection	-15031
▁[18]	-15032
▁isopropyl	-15033
fvén	-15034
▁Jc	-15035
▁lenses	-15036
▁bombard	-15037
–1000	-15038
▁amyloid	-15039
.8)	-15040
THE	-15041
▁synthesizing	-15042
ambda	-15043
dge	-15044
▁Conditions	-15045
▁semicircle	-15046
SBA	-15047
▁6.7	-15048
▁cul	-15049
[...]
