igure 	 -227
ruct 	 -234
erature 	 -253
▁temp 	 -267
ructure 	 -288
▁differe 	 -290
ction 	 -291
▁energ 	 -332
▁samp 	 -353
sition 	 -393
ydro 	 -406
perim 	 -413
▁stu 	 -418
ration 	 -426
lecul 	 -466
▁calcul 	 -493
▁chan 	 -506
gth 	 -534
▁concent 	 -552
▁molecul 	 -584
netic 	 -625
nthe 	 -646
mis 	 -661
sorption 	 -691
iO 	 -716
▁simul 	 -732
elect 	 -759
▁studi 	 -765
ribution 	 -796
ditions 	 -804
raction 	 -818
alyst 	 -848
▁devic 	 -888
▁ini 	 -904
▁stron 	 -915
gra 	 -929
▁beha 	 -940
ract 	 -949
artic 	 -960
flu 	 -973
▁corre 	 -995
mmet 	 -1001
▁describ 	 -1016
▁inclu 	 -1042
▁coup 	 -1043
rain 	 -1045
▁solv 	 -1047
pend 	 -1053
fac 	 -1069
qui 	 -1089
attern 	 -1090
▁demon 	 -1104
▁nanopartic 	 -1109
ogra 	 -1118
▁consis 	 -1141
phe 	 -1153
embran 	 -1163
alized 	 -1166
mers 	 -1186
▁membran 	 -1226
▁amo 	 -1232
cording 	 -1247
ctions 	 -1264
iquid 	 -1271
FIG 	 -1303
▁simp 	 -1306
▁inde 	 -1338
phene 	 -1342
sorb 	 -1366
▁coeff 	 -1375
▁transp 	 -1388
heme 	 -1406
attice 	 -1414
ulk 	 -1420
▁sour 	 -1432
alytic 	 -1443
▁nuc 	 -1445
▁techniqu 	 -1450
▁stren 	 -1456
▁emp 	 -1458
rations 	 -1483
▁vel 	 -1497
ributed 	 -1502
igand 	 -1504
▁remo 	 -1511
▁quan 	 -1512
▁confir 	 -1518
▁integ 	 -1531
ructural 	 -1543
pendent 	 -1566
▁cir 	 -1620
ocity 	 -1649
idth 	 -1653
ilib 	 -1657
▁acco 	 -1752
rient 	 -1757
lue 	 -1776
cedure 	 -1784
onduct 	 -1812
▁enhan 	 -1826
semb 	 -1860
loy 	 -1871
lled 	 -1891
ritical 	 -1920
▁modul 	 -1927
▁environ 	 -1930
sitions 	 -1942
▁< 	 -1979
greg 	 -1983
ensities 	 -2006
hance 	 -2022
▁reac 	 -2028
▁reas 	 -2031
ributions 	 -2055
neti 	 -2060
▁illust 	 -2082
▁ult 	 -2084
▁recor 	 -2088
▁indi 	 -2109
ostructure 	 -2211
dop 	 -2215
pti 	 -2261
gradation 	 -2287
dical 	 -2326
cursor 	 -2343
orpor 	 -2358
hile 	 -2365
racted 	 -2406
▁magneti 	 -2417
ynthe 	 -2432
vid 	 -2435
ajor 	 -2438
▁atm 	 -2456
ellent 	 -2457
pid 	 -2462
tially 	 -2463
▁vect 	 -2468
▁stra 	 -2480
isotrop 	 -2542
­( 	 -2599
umines 	 -2608
▁semiconduct 	 -2618
ndom 	 -2624
taneous 	 -2625
▁anisotrop 	 -2640
▁spa 	 -2641
▁dra 	 -2663
hematic 	 -2681
ryl 	 -2685
▁decomp 	 -2687
▁photocat 	 -2723
rateg 	 -2766
▁superc 	 -2777
▁dissol 	 -2790
rans 	 -2793
uctu 	 -2802
▁hydrog 	 -2816
imet 	 -2817
alog 	 -2823
perimental 	 -2833
ashed 	 -2851
▁cathod 	 -2856
▁diffic 	 -2867
cosity 	 -2884
turb 	 -2886
alysis 	 -2887
icients 	 -2889
esults 	 -2894
▁possi 	 -2903
▁reco 	 -2907
entioned 	 -2909
▁nanostructure 	 -2946
ractive 	 -2948
2‐ 	 -2969
▁incid 	 -2977
strum 	 -3030
cup 	 -3046
▁promis 	 -3065
gment 	 -3088
facial 	 -3096
▁capacit 	 -3109
roduction 	 -3131
▁thresh 	 -3156
▁enzy 	 -3159
)‐ 	 -3166
unts 	 -3198
sist 	 -3211
ynthesis 	 -3221
▁buil 	 -3235
▁exis 	 -3241
owled 	 -3255
tonian 	 -3261
rating 	 -3271
ecause 	 -3315
rior 	 -3316
▁approac 	 -3317
lision 	 -3331
monic 	 -3346
sess 	 -3356
ermi 	 -3361
allen 	 -3365
▁thermod 	 -3404
▁nanof 	 -3418
valent 	 -3428
Introduction 	 -3433
▁XPS 	 -3448
▁smo 	 -3465
▁challen 	 -3474
▁distin 	 -3477
owledge 	 -3479
rif 	 -3484
eful 	 -3488
orith 	 -3491
▁glo 	 -3495
▁Hamil 	 -3507
pension 	 -3515
urated 	 -3538
▁impur 	 -3552
inyl 	 -3554
hence 	 -3563
pendicular 	 -3566
▁perovsk 	 -3567
▁conclu 	 -3568
duces 	 -3589
clusions 	 -3598
inning 	 -3642
alyzed 	 -3646
imethyl 	 -3656
▁scre 	 -3660
▁extre 	 -3690
▁crosslink 	 -3712
ride 	 -3716
Results 	 -3728
ription 	 -3729
▁MoS 	 -3753
▁Elect 	 -3805
struction 	 -3817
Zr 	 -3828
▁ferro 	 -3831
▁copolymers 	 -3838
solute 	 -3842
ramolecular 	 -3850
▁fundam 	 -3852
cular 	 -3854
Sb 	 -3878
hyde 	 -3881
eady 	 -3892
▁precipit 	 -3895
▁disloc 	 -3910
4‐ 	 -3914
osite 	 -3915
gments 	 -3917
Experimental 	 -3922
3‐ 	 -3925
tific 	 -3950
▁corro 	 -3959
▁nanocomposites 	 -3969
▁deli 	 -3996
▁instrum 	 -4002
ositions 	 -4019
▁annealed 	 -4026
▁nanoshe 	 -4031
rary 	 -4056
enet 	 -4057
.8, 	 -4077
▁perovskite 	 -4078
▁underg 	 -4081
▁photocatalytic 	 -4085
▁indust 	 -4108
▁pse 	 -4115
▁⟨ 	 -4131
eled 	 -4147
amely 	 -4152
ystere 	 -4163
licit 	 -4164
ligible 	 -4195
ridine 	 -4244
riction 	 -4249
▁entrop 	 -4255
XRD 	 -4279
sat 	 -4288
.9, 	 -4291
.0, 	 -4292
▁blends 	 -4336
Color 	 -4346
▁insul 	 -4352
▁purp 	 -4354
Nb 	 -4369
pheres 	 -4373
▁nanofib 	 -4375
rangement 	 -4408
▁upt 	 -4425
▁quen 	 -4431
▁equi 	 -4442
▁collo 	 -4449
oriz 	 -4455
shap 	 -4457
crib 	 -4463
▁mig 	 -4464
rates 	 -4468
yond 	 -4469
Elect 	 -4491
▁aris 	 -4500
▁pristine 	 -4524
orizon 	 -4530
×10− 	 -4547
lood 	 -4551
▁turbul 	 -4553
▁vib 	 -4555
drich 	 -4563
▁GPa 	 -4575
▁addi 	 -4577
esides 	 -4578
itrile 	 -4580
▁phosphor 	 -4586
rial 	 -4594
shif 	 -4611
GaN 	 -4616
∫0 	 -4623
fect 	 -4631
▁mesop 	 -4633
fluid 	 -4653
▁nanosheets 	 -4695
▁piezo 	 -4697
1‐ 	 -4711
▁crystallinity 	 -4727
erestingly 	 -4735
llip 	 -4747
crystalline 	 -4760
endi 	 -4771
▁nanorod 	 -4776
▁penet 	 -4778
▁adjus 	 -4782
aracter 	 -4791
arison 	 -4798
▁hetero 	 -4800
▁acqui 	 -4805
ortex 	 -4810
▁powders 	 -4816
dyn 	 -4824
▁nanocomposite 	 -4829
omin 	 -4838
ucose 	 -4859
iety 	 -4870
0= 	 -4883
chit 	 -4892
▁ceramics 	 -4893
evertheless 	 -4901
▁superconduct 	 -4903
Conclusions 	 -4923
otential 	 -4925
▁ferroelectric 	 -4941
hane 	 -4942
NTR 	 -4951
nary 	 -4963
▁micrograph 	 -4967
WCNTs 	 -4992
▁substitu 	 -5011
onsid 	 -5018
▁centrif 	 -5033
mobil 	 -5034
ODUCTION 	 -5039
NTRODUCTION 	 -5047
▁vacancies 	 -5060
▁meV 	 -5066
apac 	 -5080
semble 	 -5082
bly 	 -5100
▁disti 	 -5103
▁attemp 	 -5119
ilm 	 -5127
EO 	 -5136
ZnO 	 -5137
▁sintering 	 -5153
).( 	 -5185
{\ 	 -5190
oratory 	 -5202
ulomb 	 -5213
WCNT 	 -5221
ichlor 	 -5222
ufact 	 -5257
cepti 	 -5273
▁spon 	 -5291
vature 	 -5297
▁disco 	 -5298
DOT 	 -5313
prepared 	 -5327
▁octa 	 -5348
▁[11 	 -5353
alysts 	 -5356
▁immedi 	 -5363
▁SiC 	 -5400
iated 	 -5403
assif 	 -5413
▁archit 	 -5416
▁monit 	 -5417
MnO 	 -5428
▁PMMA 	 -5432
▁suscepti 	 -5433
▁thermo 	 -5434
′‐ 	 -5441
Here 	 -5444
▁impurity 	 -5445
▁manufact 	 -5451
▁photoelectron 	 -5459
▁arbit 	 -5462
iscus 	 -5465
sisted 	 -5473
▁ITO 	 -5501
ffect 	 -5510
▁conser 	 -5518
=∑ 	 -5536
Synthesis 	 -5544
▁exciton 	 -5550
ierarch 	 -5552
▁volum 	 -5565
ounced 	 -5571
▁eigenval 	 -5578
▁[16 	 -5592
▁functionalized 	 -5600
feren 	 -5616
▁constra 	 -5619
NCLU 	 -5640
▁classif 	 -5648
rink 	 -5651
PLC 	 -5657
DFT 	 -5667
▁[17 	 -5674
ZT 	 -5676
6‐ 	 -5678
▁nanowire 	 -5679
lohex 	 -5690
▁HOMO 	 -5694
▁ferromagnetic 	 -5697
▁nanocrystals 	 -5698
▁boron 	 -5702
▁NCs 	 -5705
▁filam 	 -5722
homb 	 -5757
ysical 	 -5758
NCLUSION 	 -5759
hemistry 	 -5762
▁heterostructure 	 -5770
▁(00 	 -5781
substituted 	 -5795
▁PVA 	 -5796
▁degre 	 -5802
=12 	 -5803
▁sputtering 	 -5806
▁[19 	 -5807
▁zeol 	 -5808
unted 	 -5810
upling 	 -5811
styrene 	 -5833
LYP 	 -5836
junction 	 -5844
aracterization 	 -5845
5‐ 	 -5849
balt 	 -5850
▁2‐ 	 -5855
cord 	 -5860
▁mesoporous 	 -5865
▁photocurrent 	 -5870
disper 	 -5878
INTRODUCTION 	 -5894
▁nanorods 	 -5900
ientific 	 -5907
olet 	 -5910
licity 	 -5919
▁synch 	 -5925
.− 	 -5926
▁compris 	 -5941
▁SnO 	 -5957
)–( 	 -5972
▁transist 	 -5973
Pre 	 -5977
▁electrocat 	 -5989
▁nanofibers 	 -5995
lates 	 -6031
apan 	 -6033
stood 	 -6035
▁[12 	 -6036
▁acryl 	 -6041
ophene 	 -6042
▁chit 	 -6064
4− 	 -6071
▁predomin 	 -6074
WHM 	 -6076
.99 	 -6082
iscussion 	 -6083
ULTS 	 -6084
▁camer 	 -6085
Pc 	 -6093
.75 	 -6095
oltz 	 -6097
intered 	 -6098
▁NWs 	 -6129
(111) 	 -6132
Eu 	 -6134
▁vacancy 	 -6135
ocities 	 -6136
CONCLUSION 	 -6141
kBT 	 -6142
iversity 	 -6152
▁electrosp 	 -6154
infor 	 -6167
everal 	 -6174
0.25 	 -6175
▁asymp 	 -6180
▁semiconductors 	 -6200
▁interlayer 	 -6201
▁[13 	 -6205
▁hydrogenation 	 -6208
▁TGA 	 -6222
glomer 	 -6238
opolymer 	 -6244
iline 	 -6257
)­ 	 -6270
▁crosslinking 	 -6277
▁CdS 	 -6278
3.5 	 -6279
SCUS 	 -6287
saturated 	 -6290
SCUSSION 	 -6293
▁establis 	 -6299
pris 	 -6308
▁exclu 	 -6310
rapy 	 -6318
▁preferen 	 -6319
CSD 	 -6320
lections 	 -6324
=7 	 -6325
vanced 	 -6336
▁diffract 	 -6371
▁immers 	 -6374
▁phy 	 -6377
culated 	 -6378
▁hydrothermal 	 -6399
volta 	 -6405
▁calib 	 -6413
▁anod 	 -6419
crystal 	 -6421
▁NiO 	 -6426
gonal 	 -6427
wit 	 -6431
olding 	 -6433
onduc 	 -6441
QDs 	 -6442
tok 	 -6452
▁plasmas 	 -6455
uest 	 -6459
▁filler 	 -6462
15) 	 -6463
▁[25 	 -6476
▁preser 	 -6480
EMA 	 -6493
▁alumina 	 -6501
▁micrographs 	 -6504
‐1 	 -6508
▁asympto 	 -6515
ollowing 	 -6521
ressure 	 -6525
▁sintered 	 -6527
PER 	 -6528
▁MgO 	 -6531
▁affor 	 -6548
14) 	 -6549
▁agglomer 	 -6569
bonding 	 -6571
▁facile 	 -6576
▁rGO 	 -6589
WO 	 -6599
ZO 	 -6600
2.4 	 -6623
SiC 	 -6633
ript 	 -6635
attered 	 -6652
GaAs 	 -6670
▁neat 	 -6671
)2] 	 -6673
agneti 	 -6678
atment 	 -6679
▁asp 	 -6684
▁dopant 	 -6685
▁bandgap 	 -6687
ammet 	 -6690
−12 	 -6700
oselectivity 	 -6704
riefly 	 -6706
eV 	 -6708
▁cytotox 	 -6719
linic 	 -6726
4.5 	 -6727
3)2 	 -6734
bilities 	 -6735
imes 	 -6745
vities 	 -6746
▁nanotube 	 -6748
▁ferr 	 -6749
rolled 	 -6752
(0 	 -6755
struct 	 -6759
yne 	 -6760
▁transmittance 	 -6762
▁collap 	 -6771
▁initio 	 -6772
▁PCL 	 -6777
▁[27 	 -6788
TAB 	 -6789
icles 	 -6790
▁electrolytes 	 -6793
RESULTS 	 -6796
▁supramolecular 	 -6797
oselective 	 -6798
rance 	 -6799
▁PANI 	 -6800
▁foil 	 -6810
▁substituents 	 -6815
▁Instrum 	 -6816
▁PEDOT 	 -6823
fluidic 	 -6828
▁polycrystalline 	 -6834
▁photovolta 	 -6841
▁dislocations 	 -6845
fluoro 	 -6864
rapol 	 -6865
▁Bruker 	 -6869
electronic 	 -6873
=8 	 -6875
rapeu 	 -6896
lattice 	 -6897
▁vinyl 	 -6900
▁epitaxial 	 -6904
irac 	 -6908
▁reinfor 	 -6910
alladium 	 -6915
}} 	 -6917
quis 	 -6921
▁polyn 	 -6923
tigue 	 -6926
ativistic 	 -6930
▁Yb 	 -6931
irical 	 -6932
16) 	 -6941
▁[28 	 -6943
From 	 -6947
Tf 	 -6952
matically 	 -6958
▁curing 	 -6960
ultim 	 -6964
▁degra 	 -6968
ucid 	 -6974
fers 	 -6975
discharge 	 -6977
orphyrin 	 -6980
othermic 	 -6984
▁recyc 	 -6993
Py 	 -6994
angular 	 -6996
▁LUMO 	 -6997
stra 	 -6998
hanol 	 -6999
▁imid 	 -7002
DMA 	 -7014
.3.2 	 -7022
▁PVDF 	 -7025
▁artific 	 -7028
▁miner 	 -7039
▁MOF 	 -7040
▁enthalpy 	 -7044
▁PES 	 -7049
ewis 	 -7057
rGO 	 -7060
)2( 	 -7062
▁tetragonal 	 -7065
rochemical 	 -7068
▁[22 	 -7069
perture 	 -7072
IMENT 	 -7077
PERIMENT 	 -7081
▁orthog 	 -7095
▁bubb 	 -7100
hydride 	 -7101
NIPA 	 -7105
opyright 	 -7108
▁voltammet 	 -7114
oltzmann 	 -7115
▁[21 	 -7119
▁[29 	 -7122
isper 	 -7131
▁PEO 	 -7133
)4 	 -7134
▁isotherms 	 -7140
▁MnO 	 -7142
3+, 	 -7144
▁pyridine 	 -7148
=6 	 -7155
▁nanomaterials 	 -7175
▁[23 	 -7178
sistent 	 -7183
▁biocompati 	 -7214
vial 	 -7232
▁dischar 	 -7235
▁grafted 	 -7241
▁(99 	 -7244
▁carboxylic 	 -7246
tides 	 -7251
▁eqn 	 -7253
▁antifer 	 -7257
▁[24 	 -7269
▁exfol 	 -7281
▁reser 	 -7282
.95 	 -7287
obenzene 	 -7298
▁HRTEM 	 -7308
lications 	 -7310
articles 	 -7311
PbI 	 -7313
▁stoichiometric 	 -7317
rant 	 -7323
▁KOH 	 -7325
▁clo 	 -7326
COOH 	 -7331
AFM 	 -7333
▁10−3 	 -7339
▁diagnos 	 -7342
Conclusion 	 -7344
▁autoc 	 -7347
▁fabricate 	 -7349
∕2 	 -7351
▁10−1 	 -7355
▁supercapac 	 -7357
pended 	 -7366
bile 	 -7371
0− 	 -7372
Gd 	 -7375
0.15 	 -7382
.2.2 	 -7383
assembled 	 -7387
▁patterned 	 -7400
▁enco 	 -7401
▁hopping 	 -7405
▁CuO 	 -7407
electrode 	 -7413
EXPERIMENT 	 -7420
▁Waals 	 -7435
XPS 	 -7440
▁anionic 	 -7442
=10 	 -7449
▁equilib 	 -7453
astere 	 -7458
icro 	 -7459
▁SERS 	 -7479
▁argum 	 -7483
▁fibro 	 -7487
benzene 	 -7489
There 	 -7490
▁DMA 	 -7491
Supporting 	 -7493
▁polystyrene 	 -7494
.60 	 -7500
posited 	 -7502
▁ultim 	 -7505
▁WO 	 -7511
tokes 	 -7513
.90 	 -7515
▁ORR 	 -7517
hombic 	 -7521
▁[26 	 -7522
▁1‐ 	 -7524
▁photovoltaic 	 -7531
Preparation 	 -7534
▁EDS 	 -7535
▁CeO 	 -7538
▁isothermal 	 -7542
equilibrium 	 -7543
−2, 	 -7546
‐2 	 -7551
▁quenched 	 -7553
electroly 	 -7555
▁initiator 	 -7559
)=( 	 -7574
resent 	 -7576
▁repulsion 	 -7579
▁(111) 	 -7585
‐2‐ 	 -7594
▁opto 	 -7608
▁plasmonic 	 -7609
▁4‐ 	 -7613
∂∂ 	 -7616
▁insp 	 -7624
▁ske 	 -7630
▁furnace 	 -7634
▁diffractometer 	 -7637
)=− 	 -7642
dra 	 -7646
hydrous 	 -7657
▁deuter 	 -7658
▁benzyl 	 -7663
bial 	 -7665
attices 	 -7671
▁acquis 	 -7678
violet 	 -7679
MoS 	 -7680
▁(° 	 -7683
▁zeolite 	 -7686
=[ 	 -7687
ircon 	 -7688
PES 	 -7690
With 	 -7702
▁cantilever 	 -7707
▁alcohols 	 -7714
ureth 	 -7715
▁metastable 	 -7716
▁polariz 	 -7724
anar 	 -7729
▁tough 	 -7732
▁$\ 	 -7740
MoO 	 -7741
.65 	 -7745
functionalized 	 -7755
voir 	 -7760
ynolds 	 -7761
▁octahedral 	 -7763
.% 	 -7767
▁diastere 	 -7775
▁surpris 	 -7780
enyl 	 -7784
FeO 	 -7793
culation 	 -7798
onductivity 	 -7802
17) 	 -7808
CONCLUSIONS 	 -7809
monium 	 -7812
▁recrystall 	 -7830
▁ALD 	 -7831
ottky 	 -7836
iphatic 	 -7839
Electronic 	 -7843
emission 	 -7845
▁AlN 	 -7848
.98 	 -7860
▁insulating 	 -7864
▁etch 	 -7872
ringe 	 -7875
film 	 -7876
QE 	 -7877
▁palladium 	 -7886
upled 	 -7904
▁DOS 	 -7907
Finally 	 -7911
silic 	 -7919
hiph 	 -7924
ingle 	 -7927
▁AuNPs 	 -7928
▁isotherm 	 -7929
uminescent 	 -7932
vect 	 -7950
THF 	 -7953
▁coerc 	 -7954
hydroph 	 -7957
)=∑ 	 -7960
coupling 	 -7970
▁cyclohex 	 -7977
knowledgements 	 -7978
▁microstructures 	 -7980
bonded 	 -7984
▁anodic 	 -7985
)⟩ 	 -7987
ograv 	 -7992
.(3 	 -7998
▁voltammetry 	 -8004
▁10−4 	 -8007
▁ast 	 -8018
orhombic 	 -8023
edical 	 -8026
▁solvation 	 -8030
scheme 	 -8031
▁enlar 	 -8039
−0. 	 -8041
▁MOFs 	 -8044
.80 	 -8060
FTIR 	 -8062
.67 	 -8063
▁FWHM 	 -8071
)∂ 	 -8073
▁methacrylate 	 -8078
▁ZrO 	 -8080
▁nitride 	 -8083
vice 	 -8085
Yb 	 -8086
hydrate 	 -8088
anthan 	 -8095
NRs 	 -8096
.70 	 -8102
▁anhydrous 	 -8104
Characterization 	 -8105
.85 	 -8107
mersion 	 -8108
▁fulle 	 -8110
▁milling 	 -8111
▁fluence 	 -8113
apphire 	 -8114
meric 	 -8117
▁styrene 	 -8120
▁Bragg 	 -8130
ints 	 -8132
▁ɛ 	 -8137
alkyl 	 -8138
▁weld 	 -8146
▁lifetimes 	 -8147
LEDs 	 -8155
2.3 	 -8158
tity 	 -8161
cetic 	 -8168
▁trib 	 -8170
▁deco 	 -8177
▁glassy 	 -8183
.96 	 -8186
morph 	 -8197
▁alkali 	 -8200
2@ 	 -8208
▁precipitates 	 -8213
▁toughness 	 -8215
▁undoped 	 -8222
′= 	 -8224
▁MWCNTs 	 -8225
▁dispersive 	 -8235
Acknowledgements 	 -8241
EOL 	 -8246
onon 	 -8249
▁methylene 	 -8253
When 	 -8259
▁waven 	 -8263
}\ 	 -8269
▁Ini 	 -8282
synthe 	 -8284
olu 	 -8285
▁crosslinked 	 -8286
▁(100) 	 -8291
ammonium 	 -8299
▁calcination 	 -8302
.68 	 -8306
.97 	 -8310
▁elu 	 -8311
EXPERIMENTAL 	 -8312
▁Inset 	 -8316
ranged 	 -8324
▁incomp 	 -8328
▁tungsten 	 -8333
Effect 	 -8334
▁pyrolysis 	 -8340
inction 	 -8349
ectic 	 -8351
▁PVP 	 -8352
39/ 	 -8353
‐( 	 -8355
gthen 	 -8359
▁magneto 	 -8366
⋅⋅ 	 -8369
▁aliphatic 	 -8381
4@ 	 -8382
▁sandw 	 -8386
Materials 	 -8387
0.10 	 -8390
QD 	 -8391
▁permeation 	 -8393
▁10−5 	 -8396
bye 	 -8397
▁Detail 	 -8398
▁nanod 	 -8403
Since 	 -8407
▁etched 	 -8408
▁anatase 	 -8410
‐1, 	 -8417
▁zircon 	 -8421
−1; 	 -8424
By 	 -8427
COO 	 -8434
Tm 	 -8436
▁crystallite 	 -8437
deposited 	 -8438
▁10.1039/ 	 -8439
.66 	 -8440
▁dehyd 	 -8446
planar 	 -8448
{1 	 -8449
▁paramagnetic 	 -8455
▁thermoelectric 	 -8456
▁tetrahedral 	 -8458
7.5 	 -8473
ogels 	 -8476
Hf 	 -8478
angmu 	 -8482
▁dichloromethane 	 -8484
▁Schottky 	 -8485
henium 	 -8486
ignific 	 -8488
athin 	 -8489
}$ 	 -8491
▁∼10 	 -8495
▁PCE 	 -8496
angmuir 	 -8500
aphthal 	 -8501
▁mangan 	 -8513
▁percol 	 -8514
0.12 	 -8517
▁notic 	 -8519
▁macromo 	 -8524
roton 	 -8531
▁orthorhombic 	 -8533
▁categ 	 -8534
Cat 	 -8536
▁PZT 	 -8539
▁survi 	 -8540
▁mAh 	 -8543
▁Torr 	 -8547
▁cyclization 	 -8551
▁ATR 	 -8553
18) 	 -8556
▁nucleophilic 	 -8557
grown 	 -8559
▁ 	 -8562
asured 	 -8564
▁surfactants 	 -8565
⋅⋅⋅ 	 -8566
PMMA 	 -8567
▁resins 	 -8571
solvent 	 -8579
▁phonons 	 -8580
inte 	 -8584
▁monoclinic 	 -8585
−2. 	 -8586
▁Aldrich 	 -8589
▁toroidal 	 -8590
layers 	 -8595
.94 	 -8599
electrolyte 	 -8605
.78 	 -8606
ogravimetric 	 -8614
▁amphiph 	 -8615
rotron 	 -8616
▁reflectivity 	 -8619
ensif 	 -8622
▁ribbon 	 -8623
▁titan 	 -8629
▁10−6 	 -8633
▁EDX 	 -8635
tly 	 -8641
CPD 	 -8643
licts 	 -8645
.88 	 -8647
▁reactants 	 -8648
SCF 	 -8651
▁calcined 	 -8652
‐3 	 -8661
▁ultraf 	 -8674
▁GPC 	 -8679
▁ILs 	 -8682
conversion 	 -8683
▁Oe 	 -8685
▁hexane 	 -8686
.64 	 -8697
▁wetting 	 -8711
graphene 	 -8712
▁Stu 	 -8718
▁uniaxial 	 -8719
uctive 	 -8720
membered 	 -8729
pyrid 	 -8736
CDCl 	 -8738
.76 	 -8744
▁repulsive 	 -8745
hmic 	 -8751
▁indium 	 -8755
Let 	 -8759
▁photodet 	 -8761
rier 	 -8770
▁(001) 	 -8771
roduced 	 -8772
▁MoO 	 -8774
▁OER 	 -8776
urethane 	 -8777
▁CdSe 	 -8778
minist 	 -8780
▁InAs 	 -8783
Comparison 	 -8785
CVD 	 -8788
SZ 	 -8790
▁porphyrin 	 -8791
▁Debye 	 -8799
ogener 	 -8803
visible 	 -8805
▁fluorine 	 -8810
TION 	 -8813
▁ultrathin 	 -8815
▁dendrim 	 -8816
▁photocatalyst 	 -8826
▁carbons 	 -8828
▁dipolar 	 -8829
.93 	 -8833
▁accom 	 -8836
▁PEI 	 -8839
▁RGO 	 -8847
▁insulator 	 -8848
alent 	 -8858
LG 	 -8873
▁nanostructured 	 -8875
0.75 	 -8879
benzyl 	 -8880
▁biode 	 -8881
NCs 	 -8883
.63 	 -8885
sity 	 -8893
Phot 	 -8894
desorption 	 -8896
0.13 	 -8897
dehyd 	 -8899
▁lanthan 	 -8900
▁prel 	 -8904
▁monod 	 -8908
▁90° 	 -8910
▁quater 	 -8915
DSC 	 -8920
emitting 	 -8939
▁CHCl 	 -8944
]− 	 -8950
.77 	 -8958
▁substituent 	 -8961
VB 	 -8962
▁casting 	 -8966
.69 	 -8968
▁azim 	 -8969
▁passivation 	 -8970
reep 	 -8976
▁heterojunction 	 -8977
inset 	 -8983
structural 	 -8985
▁mart 	 -9005
MOS 	 -9007
▁viscoelastic 	 -9012
▁reactant 	 -9019
▁lithography 	 -9020
phonon 	 -9023
hil 	 -9024
.86 	 -9025
opent 	 -9026
benzo 	 -9027
MOF 	 -9029
▁vortices 	 -9031
umably 	 -9033
zzle 	 -9035
▁cycload 	 -9038
▁Mw 	 -9039
sitive 	 -9047
PEI 	 -9053
▁halogen 	 -9054
▁hydride 	 -9058
/[ 	 -9065
0.000 	 -9078
.87 	 -9080
PCL 	 -9082
ZrO 	 -9086
13) 	 -9088
synthesized 	 -9095
pyridine 	 -9096
▁ortho 	 -9100
▁lamellar 	 -9102
▁apprec 	 -9105
Ln 	 -9107
▁excitons 	 -9112
2∕ 	 -9113
▁ferrite 	 -9114
▁PBE 	 -9116
Schematic 	 -9119
▁displace 	 -9124
▁aldehyde 	 -9125
alytical 	 -9131
▁cathodic 	 -9132
Sample 	 -9140
=∫ 	 -9146
ncy 	 -9149
▁intercalation 	 -9155
Our 	 -9157
kT 	 -9159
PPh 	 -9160
ocat 	 -9161
▁PAA 	 -9163
–1, 	 -9165
.3.3 	 -9171
▁functionals 	 -9176
▁accep 	 -9180
bpy 	 -9183
▁1.( 	 -9185
apsh 	 -9195
hydrophobic 	 -9199
▁PPy 	 -9201
ossible 	 -9202
.89 	 -9204
▁wafers 	 -9207
▁diethyl 	 -9210
3.3 	 -9212
.74 	 -9213
onlin 	 -9214
rhen 	 -9217
doping 	 -9219
°) 	 -9224
thyl 	 -9225
▁dispersions 	 -9226
Further 	 -9227
⟩, 	 -9228
tabletable 	 -9229
▁deproton 	 -9230
▁absorber 	 -9234
elibrary 	 -9235
onlinelibrary 	 -9236
▁wiley 	 -9239
▁skele 	 -9247
.92 	 -9249
xO 	 -9252
.84 	 -9256
furan 	 -9259
12( 	 -9260
▁zeta 	 -9273
.(2 	 -9277
dehydes 	 -9279
▁stoichiometry 	 -9283
EK 	 -9286
▁supercell 	 -9287
After 	 -9289
▁semiconducting 	 -9291
azolium 	 -9294
▁Tran 	 -9296
▁pyrid 	 -9301
ocyc 	 -9307
rozen 	 -9312
▁photocatalysts 	 -9313
yste 	 -9315
▁biomo 	 -9319
rhenius 	 -9321
∂2 	 -9322
▁spinel 	 -9329
▁Curie 	 -9336
onically 	 -9339
▁BET 	 -9340
4)2 	 -9341
▁bench 	 -9344
▁alkyn 	 -9346
uthenium 	 -9350
MMA 	 -9352
▁PLLA 	 -9353
▁CCSD 	 -9354
RGO 	 -9355
▁optoelectronic 	 -9358
ouin 	 -9365
NW 	 -9373
FETs 	 -9376
.79 	 -9380
▁shielding 	 -9384
tally 	 -9385
▁creep 	 -9390
illouin 	 -9391
atoms 	 -9397
princip 	 -9399
tBu 	 -9400
=0.5 	 -9402
centration 	 -9403
3· 	 -9405
shifted 	 -9408
abrication 	 -9411
▁emitter 	 -9412
dotted 	 -9413
atches 	 -9416
▁3‐ 	 -9418
▁ZIF 	 -9422
hfill 	 -9425
)6 	 -9426
=−1 	 -9427
▁Reproduced 	 -9428
={ 	 -9436
TGA 	 -9438
.73 	 -9439
DMF 	 -9440
learly 	 -9445
−5 	 -9446
▁voids 	 -9448
ynthetic 	 -9450
JH 	 -9452
AFS 	 -9454
−0.0 	 -9462
▁HfO 	 -9463
AgCl 	 -9464
CPDS 	 -9465
▁thermodynam 	 -9466
dW 	 -9467
▁QW 	 -9470
actone 	 -9480
▁dopants 	 -9484
brom 	 -9491
.83 	 -9494
▁slur 	 -9497
▁pinning 	 -9498
metallic 	 -9507
▁voltamm 	 -9511
▁protonated 	 -9513
oluene 	 -9514
▁nanob 	 -9515
IBs 	 -9517
radiative 	 -9519
▁schematically 	 -9522
.62 	 -9523
Nd 	 -9526
These 	 -9527
▁photogener 	 -9528
▁heavi 	 -9532
SnO 	 -9535
▁administ 	 -9538
tability 	 -9546
adiene 	 -9548
▁Xe 	 -9551
▁JEOL 	 -9552
)2, 	 -9557
▁binder 	 -9559
arency 	 -9570
­[ 	 -9574
riend 	 -9583
rocal 	 -9587
tert 	 -9590
▁polydisper 	 -9591
magnetic 	 -9593
alcogen 	 -9594
▁dup 	 -9595
netically 	 -9598
▁crystallites 	 -9603
Although 	 -9608
embrane 	 -9613
▁Brillouin 	 -9619
fion 	 -9620
▁conductivities 	 -9621
lexes 	 -9624
nihil 	 -9625
silyl 	 -9626
:1) 	 -9628
imetallic 	 -9631
etri 	 -9636
▁ZnS 	 -9639
bip 	 -9640
▁MWCNT 	 -9641
LUMO 	 -9648
▁veh 	 -9649
Tb 	 -9656
▁2.( 	 -9658
ESEM 	 -9662
(00 	 -9664
ematic 	 -9667
0.11 	 -9673
.2.3 	 -9678
agnet 	 -9679
▁fcc 	 -9688
terminated 	 -9691
▁annihil 	 -9694
,8 	 -9696
▁complexation 	 -9697
aniline 	 -9698
▁mJ 	 -9700
hanced 	 -9706
▁[% 	 -9708
▁crystallized 	 -9713
ilane 	 -9714
▁nozzle 	 -9716
utile 	 -9717
.(4 	 -9723
orene 	 -9724
▁linewidth 	 -9726
▁noble 	 -9727
elow 	 -9728
)2+ 	 -9730
emma 	 -9738
,10 	 -9739
Temperature 	 -9748
Eg 	 -9750
NiO 	 -9756
▁micelle 	 -9759
▁PVC 	 -9762
▁energetically 	 -9764
ilms 	 -9765
mim 	 -9766
▁percolation 	 -9777
LDI 	 -9787
Using 	 -9790
▁mbar 	 -9792
layered 	 -9793
PEO 	 -9795
▁FET 	 -9800
razine 	 -9801
2⟩ 	 -9809
▁fillers 	 -9812
▁silicate 	 -9813
▁overpotential 	 -9815
0.99 	 -9819
However 	 -9820
spect 	 -9821
▁isomerization 	 -9823
▁foams 	 -9828
optosis 	 -9837
zag 	 -9841
▁abrup 	 -9843
▁Arrhenius 	 -9845
LED 	 -9848
aceutical 	 -9849
NIPAM 	 -9850
▁cumul 	 -9852
▁molten 	 -9854
NWs 	 -9856
▁luminescent 	 -9863
isomer 	 -9864
▁exothermic 	 -9866
▁guar 	 -9869
urability 	 -9872
0.14 	 -9873
ufficient 	 -9875
ucleo 	 -9877
asma 	 -9879
∫− 	 -9880
sts 	 -9886
cas 	 -9891
hanghai 	 -9895
propylene 	 -9899
OCH 	 -9900
PVA 	 -9902
iltration 	 -9904
▁capacitive 	 -9906
▁polished 	 -9914
▁satell 	 -9916
rides 	 -9919
▁graphitic 	 -9928
OMe 	 -9934
.05 	 -9935
drawing 	 -9937
+12 	 -9938
▁photogenerated 	 -9940
▁reductive 	 -9943
▁dropwise 	 -9951
ramatic 	 -9962
integ 	 -9976
cooled 	 -9985
osilic 	 -9994
▁(≈ 	 -9998
0.16 	 -10002
)=1 	 -10003
▁fullerene 	 -10006
▁undere 	 -10009
▁sapphire 	 -10010
▁EIS 	 -10014
0.02 	 -10017
▁hyperb 	 -10019
anion 	 -10023
▁stretched 	 -10029
▁rew 	 -10032
coating 	 -10033
▁calorimetry 	 -10034
dV 	 -10035
3.4 	 -10036
–1) 	 -10037
▁adsorbent 	 -10039
▁carboxylate 	 -10047
▁ionized 	 -10048
PDMS 	 -10050
PDA 	 -10051
.72 	 -10054
Appendix 	 -10060
CeO 	 -10062
)5 	 -10063
▁ferrom 	 -10064
‐5 	 -10072
probe 	 -10073
−3, 	 -10077
Oe 	 -10078
oxides 	 -10079
▁3.( 	 -10084
▁amphiphilic 	 -10090
▁thio 	 -10093
(13) 	 -10102
gradable 	 -10115
restim 	 -10116
▁instabilities 	 -10120
▁CZ 	 -10130
▁sulfide 	 -10132
▁vacuo 	 -10143
▁anhydride 	 -10144
,9 	 -10145
▁halide 	 -10152
verestim 	 -10157
▁Reag 	 -10160
▁overestim 	 -10174
▁CoFe 	 -10177
ulph 	 -10180
▁gelation 	 -10181
atil 	 -10187
opolymers 	 -10191
▁rheological 	 -10193
▁chirality 	 -10195
⟩= 	 -10200
acceptor 	 -10203
Method 	 -10204
▁TFT 	 -10205
(∂ 	 -10214
▁rutile 	 -10216
▁lamell 	 -10217
agnetism 	 -10220
CoO 	 -10227
▁unexp 	 -10229
ubb 	 -10232
▁spinning 	 -10237
▁underestim 	 -10243
uthal 	 -10244
[− 	 -10246
▁nanospheres 	 -10247
▁colorless 	 -10248
0.17 	 -10249
−1] 	 -10257
atorial 	 -10265
,12 	 -10266
▁aust 	 -10268
ClO 	 -10269
▁adduct 	 -10272
ondens 	 -10273
▁pock 	 -10276
▁capping 	 -10277
2)2 	 -10282
rangements 	 -10284
ysteine 	 -10288
▁protonation 	 -10290
‐4 	 -10291
heter 	 -10294
▁electrospun 	 -10296
▁nematic 	 -10298
▁acrylate 	 -10299
▁aldehydes 	 -10301
▁bilayers 	 -10305
edim 	 -10310
xN 	 -10311
itational 	 -10312
▁eut 	 -10313
enedi 	 -10314
▁zig 	 -10316
MgO 	 -10318
,11 	 -10320
accharide 	 -10323
fine 	 -10333
▁electrospinning 	 -10336
▁compres 	 -10337
▁532 	 -10341
▁ketone 	 -10342
▁STO 	 -10348
▁DLS 	 -10349
0.03 	 -10352
▁regi 	 -10353
Gener 	 -10356
∫0∞ 	 -10359
oom 	 -10361
5+ 	 -10362
.(2) 	 -10371
.82 	 -10374
cury 	 -10375
quiring 	 -10377
▁Voc 	 -10379
thiophene 	 -10384
OTf 	 -10389
▁vial 	 -10390
▁agglomeration 	 -10391
fluoromethyl 	 -10392
dies 	 -10401
30) 	 -10405
▁flakes 	 -10410
0.20 	 -10413
Yield 	 -10415
25) 	 -10416
−3) 	 -10419
▁wavenumber 	 -10424
KBr 	 -10426
2 	 -10430
lyb 	 -10432
▁nanocl 	 -10433
antom 	 -10440
▁TOF 	 -10443
▁dipoles 	 -10446
tosecond 	 -10447
ITO 	 -10448
eflon 	 -10449
▁austen 	 -10465
1′ 	 -10466
aseous 	 -10467
=9 	 -10471
▁quaternary 	 -10473
acene 	 -10475
▁cycloaddition 	 -10478
.61 	 -10481
.08 	 -10486
▁solit 	 -10487
PANI 	 -10493
0.04 	 -10494
CdS 	 -10496
ligand 	 -10501
▁notew 	 -10503
▁wettability 	 -10505
▁slurry 	 -10506
▁doublet 	 -10507
▁ruthenium 	 -10508
▁autocl 	 -10510
NbO 	 -10512
▁bulky 	 -10517
instein 	 -10522
Cont 	 -10524
▁Calculated 	 -10527
▁LEDs 	 -10528
▁biot 	 -10532
▁nanofiber 	 -10534
▁Nafion 	 -10537
▁TiN 	 -10538
▁indentation 	 -10542
▁azimuthal 	 -10548
lating 	 -10554
Mw 	 -10556
)∣ 	 -10561
assed 	 -10562
NIR 	 -10565
onductor 	 -10566
▁Seebeck 	 -10567
0.06 	 -10568
‐1‐ 	 -10570
cape 	 -10572
▁hexa 	 -10576
.91 	 -10577
^{ 	 -10579
]= 	 -10580
lest 	 -10582
LDH 	 -10588
▁latex 	 -10590
According 	 -10596
riendly 	 -10598
▁tert 	 -10599
ntry 	 -10613
cyclic 	 -10625
resentative 	 -10627
principles 	 -10628
ocyclic 	 -10629
▁sedim 	 -10630
ometallic 	 -10631
(100) 	 -10635
▁durability 	 -10637
▁parab 	 -10638
▁monochrom 	 -10645
▁strained 	 -10647
▁coalescence 	 -10648
▁phosphors 	 -10664
▁hydrated 	 -10666
▁snapsh 	 -10670
▁azide 	 -10673
▁Perkin 	 -10677
▁allyl 	 -10682
bromo 	 -10683
▁hydrate 	 -10684
0.18 	 -10685
▁alkyne 	 -10686
BCO 	 -10688
▁sacrif 	 -10698
→0 	 -10701
▁microchannel 	 -10702
igorous 	 -10714
▁sonication 	 -10721
▁SrTiO 	 -10725
▁brit 	 -10726
▁spher 	 -10727
esters 	 -10736
aphthalene 	 -10744
▁synchrotron 	 -10745
▁NRs 	 -10747
▁molyb 	 -10753
▁gaseous 	 -10754
itachi 	 -10762
▁nanometer 	 -10763
expon 	 -10765
temp 	 -10766
andard 	 -10767
▁mitochond 	 -10768
▁thinner 	 -10772
▁impregn 	 -10773
▁carbide 	 -10774
▁extrusion 	 -10775
PAA 	 -10779
excited 	 -10783
×10−1 	 -10786
emulsion 	 -10793
▁poloidal 	 -10795
▁nanocrystalline 	 -10800
,13 	 -10801
methoxy 	 -10803
,17 	 -10805
▁perovskites 	 -10806
amides 	 -10808
▁exfoliation 	 -10809
0.95 	 -10810
▁galvan 	 -10812
▁vorticity 	 -10813
exponential 	 -10814
illars 	 -10818
.06 	 -10819
EDS 	 -10821
renes 	 -10822
▁(110) 	 -10825
▁thermop 	 -10827
▁SPR 	 -10831
.07 	 -10832
▁destro 	 -10841
MeOH 	 -10843
covalent 	 -10847
▁insets 	 -10848
owder 	 -10849
▁BaTiO 	 -10855
excitation 	 -10857
▁microstructural 	 -10859
irradi 	 -10860
=13 	 -10862
HCO 	 -10864
▁Electrochemical 	 -10865
trimethyl 	 -10867
▁CdTe 	 -10868
0.08 	 -10871
scattering 	 -10882
ilbert 	 -10885
▁photoan 	 -10890
▁brack 	 -10895
ubric 	 -10897
rö 	 -10900
▁hardening 	 -10903
▁quadrupole 	 -10908
imad 	 -10910
▁coercivity 	 -10911
▁Ea 	 -10917
sif 	 -10918
occupied 	 -10920
Vari 	 -10921
olyl 	 -10929
roxim 	 -10931
▁CDs 	 -10934
−6 	 -10936
PBE 	 -10937
STEM 	 -10940
▁SAXS 	 -10941
diphenyl 	 -10942
glass 	 -10945
racellular 	 -10946
▁covalently 	 -10949
Thus 	 -10950
ummary 	 -10951
)∕ 	 -10954
▁supercapacitors 	 -10955
imadzu 	 -10957
▁acidity 	 -10961
▁hindered 	 -10962
▁homopolymer 	 -10963
▁dependences 	 -10965
inium 	 -10974
▁chemis 	 -10982
▁hydrophobicity 	 -10984
hertz 	 -10990
+∑ 	 -10992
hydrofuran 	 -10996
▁benzo 	 -10998
substrate 	 -10999
aromatic 	 -11003
▁antibio 	 -11010
▁AgNPs 	 -11016
,18 	 -11017
rapped 	 -11020
′− 	 -11021
▁Teflon 	 -11022
umerical 	 -11026
▁magnets 	 -11027
ohedral 	 -11028
▁diffusive 	 -11033
ringes 	 -11036
3[ 	 -11038
Poly 	 -11042
▁olefin 	 -11043
▁zigzag 	 -11045
▁glove 	 -11051
radical 	 -11052
▁polarizability 	 -11055
DOX 	 -11056
▁vanadium 	 -11057
▁acceptors 	 -11061
▁sputtered 	 -11062
kz 	 -11066
Dy 	 -11077
▁emis 	 -11079
▁Nyquist 	 -11080
▁Landau 	 -11082
Nx 	 -11084
Elmer 	 -11088
quinone 	 -11095
▁densif 	 -11102
▁oxidant 	 -11103
PCE 	 -11106
▁femtosecond 	 -11109
,19 	 -11110
▁10−2 	 -11113
apsules 	 -11116
▁QM 	 -11117
.71 	 -11118
0001) 	 -11126
dden 	 -11127
–27 	 -11128
PbBr 	 -11129
▁mobilities 	 -11132
JCPDS 	 -11134
ensite 	 -11136
.,, 	 -11140
▁zeolites 	 -11141
.09 	 -11143
MMT 	 -11146
phenol 	 -11149
▁rhomb 	 -11151
▁spik 	 -11153
▁∼2 	 -11156
ushes 	 -11158
▁FTO 	 -11160
ocalized 	 -11162
▁monodisper 	 -11163
isopropyl 	 -11166
▁thermost 	 -11170
2· 	 -11172
Hydro 	 -11173
–29 	 -11174
▁scaven 	 -11181
addle 	 -11183
▁RhB 	 -11184
▁chlorine 	 -11185
ausible 	 -11189
=0.3 	 -11190
▁∼1 	 -11192
▁PDI 	 -11197
▁inelastic 	 -11198
ocalization 	 -11203
.12, 	 -11206
▁ration 	 -11207
10), 	 -11211
ynyl 	 -11214
tilde 	 -11216
▁PSCs 	 -11217
▁RHE 	 -11222
silica 	 -11225
zers 	 -11226
2′ 	 -11236
▁∼5 	 -11240
Discussion 	 -11242
▁SWCNT 	 -11247
▁bimetallic 	 -11248
▁nucleoph 	 -11251
FWHM 	 -11252
More 	 -11255
▁kOe 	 -11258
entries 	 -11259
▁destr 	 -11261
embers 	 -11263
veld 	 -11270
,20 	 -11274
Diff 	 -11276
=0) 	 -11284
▁integra 	 -11286
.04 	 -11287
▁supercapacitor 	 -11289
Flu 	 -11291
1∕ 	 -11293
Theore 	 -11294
▁sulfon 	 -11298
tifact 	 -11304
▁ħ 	 -11306
kam 	 -11309
▁alginate 	 -11316
ubstituted 	 -11321
ulties 	 -11324
ionization 	 -11326
▁autoclave 	 -11327
▁pKa 	 -11329
Raman 	 -11331
▁bend 	 -11335
▁NiCo 	 -11337
imeth 	 -11347
▁hone 	 -11349
▁magnetron 	 -11359
▁SWCNTs 	 -11361
tun 	 -11365
0.19 	 -11368
▁thermodynamics 	 -11369
Another 	 -11373
5/2 	 -11374
ichael 	 -11376
denum 	 -11378
elected 	 -11380
Thermal 	 -11381
1/3 	 -11382
▁cathodes 	 -11383
▁TBA 	 -11384
▁photochemical 	 -11388
(001) 	 -11393
▁ultrafast 	 -11399
⟩⟨ 	 -11400
▁Hc 	 -11402
onite 	 -11407
orescent 	 -11410
▁sily 	 -11413
▁EQE 	 -11414
etveld 	 -11416
Recently 	 -11421
▁annihilation 	 -11422
▁resistances 	 -11424
‐2, 	 -11427
▁Jsc 	 -11434
situ 	 -11436
▁compart 	 -11437
▁reconn 	 -11441
,14 	 -11443
fins 	 -11445
▁emulsions 	 -11448
▁BFO 	 -11449
inic 	 -11451
▁unmodified 	 -11453
50) 	 -11454
rong 	 -11457
▁cholester 	 -11459
.13, 	 -11460
▁cracking 	 -11464
▁4.( 	 -11467
arbonyl 	 -11469
▁emitters 	 -11473
arting 	 -11481
▁aniline 	 -11482
Surface 	 -11487
transp 	 -11488
‐6 	 -11491
▁MHD 	 -11493
▁MMA 	 -11495
▁defini 	 -11496
▁ASupplementary 	 -11499
2)+ 	 -11502
ocum 	 -11503
catalyst 	 -11517
entally 	 -11519
▁syntheses 	 -11521
0.22 	 -11524
▁Cyclic 	 -11528
0.45 	 -11529
0.23 	 -11533
▁legend 	 -11536
▁fluorinated 	 -11541
▁voltammograms 	 -11542
,15 	 -11543
.15, 	 -11544
▁degeneracy 	 -11546
▁hindrance 	 -11548
▁PEC 	 -11549
▁sccm 	 -11551
.1,2 	 -11556
=14 	 -11557
▁nanosheet 	 -11558
▁purple 	 -11563
0.85 	 -11564
condens 	 -11567
▁prism 	 -11570
▁stereoc 	 -11571
atest 	 -11572
)3] 	 -11573
racting 	 -11574
▁solidification 	 -11577
ADF 	 -11583
0.24 	 -11586
▁multifunctional 	 -11590
▁exfoliated 	 -11594
▁SAED 	 -11595
hannel 	 -11599
0.50 	 -11600
▁⩽ 	 -11604
Next 	 -11606
▁deactivation 	 -11607
▁silane 	 -11610
▁photothermal 	 -11612
=± 	 -11613
.(3) 	 -11619
ipitation 	 -11622
ycomb 	 -11626
AlO 	 -11632
ahertz 	 -11635
aq 	 -11639
▁absorp 	 -11642
▁ketones 	 -11647
▁AlGaN 	 -11651
−3. 	 -11653
▁epitaxy 	 -11656
artree 	 -11657
▁lasing 	 -11661
coordinated 	 -11662
▁superimp 	 -11663
0.07 	 -11665
▁poured 	 -11670
▁nonpolar 	 -11672
kamak 	 -11675
fra 	 -11680
bic 	 -11683
▁lanthanide 	 -11684
▁HNO 	 -11686
▁Rietveld 	 -11687
opper 	 -11688
ismuth 	 -11690
Conf 	 -11695
▁degassed 	 -11697
▁magnetically 	 -11701
racene 	 -11703
▁deuterium 	 -11704
onucleo 	 -11707
licate 	 -11708
hexyl 	 -11709
.14, 	 -11712
ibbon 	 -11713
relax 	 -11724
▁alloying 	 -11727
PEDOT 	 -11728
redic 	 -11730
▁dihedral 	 -11731
▁polydispersity 	 -11732
echnology 	 -11734
0.30 	 -11737
PDI 	 -11738
▁oxy 	 -11739
▁dissolving 	 -11740
)=0, 	 -11746
.81 	 -11748
▁fringes 	 -11750
▁fabricating 	 -11754
▁reacting 	 -11755
heating 	 -11762
▁reacts 	 -11769
HOMO 	 -11774
▁pumped 	 -11778
▁eutectic 	 -11780
orrelation 	 -11782
Proof 	 -11783
pyrrol 	 -11786
▁BiO 	 -11790
▁disappears 	 -11795
▁nonequilibrium 	 -11802
▁hyperfine 	 -11804
▁oscillating 	 -11810
▁1,2- 	 -11811
▁flexural 	 -11812
withdrawing 	 -11814
rors 	 -11816
▁Elemental 	 -11818
▁extru 	 -11819
iPr 	 -11821
accharides 	 -11824
dichlor 	 -11826
▁separator 	 -11828
▁endothermic 	 -11840
▁carbo 	 -11843
▁cylinders 	 -11847
▁macrop 	 -11848
7‐ 	 -11851
icals 	 -11852
▁blending 	 -11854
▁dehydrogenation 	 -11855
PW 	 -11856
′+ 	 -11863
▁nanoporous 	 -11870
TZ 	 -11871
▁ferroc 	 -11872
rödinger 	 -11878
▁biomolecules 	 -11880
0.35 	 -11882
rug 	 -11884
▁unreacted 	 -11885
▁850 	 -11892
▁conformers 	 -11896
ctive 	 -11897
vices 	 -11901
▁InGaN 	 -11904
▁sandwich 	 -11907
Teller 	 -11909
▁InP 	 -11913
Two 	 -11916
∫−∞ 	 -11918
▁pressed 	 -11921
CHO 	 -11922
0.27 	 -11924
First 	 -11926
alumin 	 -11934
▁corona 	 -11936
stabil 	 -11938
ranched 	 -11939
▁unfol 	 -11940
▁anodes 	 -11949
▁−5 	 -11950
3)3 	 -11951
XD 	 -11953
▁unoccupied 	 -11957
4.2 	 -11961
–300 	 -11962
.3.4 	 -11964
▁hydrophilicity 	 -11966
▁photoinduced 	 -11967
afel 	 -11968
Eff 	 -11971
2+( 	 -11972
▁nanometers 	 -11974
▁imine 	 -11977
ATR 	 -11979
curve 	 -11981
ethane 	 -11982
struc 	 -11983
silane 	 -11984
▁solubil 	 -11985
▁eluent 	 -11989
.2.4 	 -11994
▁thiophene 	 -11997
▁atomistic 	 -11998
oresistance 	 -11999
▁Photo 	 -12003
▁equilibration 	 -12006
hept 	 -12007
▁meso 	 -12013
▁chromophore 	 -12016
)=2 	 -12017
monomer 	 -12023
▁PTFE 	 -12027
▁11( 	 -12028
▁martensite 	 -12030
fluence 	 -12036
▁separations 	 -12043
ughen 	 -12045
hesive 	 -12050
=15 	 -12058
ICP 	 -12069
▁phthal 	 -12071
▁slu 	 -12072
▁polyurethane 	 -12073
CNPs 	 -12075
,(1) 	 -12079
Electrochemical 	 -12082
▁PLGA 	 -12083
▁CTAB 	 -12085
▁sidewall 	 -12086
0.33 	 -12087
othel 	 -12090
▁Lorentzian 	 -12094
dipole 	 -12099
▁kink 	 -12108
stration 	 -12109
0.5, 	 -12112
▁tokamak 	 -12115
▁tilted 	 -12116
0.28 	 -12138
▁Silic 	 -12139
MWCNT 	 -12145
▁chalcogen 	 -12146
▁brittle 	 -12158
irection 	 -12161
▁honeycomb 	 -12162
ZnS 	 -12167
aday 	 -12170
atistical 	 -12171
.16, 	 -12172
walled 	 -12174
,16 	 -12177
(10) 	 -12178
RAM 	 -12180
bulk 	 -12181
ustration 	 -12186
allyl 	 -12188
]­ 	 -12189
▁TMA 	 -12195
▁filt 	 -12197
rope 	 -12201
▁RAFT 	 -12202
▁Spectra 	 -12203
▁polysulf 	 -12209
entate 	 -12211
▁compatibil 	 -12215
olarization 	 -12216
▁FESEM 	 -12222
▁Absorption 	 -12224
▁aure 	 -12226
script 	 -12227
earth 	 -12231
kyo 	 -12233
1/2, 	 -12235
▁conical 	 -12239
▁mesopores 	 -12242
ferro 	 -12244
▁superlattice 	 -12245
opening 	 -12248
▁Schrödinger 	 -12253
▁alkynes 	 -12254
.03 	 -12260
otron 	 -12261
neigh 	 -12262
stac 	 -12265
lattices 	 -12268
sensi 	 -12279
ylamine 	 -12280
▁sputter 	 -12285
imidazole 	 -12287
▁EtOH 	 -12288
▁0° 	 -12289
donating 	 -12291
TFSI 	 -12294
▁GGA 	 -12300
witter 	 -12301
▁diblock 	 -12304
▁coag 	 -12305
▁austenite 	 -12306
utational 	 -12307
iode 	 -12308
endence 	 -12310
▁multilayers 	 -12311
perturb 	 -12313
▁aluminium 	 -12318
▁TPA 	 -12320
▁Obser 	 -12322
▁5‐ 	 -12323
rinting 	 -12327
▁actuation 	 -12329
▁reconnection 	 -12332
Furthermore 	 -12337
cyclohex 	 -12338
urtz 	 -12341
ochromatic 	 -12344
▁delocalized 	 -12348
Similar 	 -12352
1.00 	 -12359
cooling 	 -12361
▁conversions 	 -12366
▁biref 	 -12369
▁collisional 	 -12371
▁sorb 	 -12373
0.26 	 -12375
rometer 	 -12376
VTZ 	 -12377
▁POM 	 -12378
▁%; 	 -12379
▁formic 	 -12381
▁cyclohexane 	 -12385
▁birefring 	 -12387
▁colloids 	 -12389
AlN 	 -12390
▁electrophilic 	 -12391
▁octahedra 	 -12395
udop 	 -12396
electrochemical 	 -12398
▁alkenes 	 -12400
reduc 	 -12401
‐3‐ 	 -12402
▁docum 	 -12406
acac 	 -12407
CST 	 -12408
▁Tafel 	 -12409
structures 	 -12410
)≡ 	 -12413
ZSM 	 -12415
PVP 	 -12418
Micro 	 -12422
▁HDPE 	 -12425
▁molybdenum 	 -12427
Now 	 -12429
▁10° 	 -12432
tizer 	 -12434
▁∼3 	 -12435
▁reversibility 	 -12436
trie 	 -12437
▁capped 	 -12439
27) 	 -12441
5.5 	 -12450
▁photoemission 	 -12452
▁obstac 	 -12454
▁ArH 	 -12459
osilicate 	 -12460
2+. 	 -12461
▁electroneg 	 -12463
▁ellips 	 -12464
MPa 	 -12466
PVDF 	 -12472
structions 	 -12473
radic 	 -12474
=| 	 -12475
▁distill 	 -12478
.17, 	 -12486
▁soliton 	 -12487
]2 	 -12490
3+/ 	 -12492
lassical 	 -12498
▁nanoribbon 	 -12503
ularly 	 -12504
▁diaz 	 -12507
▁Auger 	 -12515
smo 	 -12519
▁timescale 	 -12522
▁Faraday 	 -12527
▁ohmic 	 -12528
▁pyrene 	 -12529
crystall 	 -12531
▁densification 	 -12532
othi 	 -12533
CuO 	 -12534
.02 	 -12538
transition 	 -12544
4.3 	 -12550
▁Hitachi 	 -12552
phosphine 	 -12553
▁photosensi 	 -12554
▁1,4‐ 	 -12557
iy 	 -12562
Bz 	 -12563
▁excitonic 	 -12564
4.4 	 -12566
▁MX 	 -12567
imine 	 -12568
▁mTorr 	 -12569
▁chromium 	 -12571
GCE 	 -12581
urf 	 -12586
▁KBr 	 -12590
▁nanoclusters 	 -12591
QW 	 -12592
rij 	 -12596
11+ 	 -12598
GGA 	 -12599
▁collim 	 -12603
carboxyl 	 -12604
ANES 	 -12621
0.29 	 -12623
▁broadened 	 -12624
Imp 	 -12626
40) 	 -12632
▁APT 	 -12635
cyan 	 -12636
PCs 	 -12639
▁1,4- 	 -12640
12+ 	 -12641
oxys 	 -12642
▁polyester 	 -12644
▁acrylic 	 -12645
▁homogeneously 	 -12649
igaku 	 -12661
▁SnS 	 -12663
2+2 	 -12665
=16 	 -12667
ithium 	 -12668
▁pseudop 	 -12669
▁(2.0 	 -12670
Reference 	 -12673
▁polypropylene 	 -12675
▁magnetism 	 -12679
sour 	 -12682
▁halides 	 -12683
▁SEI 	 -12690
Reaction 	 -12691
28) 	 -12695
EIS 	 -12702
]+, 	 -12703
▁grin 	 -12705
ymmetrical 	 -12709
▁waveguides 	 -12713
Therefore 	 -12717
▁magnified 	 -12718
graf 	 -12719
eft 	 -12720
.18, 	 -12721
▁quasip 	 -12723
▁alkene 	 -12725
kinetic 	 -12727
▁spiro 	 -12728
▁columnar 	 -12729
▁nonuniform 	 -12730
001] 	 -12733
arene 	 -12739
▁chromophores 	 -12743
▁interferometer 	 -12744
urtzite 	 -12747
ulsif 	 -12748
▁isoprop 	 -12749
▁examin 	 -12751
▁{\ 	 -12753
▁nonlocal 	 -12754
‐8 	 -12756
▁imidazole 	 -12758
(2‐ 	 -12760
▁CMC 	 -12765
▁quench 	 -12768
0.09 	 -12769
CCSD 	 -12770
▁rhombohedral 	 -12773
▁phosphine 	 -12777
umbers 	 -12778
therm 	 -12780
>0, 	 -12784
dp 	 -12787
:1, 	 -12788
intill 	 -12789
vapor 	 -12791
TABLE 	 -12792
▁eigenstates 	 -12796
PPy 	 -12801
nsted 	 -12805
▁electrolysis 	 -12809
).3 	 -12810
▁colloid 	 -12812
▁45° 	 -12814
▁60° 	 -12817
EDX 	 -12820
initiator 	 -12822
adiabatic 	 -12824
▁SWNTs 	 -12827
While 	 -12832
▁dendrimers 	 -12834
▁NaBH 	 -12835
▁nA 	 -12836
param 	 -12841
saturation 	 -12843
▁lone 	 -12849
▁decorated 	 -12851
▁lamellae 	 -12852
issociation 	 -12854
▁VOC 	 -12861
▁wrink 	 -12862
–400 	 -12867
▁homo 	 -12870
▁stabilities 	 -12873
▁brushes 	 -12876
▁1,2‐ 	 -12880
proton 	 -12882
▁resonators 	 -12883
atop 	 -12884
Bn 	 -12886
allo 	 -12888
▁dichro 	 -12891
▁biodegradable 	 -12892
▁bismuth 	 -12894
bipy 	 -12896
▁SHG 	 -12897
3= 	 -12899
oresist 	 -12903
normalized 	 -12905
▁induct 	 -12908
▁promp 	 -12909
▁ignition 	 -12910
▁interatomic 	 -12917
.19, 	 -12918
uitive 	 -12919
anone 	 -12922
▁polyelectrolyte 	 -12925
MWCNTs 	 -12926
untered 	 -12927
▁emer 	 -12929
▁PHB 	 -12930
▁Periodicals 	 -12934
semic 	 -12936
6.5 	 -12937
=2, 	 -12938
×10−3 	 -12940
×10−4 	 -12945
condensation 	 -12947
elting 	 -12948
,(2) 	 -12955
▁−20 	 -12958
▁Reagent 	 -12959
▁mN 	 -12962
▁SPS 	 -12965
▁polyimide 	 -12967
▁blended 	 -12968
0.98 	 -12969
.• 	 -12971
▁carbene 	 -12972
▁trimethyl 	 -12973
sphere 	 -12974
▁hinder 	 -12978
▁molding 	 -12979
.1–3 	 -12980
▁zirconia 	 -12981
cid 	 -12984
▁intercalated 	 -12985
▁180° 	 -12987
▁allylic 	 -12988
ydberg 	 -12990
.6. 	 -12992
▁CNF 	 -12993
2)] 	 -12995
0.40 	 -13000
▁pentacene 	 -13002
▁macromolecules 	 -13003
toluene 	 -13010
rice 	 -13011
Conflicts 	 -13012
copic 	 -13013
▁10−7 	 -13014
idirection 	 -13016
▁(002) 	 -13028
electronics 	 -13031
▁NiFe 	 -13033
▁oligonucleo 	 -13036
yellow 	 -13040
LDPE 	 -13042
angling 	 -13044
▁Entry 	 -13045
▁vdW 	 -13047
4· 	 -13051
,(2 	 -13053
Nan 	 -13054
▁ATRP 	 -13061
YAG 	 -13065
.(5 	 -13066
▁Partic 	 -13069
‐, 	 -13072
▁titania 	 -13074
NSs 	 -13078
▁brine 	 -13080
▁ABS 	 -13081
erately 	 -13084
▁Indust 	 -13088
▁heater 	 -13091
▁equilibrated 	 -13092
▁EtOAc 	 -13096
ophenone 	 -13097
▁entangled 	 -13099
eculi 	 -13100
xS 	 -13102
▁propylene 	 -13105
formamide 	 -13106
▁MNPs 	 -13107
ilayer 	 -13108
oratories 	 -13113
▁oxidizing 	 -13115
mh 	 -13118
▁Nanop 	 -13120
rally 	 -13125
▁magnetite 	 -13126
▁biocompatible 	 -13127
ubiqu 	 -13128
quee 	 -13130
▁ultrahigh 	 -13131
▁SWNT 	 -13133
▁leaching 	 -13134
▁−78 	 -13135
▁[45 	 -13138
29) 	 -13141
ibrational 	 -13143
voluted 	 -13145
▁ribbons 	 -13146
▁triethyl 	 -13148
▁qubit 	 -13151
adsorb 	 -13153
specially 	 -13158
Ea 	 -13159
▁zwitter 	 -13160
▁scintill 	 -13161
Equation 	 -13164
▁aerogel 	 -13167
0)= 	 -13173
▁sandwic 	 -13175
▁pyrrole 	 -13178
xc 	 -13179
▁gyro 	 -13184
▁nylon 	 -13186
6− 	 -13192
▁deprotonation 	 -13194
PCBM 	 -13196
▁pillar 	 -13201
′′( 	 -13204
omaly 	 -13210
▁Shimadzu 	 -13211
▁adsorbents 	 -13214
AuCl 	 -13215
▁delocalization 	 -13219
tivation 	 -13221
▁TPE 	 -13223
ochromic 	 -13224
stituting 	 -13228
*= 	 -13229
+4 	 -13231
▁swollen 	 -13233
atterned 	 -13236
▁TFA 	 -13237
▁semicirc 	 -13240
Optical 	 -13241
▁wurtzite 	 -13242
2−1 	 -13243
▁capsules 	 -13245
aphth 	 -13256
▁superconductors 	 -13258
▁linkers 	 -13260
)12 	 -13264
ønsted 	 -13265
▁Graphene 	 -13266
▁dissolve 	 -13267
PDM 	 -13268
siloxane 	 -13272
▁terahertz 	 -13273
▁POSS 	 -13275
▁monochromator 	 -13276
▁InGaAs 	 -13277
ditionally 	 -13278
TAT 	 -13280
▁blu 	 -13283
▁trigonal 	 -13285
▁pseudoc 	 -13295
▁monochromatic 	 -13300
▁superconductor 	 -13302
·( 	 -13307
athesis 	 -13308
CNF 	 -13309
.20, 	 -13313
▁1,3- 	 -13315
penet 	 -13318
▁nonradiative 	 -13319
▁regist 	 -13320
PAN 	 -13323
▁LIBs 	 -13324
gredi 	 -13326
ocatalytic 	 -13330
culations 	 -13332
▁appreciable 	 -13334
pyrrole 	 -13335
▁0.2, 	 -13344
▁fibrobl 	 -13346
obor 	 -13347
nth 	 -13349
▁adsorbate 	 -13350
Total 	 -13354
▁DSSCs 	 -13356
]0 	 -13357
–500 	 -13359
▁NHC 	 -13361
▁FEI 	 -13369
0⟩ 	 -13370
roximately 	 -13371
▁hydrazine 	 -13372
▁polarizations 	 -13374
yclo 	 -13376
▁anchoring 	 -13379
.(4) 	 -13380
▁photophysical 	 -13382
orphology 	 -13389
erephthal 	 -13391
bias 	 -13392
▁MeCN 	 -13393
▁tangen 	 -13397
▁Rydberg 	 -13398
bidden 	 -13399
▁sear 	 -13404
▁vibronic 	 -13406
▁indole 	 -13407
Calculated 	 -13408
.9% 	 -13409
▁dendrimer 	 -13412
▁photode 	 -13413
▁trimer 	 -13415
▁carbonization 	 -13416
▁diamagnetic 	 -13417
agnetization 	 -13419
▁1–4 	 -13421
▁ceria 	 -13424
▁aptamer 	 -13428
Then 	 -13429
▁biosensor 	 -13430
(4- 	 -13432
▁hept 	 -13435
▁aerogels 	 -13437
ritten 	 -13441
strained 	 -13444
▁fabrics 	 -13445
▁AuNP 	 -13446
▁polymerized 	 -13448
~\ 	 -13449
▁CZTS 	 -13450
▁converged 	 -13452
▁drastic 	 -13454
▁CoO 	 -13455
frac 	 -13456
]/[ 	 -13457
▁elastomer 	 -13458
dihydro 	 -13463
healing 	 -13464
▁filtrate 	 -13466
guest 	 -13468
ynch 	 -13469
▁nucleo 	 -13472
▁sandwiched 	 -13474
▁welding 	 -13477
▁1300 	 -13478
alloy 	 -13479
acob 	 -13482
YF 	 -13484
▁softening 	 -13486
▁FeCl 	 -13491
inorganic 	 -13492
▁microparticles 	 -13494
lution 	 -13495
)≈ 	 -13501
Spect 	 -13502
▁stripe 	 -13504
acrylic 	 -13511
6,27 	 -13512
TPP 	 -13513
propanol 	 -13518
▁plu 	 -13520
)]+ 	 -13521
ielect 	 -13524
▁ZT 	 -13526
▁microporous 	 -13527
symmetry 	 -13528
stabilized 	 -13532
QUID 	 -13534
▁inhomogeneity 	 -13535
nano 	 -13537
▁fermions 	 -13542
pVTZ 	 -13545
▁snapshots 	 -13546
22+ 	 -13548
▁hydrogenated 	 -13549
▁microt 	 -13551
▁thermoplastic 	 -13552
)6] 	 -13553
▁Reprinted 	 -13555
Consid 	 -13556
▁coercive 	 -13558
DEG 	 -13562
▁ubiqu 	 -13564
▁[%] 	 -13566
semiconductor 	 -13569
6+ 	 -13574
▁micrometer 	 -13575
▁Brønsted 	 -13576
▁orientational 	 -13579
▁photocatalysis 	 -13580
▁1,3‐ 	 -13581
plasma 	 -13582
▁epoxide 	 -13583
▁nanosecond 	 -13584
▁Mott 	 -13586
annealed 	 -13588
IPY 	 -13589
yrins 	 -13590
▁divertor 	 -13591
42− 	 -13593
▁plume 	 -13594
imers 	 -13596
acoustic 	 -13600
(0)= 	 -13603
capped 	 -13604
,26 	 -13610
CMC 	 -13611
▁ner 	 -13618
▁EXAFS 	 -13619
′′) 	 -13620
22) 	 -13621
Hc 	 -13623
=11 	 -13625
=0.4 	 -13629
▁MMT 	 -13631
▁1400 	 -13632
▁steels 	 -13635
▁Hartree 	 -13640
▁MAPbI 	 -13643
}{ 	 -13645
^2 	 -13647
▁BZ 	 -13648
▁OLEDs 	 -13650
Ec 	 -13652
lob 	 -13653
=1,2, 	 -13654
▁synthesi 	 -13656
heated 	 -13657
▁micellar 	 -13664
▁PXRD 	 -13673
.(1) 	 -13675
×10−5 	 -13679
▁bifunctional 	 -13681
▁areal 	 -13682
precedented 	 -13683
▁tetrahydrofuran 	 -13685
▁CaCO 	 -13692
▁ingredi 	 -13694
inctive 	 -13701
▁CuI 	 -13702
fv 	 -13703
orphyrins 	 -13706
†( 	 -13708
Water 	 -13709
indole 	 -13710
▁grinding 	 -13718
▁nanocrystal 	 -13724
▁counterions 	 -13726
mechanical 	 -13727
▁dielectrics 	 -13730
▁fluorophore 	 -13732
▁milled 	 -13733
6-31 	 -13736
▁dangling 	 -13746
)=∫ 	 -13747
▁Kinetic 	 -13748
▁12( 	 -13754
▁reactors 	 -13755
▁photolysis 	 -13756
▁streamwise 	 -13758
▁iridium 	 -13759
▁photoresist 	 -13761
▁PbS 	 -13763
▁birefringence 	 -13766
straction 	 -13767
.6) 	 -13771
▁InN 	 -13772
▁inac 	 -13773
equation 	 -13774
▁SBA 	 -13776
▁vulcan 	 -13777
FePO 	 -13779
imides 	 -13783
▁triblock 	 -13787
adding 	 -13790
STO 	 -13791
▁BCP 	 -13793
Prop 	 -13797
▁uncon 	 -13799
▁squee 	 -13802
acetone 	 -13806
0.55 	 -13807
dispersive 	 -13808
IBN 	 -13811
PAM 	 -13812
rag 	 -13813
⁡( 	 -13816
Because 	 -13824
charged 	 -13825
‐4‐ 	 -13828
ethoxy 	 -13829
▁thermoco 	 -13833
lectivities 	 -13837
▁ferromagnetism 	 -13839
0.65 	 -13845
▁LSPR 	 -13848
▁acetylene 	 -13856
▁Weyl 	 -13859
8.5 	 -13861
▁fouling 	 -13862
etermination 	 -13865
▁LDPE 	 -13866
xC 	 -13868
fts 	 -13871
▁OCH 	 -13873
▁galvanostatic 	 -13876
▁HSA 	 -13878
▁unprecedented 	 -13880
▁cyclotron 	 -13882
▁silyl 	 -13884
8( 	 -13887
▁130. 	 -13889
swit 	 -13890
General 	 -13891
▁distillation 	 -13892
BET 	 -13896
mA 	 -13900
.3.1 	 -13901
.25, 	 -13902
▁[001] 	 -13907
Measure 	 -13908
▁monodisperse 	 -13910
arboxylic 	 -13913
▁magnetized 	 -13919
taken 	 -13926
▁equatorial 	 -13927
ysics 	 -13935
▁viscosities 	 -13938
▁Kerr 	 -13939
▁ductility 	 -13940
RMS 	 -13941
erosion 	 -13945
▁kB 	 -13946
sections 	 -13947
16/ 	 -13950
▁NMP 	 -13952
yy 	 -13953
−. 	 -13954
(1)( 	 -13955
▁Fran 	 -13956
0.67 	 -13957
▁catalyze 	 -13962
orbital 	 -13963
▁recrystallized 	 -13964
aracteristic 	 -13965
,21 	 -13969
pz 	 -13970
HRTEM 	 -13973
▁bcc 	 -13974
▁reman 	 -13975
▁pendant 	 -13978
atent 	 -13980
)=12 	 -13985
Js 	 -13987
▁flake 	 -13989
onductive 	 -13990
.22, 	 -13991
ODIPY 	 -13996
▁kinetically 	 -13997
▁PCBM 	 -14001
▁solvothermal 	 -14005
DOS 	 -14009
.21, 	 -14012
=∂ 	 -14013
SiMe 	 -14015
reaction 	 -14019
obtained 	 -14020
▁unambiguously 	 -14021
=100 	 -14026
spacing 	 -14030
▁torsional 	 -14034
▁sulfuric 	 -14037
▁iPP 	 -14039
▁obl 	 -14044
propyl 	 -14045
▁dissipative 	 -14046
▁tBu 	 -14047
▁sonicated 	 -14048
8‐ 	 -14049
thin 	 -14050
▁divalent 	 -14051
▁photodetector 	 -14052
▁(−1 	 -14053
▁conformer 	 -14054
▁Emission 	 -14058
+∞ 	 -14060
)/( 	 -14062
▁950 	 -14063
oxysilane 	 -14065
▁pseudopotential 	 -14067
10− 	 -14070
ielectric 	 -14076
▁[100 	 -14077
shape 	 -14078
uum 	 -14080
▁melts 	 -14086
Phase 	 -14087
resonant 	 -14089
interacting 	 -14091
GPC 	 -14092
▁emu 	 -14093
▁Td 	 -14100
corpor 	 -14101
.23, 	 -14104
oxyc 	 -14105
,(3 	 -14106
Form 	 -14108
▁interparticle 	 -14109
=⟨ 	 -14114
▁BiVO 	 -14116
+− 	 -14117
ILs 	 -14118
AuNPs 	 -14120
urization 	 -14123
▁deprot 	 -14124
}}}$ 	 -14125
▁Plot 	 -14126
▁JEM 	 -14128
▁Janus 	 -14129
ripts 	 -14130
▁TFTs 	 -14131
▁Rg 	 -14132
▁olefins 	 -14134
,29 	 -14135
avail 	 -14137
,0) 	 -14139
▁5.( 	 -14141
▁mica 	 -14144
▁imidazolium 	 -14152
sives 	 -14153
Chemical 	 -14158
▁YSZ 	 -14159
▁PEM 	 -14161
=20 	 -14164
istically 	 -14170
▁polymerizations 	 -14172
▁magnetost 	 -14173
separated 	 -14175
▁tren 	 -14181
▁4,4 	 -14182
Polymer 	 -14183
▁CNC 	 -14184
stoichi 	 -14185
3+. 	 -14189
▁antiparallel 	 -14193
sozyme 	 -14195
concentration 	 -14199
,28 	 -14200
Energy 	 -14201
▁tensors 	 -14203
▁PSS 	 -14205
▁methoxy 	 -14206
phasing 	 -14208
▁sunlight 	 -14209
PMA 	 -14210
EtOAc 	 -14213
NOVA 	 -14221
▁insulators 	 -14228
▁PNIPAM 	 -14229
,22 	 -14231
▁ASTM 	 -14234
(1)– 	 -14238
IGS 	 -14240
▁wavefunction 	 -14243
▁sublattice 	 -14246
▁ripp 	 -14256
onducting 	 -14266
apted 	 -14274
▁XANES 	 -14276
▁emulsif 	 -14277
chair 	 -14282
Gra 	 -14285
▁furan 	 -14286
4[ 	 -14287
‐7 	 -14289
▁(– 	 -14290
▁RuO 	 -14291
orange 	 -14292
▁thermos 	 -14293
axially 	 -14300
essels 	 -14304
alse 	 -14308
▁heterocyc 	 -14310
′′, 	 -14315
angles 	 -14319
▁deuterated 	 -14323
×2 	 -14326
.3.2. 	 -14329
▁supercritical 	 -14332
esar 	 -14335
▁microcapsules 	 -14336
▁depositing 	 -14338
acetylene 	 -14340
▁Corpor 	 -14342
octyl 	 -14343
Compound 	 -14348
covered 	 -14349
{( 	 -14352
⋅( 	 -14358
▁momenta 	 -14359
▁PBA 	 -14360
▁Ohmic 	 -14362
)=0 	 -14366
▁refraction 	 -14368
▁Rigaku 	 -14369
▁cryogenic 	 -14370
0.47 	 -14371
±( 	 -14372
.7% 	 -14373
▁rhodium 	 -14382
▁Spectroscopy 	 -14385
impl 	 -14386
▁biomaterials 	 -14393
▁gallium 	 -14394
▁spint 	 -14395
POSS 	 -14396
MAS 	 -14397
▁NSs 	 -14406
,(3) 	 -14407
▁PBT 	 -14408
henol 	 -14410
But 	 -14411
▁Reactions 	 -14415
▁organometallic 	 -14417
coordinate 	 -14418
wetting 	 -14423
▁alkylation 	 -14424
phenylene 	 -14426
identate 	 -14432
▁biaxial 	 -14435
0.60 	 -14441
rolactone 	 -14442
.24, 	 -14443
▁∼100 	 -14445
▁propagates 	 -14446
▁impregnation 	 -14452
Stokes 	 -14454
‐10 	 -14455
▁intermetallic 	 -14457
▁pedest 	 -14458
pies 	 -14459
▁sterically 	 -14460
▁compressibility 	 -14461
▁[° 	 -14464
ienti 	 -14465
uronic 	 -14467
▁coaxial 	 -14468
▁submic 	 -14470
▁crucible 	 -14475
.7) 	 -14479
▁mesos 	 -14482
▁feedstock 	 -14485
oxyphenyl 	 -14489
enediamine 	 -14495
▁photoanode 	 -14496
misc 	 -14498
▁PbI 	 -14499
pump 	 -14506
enzy 	 -14508
▁sacrificial 	 -14510
▁imping 	 -14511
mixed 	 -14512
▁stripes 	 -14514
▁PDT 	 -14516
Over 	 -14517
.2.2. 	 -14519
▁Zeeman 	 -14522
▁1.0, 	 -14524
▁vapour 	 -14525
getic 	 -14526
dots 	 -14535
olithography 	 -14537
2)− 	 -14547
isenberg 	 -14548
▁isopropanol 	 -14549
▁singly 	 -14550
▁polyvinyl 	 -14551
ouling 	 -14553
▁unbound 	 -14555
kJ 	 -14557
▁QWs 	 -14558
▁inductively 	 -14561
▁Bloch 	 -14562
sonic 	 -14563
omechanical 	 -14567
epoxy 	 -14571
−1+ 	 -14580
correlated 	 -14583
▁polishing 	 -14588
▁Remarkably 	 -14589
ceramic 	 -14590
▁photodetectors 	 -14593
deposition 	 -14594
▁energetics 	 -14595
capac 	 -14596
▁−10 	 -14600
▁inco 	 -14609
▁agglomerates 	 -14612
methanol 	 -14621
▁antif 	 -14623
▁hydrochloric 	 -14625
▁biosensors 	 -14626
▁nanopores 	 -14627
holes 	 -14628
▁isos 	 -14629
Structure 	 -14640
DPP 	 -14645
▁foils 	 -14646
purity 	 -14648
satz 	 -14649
imolar 	 -14653
grafted 	 -14657
▁FePt 	 -14659
EDA 	 -14660
×10−6 	 -14665
azoles 	 -14668
+∂ 	 -14669
0.80 	 -14671
▁ethers 	 -14674
ogeneities 	 -14678
Experim 	 -14679
▁titanate 	 -14681
CNQ 	 -14685
▁annular 	 -14687
▁weakened 	 -14690
bonds 	 -14692
▁UiO 	 -14694
▁fractured 	 -14696
▁macromolecular 	 -14699
▁Vg 	 -14703
,23 	 -14704
MOFs 	 -14706
Herein 	 -14708
▁buckling 	 -14709
▁uranium 	 -14710
east 	 -14713
ubility 	 -14715
BSD 	 -14718
▁eqs 	 -14719
▁metathesis 	 -14720
▁manusc 	 -14722
angevin 	 -14726
opolymerization 	 -14728
▁corrug 	 -14733
▁ferrocene 	 -14735
ZIF 	 -14736
ULA 	 -14738
absorb 	 -14739
yield 	 -14742
▁permeate 	 -14744
actide 	 -14745
ifth 	 -14746
▁Mö 	 -14751
perturbed 	 -14752
▁naphthalene 	 -14755
paired 	 -14756
▁kBT 	 -14758
toxic 	 -14765
▁colorimetric 	 -14766
▁neutrin 	 -14767
[2 	 -14771
9.5 	 -14772
▁520 	 -14775
0.97 	 -14779
▁pillars 	 -14780
▁hydrostatic 	 -14781
▁fas 	 -14786
chemistry 	 -14787
▁dimerization 	 -14789
)· 	 -14794
Average 	 -14798
sinh 	 -14799
▁10−8 	 -14801
quinoline 	 -14804
▁AgNO 	 -14805
,30 	 -14810
▁entropic 	 -14812
mixing 	 -14813
stack 	 -14815
isomers 	 -14816
▁micropores 	 -14817
▁anharmonic 	 -14819
Xe 	 -14820
▁chelating 	 -14822
Moreover 	 -14823
▁taut 	 -14824
relaxation 	 -14825
=0.1 	 -14826
stitution 	 -14827
▁physis 	 -14828
▁OPV 	 -14830
−1): 	 -14833
reducible 	 -14835
pyridyl 	 -14836
▁gratings 	 -14837
▁crystallography 	 -14838
▁uncoated 	 -14841
+1− 	 -14842
0.70 	 -14844
′| 	 -14847
▁LiF 	 -14850
3+- 	 -14853
nitrop 	 -14857
▁spherul 	 -14859
▁yttri 	 -14860
YSZ 	 -14861
▁20° 	 -14862
1/2) 	 -14867
▁solitons 	 -14875
▁fringe 	 -14876
junctions 	 -14877
VG 	 -14879
▁cyclopent 	 -14881
gray 	 -14882
bauer 	 -14883
▁Adsorption 	 -14884
▁twinning 	 -14885
[1+ 	 -14888
inflamm 	 -14889
umarin 	 -14892
2+/ 	 -14893
▁MgSO 	 -14896
▁microgels 	 -14898
▁miscibility 	 -14903
Hm 	 -14905
ithley 	 -14906
thickness 	 -14908
▁∼20 	 -14911
−10 	 -14913
▁Normalized 	 -14919
0.48 	 -14920
▁HMF 	 -14922
Fock 	 -14923
▁xenon 	 -14924
▁ascor 	 -14929
${ 	 -14930
2(1− 	 -14934
▁featuring 	 -14938
ensitic 	 -14939
▁sponge 	 -14940
relativistic 	 -14944
riers 	 -14945
▁photodiode 	 -14946
=−2 	 -14949
enoid 	 -14950
polarization 	 -14951
▁FIB 	 -14952
▁enthalpies 	 -14955
ikelihood 	 -14957
▁antisymmetric 	 -14958
velopment 	 -14961
11), 	 -14963
▁lithiation 	 -14964
▁CaO 	 -14966
▁HAADF 	 -14969
cosh 	 -14970
▁fluctuating 	 -14971
▁Ising 	 -14973
culating 	 -14974
298 	 -14975
▁terephthal 	 -14978
▁(98 	 -14980
0.90 	 -14983
▁diphenyl 	 -14984
1,32 	 -14988
ennard 	 -14993
▁upconversion 	 -14999
ensurate 	 -15000
Mean 	 -15002
▁accompany 	 -15004
eqn 	 -15007
▁carbonaceous 	 -15012
▁crystallize 	 -15013
▁reorientation 	 -15017
Rg 	 -15018
▁chemisorption 	 -15025
▁precession 	 -15027
SiH 	 -15030
▁isopropyl 	 -15033
fvén 	 -15034
▁Jc 	 -15035
▁bombard 	 -15037
–1000 	 -15038
.8) 	 -15040
THE 	 -15041
▁synthesizing 	 -15042
dge 	 -15044
▁semicircle 	 -15046
SBA 	 -15047
▁cycled 	 -15050
▁Aesar 	 -15051
▁bipy 	 -15052
MAM 	 -15053
Cn 	 -15054
▁thermograms 	 -15055
idual 	 -15056
▁azobenzene 	 -15057
▁nanosized 	 -15059
▁formate 	 -15062
▁Films 	 -15064
▁nanoplates 	 -15067
▁amides 	 -15070
▁ZnSe 	 -15072
▁bimodal 	 -15073
▁melted 	 -15074
▁spectroscop 	 -15075
ubbard 	 -15077
▁EVA 	 -15079
thio 	 -15080
(7 	 -15081
12), 	 -15085
▁nanopore 	 -15088
▁stirrer 	 -15091
figures 	 -15095
OEt 	 -15100
=1− 	 -15101
▁(0.05 	 -15102
▁forbidden 	 -15103
▁multicomponent 	 -15104
▁incoherent 	 -15105
▁excite 	 -15109
▁Calcd 	 -15112
▁6‐ 	 -15113
▁affording 	 -15114
–800 	 -15120
)1/2 	 -15121
OOH 	 -15122
herrer 	 -15127
▁tunability 	 -15129
▁conductors 	 -15130
▁anchored 	 -15131
▁dimeric 	 -15133
)4] 	 -15134
rise 	 -15135
Exp 	 -15137
0.38 	 -15138
▁gravimetric 	 -15140
▁niob 	 -15141
LSM 	 -15145
▁plotting 	 -15147
sembles 	 -15148
/50 	 -15152
Methyl 	 -15154
diaz 	 -15156
▁CPE 	 -15157
4)3 	 -15160
▁Coulombic 	 -15162
allation 	 -15164
)∼ 	 -15165
▁sulfoxide 	 -15166
oselectivities 	 -15168
▁pink 	 -15173
irradiated 	 -15175
▁Integ 	 -15176
donor 	 -15180
▁osmo 	 -15181
▁dichroism 	 -15182
chloro 	 -15184
imidazolium 	 -15185
▁AIE 	 -15190
ocyanine 	 -15193
▁NaHCO 	 -15194
▁enol 	 -15200
▁emissive 	 -15201
2,33 	 -15202
2.( 	 -15204
rms 	 -15205
▁TEOS 	 -15208
Magnetic 	 -15211
aphthyl 	 -15218
indentation 	 -15220
rapure 	 -15221
(4‐ 	 -15224
-66 	 -15229
ulfate 	 -15238
teins 	 -15240
[1− 	 -15241
inuous 	 -15244
▁absorptions 	 -15246
▁GQDs 	 -15249
valuation 	 -15251
▁nanohybrid 	 -15252
,24 	 -15255
▁Lennard 	 -15256
▁diamonds 	 -15257
▁lysozyme 	 -15258
‐[ 	 -15265
CDs 	 -15266
stret 	 -15270
rals 	 -15274
+| 	 -15275
▁Langevin 	 -15277
▁deconvolution 	 -15278
▁magnetometer 	 -15279
▁epithel 	 -15280
▁macrocycle 	 -15286
▁Nanoc 	 -15291
▁metamaterial 	 -15299
lite 	 -15301
BLE 	 -15303
losion 	 -15306
▁SHE 	 -15308
solution 	 -15309
1–3 	 -15312
±0.00 	 -15315
×100 	 -15319
hanes 	 -15323
)2/ 	 -15325
▁beamline 	 -15326
(2)( 	 -15327
aligned 	 -15331
▁200, 	 -15334
▁Tl 	 -15335
.6% 	 -15336
2→ 	 -15340
▁textured 	 -15341
.8% 	 -15342
TMS 	 -15344
▁poling 	 -15346
quadrup 	 -15347
carbonate 	 -15349
>99 	 -15352
otherm 	 -15353
▁solvated 	 -15354
▁Calculations 	 -15355
atrix 	 -15356
aric 	 -15360
).2 	 -15364
▁Newtonian 	 -15367
odext 	 -15369
variance 	 -15370
carrier 	 -15371
▁GCE 	 -15372
▁ballistic 	 -15373
▁wavenumbers 	 -15376
▁Milli 	 -15379
dispersed 	 -15383
▁zwitterionic 	 -15388
▁sublim 	 -15389
▁MoSe 	 -15390
▁XAS 	 -15391
▁kA 	 -15393
ughening 	 -15397
▁dissociative 	 -15398
illipore 	 -15400
▁bridged 	 -15401
(110) 	 -15403
So 	 -15407
0.53 	 -15412
rf 	 -15413
butanol 	 -15414
▁misfit 	 -15416
insulator 	 -15418
▁∼4 	 -15419
⟩. 	 -15423
ospheres 	 -15424
ilips 	 -15425
≠0 	 -15428
▁esterification 	 -15429
▁glycop 	 -15435
▁ellipsoids 	 -15437
▁cohesive 	 -15441
pV 	 -15443
▁racemic 	 -15445
▁swim 	 -15447
▁≫ 	 -15451
▁Measured 	 -15452
–90 	 -15454
PPV 	 -15455
▁25° 	 -15456
mholtz 	 -15457
▁Powder 	 -15458
NTf 	 -15459
rusion 	 -15460
▁enantiomer 	 -15461
▁hydrolyzed 	 -15464
=0.8 	 -15465
▁silicene 	 -15467
▁stamp 	 -15471
oxidized 	 -15472
▁polaron 	 -15475
neck 	 -15477
flight 	 -15479
rone 	 -15480
parg 	 -15482
▁bombardment 	 -15485
)+( 	 -15489
▁renormalization 	 -15493
=0.7 	 -15494
▁□ 	 -15497
▁helicity 	 -15498
methylene 	 -15499
cycles 	 -15501
boronic 	 -15502
bL 	 -15503
−7 	 -15506
Methods 	 -15507
ppy 	 -15508
.27, 	 -15509
hesion 	 -15510
▁axisymmetric 	 -15514
▁proparg 	 -15515
MIL 	 -15516
ophenol 	 -15517
9‐ 	 -15518
GPa 	 -15519
▁UCNPs 	 -15520
lenk 	 -15521
0.37 	 -15531
ircular 	 -15532
unnel 	 -15533
▁rhodamine 	 -15534
▁pyrrol 	 -15537
▁adatoms 	 -15538
orosity 	 -15542
▁immisc 	 -15544
tizers 	 -15545
rimination 	 -15548
Tp 	 -15550
)={ 	 -15551
PENDIX 	 -15554
steady 	 -15560
▁coulomb 	 -15561
,25 	 -15563
crystals 	 -15564
▁picosecond 	 -15565
=1,..., 	 -15571
▁decompos 	 -15572
VDF 	 -15573
6.2 	 -15575
▁Charge 	 -15577
cite 	 -15582
▁cavitation 	 -15584
▁deprotonated 	 -15585
▁Heisenberg 	 -15589
▁WSe 	 -15590
Refs 	 -15592
▁grooves 	 -15593
▁cladding 	 -15597
▁TEA 	 -15598
2)= 	 -15604
▁floc 	 -15612
▁fluorophores 	 -15614
▁recycled 	 -15618
▁martensitic 	 -15623
paramagnetic 	 -15624
6.4 	 -15625
oron 	 -15626
▁cuv 	 -15627
×( 	 -15631
NIPAAm 	 -15632
Ini 	 -15635
tivated 	 -15636
▁dephasing 	 -15639
▁[1–3 	 -15640
−1/ 	 -15641
▁nanochannel 	 -15642
▁bidentate 	 -15643
=17 	 -15645
▁reduct 	 -15647
▁photom 	 -15648
Alder 	 -15650
▁VBM 	 -15652
ossil 	 -15653
▁germanium 	 -15656
▁backscattering 	 -15663
(100 	 -15664
hardness 	 -15666
2∂ 	 -15667
=1/ 	 -15668
=0.6 	 -15669
Top 	 -15670
▁abras 	 -15677
igner 	 -15679
Analysis 	 -15680
Tran 	 -15682
.9) 	 -15683
polymerization 	 -15686
▁Bz 	 -15689
▁piper 	 -15690
▁PSF 	 -15696
rification 	 -15699
▁hematite 	 -15702
▁polymorphs 	 -15703
▁incompres 	 -15704
dioxane 	 -15707
111} 	 -15708
▁980 	 -15709
▁LCST 	 -15710
▁perturbative 	 -15711
PEA 	 -15713
mag 	 -15719
Structural 	 -15720
dE 	 -15721
▁shearing 	 -15722
▁1012 	 -15723
▁diab 	 -15724
▁Nitrogen 	 -15726
2100 	 -15727
▁SCF 	 -15728
onation 	 -15729
.(5) 	 -15731
=1.0 	 -15732
50° 	 -15734
▁responsivity 	 -15736
▁(600 	 -15741
TPD 	 -15744
)2. 	 -15748
▁(99.99 	 -15750
unsaturated 	 -15752
▁thermostat 	 -15753
▁hyperbranched 	 -15759
butadiene 	 -15760
▁obe 	 -15762
▁nanoribbons 	 -15763
xGa 	 -15769
▁80° 	 -15770
▁solutes 	 -15771
▁radially 	 -15772
4,4 	 -15777
ignal 	 -15778
▁Schlenk 	 -15779
▁ensembles 	 -15780
▁diamine 	 -15789
PCM 	 -15790
▁discharging 	 -15792
grain 	 -15794
▁Alfvén 	 -15795
)⋅ 	 -15798
Fabrication 	 -15799
▁citric 	 -15803
▁nanocar 	 -15806
)8 	 -15808
▁stabilizer 	 -15816
▁scienti 	 -15817
▁cyano 	 -15819
Det 	 -15823
parin 	 -15824
▁0.3, 	 -15827
▁versatility 	 -15828
▁hcp 	 -15831
▁SPP 	 -15832
▁PTT 	 -15835
▁NOx 	 -15837
domin 	 -15841
▁noncovalent 	 -15842
▁UHV 	 -15844
.28, 	 -15845
∫−∞∞ 	 -15847
▁rotate 	 -15848
dpp 	 -15849
=0.9 	 -15850
Summary 	 -15851
ubble 	 -15852
▁intensively 	 -15854
CHCl 	 -15860
▁extraordinary 	 -15863
arenes 	 -15865
▁capacitances 	 -15868
heat 	 -15869
▁0< 	 -15872
structive 	 -15873
▁nonmagnetic 	 -15874
▁nitrid 	 -15875
▁catalytically 	 -15878
0.1, 	 -15879
ityl 	 -15881
)3( 	 -15882
▁tetrahedra 	 -15883
▁Rct 	 -15885
VDZ 	 -15886
aer 	 -15893
▁FETs 	 -15894
NHC 	 -15897
▁planets 	 -15899
▁armchair 	 -15900
▁borate 	 -15902
▁unperturbed 	 -15903
▁TPU 	 -15906
(\ 	 -15907
▁CCDC 	 -15910
▁zirconium 	 -15912
Mechanical 	 -15913
laser 	 -15916
)-2- 	 -15917
▁EDA 	 -15922
▁CuS 	 -15923
▁refluxed 	 -15924
▁bluesh 	 -15926
phi 	 -15931
,(4) 	 -15933
escope 	 -15938
isothermal 	 -15940
.2.5 	 -15941
0.36 	 -15943
▁regio 	 -15945
calculated 	 -15946
DISCUSSION 	 -15947
▁equimolar 	 -15948
▁SCE 	 -15949
Hex 	 -15951
▁prosp 	 -15953
abricated 	 -15954
⋯, 	 -15956
adaic 	 -15957
▁Infrared 	 -15962
▁triethylamine 	 -15963
▁Swit 	 -15964
▁shots 	 -15966
-311 	 -15968
4,35 	 -15970
etermining 	 -15973
Crystal 	 -15975
▁10−9 	 -15976
otted 	 -15977
6.3 	 -15978
rist 	 -15981
▁atomically 	 -15982
0.5) 	 -15984
▁substitutional 	 -15989
=1.5 	 -15992
ssbauer 	 -15998
▁pseudocapac 	 -16007
▁BiFeO 	 -16008
granular 	 -16009
▁MBE 	 -16011
−8 	 -16012
▁(125 	 -16015
SCA 	 -16020
▁GNPs 	 -16021
Rem 	 -16023
dered 	 -16025
▁TEMPO 	 -16030
▁octahedron 	 -16031
▁diffused 	 -16035
▁deconvoluted 	 -16036
▁metas 	 -16038
drain 	 -16041
⋯⋯ 	 -16045
4,5 	 -16047
▁slabs 	 -16048
ocar 	 -16053
▁1010 	 -16054
▁fermion 	 -16055
▁regenerated 	 -16056
▁Pauli 	 -16062
▁JSM 	 -16064
▁monolithic 	 -16066
▁synap 	 -16067
solated 	 -16071
▁hydraz 	 -16073
▁boronic 	 -16074
▁neglecting 	 -16075
▁decaying 	 -16076
▁SiGe 	 -16078
▁trif 	 -16079
▁2,2 	 -16081
▁heavier 	 -16082
▁ELM 	 -16084
dodec 	 -16087
∇2 	 -16088
iently 	 -16091
▁LSMO 	 -16093
wire 	 -16097
▁aldol 	 -16098
▁ITER 	 -16100
▁JSC 	 -16101
▁ellipsometry 	 -16104
▁carbides 	 -16106
piper 	 -16107
▁soaking 	 -16108
imethoxy 	 -16109
−1)( 	 -16111
bridged 	 -16112
Electron 	 -16113
▁interband 	 -16114
▁ansatz 	 -16115
▁CuCl 	 -16117
▁Varian 	 -16122
fluorescence 	 -16124
▁Kondo 	 -16126
▁implosion 	 -16127
▁streak 	 -16129
−1− 	 -16130
▁reproduces 	 -16133
▁[%][ 	 -16134
▁detuning 	 -16136
▁pedestal 	 -16137
▁imprinted 	 -16139
▁oligo 	 -16141
$\ 	 -16142
1 	 -16143
1⟩ 	 -16144
▁LiFePO 	 -16145
Bruker 	 -16148
TBA 	 -16153
ractions 	 -16154
2(1 	 -16155
enesulf 	 -16160
▁coke 	 -16161
▁regener 	 -16162
▁MEA 	 -16166
▁neutrons 	 -16167
▁Diffraction 	 -16168
▁cycloprop 	 -16174
cod 	 -16175
=0∞ 	 -16176
0.21 	 -16180
▁qubits 	 -16181
▁AZO 	 -16187
Measured 	 -16188
vate 	 -16190
▁agric 	 -16191
Theoretical 	 -16194
▁Amp 	 -16195
packed 	 -16196
·2 	 -16197
anoic 	 -16201
▁photoexcited 	 -16202
▁delamination 	 -16203
▁QCM 	 -16204
▁heterocyclic 	 -16208
icyl 	 -16209
7.4 	 -16210
▁bist 	 -16211
▁pinned 	 -16214
encaps 	 -16215
▁sulfonic 	 -16216
▁quar 	 -16218
(12 	 -16219
▁lyophil 	 -16220
tify 	 -16226
circles 	 -16232
32− 	 -16233
7.2 	 -16236
▁CNFs 	 -16239
▁multiferro 	 -16242
Single 	 -16243
▁polyamide 	 -16248
solved 	 -16249
▁tabulated 	 -16250
▁SQUID 	 -16252
▁chirp 	 -16256
▁disperse 	 -16257
2.00 	 -16258
▁fibril 	 -16259
▁configurational 	 -16262
▁CVs 	 -16263
electrodes 	 -16265
▁crystallizes 	 -16267
▁Apparently 	 -16270
.29, 	 -16272
▁glow 	 -16273
[1 	 -16274
assing 	 -16276
0.96 	 -16277
▁photost 	 -16284
2∑ 	 -16285
elike 	 -16286
(8 	 -16288
▁azo 	 -16289
▁stabilizes 	 -16293
▁interpenet 	 -16294
2(1+ 	 -16297
lymp 	 -16298
▁aval 	 -16301
scattered 	 -16304
volatile 	 -16305
▁purged 	 -16310
000) 	 -16311
>0. 	 -16313
3+) 	 -16314
▁2–4 	 -16315
▁circularly 	 -16316
▁affords 	 -16317
°). 	 -16319
eryth 	 -16322
asting 	 -16323
▁plating 	 -16324
▁TiC 	 -16327
▁Dependence 	 -16328
▁dissipated 	 -16330
linker 	 -16332
pure 	 -16335
)=0. 	 -16336
xtran 	 -16337
▁UF 	 -16340
▁crosslinker 	 -16342
▁reversibly 	 -16349
▁skyrm 	 -16350
DLS 	 -16352
▁Polymerization 	 -16357
▁microsphere 	 -16358
▁⩾ 	 -16361
GMA 	 -16362
.3.5 	 -16366
3)( 	 -16369
▁assemble 	 -16371
▁electrocatalyst 	 -16372
tifying 	 -16375
▁micrometers 	 -16376
▁Born 	 -16377
CNP 	 -16379
Cys 	 -16380
▁excimer 	 -16381
▁cerium 	 -16384
achlor 	 -16386
▁Rc 	 -16389
ometal 	 -16390
0→ 	 -16392
▁SPI 	 -16393
▁1019 	 -16394
vative 	 -16396
▁barium 	 -16398
▁(250 	 -16401
▁BHJ 	 -16404
rapping 	 -16405
▁Bottom 	 -16408
▁icosa 	 -16411
porous 	 -16412
Td 	 -16413
▁electronically 	 -16415
▁GaSb 	 -16416
▁Dox 	 -16418
▁gyration 	 -16419
▁interphase 	 -16421
▁1.54 	 -16423
▁mixer 	 -16425
.2.1 	 -16426
Due 	 -16428
▁99.99 	 -16429
epar 	 -16430
pore 	 -16431
sertion 	 -16433
0.34 	 -16434
▁CBM 	 -16436
▁scission 	 -16437
▁oleic 	 -16438
sensitized 	 -16439
modes 	 -16441
Computational 	 -16442
)2− 	 -16443
▁extruded 	 -16447
2〉 	 -16449
10( 	 -16450
Low 	 -16453
optotic 	 -16454
▁GBs 	 -16455
SCN 	 -16456
▁propargyl 	 -16457
▁OLED 	 -16458
▁(200) 	 -16459
ashba 	 -16461
▁trifluoro 	 -16464
▁elastomers 	 -16465
▁centrifugal 	 -16467
▁Characteristic 	 -16470
▁ultrasonication 	 -16471
▁quasiparticle 	 -16472
adem 	 -16473
▁ZSM 	 -16480
oxal 	 -16481
▁MWNTs 	 -16482
▁multilayered 	 -16484
atched 	 -16490
[1, 	 -16491
slip 	 -16493
,27 	 -16494
5,36 	 -16495
ickness 	 -16496
▁anthracene 	 -16497
Catalyst 	 -16500
▁Hamiltonians 	 -16504
pyrrolidone 	 -16505
▁refract 	 -16507
▁clath 	 -16509
/6-31 	 -16510
▁TPD 	 -16516
▁Liquid 	 -16517
bium 	 -16520
▁(101 	 -16522
Typ 	 -16524
▁thermocouple 	 -16525
▁nitrile 	 -16526
▁damped 	 -16528
▁PTB 	 -16529
ternally 	 -16532
▁chloro 	 -16534
ddd 	 -16535
gradability 	 -16536
▁TIP 	 -16537
▁asph 	 -16538
QM 	 -16541
▁nanocubes 	 -16543
precipitation 	 -16546
^( 	 -16547
10‐ 	 -16549
GEBA 	 -16552
ellulose 	 -16554
(14) 	 -16555
▁soaked 	 -16556
▁supersaturation 	 -16557
5.4 	 -16559
▁Polymers 	 -16561
▁avalanc 	 -16562
tophan 	 -16564
▁Hubbard 	 -16565
0.88 	 -16568
hkl 	 -16572
▁wax 	 -16574
▁pyroly 	 -16576
▁isotop 	 -16577
scripts 	 -16582
3∕ 	 -16583
▁NLO 	 -16585
magnification 	 -16587
▁PPh 	 -16591
During 	 -16597
▁deviates 	 -16598
▁biomimetic 	 -16599
–600 	 -16601
SIMS 	 -16603
▁exposing 	 -16604
▁conveniently 	 -16607
▁1018 	 -16608
▁[110] 	 -16610
.30, 	 -16611
▁nucleophiles 	 -16614
▁3–5 	 -16615
▁naked 	 -16616
▁enantiomeric 	 -16617
▁TPP 	 -16618
Density 	 -16619
7/2 	 -16620
tetramethyl 	 -16621
▁1015 	 -16623
▁Mössbauer 	 -16627
▁SAMs 	 -16629
adsorbed 	 -16631
▁nanofl 	 -16632
▁absorbers 	 -16633
▁Stark 	 -16636
riptions 	 -16638
ructose 	 -16639
rint 	 -16641
lerene 	 -16642
▁NTs 	 -16643
vie 	 -16646
▁silanol 	 -16650
(21) 	 -16652
▁spacings 	 -16658
Second 	 -16659
anions 	 -16660
trifluoromethyl 	 -16661
motion 	 -16664
▁nucleophile 	 -16665
▁harsh 	 -16666
▁enantiomers 	 -16667
Shanghai 	 -16669
▁coexist 	 -16672
▁enhancements 	 -16675
CoFe 	 -16676
▁amination 	 -16680
▁miniat 	 -16681
▁(%): 	 -16682
Influence 	 -16684
6,37 	 -16689
▁Fmoc 	 -16691
▁intim 	 -16693
▁incompati 	 -16694
)≤ 	 -16696
▁selectivities 	 -16698
empirical 	 -16700
▁modifier 	 -16702
catalytic 	 -16704
▁phosphorescence 	 -16707
othiaz 	 -16709
▁benzaldehyde 	 -16712
0.44 	 -16715
shifts 	 -16716
annealing 	 -16717
isobut 	 -16719
0.49 	 -16722
▁SAW 	 -16724
apatite 	 -16725
,(4 	 -16731
Emmet 	 -16735
▁7.4) 	 -16737
Rp 	 -16738
▁undesired 	 -16744
▁Tensile 	 -16745
▁tetrahedron 	 -16748
boundary 	 -16753
MMARY 	 -16754
▁∼50 	 -16760
▁Insp 	 -16762
▁melamine 	 -16765
▁Rashba 	 -16767
▁cryostat 	 -16776
transport 	 -16777
▁zoom 	 -16779
▁trivalent 	 -16781
silicon 	 -16786
▁Evid 	 -16788
bones 	 -16789
Az 	 -16791
oxazol 	 -16793
▁porphyrins 	 -16794
Material 	 -16795
▁SiOx 	 -16798
=1∞ 	 -16799
▁electrol 	 -16801
▁Bessel 	 -16803
▁6.( 	 -16805
▁(0001) 	 -16808
isomerization 	 -16811
▁stagn 	 -16813
▁microemulsion 	 -16815
▁FCC 	 -16819
▁thiols 	 -16820
sq 	 -16821
▁graphi 	 -16822
12− 	 -16823
2+) 	 -16824
assemble 	 -16826
▁fullerenes 	 -16828
▁tilting 	 -16829
▁CIGS 	 -16831
▁synthesised 	 -16832
▁triphenyl 	 -16833
APPENDIX 	 -16838
▁mesoph 	 -16839
CCD 	 -16840
▁BTO 	 -16841
▁penta 	 -16842
roline 	 -16844
neath 	 -16846
integrated 	 -16847
▁deprotection 	 -16851
▁diffusing 	 -16853
▁polyaniline 	 -16854
–31 	 -16855
0.39 	 -16858
conducting 	 -16859
5− 	 -16860
mml 	 -16861
sport 	 -16863
▁enlarge 	 -16864
▁textile 	 -16871
▁sulfonate 	 -16873
ixing 	 -16875
▁Alfa 	 -16878
dv 	 -16884
▁[100] 	 -16886
▁nanoplate 	 -16888
▁spark 	 -16889
EtOH 	 -16890
PLLA 	 -16894
▁2:1 	 -16896
▁diol 	 -16897
SnS 	 -16901
▁Schiff 	 -16903
NAs 	 -16904
QZ 	 -16910
▁isotopes 	 -16911
7.1 	 -16915
39) 	 -16918
×105 	 -16919
consist 	 -16921
22( 	 -16922
enol 	 -16923
tinguish 	 -16925
▁glovebox 	 -16929
▁intensif 	 -16931
2−2 	 -16933
▁TMP 	 -16935
race 	 -16936
intercal 	 -16937
▁pits 	 -16943
▁electroactive 	 -16944
PEs 	 -16949
▁BPA 	 -16950
)∑ 	 -16951
)=[ 	 -16952
NaCl 	 -16953
▁ultrapure 	 -16956
▁sulfides 	 -16957
▁1013 	 -16958
▁calorimeter 	 -16959
MeCN 	 -16963
=30 	 -16964
▁−0.5 	 -16970
elts 	 -16974
▁Brunauer 	 -16975
▁Keithley 	 -16976
▁YAG 	 -16979
Under 	 -16981
vF 	 -16982
▁mats 	 -16985
.(6) 	 -16987
resonance 	 -16989
−0.5 	 -16993
▁Tec 	 -16994
TCP 	 -16997
▁{111} 	 -16998
▁lymp 	 -17001
▁nonadiabatic 	 -17003
▁mK 	 -17005
Dynamic 	 -17007
caprolactone 	 -17009
interface 	 -17010
kp 	 -17011
kF 	 -17012
helic 	 -17013
amethyl 	 -17014
▁underneath 	 -17015
▁throm 	 -17017
spherical 	 -17020
rimidine 	 -17022
▁counterion 	 -17025
▁photoionization 	 -17026
Electro 	 -17029
▁bosonic 	 -17030
▁rationalized 	 -17031
▁condensate 	 -17036
▁buoy 	 -17037
▁bromine 	 -17039
received 	 -17040
▁coulombic 	 -17044
▁1–5 	 -17048
▁1.5, 	 -17049
▁freest 	 -17055
Effects 	 -17057
▁virgin 	 -17059
▁CTA 	 -17060
▁carbonates 	 -17061
(0), 	 -17066
▁eigenfunctions 	 -17067
olines 	 -17069
▁SOI 	 -17070
Cz 	 -17073
1.5, 	 -17074
corr 	 -17077
1∂ 	 -17078
Ul 	 -17079
▁microscale 	 -17081
▁CuII 	 -17085
1)( 	 -17087
▁Helmholtz 	 -17088
)1/ 	 -17089
▁evacuated 	 -17091
▁Ic 	 -17092
Current 	 -17097
▁GNRs 	 -17098
3@ 	 -17099
near 	 -17100
Np 	 -17101
▁fluoro 	 -17102
▁interestingly 	 -17103
▁bump 	 -17108
spot 	 -17109
▁adhered 	 -17114
]+; 	 -17115
amant 	 -17118
SUMMARY 	 -17119
HPO 	 -17125
▁tailor 	 -17126
]1 	 -17129
▁meniscus 	 -17130
0.2, 	 -17131
▁foaming 	 -17134
LH 	 -17139
irradiation 	 -17140
▁CsPbBr 	 -17141
▁notch 	 -17142
Several 	 -17145
▁( 	 -17147
3)2] 	 -17148
urfural 	 -17149
amido 	 -17153
0.32 	 -17157
▁coarsening 	 -17160
▁EBSD 	 -17162
opharm 	 -17163
Optim 	 -17166
▁Joule 	 -17169
3)2· 	 -17170
▁photoexcitation 	 -17171
▁heterojunctions 	 -17172
:( 	 -17174
dew 	 -17175
▁realizing 	 -17178
scre 	 -17182
▁stretchable 	 -17184
▁prototyp 	 -17185
▁phosphorene 	 -17186
FTs 	 -17188
60) 	 -17190
▁polyesters 	 -17191
▁remnant 	 -17192
▁Nicolet 	 -17195
tp 	 -17196
▁electrospray 	 -17198
▁garn 	 -17199
▁SIMS 	 -17200
LDA 	 -17201
proportion 	 -17202
▁∼30 	 -17203
Four 	 -17204
▁0.4, 	 -17206
,(5) 	 -17208
▁adatom 	 -17209
▁HEM 	 -17210
▁ductile 	 -17212
▁Complexes 	 -17213
▁plateaus 	 -17214
▁nanog 	 -17215
porphyrin 	 -17222
HfO 	 -17224
cured 	 -17225
4,5- 	 -17226
▁Hex 	 -17228
▁polarizer 	 -17229
0.94 	 -17231
▁NFs 	 -17232
▁dispersing 	 -17234
▁1016 	 -17236
▁BODIPY 	 -17238
350 	 -17239
▁DMC 	 -17240
Bis 	 -17241
12). 	 -17244
▁superlattices 	 -17247
BZ 	 -17248
fabricated 	 -17249
Ion 	 -17250
▁recycl 	 -17251
▁indenter 	 -17252
dq 	 -17253
unched 	 -17254
▁EOS 	 -17259
1−1 	 -17261
▁astroph 	 -17262
AO 	 -17266
▁repeatability 	 -17267
ALD 	 -17270
moment 	 -17271
▁BST 	 -17273
Emmett 	 -17280
▁accelerator 	 -17281
▁isocyan 	 -17284
▁1011 	 -17286
▁copoly 	 -17287
▁Nanoparticles 	 -17288
▁chlorides 	 -17291
▁comonomer 	 -17292
pVDZ 	 -17294
▁Kohn 	 -17295
umbbell 	 -17297
RGD 	 -17298
aqueous 	 -17301
cinating 	 -17302
.1–4 	 -17303
▁decarboxyl 	 -17304
olm 	 -17305
▁Josephson 	 -17306
▁vibrating 	 -17307
▁boson 	 -17311
▁holograph 	 -17312
▁inaccur 	 -17313
▁fermionic 	 -17315
zinc 	 -17317
▁incompressible 	 -17318
clay 	 -17330
Gel 	 -17332
(15) 	 -17333
▁indis 	 -17334
CSs 	 -17336
▁tellur 	 -17337
▁decel 	 -17338
▁530 	 -17340
▁1014 	 -17341
lobin 	 -17343
▁nois 	 -17344
▁confining 	 -17345
▁CIS 	 -17346
diox 	 -17349
nH 	 -17350
▁Scherrer 	 -17351
▁13( 	 -17354
.2.3. 	 -17355
▁Majorana 	 -17357
idelines 	 -17358
▁470 	 -17359
▁homopolymers 	 -17361
▁immiscible 	 -17364
Both 	 -17368
▁dash 	 -17369
▁passivated 	 -17371
▁backbones 	 -17373
antal 	 -17375
▁(0.25 	 -17380
casting 	 -17386
0.9, 	 -17389
▁doublets 	 -17390
.3.3. 	 -17391
▁rheology 	 -17392
RuO 	 -17393
▁ferric 	 -17394
‐3, 	 -17395
·∇ 	 -17396
⋅∇ 	 -17397
benzoic 	 -17398
▁Maxwellian 	 -17399
▁timescales 	 -17400
′). 	 -17403
edance 	 -17406
CrO 	 -17407
×106 	 -17408
▁SiH 	 -17411
7,38 	 -17413
▁ssDNA 	 -17417
▁pyrro 	 -17418
▁APS 	 -17419
rj 	 -17420
▁LiCl 	 -17421
0.66 	 -17422
0.46 	 -17423
7.3 	 -17429
▁stripping 	 -17436
(22) 	 -17437
▁denser 	 -17438
▁AAO 	 -17441
−2). 	 -17442
addition 	 -17443
Rc 	 -17444
▁kx 	 -17447
dielectric 	 -17448
stoichiometric 	 -17449
Not 	 -17450
))= 	 -17452
▁osteob 	 -17453
0.68 	 -17455
2(2 	 -17457
QY 	 -17460
reduced 	 -17462
▁antiferrom 	 -17464
▁metamaterials 	 -17465
▁LTO 	 -17466
phasic 	 -17468
▁Diels 	 -17471
▁anneal 	 -17473
▁relaxations 	 -17477
)+2 	 -17479
ationship 	 -17480
anediol 	 -17487
▁intraven 	 -17490
efficiency 	 -17491
▁tetramethyl 	 -17494
▁fascinating 	 -17495
‐0 	 -17496
hydroxyp 	 -17502
▁adsorbates 	 -17504
▁unloading 	 -17505
▁atmospheres 	 -17508
▁dinuclear 	 -17510
▁basicity 	 -17511
−| 	 -17512
▁semiclassical 	 -17515
▁Conversion 	 -17517
5,6 	 -17518
▁withdra 	 -17519
▁plasmons 	 -17520
▁ppb 	 -17521
▁photoresponse 	 -17523
▁propagator 	 -17526
▁Catalyst 	 -17527
▁tapping 	 -17528
DTD 	 -17535
▁pinch 	 -17536
Eb 	 -17537
▁1∕ 	 -17538
HMW 	 -17542
Step 	 -17546
lactide 	 -17554
EH 	 -17556
JHH 	 -17562
−1[ 	 -17563
:1. 	 -17565
Ek 	 -17571
indicated 	 -17572
▁evolutions 	 -17574
×1 	 -17575
NCE 	 -17580
▁PMN 	 -17581
).4 	 -17583
odextrin 	 -17585
▁rectification 	 -17587
Dis 	 -17588
▁Philips 	 -17592
▁NCH 	 -17593
−+ 	 -17596
▁macrocyclic 	 -17601
▁protrusion 	 -17602
▁YBCO 	 -17603
▁distinguishable 	 -17608
ispersion 	 -17614
oclinic 	 -17615
Cross 	 -17617
),(1) 	 -17620
▁tabletable 	 -17623
tris 	 -17625
ammal 	 -17626
▁breakup 	 -17627
PZT 	 -17628
▁overlaid 	 -17629
▁PSC 	 -17633
▁TMR 	 -17634
▁STA 	 -17639
▁reforming 	 -17640
▁1020 	 -17641
▁decoupled 	 -17648
▁GNP 	 -17650
aneth 	 -17653
7( 	 -17658
▁wrapped 	 -17662
flux 	 -17665
▁projec 	 -17666
▁unidirectional 	 -17670
hydraz 	 -17673
.11– 	 -17678
Other 	 -17679
Benz 	 -17680
11). 	 -17681
▁interplanar 	 -17685
}( 	 -17686
▁Wigner 	 -17688
▁trifluoromethyl 	 -17689
▁overe 	 -17690
▁violet 	 -17691
▁Dashed 	 -17693
phos 	 -17695
cerning 	 -17697
.33, 	 -17699
diethyl 	 -17700
▁rinsing 	 -17701
▁pyraz 	 -17706
sily 	 -17708
)— 	 -17711
▁PLD 	 -17712
▁Plots 	 -17714
▁paradig 	 -17715
mbols 	 -17717
▁sorbent 	 -17718
)< 	 -17721
▁isocyanate 	 -17722
urke 	 -17723
▁heterocycles 	 -17725
⋅2 	 -17730
=0.2 	 -17731
vacuum 	 -17736
TAD 	 -17739
px 	 -17740
▁FMR 	 -17741
propag 	 -17743
▁tailoring 	 -17748
0.78 	 -17759
Sham 	 -17762
8,39 	 -17764
▁Kelvin 	 -17773
(3- 	 -17775
)10 	 -17776
▁ambipolar 	 -17777
0.54 	 -17781
oxycarbonyl 	 -17782
]/ 	 -17783
phosphor 	 -17786
▁planetary 	 -17787
▁epoxidation 	 -17788
.12– 	 -17789
keto 	 -17790
.%) 	 -17791
itons 	 -17792
▁660 	 -17795
xG 	 -17798
11( 	 -17800
olab 	 -17801
▁oxidize 	 -17804
Mes 	 -17805
▁RPM 	 -17807
▁initiators 	 -17808
onjug 	 -17809
von 	 -17815
▁virial 	 -17816
ship 	 -17817
▁10−10 	 -17818
▁corroborated 	 -17819
axane 	 -17820
▁imide 	 -17821
octa 	 -17824
▁osteogenic 	 -17825
olayer 	 -17826
▁dihydro 	 -17827
-(4- 	 -17828
▁nanomaterial 	 -17829
0.52 	 -17830
▁coplanar 	 -17832
▁rocking 	 -17834
▁PTX 	 -17836
(23) 	 -17838
▁1017 	 -17839
▁SPM 	 -17840
▁ZFC 	 -17841
▁alkoxy 	 -17845
2=1 	 -17846
0.58 	 -17849
▁MQ 	 -17850
tilage 	 -17851
▁sweeping 	 -17852
yclohex 	 -17853
−/ 	 -17854
▁5–10 	 -17855
▁weakening 	 -17857
▁sieves 	 -17866
▁miscible 	 -17867
▁micror 	 -17871
▁fluences 	 -17874
lexible 	 -17875
▁cloth 	 -17880
PDB 	 -17881
Multi 	 -17885
)­( 	 -17889
loys 	 -17890
Ray 	 -17893
tableI 	 -17894
idinium 	 -17895
sapphire 	 -17896
ipp 	 -17898
ronics 	 -17899
▁butyl 	 -17900
▁alkanes 	 -17903
vide 	 -17905
ivities 	 -17908
+[ 	 -17911
ofuran 	 -17912
▁MgB 	 -17913
coil 	 -17914
5.1 	 -17916
▁CIE 	 -17917
▁explosive 	 -17918
arboxylate 	 -17920
▁workstation 	 -17921
built 	 -17923
0′ 	 -17925
▁stag 	 -17927
▁2.00 	 -17928
▁saturates 	 -17929
EPR 	 -17931
dimethylsiloxane 	 -17934
=25 	 -17935
▁EELS 	 -17936
▁lipophilic 	 -17940
-(2- 	 -17941
osites 	 -17942
pase 	 -17943
icities 	 -17944
ostructural 	 -17948
+] 	 -17951
enton 	 -17953
▁stereochemistry 	 -17957
▁TMD 	 -17959
uests 	 -17960
▁Boc 	 -17962
DZ 	 -17964
〉= 	 -17968
triplet 	 -17969
9.8 	 -17971
▁valle 	 -17973
ammalian 	 -17974
1100 	 -17975
CNFs 	 -17976
▁coexisting 	 -17978
▁photoactive 	 -17980
idines 	 -17981
below 	 -17982
▁Fano 	 -17983
×104 	 -17986
▁barely 	 -17987
FTO 	 -17988
▁denomin 	 -17990
▁SiNx 	 -17991
▁decis 	 -17995
▁clu 	 -17999
9.2 	 -18000
ESY 	 -18001
▁HAp 	 -18002
9.4 	 -18003
mitte 	 -18005
OES 	 -18006
▁1,3, 	 -18012
0.87 	 -18013
▁COOH 	 -18015
octane 	 -18017
▁lighter 	 -18018
−∂ 	 -18019
orill 	 -18020
▁ascorbic 	 -18022
SAM 	 -18023
▁[{ 	 -18024
▁bimolecular 	 -18026
▁noticeably 	 -18027
Despite 	 -18030
,31 	 -18032
helical 	 -18033
▁reinforcing 	 -18036
9.1 	 -18037
▁wearable 	 -18038
▁evidently 	 -18044
▁directing 	 -18045
▁cyanide 	 -18047
▁agitation 	 -18048
▁twisting 	 -18049
▁(3.0 	 -18054
▁yttrium 	 -18056
calcd 	 -18057
EXAFS 	 -18060
▁pulling 	 -18061
▁Catalytic 	 -18062
▁cantilevers 	 -18064
▁50° 	 -18065
▁DSSC 	 -18067
▁(∼10 	 -18068
▁nanofibrous 	 -18069
▁QE 	 -18070
406 	 -18072
Su 	 -18073
▁microgel 	 -18075
▁cuvette 	 -18078
Numerical 	 -18079
SAED 	 -18082
▁sharper 	 -18084
opyridine 	 -18085
▁1800 	 -18086
⊥, 	 -18087
+1+ 	 -18091
erometric 	 -18092
▁ky 	 -18093
TrFE 	 -18094
osilane 	 -18095
▁UO 	 -18100
VII 	 -18102
∣2 	 -18104
▁oscilloscope 	 -18105
▁mesoscopic 	 -18107
ZS 	 -18108
.(7) 	 -18109
▁amorph 	 -18112
▁nucleating 	 -18116
KP 	 -18117
constant 	 -18118
sulfonyl 	 -18119
ohns 	 -18122
▁Film 	 -18124
▁photometric 	 -18125
MCM 	 -18126
▁5° 	 -18129
1⋯ 	 -18130
▁evanes 	 -18133
rosymmetric 	 -18135
fluorene 	 -18137
▁emissivity 	 -18138
▁encomp 	 -18139
uccin 	 -18141
estructive 	 -18142
xylene 	 -18144
MOs 	 -18145
▁SPC 	 -18150
insp 	 -18154
▁spacers 	 -18155
▁oxo 	 -18161
▁EPDM 	 -18164
ermitian 	 -18166
CNC 	 -18167
▁sublimation 	 -18169
AES 	 -18172
.7. 	 -18174
▁prepolymer 	 -18176
▁DEA 	 -18177
FCs 	 -18178
▁EDC 	 -18179
▁RGD 	 -18180
20), 	 -18181
JC 	 -18182
chromic 	 -18186
▁[1–3]. 	 -18187
▁combin 	 -18188
Boc 	 -18189
▁exchan 	 -18192
+), 	 -18194
Similarly 	 -18195
▁AIBN 	 -18199
▁collinear 	 -18201
arom 	 -18202
▁273 	 -18203
▁tester 	 -18206
▁perchlor 	 -18207
▁inks 	 -18209
▁anodization 	 -18211
▁pockets 	 -18212
▁supersonic 	 -18216
oprene 	 -18217
)/2 	 -18218
{{\ 	 -18222
▁Simp 	 -18224
NMP 	 -18226
double 	 -18228
/30 	 -18229
▁calix 	 -18230
▁offsets 	 -18232
harmon 	 -18234
lobal 	 -18235
thiol 	 -18236
PLGA 	 -18239
APT 	 -18240
▁guests 	 -18241
determining 	 -18242
▁terephthalate 	 -18244
vx 	 -18245
▁evaporator 	 -18246
halogen 	 -18247
▁supercooled 	 -18248
Voc 	 -18249
‐15 	 -18252
0.56 	 -18253
Vg 	 -18255
Radi 	 -18256
10,11 	 -18257
9.3 	 -18259
Case 	 -18260
0.77 	 -18262
fluidics 	 -18263
▁(101) 	 -18265
▁phosphoric 	 -18266
hydrates 	 -18268
▁chlorobenzene 	 -18269
▁Experimentally 	 -18272
BTC 	 -18273
▁freestanding 	 -18274
vib 	 -18275
▁zonal 	 -18277
lore 	 -18278
kon 	 -18279
spun 	 -18281
hrom 	 -18283
0.005 	 -18284
riton 	 -18285
▁Solvent 	 -18289
▁FeS 	 -18291
▁VUV 	 -18292
1∕2 	 -18296
2(1) 	 -18299
Considering 	 -18301
▁CuIn 	 -18302
rand 	 -18306
▁hexagon 	 -18307
▁TNT 	 -18308
0.89 	 -18312
−∑ 	 -18313
agnets 	 -18315
▁polarizable 	 -18316
▁propane 	 -18317
▁IPA 	 -18319
▁Drude 	 -18321
▁EUV 	 -18337
▁concerted 	 -18339
▁photoanodes 	 -18340
gaps 	 -18341
Given 	 -18342
▁projector 	 -18344
▁evanescent 	 -18345
▁condenser 	 -18346
▁ZrB 	 -18347
▁carbazole 	 -18350
9,40 	 -18353
▁Emp 	 -18355
dry 	 -18356
′/ 	 -18357
vsk 	 -18358
10.0 	 -18359
▁poled 	 -18360
xMn 	 -18361
▁Perdew 	 -18363
▁ethane 	 -18365
▁CuK 	 -18367
anet 	 -18372
(24) 	 -18374
▁Reagents 	 -18375
idic 	 -18376
lens 	 -18378
▁ejected 	 -18379
▁monoxide 	 -18381
▁panc 	 -18382
nitrogen 	 -18384
butylammonium 	 -18385
▁obeys 	 -18389
.3,4 	 -18391
pyraz 	 -18393
211 	 -18397
Ly 	 -18398
onductance 	 -18399
▁bunch 	 -18400
▁polyol 	 -18401
▁magnifications 	 -18403
▁dendron 	 -18406
PDF 	 -18407
mittee 	 -18408
▁CaF 	 -18409
▁cubes 	 -18412
▁sulfonated 	 -18414
borane 	 -18415
–700 	 -18416
▁Navier 	 -18417
zsch 	 -18418
▁633 	 -18421
acetamide 	 -18422
▁boun 	 -18423
tmorill 	 -18425
▁[30, 	 -18427
vdW 	 -18428
▁HOPG 	 -18429
▁spun 	 -18431
▁meanwhile 	 -18434
▁voltammetric 	 -18435
8.4 	 -18440
.4,5 	 -18441
éel 	 -18442
▁GNR 	 -18443
▁smectic 	 -18445
MCD 	 -18449
–150 	 -18450
▁Vs 	 -18453
amplitude 	 -18454
▁RPA 	 -18455
Ef 	 -18456
▁superfluid 	 -18458
▁Δφ 	 -18461
‐20 	 -18462
infinite 	 -18466
▁dissociate 	 -18467
▁beaker 	 -18469
fluids 	 -18470
.(6 	 -18471
▁overexp 	 -18472
xide 	 -18474
PBA 	 -18477
▁580 	 -18479
ustrated 	 -18480
∕∂ 	 -18481
▁coverages 	 -18483
eads 	 -18484
▁SBS 	 -18486
▁[1,2]. 	 -18487
Ext 	 -18488
▁HCO 	 -18491
▁relaxor 	 -18493
,(6) 	 -18494
▁Bose 	 -18497
▁vigorously 	 -18498
▁∼6 	 -18499
▁compatibilizer 	 -18501
thiaz 	 -18505
wet 	 -18507
2=− 	 -18512
alization 	 -18517
▁PBI 	 -18518
10% 	 -18520
Lx 	 -18521
(16) 	 -18522
esterification 	 -18523
▁PerkinElmer 	 -18526
0=1 	 -18527
olefin 	 -18528
▁0.25, 	 -18530
▁PPC 	 -18534
1)+ 	 -18535
etic 	 -18536
ilayers 	 -18538
–, 	 -18541
NMe 	 -18543
▁triazole 	 -18544
▁plasticizer 	 -18546
▁1050 	 -18549
vibrational 	 -18551
phenyle 	 -18560
ocarb 	 -18563
romer 	 -18566
Solvent 	 -18567
0.86 	 -18568
▁transducers 	 -18569
▁mPEG 	 -18570
▁outermost 	 -18572
▁nucleob 	 -18573
+– 	 -18574
▁pyridyl 	 -18576
)∥ 	 -18578
▁∼15 	 -18579
mittance 	 -18580
DCM 	 -18581
6,7 	 -18584
▁spiked 	 -18585
▁nanotechnology 	 -18587
iħ 	 -18592
hao 	 -18593
=50 	 -18596
▁soot 	 -18601
0[ 	 -18602
8.2 	 -18604
0.57 	 -18607
reversal 	 -18608
ithiation 	 -18610
▁decoherence 	 -18613
▁zeroth 	 -18618
▁hairpin 	 -18620
▁recharge 	 -18623
▁oligomeric 	 -18624
:(1) 	 -18628
xF 	 -18629
obin 	 -18630
okinetic 	 -18632
▁EDL 	 -18634
▁514 	 -18635
osities 	 -18636
▁tetraz 	 -18640
▁>99 	 -18642
.5,6 	 -18645
〉〈 	 -18646
▁trench 	 -18648
▁dumbbell 	 -18649
Mer 	 -18650
0.43 	 -18651
▁exo 	 -18652
▁HAuCl 	 -18654
▁−30 	 -18655
hetero 	 -18656
▁dextran 	 -18657
▁tethered 	 -18661
epler 	 -18662
▁thiourea 	 -18663
′)= 	 -18664
▁SPA 	 -18667
=18 	 -18668
isole 	 -18670
▁nanobelts 	 -18672
▁envis 	 -18673
▁concentric 	 -18674
Variation 	 -18675
rever 	 -18680
.6,7 	 -18681
dA 	 -18683
▁polyhedra 	 -18684
▁HSE 	 -18685
1.0, 	 -18686
▁inflection 	 -18687
8.3 	 -18688
▁topologically 	 -18694
12,13 	 -18695
▁SBR 	 -18696
Among 	 -18697
quantum 	 -18699
▁benzylic 	 -18700
Nc 	 -18701
never 	 -18702
▁stereoselective 	 -18704
▁Adapted 	 -18705
FESEM 	 -18707
Besides 	 -18708
▁(○ 	 -18709
DTA 	 -18710
▁calcite 	 -18713
Typical 	 -18716
▁stray 	 -18717
ulosic 	 -18718
▁valleys 	 -18719
▁570 	 -18721
▁DLC 	 -18724
atalyst 	 -18725
antation 	 -18728
9.7 	 -18732
▁CQDs 	 -18734
0.76 	 -18735
▁spanwise 	 -18736
±2 	 -18737
▁smoother 	 -18739
qe 	 -18740
▁depolymer 	 -18742
▁Silicon 	 -18744
Three 	 -18745
zations 	 -18746
▁pigments 	 -18747
.7,8 	 -18749
▁globular 	 -18750
▁retarded 	 -18752
▁remin 	 -18753
▁dehydrated 	 -18754
▁808 	 -18755
▁aven 	 -18757
cidyl 	 -18758
▁swell 	 -18759
▁MFC 	 -18760
drying 	 -18763
Simulation 	 -18764
▁TDDFT 	 -18767
▁Fabrication 	 -18769
factant 	 -18770
▁2400 	 -18771
HMWPE 	 -18772
▁orif 	 -18773
sensing 	 -18774
NaOH 	 -18775
▁dith 	 -18776
▁pinhole 	 -18777
▁nanoindentation 	 -18780
ocarbon 	 -18781
▁uran 	 -18782
▁100° 	 -18784
]­[ 	 -18787
▁Simultaneously 	 -18788
[3, 	 -18792
2)3 	 -18795
dynamics 	 -18796
270 	 -18798
▁300, 	 -18800
0/[ 	 -18801
utron 	 -18803
▁widen 	 -18804
ohnson 	 -18806
fting 	 -18807
sient 	 -18808
▁occupies 	 -18809
▁CHI 	 -18812
electrolytes 	 -18813
▁0.5. 	 -18814
▁avalanche 	 -18815
▁(5.0 	 -18822
▁dendrite 	 -18827
▁dissim 	 -18829
▁adhesives 	 -18832
.(8) 	 -18833
biphenyl 	 -18834
▁CoS 	 -18837
MAA 	 -18839
3)3· 	 -18841
▁CuPc 	 -18843
7,8 	 -18845
velocity 	 -18846
12.5 	 -18847
°), 	 -18848
13), 	 -18850
buty 	 -18851
omposites 	 -18853
PPO 	 -18854
iw 	 -18856
▁interdig 	 -18857
inspired 	 -18858
▁490 	 -18860
AlC 	 -18864
NDI 	 -18865
MAEMA 	 -18866
⟩+ 	 -18868
▁COF 	 -18869
)0 	 -18870
∕( 	 -18872
InP 	 -18875
▁ferrites 	 -18878
▁piston 	 -18879
▁spherulites 	 -18881
qj 	 -18882
reflection 	 -18884
Einstein 	 -18885
havi 	 -18887
optimized 	 -18889
inforced 	 -18891
inites 	 -18893
▁LiO 	 -18894
▁NBO 	 -18895
[4] 	 -18896
)∝ 	 -18897
▁pioneering 	 -18898
▁IPCE 	 -18900
▁electrost 	 -18902
)+∑ 	 -18904
▁(85 	 -18906
▁monovalent 	 -18907
stacking 	 -18910
0.83 	 -18911
catalysts 	 -18912
FITC 	 -18913
Before 	 -18917
▁Simulated 	 -18918
▁plastics 	 -18920
Photo 	 -18923
▁−40 	 -18925
▁nitrides 	 -18927
▁sidewalls 	 -18928
Remark 	 -18929
5.2 	 -18938
▁aerugin 	 -18942
TCNQ 	 -18943
▁Commerc 	 -18946
▁diabatic 	 -18947
▁restrain 	 -18948
above 	 -18951
lap 	 -18954
)2) 	 -18958
mV 	 -18959
▁funnel 	 -18960
ulfonate 	 -18961
Tl 	 -18963
▁injector 	 -18966
▁microfib 	 -18968
▁magnetoelectric 	 -18969
crown 	 -18970
undlich 	 -18971
▁mortar 	 -18972
tube 	 -18973
▁processability 	 -18974
▁byproducts 	 -18978
fcc 	 -18980
▁steril 	 -18982
▁inkjet 	 -18985
edo 	 -18986
9,10 	 -18990
Following 	 -18991
xB 	 -18993
peptides 	 -18994
printed 	 -18995
filling 	 -18998
–36 	 -18999
carboxylate 	 -19000
iya 	 -19003
kis 	 -19004
▁bioactivity 	 -19005
compens 	 -19008
▁microw 	 -19011
Relative 	 -19012
▁saturate 	 -19013
=1) 	 -19014
oxorubicin 	 -19016
usler 	 -19019
▁rheometer 	 -19023
tmorillonite 	 -19025
▁chemisorbed 	 -19028
recipitation 	 -19029
−2), 	 -19030
1–7 	 -19031
▁CPs 	 -19032
nanop 	 -19033
▁chemists 	 -19036
PDT 	 -19038
onene 	 -19040
▁Bulk 	 -19041
▁boro 	 -19042
CdSe 	 -19044
2–7 	 -19046
ovian 	 -19047
▁urethane 	 -19048
▁setups 	 -19049
0∂ 	 -19050
▁560 	 -19054
▁tapered 	 -19055
gold 	 -19056
lithium 	 -19057
▁staggered 	 -19060
▁hemic 	 -19061
=- 	 -19066
▁attracting 	 -19068
▁500, 	 -19069
adecane 	 -19071
▁Illustration 	 -19072
–1), 	 -19079
▁Néel 	 -19080
▁Highly 	 -19082
kyne 	 -19083
TiN 	 -19085
▁CNCs 	 -19086
.9,10 	 -19088
MSN 	 -19090
▁HTM 	 -19091
BMA 	 -19093
implanted 	 -19095
)−( 	 -19097
Carbon 	 -19099
▁macrocycles 	 -19101
0.69 	 -19103
×10−2 	 -19104
.8,9 	 -19106
zerland 	 -19112
▁macroporous 	 -19113
▁heteroatom 	 -19116
ridge 	 -19117
▁nominally 	 -19121
4+, 	 -19122
▁accelerates 	 -19125
▁1.55 	 -19126
Dt 	 -19127
▁metallicity 	 -19131
▁CASSCF 	 -19133
DTT 	 -19134
▁multiferroic 	 -19135
/(2 	 -19137
fullerene 	 -19141
▁1.15 	 -19142
▁nucleated 	 -19144
polymers 	 -19148
▁dilat 	 -19151
IMD 	 -19152
▁rolled 	 -19153
▁MAO 	 -19155
▁MPS 	 -19156
)7 	 -19157
0.64 	 -19158
rami 	 -19159
iar 	 -19161
mino 	 -19162
▁antibonding 	 -19163
8,9 	 -19164
▁iPr 	 -19165
shear 	 -19167
▁PMF 	 -19171
Agilent 	 -19172
ubbles 	 -19173
changing 	 -19176
2−, 	 -19178
▁MNP 	 -19179
▁TENG 	 -19180
CPE 	 -19182
▁symmetrically 	 -19183
compound 	 -19188
▁eccentric 	 -19193
anethiol 	 -19195
×3 	 -19204
▁photochrom 	 -19205
▁collisionless 	 -19208
▁unfolded 	 -19210
▁arylation 	 -19212
▁binders 	 -19214
▁Copper 	 -19215
Some 	 -19216
▁70° 	 -19219
beg 	 -19225
‐5‐ 	 -19227
Scanning 	 -19229
disk 	 -19238
oxazine 	 -19239
sulfur 	 -19240
1.. 	 -19242
8.1 	 -19244
DME 	 -19245
compare 	 -19247
$, 	 -19249
▁10–20 	 -19253
▁siloxane 	 -19256
▁liposome 	 -19257
▁LiMn 	 -19258
]+. 	 -19259
▁carboxy 	 -19262
ferroc 	 -19264
▁sweeps 	 -19265
▁alkane 	 -19266
▁separatrix 	 -19267
TaO 	 -19268
3/2, 	 -19269
14,15 	 -19273
▁PLE 	 -19274
interaction 	 -19278
11− 	 -19279
▁semicrystalline 	 -19280
9/2 	 -19282
▁manifests 	 -19283
▁swept 	 -19286
▁[111] 	 -19288
▁frictional 	 -19290
races 	 -19292
▁infinites 	 -19293
▁DTA 	 -19295
▁40° 	 -19296
stellar 	 -19297
BiO 	 -19303
▁nanoflakes 	 -19304
▁hinders 	 -19309
isotropic 	 -19310
▁regioselective 	 -19312
▁submicron 	 -19313
)−2 	 -19314
onates 	 -19317
▁occupying 	 -19319
Hal 	 -19320
Hence 	 -19326
▁DETA 	 -19328
vitrogen 	 -19329
butane 	 -19330
▁uranyl 	 -19331
tf 	 -19332
9( 	 -19333
0.3, 	 -19336
1–4 	 -19339
adsorption 	 -19340
▁interchain 	 -19341
-41 	 -19342
▁biasing 	 -19343
▁biphenyl 	 -19344
▁pressur 	 -19346
▁Oxidation 	 -19347
)3, 	 -19349
▁laterally 	 -19350
▁inhomogeneities 	 -19352
.10,11 	 -19354
Number 	 -19355
▁kz 	 -19356
orated 	 -19357
agnetically 	 -19360
▁1064 	 -19361
initiated 	 -19367
▁FeO 	 -19368
▁perylene 	 -19370
▁wavefunctions 	 -19371
monotonic 	 -19372
iskers 	 -19373
▁immersing 	 -19375
(0001) 	 -19377
acters 	 -19378
electrons 	 -19383
▁remanent 	 -19384
ricted 	 -19385
13). 	 -19386
▁Millipore 	 -19387
▁MCT 	 -19389
▁Rhe 	 -19390
3⋅ 	 -19391
▁APTES 	 -19392
embranes 	 -19394
▁spectrometers 	 -19395
dichloro 	 -19397
alcoh 	 -19399
▁dsDNA 	 -19402
nb 	 -19406
dimer 	 -19407
▁pyroch 	 -19409
▁reflector 	 -19410
dH 	 -19411
Determination 	 -19412
hydrophilic 	 -19413
▁cryo 	 -19416
▁microns 	 -19418
,32 	 -19421
▁biphasic 	 -19423
veloped 	 -19427
▁dictated 	 -19428
2,..., 	 -19429
▁99.9 	 -19434
▁bifurc 	 -19435
▁FeSe 	 -19437
▁OSCs 	 -19439
▁MSD 	 -19440
adecyl 	 -19441
15,16 	 -19442
partic 	 -19443
otactic 	 -19444
▁opaque 	 -19445
Interestingly 	 -19447
▁tautomer 	 -19448
▁PDOS 	 -19449
Statistical 	 -19453
▁refinements 	 -19455
−14 	 -19457
breaking 	 -19459
▁120° 	 -19460
▁nanogels 	 -19461
▁voltammogram 	 -19464
urfaces 	 -19466
▁WAXD 	 -19467
bz 	 -19468
Mass 	 -19471
0.42 	 -19472
2(2) 	 -19473
▁chitin 	 -19475
▁tantal 	 -19478
▁SnSe 	 -19480
▁reused 	 -19481
▁orthogon 	 -19483
▁abruptly 	 -19484
added 	 -19485
+2) 	 -19487
▁HCN 	 -19488
▁isobut 	 -19489
–1.5 	 -19490
▁extruder 	 -19491
oclay 	 -19495
▁microchannels 	 -19496
16,17 	 -19497
17,18 	 -19501
▁≲ 	 -19503
▁Fock 	 -19504
3)4 	 -19505
▁semimet 	 -19507
▁cus 	 -19508
.11,12 	 -19509
▁hydrolytic 	 -19511
▁monos 	 -19514
▁pollutant 	 -19519
acol 	 -19520
▁DMS 	 -19521
disubstituted 	 -19523
▁chemist 	 -19524
trast 	 -19525
▁contacting 	 -19526
panel 	 -19527
▁HRS 	 -19529
rictive 	 -19530
−⟨ 	 -19531
▁diffracted 	 -19532
deriv 	 -19534
rimary 	 -19535
▁Ligand 	 -19536
▁downfield 	 -19538
diamond 	 -19540
▁desorbed 	 -19541
0.63 	 -19542
0.001 	 -19543
▁coumarin 	 -19545
0.93 	 -19549
▁Elmer 	 -19551
olinium 	 -19553
▁2.5, 	 -19556
▁stear 	 -19557
>2 	 -19558
▁MWNT 	 -19561
isks 	 -19563
0.84 	 -19567
5.3 	 -19570
▁OFETs 	 -19571
22− 	 -19572
▁prodrug 	 -19575
3′ 	 -19578
▁PEEK 	 -19579
purple 	 -19581
PtCl 	 -19582
AAC 	 -19585
▁3–4 	 -19587
▁LRS 	 -19592
▁Rabi 	 -19594
▁chelate 	 -19595
=+ 	 -19596
▁polycarbonate 	 -19598
TU 	 -19599
haw 	 -19601
▁Tecnai 	 -19603
▁(1:1 	 -19604
anoate 	 -19605
▁tearing 	 -19606
▁Morphology 	 -19607
▁vaporization 	 -19608
Asp 	 -19610
▁molded 	 -19611
rained 	 -19612
]} 	 -19613
▁Δμ 	 -19614
covery 	 -19616
▁misorientation 	 -19618
(−1) 	 -19619
lasma 	 -19620
^{\ 	 -19630
▁LbL 	 -19632
▁Else 	 -19633
extraction 	 -19634
▁SCs 	 -19635
Determined 	 -19638
riles 	 -19639
▁IEC 	 -19640
▁photostability 	 -19642
▁anharmon 	 -19644
▁splitter 	 -19646
oamp 	 -19649
storage 	 -19650
▁preclu 	 -19651
∈{ 	 -19658
SPE 	 -19659
▁potentiostat 	 -19661
CZ 	 -19663
MPA 	 -19664
▁breakage 	 -19666
▁streamer 	 -19668
▁vapors 	 -19669
▁TCE 	 -19672
▁powdered 	 -19674
iscent 	 -19677
▁Excitation 	 -19678
,(7) 	 -19679
14), 	 -19681
icc 	 -19682
ayered 	 -19683
▁7.4, 	 -19684
▁deoxygen 	 -19686
▁overestimated 	 -19687
aerobic 	 -19688
πε 	 -19689
phenanth 	 -19690
–1.0 	 -19691
Comb 	 -19692
▁noninteracting 	 -19699
osil 	 -19701
▁(• 	 -19704
)-3- 	 -19705
▁FeCo 	 -19707
▁diminishes 	 -19708
.(9) 	 -19709
Lemma 	 -19711
▁envisioned 	 -19713
respondingly 	 -19723
▁neutralized 	 -19726
0.79 	 -19727
▁attractor 	 -19730
SEC 	 -19731
▁(3.5 	 -19732
▁nanopro 	 -19733
encapsulated 	 -19734
Tensile 	 -19735
▁HDA 	 -19736
▁phenols 	 -19737
vt 	 -19740
12/ 	 -19741
Electrical 	 -19747
▁finely 	 -19748
Metal 	 -19749
produced 	 -19750
▁imines 	 -19751
begin 	 -19754
.2,3 	 -19755
▁pyroelectric 	 -19756
dF 	 -19757
3)] 	 -19758
TFA 	 -19760
▁SBF 	 -19762
▁endo 	 -19764
▁brighter 	 -19765
TMA 	 -19771
1→ 	 -19773
dS 	 -19774
▁DMAP 	 -19777
▁ferroelectrics 	 -19778
▁(100), 	 -19779
▁0.6, 	 -19780
−1= 	 -19782
▁sensitizer 	 -19784
▁spheroids 	 -19790
nzer 	 -19791
glow 	 -19793
▁ripening 	 -19797
bipyridine 	 -19798
apto 	 -19800
2,43 	 -19804
▁magnetoc 	 -19806
charging 	 -19807
Ze 	 -19809
atalysts 	 -19810
HFP 	 -19813
–45 	 -19815
together 	 -19816
▁HTL 	 -19821
▁10%, 	 -19824
ickers 	 -19827
cessible 	 -19828
CdTe 	 -19829
▁neutrals 	 -19830
.12,13 	 -19833
vided 	 -19834
PBI 	 -19835
▁stagnation 	 -19838
UO 	 -19840
▁niobium 	 -19841
▁DPPC 	 -19842
2,3- 	 -19844
▁DGEBA 	 -19847
0.59 	 -19848
▁(1.6 	 -19849
▁Proton 	 -19853
ohlra 	 -19855
(∇ 	 -19857
▁7.( 	 -19861
≠0, 	 -19862
▁PFM 	 -19865
▁slag 	 -19866
▁heats 	 -19870
silylation 	 -19871
tanh 	 -19872
salt 	 -19877
▁chalcogenide 	 -19879
NCH 	 -19883
0.4, 	 -19886
woven 	 -19889
illaries 	 -19892
▁benzoic 	 -19894
BuLi 	 -19895
,33 	 -19897
enium 	 -19899
displacement 	 -19901
seudo 	 -19904
gradi 	 -19906
imidazol 	 -19907
>1 	 -19908
0.0, 	 -19909
▁MSNs 	 -19912
HODS 	 -19913
▁microplate 	 -19915
Spin 	 -19916
Initial 	 -19917
▁Academ 	 -19918
▁pyramid 	 -19920
▁imprinting 	 -19922
odiimide 	 -19926
▁ultral 	 -19929
▁MFI 	 -19930
▁reusability 	 -19931
▁xer 	 -19933
vection 	 -19935
▁reminiscent 	 -19940
iodo 	 -19941
▁parametrization 	 -19942
cyclopent 	 -19944
▁impregnated 	 -19947
(17) 	 -19949
▁QY 	 -19950
▁Vth 	 -19952
▁YIG 	 -19957
▁subband 	 -19958
▁aza 	 -19959
▁entrapped 	 -19961
▁−80 	 -19963
).(3 	 -19964
yryl 	 -19967
▁LLDPE 	 -19970
urethanes 	 -19971
▁interstitials 	 -19973
cyclo 	 -19976
cubic 	 -19979
crosslinked 	 -19981
)(1− 	 -19982
14). 	 -19984
▁crosslinks 	 -19986
PTFE 	 -19988
▁nanocarriers 	 -19989
PSCs 	 -19990
0.92 	 -19992
1200 	 -19993
▁acrylamide 	 -19994
Eqs 	 -19996
▁355 	 -19998
2⋅ 	 -20002
2∣ 	 -20006
→0, 	 -20007
*+ 	 -20008
αα 	 -20009
illers 	 -20010
▁photovoltaics 	 -20011
locking 	 -20013
▁supere 	 -20015
▁exemplified 	 -20017
Pack 	 -20023
▁PPO 	 -20025
▁transporting 	 -20026
▁diene 	 -20027
▁desal 	 -20028
▁magnon 	 -20029
▁alkynyl 	 -20030
▁1:2 	 -20031
15), 	 -20033
para 	 -20034
.13,14 	 -20036
▁overlayer 	 -20037
Therm 	 -20042
momentum 	 -20043
lactic 	 -20048
▁nanol 	 -20049
▁asymmetrical 	 -20052
sorp 	 -20054
▁PCN 	 -20056
▁pads 	 -20058
butene 	 -20059
18,19 	 -20062
amped 	 -20063
–1). 	 -20065
▁AEM 	 -20066
atiot 	 -20067
Measurement 	 -20069
const 	 -20071
nergetic 	 -20072
▁photometry 	 -20076
sput 	 -20077
▁pulled 	 -20079
milled 	 -20080
▁oppositely 	 -20081
0.74 	 -20082
▁electrophoretic 	 -20084
triggered 	 -20086
▁geometrically 	 -20087
Quantum 	 -20088
▁tentatively 	 -20089
▁DBD 	 -20090
▁oxidants 	 -20091
itics 	 -20092
RHE 	 -20093
SOC 	 -20094
▁ACN 	 -20095
▁superstructure 	 -20097
750 	 -20098
))+ 	 -20100
▁ellipse 	 -20101
fluoride 	 -20102
ignificantly 	 -20105
MeO 	 -20107
▁sticking 	 -20109
ocompati 	 -20112
Linear 	 -20113
mits 	 -20116
attere 	 -20119
▁NiTi 	 -20121
▁prefactor 	 -20123
▁polarisation 	 -20127
/6‐ 	 -20129
×10−7 	 -20130
▁MOs 	 -20131
nzerhof 	 -20138
.(10) 	 -20139
agons 	 -20140
–0.5 	 -20141
▁projectile 	 -20142
served 	 -20143
▁XC 	 -20145
▁CDW 	 -20146
▁paint 	 -20147
▁SANS 	 -20149
▁idealized 	 -20153
▁TCO 	 -20155
ithiophene 	 -20160
▁strontium 	 -20161
▁Bohr 	 -20163
selectivity 	 -20164
oscill 	 -20165
▁polysulfides 	 -20166
▁Fitting 	 -20167
▁buoyancy 	 -20168
:= 	 -20170
–38 	 -20171
redicted 	 -20172
isocyanate 	 -20175
0〉 	 -20176
Eth 	 -20177
fluorinated 	 -20179
▁multiplet 	 -20182
▁ClO 	 -20185
▁labile 	 -20186
)22 	 -20187
▁pentane 	 -20188
Free 	 -20189
▁segregated 	 -20192
▁1.75 	 -20193
Condon 	 -20196
Nano 	 -20197
analytical 	 -20204
▁dioxane 	 -20205
▁polyimides 	 -20207
Each 	 -20208
(111), 	 -20210
▁orifice 	 -20212
▁recoil 	 -20216
▁hydrides 	 -20218
▁1.23 	 -20221
dimethylamino 	 -20223
▁ultrafine 	 -20224
▁stereochemical 	 -20225
(0)( 	 -20227
kc 	 -20229
1,42 	 -20233
▁sealing 	 -20236
0.8, 	 -20238
▁ROP 	 -20239
tetraz 	 -20240
(26) 	 -20241
neat 	 -20244
▁hydroxyapatite 	 -20245
xz 	 -20253
▁2.25 	 -20254
0.6, 	 -20255
▁axially 	 -20258
iphenyl 	 -20260
JEOL 	 -20261
PAC 	 -20264
▁achiral 	 -20265
▁scavenger 	 -20267
TPE 	 -20269
▁restoring 	 -20270
▁RHEED 	 -20271
▁telescope 	 -20274
olig 	 -20275
▁LES 	 -20277
2/( 	 -20278
–4]. 	 -20279
–37 	 -20280
▁astrophysical 	 -20282
▁biosensing 	 -20283
▁apatite 	 -20289
cavity 	 -20294
▁2,6- 	 -20295
=1+ 	 -20296
▁Mp 	 -20297
HEMA 	 -20299
addin 	 -20300
▁machining 	 -20304
▁fluorination 	 -20305
▁(120 	 -20307
▁preparative 	 -20314
▁(2016 	 -20317
▁Dielectric 	 -20318
▁Δε 	 -20319
▁Kepler 	 -20322
‐9 	 -20323
heptane 	 -20324
2∫ 	 -20327
EMD 	 -20328
▁sulfone 	 -20332
diol 	 -20336
▁desorb 	 -20338
▁furnished 	 -20339
=−( 	 -20341
▁organo 	 -20343
),(2) 	 -20344
▁tapes 	 -20346
Samples 	 -20347
▁renormalized 	 -20352
▁biod 	 -20353
]0/[ 	 -20354
▁decomposes 	 -20355
▁[33, 	 -20356
▁1550 	 -20357
▁byproduct 	 -20359
▁kp 	 -20360
ostructures 	 -20363
▁lyophilized 	 -20364
▁threading 	 -20365
▁prevail 	 -20366
eik 	 -20368
▁isotrop 	 -20369
▁exceptionally 	 -20370
Hx 	 -20371
▁polysulfide 	 -20372
dione 	 -20373
FDA 	 -20374
-800 	 -20375
▁1.35 	 -20377
▁Correspondingly 	 -20379
▁TES 	 -20381
▁0.8, 	 -20384
QS 	 -20386
▁pC 	 -20388
−11 	 -20393
Fermi 	 -20394
▁electrochromic 	 -20396
.26, 	 -20397
▁absorbs 	 -20398
19,20 	 -20403
ynchrotron 	 -20404
stic 	 -20405
▁destabilization 	 -20407
renkel 	 -20408
aminopropyl 	 -20410
ulfonic 	 -20412
gradient 	 -20413
▁rescaled 	 -20414
oporous 	 -20419
▁ION 	 -20423
▁exhaust 	 -20424
▁evaporate 	 -20425
▁centred 	 -20426
edicine 	 -20427
15). 	 -20428
▁Secs 	 -20432
▁isomeric 	 -20433
0.62 	 -20434
▁preformed 	 -20436
▁neutrality 	 -20438
0)+ 	 -20441
▁PbO 	 -20443
311 	 -20446
KN 	 -20447
Weiss 	 -20448
▁kpc 	 -20449
▁skyrmion 	 -20450
▁Alq 	 -20454
osides 	 -20455
sial 	 -20459
▁ETL 	 -20460
CTAB 	 -20462
.0% 	 -20466
▁400, 	 -20468
▁Sinopharm 	 -20471
urized 	 -20472
▁deterg 	 -20474
▁nanost 	 -20475
iadi 	 -20479
▁RMSD 	 -20480
alkylation 	 -20482
−0.00 	 -20483
ademic 	 -20485
raries 	 -20487
sites 	 -20488
(9 	 -20489
3,44 	 -20490
▁2° 	 -20492
▁SiN 	 -20493
▁mimicking 	 -20494
▁luminous 	 -20495
▁mesophase 	 -20497
▁refluxing 	 -20498
Δφ 	 -20499
▁photosensitizer 	 -20501
▁surroundings 	 -20502
elivery 	 -20503
Adsorption 	 -20505
▁bandgaps 	 -20507
▁assembling 	 -20508
2–3 	 -20510
▁DME 	 -20512
▁interdiffusion 	 -20517
▁broaden 	 -20518
▁Silica 	 -20520
32.8 	 -20521
tone 	 -20522
Norm 	 -20527
(± 	 -20528
ultipl 	 -20529
▁shrinking 	 -20533
▁sensitized 	 -20536
SCE 	 -20537
▁agglomerated 	 -20538
,0, 	 -20539
▁furfural 	 -20540
.14,15 	 -20541
munication 	 -20542
Cm 	 -20543
→− 	 -20544
▁subscripts 	 -20548
)4( 	 -20550
vz 	 -20553
.15,16 	 -20554
Peak 	 -20558
▁micropore 	 -20560
ddt 	 -20561
yrenes 	 -20562
▁hexanes 	 -20563
0)2 	 -20565
▁diastereo 	 -20566
▁0≤ 	 -20568
▁perpendicularly 	 -20573
▁runaway 	 -20574
SWCNT 	 -20575
▁bosons 	 -20577
▁centim 	 -20578
Jsc 	 -20579
obis 	 -20580
▁hump 	 -20584
Source 	 -20585
▁glutar 	 -20586
▁coincident 	 -20588
▁garnet 	 -20589
▁compaction 	 -20590
▁dispersity 	 -20591
adienyl 	 -20593
PVC 	 -20594
▁aq 	 -20595
2× 	 -20597
PLS 	 -20598
▁homogenization 	 -20599
▁bleaching 	 -20601
triazole 	 -20602
▁proportionality 	 -20603
▁featured 	 -20606
▁ferrim 	 -20609
▁14( 	 -20610
▁PAMAM 	 -20611
▁NaYF 	 -20612
▁specular 	 -20614
HDPE 	 -20616
▁PEN 	 -20617
KR 	 -20618
Graphene 	 -20619
▁GeO 	 -20620
clean 	 -20621
▁wings 	 -20622
RAFT 	 -20623
Oct 	 -20625
roelectric 	 -20627
(18) 	 -20628
0.025 	 -20629
fb 	 -20630
controll 	 -20631
550 	 -20632
▁telec 	 -20634
Entry 	 -20636
rimer 	 -20637
▁620 	 -20638
omposite 	 -20640
▁LiPF 	 -20646
▁oxygenated 	 -20647
1500 	 -20649
▁1700 	 -20652
▁Lithium 	 -20653
PLE 	 -20654
▁metasurface 	 -20657
⊥( 	 -20658
vacancy 	 -20659
▁HAP 	 -20660
ponse 	 -20662
▁multivalent 	 -20664
▁macrom 	 -20665
▁sublattices 	 -20666
SrTiO 	 -20668
Fm 	 -20669
▁(2× 	 -20673
▁nanodots 	 -20675
▁200° 	 -20677
qn 	 -20678
▁spinodal 	 -20680
hexa 	 -20683
Yes 	 -20685
reliminary 	 -20686
▁TMDs 	 -20687
reinforced 	 -20688
Chlor 	 -20690
▁sectional 	 -20692
negligible 	 -20693
▁Berry 	 -20695
▁multistep 	 -20697
2−( 	 -20700
▁aberration 	 -20702
▁spintronics 	 -20703
▁LAO 	 -20704
alloys 	 -20705
▁humidified 	 -20706
lysine 	 -20707
decorated 	 -20709
0.73 	 -20711
▁MXene 	 -20712
▁phenanth 	 -20713
▁blueshift 	 -20714
▁acous 	 -20715
▁Yellow 	 -20716
,(8) 	 -20719
▁rubbery 	 -20722
pentane 	 -20723
11.5 	 -20729
▁gated 	 -20734
She 	 -20735
NHS 	 -20737
.(11) 	 -20740
=(2 	 -20741
CDA 	 -20742
▁303 	 -20743
▁Mull 	 -20744
−2( 	 -20745
property 	 -20750
))( 	 -20752
bornene 	 -20754
▁microphase 	 -20755
CHI 	 -20756
iken 	 -20758
▁favoring 	 -20760
CW 	 -20761
▁PPS 	 -20763
▁escap 	 -20769
broad 	 -20770
▁NaNO 	 -20771
▁mould 	 -20772
▁taper 	 -20775
▁JCPDS 	 -20780
▁hBN 	 -20781
∥, 	 -20782
Product 	 -20785
▁contribut 	 -20787
▁2,4- 	 -20788
bran 	 -20791
▁polyplex 	 -20792
,34 	 -20793
▁complexed 	 -20794
▁scattere 	 -20795
∕2) 	 -20796
▁bromo 	 -20799
▁4–6 	 -20800
▁SHEL 	 -20801
∫01 	 -20804
▁TPS 	 -20807
▁physisorption 	 -20808
▁yarn 	 -20810
odimer 	 -20811
BJ 	 -20812
=12( 	 -20813
POM 	 -20815
▁SRO 	 -20816
▁Freundlich 	 -20818
▁bubbling 	 -20819
′] 	 -20821
▁triflate 	 -20823
▁Determined 	 -20829
.16,17 	 -20830
▁Advance 	 -20831
▁GCD 	 -20832
▁trid 	 -20833
▁origami 	 -20835
▁maleic 	 -20838
).1 	 -20840
alumina 	 -20847
▁CoP 	 -20848
▁transversal 	 -20849
▁graphitization 	 -20850
▁donating 	 -20852
/° 	 -20853
promoted 	 -20854
Gre 	 -20855
.40, 	 -20856
▁quadrupolar 	 -20857
▁373 	 -20860
▁ImageJ 	 -20861
GNR 	 -20862
uryl 	 -20867
▁Particles 	 -20870
1+( 	 -20871
Gas 	 -20872
)]2 	 -20873
▁loses 	 -20875
quadruplex 	 -20876
▁8.9 	 -20877
iration 	 -20879
irically 	 -20882
▁630 	 -20883
▁toughening 	 -20884
patterned 	 -20885
MPS 	 -20886
▁Flory 	 -20889
peaks 	 -20892
▁Afterward 	 -20893
▁solidified 	 -20894
▁fluidic 	 -20895
▁photoelectrons 	 -20899
▁Tmax 	 -20901
▁Ultim 	 -20904
▁PAHs 	 -20906
rative 	 -20907
▁chemos 	 -20908
▁switchable 	 -20912
▁rechargeable 	 -20913
)=⟨ 	 -20915
ILS 	 -20916
separation 	 -20919
▁lubricant 	 -20922
▁lanthanum 	 -20925
▁microhardness 	 -20928
→( 	 -20929
216 	 -20931
▁dusty 	 -20934
▁impar 	 -20935
▁∼40 	 -20936
▁eigenmodes 	 -20937
kcal 	 -20938
▁ZnCl 	 -20940
iq 	 -20941
▁Hessian 	 -20944
▁Substrate 	 -20945
LJ 	 -20946
▁epilayer 	 -20949
▁photomultipl 	 -20950
naphth 	 -20953
▁thermometer 	 -20954
▁microfluidics 	 -20955
▁vials 	 -20956
▁CTE 	 -20958
canonical 	 -20963
▁spectrally 	 -20966
PdCl 	 -20968
hc 	 -20970
7− 	 -20971
trapping 	 -20972
▁surpass 	 -20973
atiotemporal 	 -20975
)9 	 -20976
′; 	 -20978
tb 	 -20979
▁multiscale 	 -20981
▁Ost 	 -20982
Exc 	 -20983
▁spong 	 -20985
▁withstand 	 -20988
orst 	 -20989
anionic 	 -20993
]2+ 	 -20994
▁clamped 	 -20995
▁HTS 	 -20997
hydroxyl 	 -20999
fluoroethylene 	 -21001
▁isostructural 	 -21002
Left 	 -21006
▁coupler 	 -21007
Fluorescence 	 -21010
▁DBT 	 -21011
EGMA 	 -21014
ˆ( 	 -21016
4,45 	 -21017
▁TiCl 	 -21018
▁diagonalization 	 -21021
▁lubrication 	 -21023
▁shielded 	 -21025
▁dipping 	 -21026
ptic 	 -21027
▁keto 	 -21031
(1)‐ 	 -21032
▁lactone 	 -21034
MSNs 	 -21037
tler 	 -21038
▁multipole 	 -21039
▁xylene 	 -21041
▁infilt 	 -21042
▁cinn 	 -21043
nelling 	 -21045
▁Quan 	 -21046
isecond 	 -21047
GQDs 	 -21049
XZ 	 -21050
▁LSV 	 -21051
assembling 	 -21054
=0.05 	 -21055
▁phthalocyanine 	 -21059
▁hydroxides 	 -21061
▁diatomic 	 -21062
|≤ 	 -21063
NCO 	 -21064
▁Vickers 	 -21066
isol 	 -21067
▁EMI 	 -21068
▁apertures 	 -21073
)‐1 	 -21074
▁ZB 	 -21075
▁replicas 	 -21076
▁recir 	 -21077
▁UPS 	 -21078
20,21 	 -21079
romeritics 	 -21082
▁phosphates 	 -21083
▁(× 	 -21084
tolu 	 -21085
methane 	 -21087
ospec 	 -21089
armor 	 -21091
⊥2 	 -21093
▁InSb 	 -21094
▁Burgers 	 -21096
▁Avance 	 -21099
▁dewetting 	 -21100
11.0 	 -21102
oborate 	 -21103
▁Austral 	 -21104
rants 	 -21105
rinsic 	 -21107
▁tubing 	 -21108
▁polariton 	 -21109
methoxyphenyl 	 -21110
Atomic 	 -21111
▁twee 	 -21112
colored 	 -21114
▁modulations 	 -21115
)18 	 -21116
scherichia 	 -21117
▁trailing 	 -21120
▁hydrogens 	 -21122
▁AgNWs 	 -21125
aggregation 	 -21126
▁literatures 	 -21127
2+4 	 -21128
▁2–5 	 -21131
▁gapped 	 -21132
ordination 	 -21135
▁Confocal 	 -21136
→, 	 -21139
▁NBT 	 -21141
153 	 -21142
▁gum 	 -21143
▁Inspired 	 -21145
∞. 	 -21146
Tyr 	 -21149
,(5 	 -21150
▁biodegradation 	 -21151
Fo 	 -21152
▁hemispherical 	 -21154
▁ratiometric 	 -21157
▁scintillation 	 -21158
▁KNN 	 -21159
▁JET 	 -21161
▁PLL 	 -21162
2)/ 	 -21163
▁shaken 	 -21166
▁orthon 	 -21169
▁commensurate 	 -21170
▁TiB 	 -21172
TEA 	 -21175
▁HClO 	 -21176
▁alloyed 	 -21177
.(12) 	 -21178
▁tetramer 	 -21181
▁arene 	 -21183
▁RTA 	 -21184
▁(97 	 -21186
▁DPD 	 -21187
barrier 	 -21188
▁asphalt 	 -21192
▁anharmonicity 	 -21193
InAs 	 -21194
iezo 	 -21196
▁streptavidin 	 -21197
▁hing 	 -21199
Dimethyl 	 -21201
)≔ 	 -21202
→∞, 	 -21203
▁pyrochlore 	 -21205
siRNA 	 -21206
▁GaP 	 -21209
▁millimeter 	 -21211
0.82 	 -21212
Mechan 	 -21214
▁nucleate 	 -21219
▁impinging 	 -21220
▁Vb 	 -21221
▁organics 	 -21222
.4.2 	 -21223
▁±1 	 -21224
+∇ 	 -21225
orphological 	 -21226
▁collimated 	 -21227
▁unavoid 	 -21228
▁PBD 	 -21229
▁Alumin 	 -21230
▁720 	 -21231
harves 	 -21232
mable 	 -21233
▁necro 	 -21234
2=( 	 -21237
TEOS 	 -21239
▁LCP 	 -21240
ohlraum 	 -21241
▁LFP 	 -21244
represent 	 -21245
▁optoelectronics 	 -21247
▁glycan 	 -21249
kf 	 -21250
×103 	 -21251
▁LiNbO 	 -21252
MALDI 	 -21258
iences 	 -21259
ichloro 	 -21261
▁cytoskele 	 -21263
fections 	 -21265
▁BNT 	 -21266
artet 	 -21270
▁HPC 	 -21272
▁hydroxylation 	 -21275
▁diazo 	 -21276
avg 	 -21278
▁Clo 	 -21281
▁confine 	 -21283
▁GMA 	 -21284
▁eclip 	 -21286
▁nanochannels 	 -21287
▁PNA 	 -21290
fused 	 -21292
▁weaken 	 -21295
▁Coupling 	 -21296
▁UHMWPE 	 -21297
▁531 	 -21298
▁LiNi 	 -21301
.— 	 -21302
▁780 	 -21304
lf 	 -21306
▁borohydride 	 -21308
GY 	 -21310
ophobic 	 -21311
▁1250 	 -21316
▁MFM 	 -21318
scaled 	 -21319
=300 	 -21320
Dependence 	 -21321
|( 	 -21322
▁TTF 	 -21325
ochlor 	 -21326
▁cesium 	 -21327
▁pharmaceuticals 	 -21328
tooth 	 -21329
▁epoxides 	 -21331
|∇ 	 -21332
▁rotates 	 -21334
ocaloric 	 -21338
▁acetaldehyde 	 -21339
diyl 	 -21340
3)2), 	 -21341
necked 	 -21342
0=2 	 -21343
▁underway 	 -21344
▁Incorpor 	 -21347
+). 	 -21348
aggregates 	 -21350
Band 	 -21351
.17,18 	 -21353
▁NiS 	 -21354
▁frustration 	 -21356
TMP 	 -21357
▁ellipsoid 	 -21362
▁gapless 	 -21365
▁nanohybrids 	 -21366
▁Photographs 	 -21367
graphite 	 -21368
TON 	 -21369
▁chromatograph 	 -21370
▁PESs 	 -21372
▁magic 	 -21373
▁splittings 	 -21375
licated 	 -21377
aluminum 	 -21378
)]− 	 -21379
▁eject 	 -21380
AuNP 	 -21383
▁LDHs 	 -21385
240 	 -21386
thiophen 	 -21387
▁NDI 	 -21388
thien 	 -21389
▁2.0, 	 -21391
versing 	 -21393
▁wR 	 -21396
▁Galactic 	 -21397
▁quencher 	 -21398
ethoxysilane 	 -21402
CuCl 	 -21406
0.7, 	 -21407
Super 	 -21408
rystallization 	 -21409
ethynyl 	 -21411
▁epitaxially 	 -21415
▁1.45 	 -21416
pyridin 	 -21417
▁2,6‐ 	 -21420
▁bioch 	 -21421
▁2100 	 -21422
▁BiOCl 	 -21423
▁9.6 	 -21427
▁quinone 	 -21428
titious 	 -21429
)13 	 -21431
DMC 	 -21432
▁purge 	 -21434
▁salicyl 	 -21435
▁corrosive 	 -21436
▁(99.9 	 -21438
▁trilayer 	 -21439
▁pyridinic 	 -21441
▁150° 	 -21446
▁(1000 	 -21447
▁compressible 	 -21448
▁backscattered 	 -21449
Vm 	 -21452
Solid 	 -21456
azolyl 	 -21457
▁(1.8 	 -21458
1... 	 -21459
▁infinitesimal 	 -21460
▁heteroatoms 	 -21461
▁Counc 	 -21464
▁photoelectric 	 -21466
0.72 	 -21467
▁MSN 	 -21468
▁appreciably 	 -21469
▁ionomer 	 -21471
▁ZS 	 -21472
▁moles 	 -21474
▁kGy 	 -21477
meter 	 -21478
TAC 	 -21479
unching 	 -21483
▁wool 	 -21484
▁entrap 	 -21485
▁ESCA 	 -21486
Planck 	 -21487
▁aptamers 	 -21488
CMs 	 -21489
Organ 	 -21491
NiFe 	 -21495
xSe 	 -21498
dG 	 -21499
▁peel 	 -21501
▁guanine 	 -21502
GeO 	 -21505
▁ECD 	 -21506
−), 	 -21508
.2.6 	 -21509
▁Insets 	 -21513
steel 	 -21516
▁phosphorescent 	 -21517
▁coverslip 	 -21520
▁6-31 	 -21526
▁GOx 	 -21527
aminated 	 -21533
▁nontoxic 	 -21535
▁Alg 	 -21536
▁bie 	 -21537
sembly 	 -21538
DW 	 -21544
▁CLSM 	 -21546
▁aromaticity 	 -21548
▁perchlorate 	 -21550
▁sorbents 	 -21551
▁ablated 	 -21553
CCH 	 -21554
▁intergranular 	 -21556
(19) 	 -21559
imeters 	 -21560
±0.1 	 -21562
▁nanoph 	 -21563
alysed 	 -21568
SPS 	 -21569
Mal 	 -21570
▁Letter 	 -21571
▁utilis 	 -21572
gon 	 -21573
▁nanofillers 	 -21575
▁calorimetric 	 -21576
▁darker 	 -21577
owders 	 -21580
▁spintronic 	 -21585
0∕ 	 -21586
3+: 	 -21588
modulated 	 -21589
.18,19 	 -21590
▁SCO 	 -21591
(20) 	 -21595
▁10%. 	 -21596
▁ARPES 	 -21599
Δε 	 -21601
–120 	 -21604
Measurements 	 -21607
2=2 	 -21608
cyl 	 -21609
Experiment 	 -21610
▁Chiral 	 -21614
▁Aqueous 	 -21615
178 	 -21617
▁DTG 	 -21620
▁biomaterial 	 -21621
(3‐ 	 -21622
Sj 	 -21623
▁pla 	 -21624
▁fronts 	 -21625
xFe 	 -21626
dR 	 -21627
100} 	 -21628
4,5, 	 -21629
otran 	 -21630
▁MCE 	 -21632
qubit 	 -21633
}}$ 	 -21634
OFF 	 -21637
oret 	 -21638
▁SRS 	 -21639
▁permeance 	 -21643
▁clockwise 	 -21644
▁425 	 -21645
AgNPs 	 -21647
▁lamella 	 -21648
ocell 	 -21649
▁aromatics 	 -21650
PTS 	 -21651
▁LSC 	 -21652
0.0000 	 -21654
Transmission 	 -21655
▁4,4′‐ 	 -21660
5,46 	 -21662
▁CoFeB 	 -21663
▁mullite 	 -21664
▁Floquet 	 -21665
▁525 	 -21666
▁tether 	 -21668
▁nonvolatile 	 -21669
▁tR 	 -21670
▁dipped 	 -21671
isoprop 	 -21672
▁AlCl 	 -21675
CaO 	 -21676
▁hexafluor 	 -21677
▁PPA 	 -21678
ilica 	 -21682
▁NCO 	 -21683
benzaldehyde 	 -21684
▁(111), 	 -21685
▁cw 	 -21687
Δμ 	 -21689
▁amorphization 	 -21692
IGZO 	 -21694
▁640 	 -21695
▁photomultiplier 	 -21697
resnel 	 -21699
)* 	 -21700
▁optimised 	 -21702
Overall 	 -21704
▁enfor 	 -21708
▁Iden 	 -21710
alkyne 	 -21711
▁overcoming 	 -21714
thaw 	 -21716
▁misalignment 	 -21717
▁vibrationally 	 -21718
▁∼8 	 -21719
EQE 	 -21720
incar 	 -21721
-1,3- 	 -21722
Boltzmann 	 -21723
▁tantalum 	 -21724
▁laminate 	 -21726
▁SiNWs 	 -21728
Ez 	 -21730
▁PhC 	 -21731
▁holographic 	 -21732
vanishing 	 -21734
0,0, 	 -21735
,(9) 	 -21738
▁interferometry 	 -21739
▁centerline 	 -21742
fluorophenyl 	 -21743
.,− 	 -21744
▁Larmor 	 -21745
Evolution 	 -21746
.19,20 	 -21749
245 	 -21751
▁TMC 	 -21753
LiF 	 -21754
chitosan 	 -21755
cyclohexane 	 -21756
Morphology 	 -21761
▁exotic 	 -21762
rotation 	 -21764
kd 	 -21765
udsen 	 -21767
ferences 	 -21768
CIS 	 -21770
∂2∂ 	 -21771
glycol 	 -21772
▁afterglow 	 -21773
▁oligos 	 -21775
ditive 	 -21777
▁oxygens 	 -21778
▁PEGylated 	 -21781
▁agglomerate 	 -21782
Perkin 	 -21786
bf 	 -21787
▁microcr 	 -21790
(∑ 	 -21791
0.31 	 -21796
▁Lattice 	 -21797
▁diffuses 	 -21798
▁Cary 	 -21799
jl 	 -21800
▁Aladdin 	 -21801
▁antifouling 	 -21802
evapor 	 -21803
▁slows 	 -21804
▁decisive 	 -21806
▁decoration 	 -21807
▁terrace 	 -21810
metall 	 -21811
|2+ 	 -21815
uples 	 -21816
▁MQW 	 -21817
▁negligibly 	 -21818
Light 	 -21820
inical 	 -21821
▁desicc 	 -21823
▁laminated 	 -21824
▁recovers 	 -21825
=1/2 	 -21827
▁bioimaging 	 -21828
230 	 -21830
Ip 	 -21831
▁bisphenol 	 -21832
▁sle 	 -21833
▁vacant 	 -21835
▁Legend 	 -21836
δφ 	 -21837
rotating 	 -21839
▁diaryl 	 -21840
290 	 -21841
▁necessit 	 -21842
▁diastereomers 	 -21844
ylidene 	 -21845
2< 	 -21847
Fourier 	 -21848
adjoint 	 -21849
Rct 	 -21854
▁lump 	 -21855
spaces 	 -21856
143 	 -21859
Stu 	 -21860
▁2× 	 -21862
▁hydroper 	 -21864
=0.1, 	 -21865
▁steeper 	 -21866
),(3 	 -21867
▁threefold 	 -21868
▁normalised 	 -21869
oubted 	 -21870
dimethoxy 	 -21871
11/2 	 -21872
▁photochromic 	 -21873
Catalytic 	 -21874
▁eigenstate 	 -21875
havior 	 -21876
brown 	 -21878
▁prismatic 	 -21880
▁glutaraldehyde 	 -21882
▁thermalization 	 -21885
▁Franck 	 -21888
FeCl 	 -21889
▁Jahn 	 -21890
▁nicely 	 -21891
▁emittance 	 -21892
▁sketched 	 -21893
ospin 	 -21894
▁∼200 	 -21895
,35 	 -21896
)16 	 -21897
▁preheated 	 -21898
IPN 	 -21899
▁entangle 	 -21901
atterns 	 -21903
▁LSM 	 -21904
▁indent 	 -21909
▁∼7 	 -21910
▁CuBr 	 -21911
.(13) 	 -21912
▁whiskers 	 -21916
benzoyl 	 -21917
chloride 	 -21918
Δω 	 -21919
▁9.8 	 -21920
−13 	 -21921
Pert 	 -21925
▁Vac 	 -21926
▁Unless 	 -21927
vaporation 	 -21928
=0), 	 -21929
▁thermionic 	 -21932
▁Fabry 	 -21934
▁psi 	 -21935
ilson 	 -21936
254 	 -21937
▁organocat 	 -21938
▁Olympus 	 -21940
Rm 	 -21944
tetrahydro 	 -21945
▁tetrahydro 	 -21947
▁IPN 	 -21949
PNIPAM 	 -21952
.1–5 	 -21959
▁(∼1 	 -21960
▁penetrating 	 -21961
▁radiated 	 -21963
1(2) 	 -21964
▁alkaloids 	 -21965
▁spheroid 	 -21966
▁mesopore 	 -21967
PAAm 	 -21970
▁Avrami 	 -21972
▁ideality 	 -21974
▁90°, 	 -21975
▁(>99 	 -21976
antile 	 -21978
orters 	 -21979
15/2 	 -21981
▁bicyclic 	 -21982
xT 	 -21983
incaré 	 -21985
▁polyhedral 	 -21986
cessing 	 -21987
bleaching 	 -21989
0.015 	 -21990
Hn 	 -21991
Self 	 -21992
▁yolk 	 -21994
DVB 	 -21995
▁acetal 	 -21996
▁uncorrected 	 -21997
90° 	 -21998
octene 	 -22000
▁persulfate 	 -22001
QT 	 -22002
▁conventionally 	 -22004
▁PbTe 	 -22005
▁0.015 	 -22006
▁montmorillonite 	 -22007
)=4 	 -22009
▁(96 	 -22011
▁wrinkles 	 -22012
mixture 	 -22016
xyl 	 -22017
▁LiCoO 	 -22018
▁clump 	 -22019
Particle 	 -22020
owing 	 -22021
1+2 	 -22022
−1)2 	 -22025
3)2·6 	 -22026
▁peaking 	 -22027
405 	 -22028
▁kT 	 -22030
▁imperfections 	 -22031
otton 	 -22032
▁Composites 	 -22033
1=− 	 -22034
▁flare 	 -22035
▁OCP 	 -22038
▁RBS 	 -22039
▁controver 	 -22041
▁13.5 	 -22047
gard 	 -22048
ropium 	 -22049
▁biodies 	 -22050
▁PHA 	 -22051
>< 	 -22053
▁templating 	 -22055
▁(15), 	 -22056
▁silicide 	 -22057
▁Vp 	 -22058
exciton 	 -22061
▁envisaged 	 -22062
-311++ 	 -22063
▁Microscope 	 -22064
=0.5, 	 -22065
▁demagnetization 	 -22066
▁FeIII 	 -22069
▁670 	 -22070
atiles 	 -22071
▁oxalate 	 -22072
▁TZ 	 -22075
packet 	 -22076
1.05 	 -22078
▁Melting 	 -22082
▁interconversion 	 -22084
▁SMP 	 -22087
▁TEG 	 -22088
epitaxial 	 -22090
▁CBS 	 -22094
meso 	 -22095
▁buildup 	 -22098
atching 	 -22100
▁Thereby 	 -22101
▁elastomeric 	 -22102
hydroxymethyl 	 -22103
nx 	 -22104
4= 	 -22105
▁diffusivities 	 -22106
0)( 	 -22107
ulcan 	 -22110
‐100 	 -22111
▁Scattering 	 -22112
AlH 	 -22113
Jo 	 -22115
istivity 	 -22116
▁alkoxide 	 -22117
▁diverges 	 -22118
▁CFO 	 -22119
edded 	 -22121
Merck 	 -22125
PY 	 -22127
224 	 -22130
▁racem 	 -22132
DETA 	 -22135
▁hierarchically 	 -22136
).5 	 -22139
▁slits 	 -22140
▁CPP 	 -22141
▁universality 	 -22142
▁EOM 	 -22143
▁abrasion 	 -22145
ignard 	 -22147
.(14) 	 -22148
▁adsorbing 	 -22150
▁AgNP 	 -22151
▁pyridinium 	 -22152
1/2( 	 -22153
▁SEBS 	 -22154
▁isoch 	 -22155
Kinetic 	 -22156
)⊗ 	 -22157
]+: 	 -22159
BiVO 	 -22160
▁magenta 	 -22164
▁trimers 	 -22165
Cq 	 -22166
bm 	 -22167
▁metallization 	 -22169
——— 	 -22170
▁PbSe 	 -22173
Orig 	 -22175
▁−50 	 -22177
▁peeling 	 -22178
225 	 -22179
▁(0.15 	 -22180
cyclization 	 -22182
Inc 	 -22184
▁[48]. 	 -22185
▁−6 	 -22187
▁carbamate 	 -22188
▁SLM 	 -22189
▁suitably 	 -22191
▁rigorously 	 -22195
meable 	 -22196
Compared 	 -22197
▁hydrates 	 -22198
▁{1 	 -22199
′′), 	 -22200
▁PECVD 	 -22201
Butyl 	 -22203
inone 	 -22205
▁excip 	 -22206
▁Concent 	 -22207
▁supercells 	 -22208
Most 	 -22209
▁glide 	 -22211
Alg 	 -22212
rils 	 -22213
higher 	 -22214
rapies 	 -22215
propagating 	 -22216
▁slowed 	 -22217
ometries 	 -22219
omethanes 	 -22221
HSA 	 -22223
▁dimp 	 -22224
OtBu 	 -22225
▁dryness 	 -22226
▁Fenton 	 -22227
▁polarizing 	 -22228
▁machined 	 -22231
VIS 	 -22234
octoral 	 -22242
▁$= 	 -22243
▁encapsulating 	 -22244
▁DPA 	 -22245
ikov 	 -22247
▁VDS 	 -22248
branched 	 -22250
)∫ 	 -22252
▁frustrated 	 -22253
▁(220) 	 -22254
▁centrifuge 	 -22256
Ny 	 -22258
3/2) 	 -22259
▁unsteady 	 -22260
OMeTAD 	 -22261
▁hydrodynamics 	 -22262
axed 	 -22264
▁BCS 	 -22266
▁1.33 	 -22267
▁(000 	 -22269
▁Nanot 	 -22270
Land 	 -22272
CNs 	 -22277
▁spectroscopies 	 -22278
quenc 	 -22281
▁FeII 	 -22282
carbonyl 	 -22283
TAR 	 -22284
×1018 	 -22286
▁photoinitiator 	 -22288
→2 	 -22290
tolyl 	 -22294
▁14). 	 -22295
=∇ 	 -22296
hf 	 -22298
4,6- 	 -22299
▁faint 	 -22302
▁vulcaniz 	 -22303
▁10‐ 	 -22304
atalytic 	 -22306
vating 	 -22308
▁maleimide 	 -22309
▁chromatograms 	 -22311
SAXS 	 -22312
Many 	 -22313
▁elegant 	 -22316
▁AgNW 	 -22318
▁calibrate 	 -22319
▁Obtained 	 -22321
▁crossings 	 -22322
=(1− 	 -22323
▁turbidity 	 -22324
▁signifies 	 -22328
MLCT 	 -22329
▁Synchrotron 	 -22330
abic 	 -22332
▁molds 	 -22333
){ 	 -22340
pyran 	 -22341
incorpor 	 -22343
caten 	 -22344
▁spraying 	 -22345
ispersed 	 -22349
parity 	 -22353
▁midplane 	 -22354
▁Δω 	 -22355
▁sulphur 	 -22359
▁weakens 	 -22360
]‐ 	 -22361
▁microcavity 	 -22363
SbF 	 -22364
▁conclusive 	 -22367
powered 	 -22368
)., 	 -22370
▁polypyrrole 	 -22371
)-2, 	 -22374
▁subwavelength 	 -22375
Normalized 	 -22377
▁DMR 	 -22378
▁upfield 	 -22379
▁terraces 	 -22380
▁LCO 	 -22382
▁680 	 -22385
▁titrations 	 -22386
▁deser 	 -22389
oredox 	 -22390
6,47 	 -22391
▁polyhedron 	 -22394
▁DCP 	 -22395
▁Fresnel 	 -22397
▁Polarization 	 -22398
Rf 	 -22399
NAP 	 -22400
NALY 	 -22401
racture 	 -22402
▁crowding 	 -22403
▁AGN 	 -22404
triangles 	 -22405
TTF 	 -22406
THEOR 	 -22407
▁CCl 	 -22409
▁304 	 -22411
▁TBS 	 -22412
Consider 	 -22413
▁Probe 	 -22416
maj 	 -22418
▁arenes 	 -22419
▁remanence 	 -22420
0–1 	 -22422
hydrides 	 -22423
▁Kub 	 -22424
▁contracted 	 -22425
▁biodiesel 	 -22428
∕2, 	 -22429
structed 	 -22430
apid 	 -22434
▁dialyzed 	 -22436
′′- 	 -22437
Taking 	 -22438
▁473 	 -22440
▁equilibrate 	 -22441
▁50%, 	 -22442
utting 	 -22443
▁german 	 -22445
▁PIM 	 -22446
orthogonal 	 -22447
▁diastereomer 	 -22448
▁silicates 	 -22450
photo 	 -22451
▁attaching 	 -22455
▁2.45 	 -22456
▁ionizing 	 -22457
▁ZnPc 	 -22459
▁mF 	 -22462
▁separators 	 -22463
▁converging 	 -22472
▁cofactor 	 -22473
=3, 	 -22474
▁recycle 	 -22475
gressive 	 -22476
▁Synthe 	 -22477
▁Knudsen 	 -22478
▁alkenyl 	 -22479
centage 	 -22481
▁NIST 	 -22482
▁chemistries 	 -22483
▁HEMA 	 -22484
)20 	 -22485
homogeneous 	 -22487
trifluor 	 -22488
ulene 	 -22489
▁SDSS 	 -22490
×4 	 -22491
alloying 	 -22492
▁Shown 	 -22494
othiophene 	 -22497
+1)( 	 -22499
222 	 -22500
Mr 	 -22501
▁perimeter 	 -22502
nitrophenol 	 -22504
▁HCP 	 -22505
▁isob 	 -22506
−9 	 -22507
∫02 	 -22509
–900 	 -22510
▁stretches 	 -22511
–250 	 -22512
Complex 	 -22515
acetonitrile 	 -22516
pul 	 -22519
cour 	 -22520
12.0 	 -22521
▁millisecond 	 -22523
▁ellipticity 	 -22524
▁CIF 	 -22526
stacked 	 -22527
bath 	 -22528
defect 	 -22529
\, 	 -22530
enone 	 -22531
▁IrO 	 -22532
▁interstellar 	 -22533
=∣ 	 -22534
▁QCL 	 -22535
)11 	 -22536
▁microsecond 	 -22537
▁icosahedral 	 -22539
SWNT 	 -22540
etyl 	 -22542
ynman 	 -22543
1073 	 -22545
iqueness 	 -22546
▁Δρ 	 -22548
▁MAA 	 -22549
▁MIR 	 -22550
mount 	 -22551
height 	 -22552
0– 	 -22553
▁SFG 	 -22555
Shimadzu 	 -22559
richlor 	 -22563
▁integrand 	 -22565
Device 	 -22566
▁Bethe 	 -22567
▁quinoline 	 -22568
died 	 -22569
▁HQ 	 -22572
▁3500 	 -22573
omel 	 -22574
ChE 	 -22576
▁glue 	 -22577
)> 	 -22578
xAl 	 -22579
▁Heusler 	 -22582
‐12 	 -22583
▁squeezing 	 -22584
▁attenu 	 -22585
tities 	 -22586
▁welded 	 -22587
▁Hermitian 	 -22590
▁Bright 	 -22591
oate 	 -22592
▁succeeded 	 -22593
▁dithi 	 -22594
▁quasic 	 -22596
▁modifiers 	 -22598
▁vicinal 	 -22599
MAT 	 -22600
▁photocathode 	 -22601
roducing 	 -22602
)]= 	 -22603
▁gyrokinetic 	 -22605
▁8000 	 -22606
EAM 	 -22608
iversal 	 -22610
.5° 	 -22613
)]} 	 -22614
▁enolate 	 -22615
pKa 	 -22616
–39 	 -22617
▁VN 	 -22618
–10]. 	 -22619
matter 	 -22620
XC 	 -22621
ISM 	 -22623
.(15) 	 -22626
axes 	 -22627
▁pz 	 -22630
]+[ 	 -22632
▁nanocapsules 	 -22633
▁detonation 	 -22634
tinent 	 -22635
▁Rhodamine 	 -22637
harvesting 	 -22641
acycl 	 -22646
▁Vc 	 -22649
MBE 	 -22650
NTA 	 -22651
▁dichalcogen 	 -22652
APS 	 -22653
▁textural 	 -22655
Fluor 	 -22657
Vp 	 -22661
∈[0, 	 -22664
Previous 	 -22665
SiN 	 -22668
▁Ez 	 -22669
ggish 	 -22670
▁SPION 	 -22671
PAH 	 -22677
▁NBR 	 -22678
▁tribological 	 -22679
▁SPT 	 -22681
oclassical 	 -22683
▁macropores 	 -22684
▁ultrasonically 	 -22685
consistently 	 -22687
linearities 	 -22690
▁tunnelling 	 -22691
▁carbonized 	 -22692
▁Composite 	 -22693
,36 	 -22694
×5 	 -22697
)-1, 	 -22698
Volmer 	 -22700
▁NDs 	 -22701
▁KMnO 	 -22702
▁DIII 	 -22704
crystallization 	 -22706
fluorescent 	 -22711
=19 	 -22714
▁296 	 -22715
etched 	 -22716
)-( 	 -22717
▁nN 	 -22718
▁dI 	 -22721
lectance 	 -22722
*/ 	 -22723
exo 	 -22724
▁TADF 	 -22725
▁Pluronic 	 -22726
▁mC 	 -22729
▁DBU 	 -22730
▁TMB 	 -22731
▁Evidently 	 -22732
▁Grignard 	 -22733
▁polycyclic 	 -22734
ONO 	 -22735
25,26 	 -22736
device 	 -22739
sile 	 -22741
▁760 	 -22742
▁ellipsoidal 	 -22744
xL 	 -22745
cysteine 	 -22747
▁Deposition 	 -22750
4,6‐ 	 -22752
▁Optimized 	 -22754
▁degrades 	 -22755
.31, 	 -22756
qk 	 -22757
1< 	 -22760
xSn 	 -22761
▁eco 	 -22762
incub 	 -22763
iré 	 -22765
▁mesa 	 -22768
.20,21 	 -22769
▁DETAILS 	 -22770
copper 	 -22774
clockwise 	 -22775
along 	 -22776
▁mrad 	 -22780
0∣ 	 -22781
▁bromides 	 -22783
conjugation 	 -22784
hydroxyethyl 	 -22785
▁spinor 	 -22786
▁unconventional 	 -22787
▁furnish 	 -22790
▁diffractograms 	 -22791
▁CTS 	 -22793
▁ballo 	 -22794
▁massless 	 -22797
orizontal 	 -22799
versus 	 -22800
▁unsubstituted 	 -22801
mediation 	 -22802
PEC 	 -22805
23) 	 -22807
ketone 	 -22808
▁Analyzer 	 -22811
▁thermopower 	 -22812
±, 	 -22813
▁deem 	 -22814
▁1000, 	 -22815
ugher 	 -22816
▁(−)‐ 	 -22817
▁internalized 	 -22823
4,5‐ 	 -22824
▁Ionic 	 -22825
×1019 	 -22826
vc 	 -22827
1.25 	 -22828
agel 	 -22830
▁(□ 	 -22832
▁triclinic 	 -22835
▁positrons 	 -22838
agram 	 -22839
valley 	 -22840
▁sluggish 	 -22841
▁recombine 	 -22842
−0.3 	 -22843
▁150, 	 -22844
▁FDTD 	 -22845
▁amid 	 -22846
arithmic 	 -22848
]3 	 -22849
imir 	 -22850
Phen 	 -22851
▁profil 	 -22852
▁hohlraum 	 -22854
650 	 -22855
uccinimide 	 -22858
heel 	 -22859
▁electronegative 	 -22860
+1= 	 -22861
chiral 	 -22865
pyrro 	 -22866
intercalation 	 -22868
▁CoII 	 -22873
xZn 	 -22874
energetic 	 -22875
endent 	 -22876
▁Fick 	 -22877
▁1150 	 -22878
▁nanoplatelets 	 -22879
‐1,3‐ 	 -22882
anhydride 	 -22883
Bulk 	 -22884
ocompatibility 	 -22886
±0.2 	 -22887
conser 	 -22888
▁discontinuities 	 -22890
▁anv 	 -22893
▁favorably 	 -22894
▁DNP 	 -22895
reversible 	 -22896
▁polyurethanes 	 -22898
▁synergetic 	 -22899
.3.6 	 -22903
$. 	 -22904
MAH 	 -22905
▁Δλ 	 -22906
▁incomm 	 -22908
|< 	 -22909
dyl 	 -22910
∼10 	 -22912
▁fourfold 	 -22915
)-4- 	 -22916
oresistive 	 -22917
▁decarboxylation 	 -22918
1)= 	 -22919
▁magnetizations 	 -22924
mobile 	 -22925
indoles 	 -22926
▁redshifts 	 -22927
▁isoc 	 -22928
Parameter 	 -22929
▁macromon 	 -22930
.21– 	 -22932
CaCO 	 -22934
▁Slater 	 -22936
petroleum 	 -22938
stu 	 -22940
∈[ 	 -22941
.21,22 	 -22942
▁parametrized 	 -22943
Lp 	 -22944
BTS 	 -22945
▁OSC 	 -22946
▁lightweight 	 -22947
CBS 	 -22948
▁synergy 	 -22951
Substituting 	 -22953
▁Dark 	 -22955
▁cocatalyst 	 -22956
▁Capac 	 -22957
▁5%, 	 -22958
Ernzerhof 	 -22960
▁monodentate 	 -22961
▁Eventually 	 -22962
)15 	 -22963
▁20–30 	 -22965
khorst 	 -22966
▁PMT 	 -22969
▁protic 	 -22970
▁Lix 	 -22971
▁ecos 	 -22973
▁BCC 	 -22974
▁solenoid 	 -22975
imed 	 -22976
,(10) 	 -22977
Additionally 	 -22978
▁laminates 	 -22981
▁recyclability 	 -22982
CuI 	 -22983
×1015 	 -22984
▁overestimation 	 -22985
▁Kramers 	 -22987
▁biomolecular 	 -22989
ravel 	 -22991
▁trifluoroacetic 	 -22992
▁Eo 	 -22996
Lz 	 -22997
qx 	 -22998
▁scintillator 	 -23000
),(4) 	 -23002
rapeutic 	 -23004
CHCH 	 -23007
rator 	 -23008
Once 	 -23010
▁desulf 	 -23012
strates 	 -23014
),(3) 	 -23016
▁MnOx 	 -23018
2′‐ 	 -23019
▁TON 	 -23021
transform 	 -23023
.2.4. 	 -23027
▁interferences 	 -23029
arns 	 -23030
dend 	 -23031
02) 	 -23032
▁Ostwald 	 -23033
resol 	 -23036
▁CEs 	 -23037
▁imprint 	 -23038
▁10–15 	 -23039
▁Tauc 	 -23040
▁evaporating 	 -23041
:50 	 -23042
−[ 	 -23043
ceramics 	 -23046
▁governs 	 -23047
▁prefers 	 -23049
2–1 	 -23050
02( 	 -23052
degenerate 	 -23053
olmog 	 -23055
320 	 -23056
▁cusp 	 -23057
Ic 	 -23058
–) 	 -23059
arct 	 -23060
▁corrugated 	 -23063
▁suddenly 	 -23064
▁permeable 	 -23065
▁spherically 	 -23066
2=0. 	 -23067
▁volatiles 	 -23068
(111). 	 -23071
▁1.10 	 -23072
▁[49]. 	 -23073
China 	 -23077
GW 	 -23080
▁CPM 	 -23081
21.0 	 -23082
%); 	 -23083
moving 	 -23084
Sy 	 -23087
odyne 	 -23090
etas 	 -23092
)]( 	 -23093
▁CPC 	 -23095
thermia 	 -23096
.(16) 	 -23097
{[ 	 -23098
hether 	 -23100
27,28 	 -23101
))2 	 -23102
▁MTJ 	 -23103
▁PHBV 	 -23106
▁fired 	 -23107
Substrate 	 -23108
▁sensitizers 	 -23109
strahl 	 -23114
▁Lines 	 -23115
▁terpolymer 	 -23116
foil 	 -23117
▁intermixing 	 -23118
218 	 -23119
▁nitroxide 	 -23123
*), 	 -23124
▁blowing 	 -23125
±0.3 	 -23127
▁automo 	 -23128
▁biopolymer 	 -23129
▁1.65 	 -23132
astructure 	 -23133
trimethylsilyl 	 -23134
ωτ 	 -23136
▁piperidine 	 -23137
Proposition 	 -23138
▁collectors 	 -23139
▁Porous 	 -23140
▁overpotentials 	 -23141
▁TIPS 	 -23143
sparent 	 -23144
Qs 	 -23146
▁(4.5 	 -23148
▁midpoint 	 -23149
▁8.( 	 -23150
carbazole 	 -23153
▁anisotropies 	 -23155
HAADF 	 -23159
acrylonitrile 	 -23161
1/2. 	 -23162
▁2,3- 	 -23165
iflu 	 -23166
▁overestimate 	 -23167
/40 	 -23168
▁(16), 	 -23169
▁0.1. 	 -23170
.3.4. 	 -23172
▁MPA 	 -23173
Standard 	 -23174
▁Catalysts 	 -23176
→∞. 	 -23177
crit 	 -23180
▁interlayers 	 -23181
)2+( 	 -23182
ASCO 	 -23183
.8. 	 -23184
oxanes 	 -23185
▁NOE 	 -23187
ophthal 	 -23188
Wave 	 -23189
▁ICG 	 -23191
DES 	 -23192
DPA 	 -23193
▁correlating 	 -23195
sation 	 -23196
▁covariant 	 -23197
ashing 	 -23198
monomers 	 -23199
=2.5 	 -23200
iodes 	 -23203
▁quasiparticles 	 -23204
▁subbands 	 -23205
}^{ 	 -23207
melting 	 -23208
ostructured 	 -23209
VOC 	 -23210
dial 	 -23215
BDC 	 -23218
.(7 	 -23221
▁fragile 	 -23222
propane 	 -23223
0.91 	 -23225
0.61 	 -23226
thermally 	 -23227
-231 	 -23228
–12]. 	 -23229
atan 	 -23233
▁adsorp 	 -23234
▁MgAl 	 -23236
3,4- 	 -23238
▁Heating 	 -23239
strahlung 	 -23244
Ji 	 -23246
1∣ 	 -23247
–13]. 	 -23248
enedioxy 	 -23249
▁indoles 	 -23251
olmogorov 	 -23252
▁subthreshold 	 -23253
­{1 	 -23254
▁elusive 	 -23256
TEMPO 	 -23257
▁Crystals 	 -23261
▁discernible 	 -23262
▁anil 	 -23263
4)( 	 -23264
▁(°) 	 -23265
catalysed 	 -23267
▁100%. 	 -23268
Pm 	 -23269
flip 	 -23272
zj 	 -23273
5000 	 -23274
▁intric 	 -23276
Physical 	 -23277
Phos 	 -23279
▁constituting 	 -23280
${{ 	 -23281
▁VOCs 	 -23282
▁oxazol 	 -23283
▁nanosphere 	 -23284
Anti 	 -23285
7,48 	 -23287
▁coiled 	 -23289
carboxylic 	 -23293
▁Photograph 	 -23294
▁Soret 	 -23295
▁hydrosilylation 	 -23296
PZ 	 -23297
▁codoped 	 -23300
213 	 -23301
▁multiphase 	 -23303
▁clathrate 	 -23304
▁photodynamic 	 -23305
▁clays 	 -23308
▁epilayers 	 -23309
protic 	 -23311
Tetra 	 -23313
Dn 	 -23314
trap 	 -23315
▁encapsulate 	 -23316
Formation 	 -23317
▁TFC 	 -23318
▁DMAc 	 -23320
brafish 	 -23321
Vth 	 -23322
Evaluation 	 -23323
HSV 	 -23324
1=1 	 -23325
∗= 	 -23327
RPA 	 -23328
▁oscillates 	 -23331
Design 	 -23336
▁Peaks 	 -23338
▁Isolated 	 -23339
)]2+ 	 -23340
▁573 	 -23341
TPR 	 -23345
dw 	 -23346
▁XRF 	 -23347
iadiazole 	 -23348
2−1) 	 -23349
program 	 -23350
▁Malvern 	 -23351
Conversion 	 -23352
HAP 	 -23354
amatsu 	 -23355
0< 	 -23358
0.1) 	 -23361
mitting 	 -23363
▁annulation 	 -23364
FBS 	 -23366
=0). 	 -23367
rometry 	 -23368
▁OFET 	 -23369
PSC 	 -23371
alkanes 	 -23373
▁fibroin 	 -23374
▁10–3 	 -23375
Comparing 	 -23376
22]. 	 -23378
ropyl 	 -23379
24]. 	 -23380
▁volatil 	 -23381
▁unipolar 	 -23382
Chan 	 -23383
▁(1)–( 	 -23384
Where 	 -23388
5)3 	 -23389
1′, 	 -23390
▁opacity 	 -23392
▁electrophiles 	 -23393
▁blob 	 -23396
aphrag 	 -23398
▁harvester 	 -23399
orbitals 	 -23400
▁ZnFe 	 -23401
▁quint 	 -23402
reactor 	 -23403
▁Mulliken 	 -23404
▁shale 	 -23405
▁sulfonyl 	 -23406
▁dication 	 -23407
etasizer 	 -23409
olefins 	 -23410
scaling 	 -23411
assemblies 	 -23412
–14]. 	 -23414
▁depositions 	 -23416
▁{100} 	 -23417
▁Zinc 	 -23418
Laser 	 -23419
▁sheared 	 -23420
▁<1 	 -23424
adolinium 	 -23426
–11]. 	 -23427
hydrodynamic 	 -23430
▁tensions 	 -23431
spectral 	 -23432
0.41 	 -23434
0−1 	 -23435
ubber 	 -23436
▁reproducing 	 -23437
▁nitridation 	 -23439
configuration 	 -23441
vA 	 -23442
Germ 	 -23443
+(1− 	 -23445
.(17) 	 -23446
inner 	 -23447
2′- 	 -23448
.22,23 	 -23450
▁thiaz 	 -23451
)–2( 	 -23452
▁unfilled 	 -23454
▁electrolytic 	 -23455
HQ 	 -23457
afn 	 -23458
reated 	 -23459
perovsk 	 -23460
dopamine 	 -23461
MBA 	 -23463
angoni 	 -23465
×107 	 -23466
▁Vertical 	 -23472
yloxy 	 -23473
ructuring 	 -23475
▁organoclay 	 -23476
.4.2. 	 -23477
Gn 	 -23478
▁nanoclay 	 -23480
chains 	 -23481
heterocyclic 	 -23484
)14 	 -23485
=23 	 -23486
simp 	 -23488
ππ 	 -23489
SiOx 	 -23491
▁Poincaré 	 -23493
VN 	 -23494
▁ultrash 	 -23495
▁WZ 	 -23497
80) 	 -23500
▁tetrachlor 	 -23501
Calc 	 -23502
15.0 	 -23503
ospecific 	 -23504
▁chelation 	 -23505
▁protrusions 	 -23506
Hydrogen 	 -23509
▁bistable 	 -23510
inylated 	 -23512
carboxy 	 -23514
▁590 	 -23516
▁tedious 	 -23517
=(1 	 -23518
▁(1.7 	 -23520
SWCNTs 	 -23523
,37 	 -23526
HK 	 -23528
circle 	 -23530
×10−8 	 -23531
▁cooperativity 	 -23533
▁ferromagnet 	 -23534
▁Legendre 	 -23535
3)3), 	 -23536
25]. 	 -23537
▁Argon 	 -23540
Va 	 -23546
ramid 	 -23547
▁sigmo 	 -23550
tured 	 -23553
AIBN 	 -23554
▁photovoltage 	 -23556
▁RBCs 	 -23557
▁antimony 	 -23561
Composition 	 -23562
earson 	 -23563
disorder 	 -23564
focusing 	 -23569
▁manganites 	 -23570
▁softer 	 -23571
▁formations 	 -23574
▁nanocluster 	 -23575
▁10.8 	 -23577
21+ 	 -23578
▁QS 	 -23580
▁europium 	 -23581
▁electropl 	 -23583
▁4,4′- 	 -23584
Specific 	 -23587
dye 	 -23589
assie 	 -23590
Tmax 	 -23592
▁(4.0 	 -23593
▁0.7, 	 -23598
⊥) 	 -23600
)2} 	 -23601
break 	 -23602
LAS 	 -23604
▁Mie 	 -23605
Frequency 	 -23606
–15]. 	 -23607
Trp 	 -23609
▁AgI 	 -23611
▁fluorene 	 -23612
23]. 	 -23613
mesh 	 -23615
▁XMCD 	 -23616
▁ingot 	 -23618
wp 	 -23619
borate 	 -23621
▁flasks 	 -23622
▁relaxes 	 -23623
▁preferably 	 -23625
FFT 	 -23626
conductive 	 -23627
Burke 	 -23628
▁Fluorescent 	 -23632
▁LDOS 	 -23633
▁isotactic 	 -23634
ABS 	 -23635
Ej 	 -23637
=0.25 	 -23641
msstrahlung 	 -23642
▁LaAlO 	 -23643
ATRP 	 -23648
orcin 	 -23649
▁MgH 	 -23651
factorily 	 -23652
▁linesh 	 -23653
rA 	 -23656
▁XR 	 -23658
▁WCA 	 -23659
↑↓ 	 -23661
,21, 	 -23663
▁0.41 	 -23665
▁Heck 	 -23666
mC 	 -23667
)≃ 	 -23668
designed 	 -23670
▁Atom 	 -23671
Sx 	 -23672
▁lifted 	 -23674
XI 	 -23675
RIFT 	 -23676
▁1350 	 -23677
▁gasification 	 -23678
▁0.02, 	 -23679
▁Ey 	 -23681
▁MAE 	 -23683
▁PVK 	 -23684
oniot 	 -23685
vp 	 -23687
0.51 	 -23688
▁MOCVD 	 -23689
▁ECR 	 -23690
▁reductant 	 -23693
420 	 -23695
▁Myr 	 -23697
▁pep 	 -23698
▁−0.2 	 -23699
▁SnCl 	 -23700
▁entanglements 	 -23701
Different 	 -23704
▁PTM 	 -23707
▁2,5- 	 -23710
▁chalcogenides 	 -23711
▁Compton 	 -23712
×1014 	 -23714
▁5–7 	 -23716
radius 	 -23718
Leu 	 -23720
stability 	 -23721
Sz 	 -23722
Integ 	 -23723
▁pile 	 -23724
▁Jacobi 	 -23725
▁Oxide 	 -23727
▁macroinitiator 	 -23729
▁liner 	 -23730
Bx 	 -23732
188 	 -23735
Alk 	 -23736
ngth 	 -23737
▁LEED 	 -23738
/25 	 -23743
▁xc 	 -23744
▁0.5) 	 -23745
▁Zeta 	 -23746
110} 	 -23747
28,29 	 -23749
▁interfac 	 -23754
qm 	 -23755
275 	 -23756
emis 	 -23757
▁610 	 -23758
▁unavoidable 	 -23761
20.0 	 -23762
▁extrapolating 	 -23765
ZVI 	 -23766
▁crater 	 -23767
▁VGS 	 -23769
▁magnetostatic 	 -23770
▁Lc 	 -23771
.22– 	 -23772
FRET 	 -23774
▁fittings 	 -23776
+∫ 	 -23778
▁entrapment 	 -23779
sodium 	 -23781
▁submerged 	 -23782
arylation 	 -23783
▁desalination 	 -23785
▁unphysical 	 -23786
▁dispersant 	 -23787
BaTiO 	 -23788
▁1.18 	 -23789
▁Jobin 	 -23790
▁298.15 	 -23791
apsule 	 -23794
–42 	 -23798
▁stabilizers 	 -23799
▁[°] 	 -23800
▁refrigerator 	 -23802
-300 	 -23806
▁advection 	 -23807
▁FAM 	 -23808
compared 	 -23809
▁ISC 	 -23811
)1− 	 -23812
yron 	 -23817
▁dL 	 -23819
2,( 	 -23820
FeIII 	 -23821
bright 	 -23822
▁Voigt 	 -23823
▁magnetocaloric 	 -23824
COF 	 -23825
Definition 	 -23828
▁[50]. 	 -23831
▁neoclassical 	 -23833
▁1° 	 -23834
▁chronoamp 	 -23836
▁superstructures 	 -23837
Maximum 	 -23838
Generally 	 -23839
−15 	 -23840
ctor 	 -23841
cyano 	 -23843
1010 	 -23844
▁sprayed 	 -23845
▁hyperpolar 	 -23847
▁physisorbed 	 -23848
olyte 	 -23849
▁diastereomeric 	 -23850
quenched 	 -23853
ramidal 	 -23856
methacrylate 	 -23857
▁azir 	 -23858
inuclear 	 -23859
▁nonisothermal 	 -23860
hedrally 	 -23863
▁compensating 	 -23864
▁stann 	 -23865
xAs 	 -23866
▁nonde 	 -23867
▁hysteretic 	 -23868
dN 	 -23870
dP 	 -23871
ractical 	 -23872
▁accommodated 	 -23873
177 	 -23875
▁GAM 	 -23876
COD 	 -23878
▁NHE 	 -23879
▁micromagnetic 	 -23881
Absorption 	 -23882
.(18) 	 -23883
Dirac 	 -23886
×1012 	 -23889
▁binaries 	 -23891
▁sawtooth 	 -23895
2(3) 	 -23896
▁264 	 -23898
quisite 	 -23899
Cyt 	 -23900
compensated 	 -23901
▁8‐ 	 -23903
▁molecularly 	 -23905
volved 	 -23906
▁CFs 	 -23907
ionate 	 -23908
▁unint 	 -23909
.23,24 	 -23910
▁Lx 	 -23911
inol 	 -23912
filtered 	 -23913
LLA 	 -23914
▁PIV 	 -23915
substit 	 -23917
▁(4- 	 -23921
ijkl 	 -23923
▁15). 	 -23924
LOD 	 -23925
▁recipe 	 -23927
∞∞ 	 -23928
▁depicting 	 -23929
▁10.6 	 -23930
▁hexahydrate 	 -23931
itted 	 -23932
295 	 -23933
▁impart 	 -23934
eco 	 -23935
1)− 	 -23938
▁hyperthermia 	 -23939
▁phosphorous 	 -23942
▁chlorinated 	 -23943
3+– 	 -23944
▁LIF 	 -23946
▁yarns 	 -23947
Air 	 -23948
–2.5 	 -23955
AlGaN 	 -23956
shock 	 -23957
PEX 	 -23958
▁boat 	 -23959
tg 	 -23960
▁Semic 	 -23962
3−, 	 -23964
▁Dit 	 -23965
▁SPPs 	 -23966
▁inval 	 -23967
▁1–6 	 -23970
2> 	 -23971
Vb 	 -23972
▁Magnet 	 -23973
.3.1. 	 -23974
–16]. 	 -23975
ynit 	 -23976
▁rationalize 	 -23979
▁emits 	 -23981
▁dihydrogen 	 -23983
▁MCD 	 -23984
.4.1 	 -23985
▁diagon 	 -23986
▁Lit 	 -23987
dihydroxy 	 -23988
omotive 	 -23990
▁TOC 	 -23993
▁20%, 	 -23996
▁eigenmode 	 -23999
–8]. 	 -24001
Isolated 	 -24002
▁NVT 	 -24003
▁delicate 	 -24004
▁ridges 	 -24005
▁286 	 -24007
▁tokamaks 	 -24010
splitting 	 -24011
=40 	 -24013
namely 	 -24014
▁flaw 	 -24016
▁2.15 	 -24017
eside 	 -24018
▁springs 	 -24019
▁HBr 	 -24020
Vo 	 -24024
▁Drop 	 -24025
▁97% 	 -24027
Values 	 -24028
fu 	 -24031
▁1.17 	 -24035
,11, 	 -24036
EVA 	 -24037
bk 	 -24040
rolling 	 -24042
3} 	 -24043
BPA 	 -24044
▁SLS 	 -24045
▁Monkhorst 	 -24046
▁AgCl 	 -24049
naphthyl 	 -24050
anode 	 -24051
ccdc 	 -24053
▁DRX 	 -24054
milling 	 -24056
triphenyl 	 -24057
▁oscillate 	 -24060
-500 	 -24063
Film 	 -24064
▁10–4 	 -24066
▁Photocatalytic 	 -24067
▁satisfactorily 	 -24069
▁CMP 	 -24070
▁nonlinearities 	 -24071
▁thruster 	 -24072
Δρ 	 -24074
▁TBP 	 -24075
▁nonionic 	 -24076
▁WAXS 	 -24077
[−( 	 -24082
▁ferrimagnetic 	 -24087
▁instructive 	 -24089
▁endowed 	 -24090
ller 	 -24091
0)− 	 -24092
1–1 	 -24093
-600 	 -24094
▁incubating 	 -24095
▁streamlines 	 -24099
▁oligomerization 	 -24100
▁barrel 	 -24102
GSH 	 -24103
hydrophobicity 	 -24105
8,49 	 -24106
NiCo 	 -24107
Hitachi 	 -24108
Maxwell 	 -24109
=200 	 -24110
Aj 	 -24115
ISE 	 -24116
-400 	 -24117
▁detections 	 -24122
▁MOSFETs 	 -24123
▁POMs 	 -24125
targeting 	 -24126
·4 	 -24127
[8] 	 -24130
▁lamps 	 -24131
▁90°. 	 -24132
▁boot 	 -24134
▁Acros 	 -24135
GdF 	 -24136
×1016 	 -24137
idinone 	 -24138
▁syngas 	 -24140
▁∼25 	 -24141
▁butadiene 	 -24145
▁3:1 	 -24146
RTEP 	 -24147
Cur 	 -24148
▁(3× 	 -24149
▁bandpass 	 -24150
▁diaphrag 	 -24152
▁flattened 	 -24153
17). 	 -24154
upro 	 -24155
▁(2.6 	 -24156
∥( 	 -24157
▁Liou 	 -24159
▁RIE 	 -24160
boron 	 -24161
micron 	 -24162
▁entropies 	 -24164
▁10−11 	 -24166
▁PPG 	 -24168
▁MPB 	 -24172
▁0.52 	 -24174
Example 	 -24176
▁polyether 	 -24177
▁(≤ 	 -24178
▁Casimir 	 -24179
:20 	 -24180
Procedure 	 -24182
▁sticks 	 -24183
▁CME 	 -24184
06-2 	 -24186
missible 	 -24187
otors 	 -24188
–48 	 -24190
serting 	 -24191
echst 	 -24192
▁superscript 	 -24197
Bond 	 -24198
▁multiphoton 	 -24199
KOH 	 -24204
▁squeezed 	 -24205
3–3 	 -24206
▁rescaling 	 -24209
▁underestimation 	 -24211
▁PVAc 	 -24212
tefact 	 -24213
dC 	 -24217
xH 	 -24218
24) 	 -24219
BCP 	 -24220
ughened 	 -24221
▁tetrafluor 	 -24222
▁Copolymers 	 -24224
)–3 	 -24225
omagnetic 	 -24226
▁DCE 	 -24227
,∂ 	 -24228
örster 	 -24229
Thickness 	 -24230
▁propene 	 -24234
EDF 	 -24235
▁[29], 	 -24236
▁−100 	 -24237
Pressure 	 -24238
Catalyzed 	 -24239
System 	 -24240
=2.0 	 -24241
▁Yields 	 -24242
Vc 	 -24243
0)/ 	 -24248
▁Dulbecco 	 -24249
scatter 	 -24251
crystallized 	 -24252
Also 	 -24253
xCox 	 -24254
▁glycopro 	 -24255
inz 	 -24256
▁benzoyl 	 -24257
▁cohere 	 -24260
major 	 -24262
Fn 	 -24264
▁(<1 	 -24265
▁industri 	 -24267
rins 	 -24268
▁shaker 	 -24269
Plot 	 -24273
eramic 	 -24276
▁{[ 	 -24278
▁pulver 	 -24281
±0.5 	 -24284
▁398 	 -24285
▁withdrawing 	 -24286
▁∼0.5 	 -24287
▁Pore 	 -24288
▁glycosyl 	 -24290
▁10−12 	 -24292
▁Ewald 	 -24294
▁IDT 	 -24295
▁Marangoni 	 -24297
▁BEC 	 -24298
fk 	 -24300
-1,4- 	 -24302
▁digi 	 -24303
▁sieve 	 -24306
FeSi 	 -24312
▁oxime 	 -24313
▁corroborate 	 -24314
▁PFO 	 -24315
phenyleth 	 -24318
▁Energies 	 -24319
▁elucidation 	 -24320
delta 	 -24321
▁1–10 	 -24322
ernst 	 -24324
▁773 	 -24326
amorphous 	 -24328
▁pressurized 	 -24330
▁Friedel 	 -24332
▁dispersibility 	 -24336
HAp 	 -24337
WAXS 	 -24339
hybridized 	 -24340
.35, 	 -24343
sheets 	 -24344
▁hampered 	 -24345
▁NPT 	 -24346
▁bounce 	 -24347
aR 	 -24348
ifsh 	 -24349
▁1.26 	 -24350
)∇ 	 -24351
‐5, 	 -24352
material 	 -24353
▁1× 	 -24355
▁1.38 	 -24356
*− 	 -24357
164 	 -24358
▁EIT 	 -24359
aracterizations 	 -24360
Instrum 	 -24363
▁abovementioned 	 -24364
switching 	 -24365
▁Spectrometer 	 -24366
▁475 	 -24367
partial 	 -24368
▁}$ 	 -24372
▁1.85 	 -24374
▁formamide 	 -24375
Estimated 	 -24377
Parameters 	 -24378
▁Annealing 	 -24379
ketch 	 -24381
▁1.16 	 -24382
–17]. 	 -24387
▁PTA 	 -24388
oxidative 	 -24393
chable 	 -24396
7+ 	 -24397
17), 	 -24400
▁(17), 	 -24401
▁HMBC 	 -24402
▁catalysed 	 -24403
italic 	 -24405
perovskite 	 -24406
▁TCS 	 -24407
orenz 	 -24408
214 	 -24410
acillus 	 -24411
bridging 	 -24412
▁borane 	 -24413
▁fragility 	 -24415
CSEL 	 -24416
▁2×2 	 -24417
▁ascrib 	 -24418
▁fluorite 	 -24420
–9]. 	 -24421
▁MCC 	 -24422
.(19) 	 -24423
▁−0.3 	 -24424
)‐2‐ 	 -24427
184 	 -24428
▁intentionally 	 -24436
‐6‐ 	 -24437
▁warmed 	 -24438
▁peeled 	 -24439
Value 	 -24440
▁crushed 	 -24441
1.08 	 -24442
▁polydisperse 	 -24443
▁ampo 	 -24445
AZ 	 -24448
▁NOESY 	 -24450
▁dope 	 -24452
▁Specim 	 -24454
CuII 	 -24456
▁NBI 	 -24458
-1000 	 -24460
gb 	 -24464
MPU 	 -24466
▁chromaticity 	 -24469
1(1) 	 -24470
BFO 	 -24471
–2.0 	 -24472
▁artefact 	 -24473
.5%, 	 -24475
abicyclo 	 -24476
IrO 	 -24477
,38 	 -24478
bandgap 	 -24479
utional 	 -24480
▁dehydro 	 -24481
.4–6 	 -24482
▁Voron 	 -24483
0.003 	 -24485
MWNT 	 -24487
trace 	 -24488
–18]. 	 -24489
)0.5 	 -24492
],( 	 -24495
11.4 	 -24497
abc 	 -24499
▁wrapping 	 -24500
′⟩ 	 -24501
naphthal 	 -24502
▁corrugation 	 -24503
azines 	 -24506
▁sensitively 	 -24508
arburg 	 -24509
▁azides 	 -24510
▁phosphonate 	 -24511
ontinuous 	 -24513
▁Side 	 -24515
▁TDS 	 -24517
×1011 	 -24518
▁kne 	 -24520
vertical 	 -24521
▁polarons 	 -24528
▁polymerisation 	 -24529
Glass 	 -24530
▁spectrofluor 	 -24531
▁MEH 	 -24532
RuCl 	 -24533
▁PIL 	 -24534
×1017 	 -24535
razil 	 -24537
.24,25 	 -24538
▁naphth 	 -24539
UiO 	 -24541
strept 	 -24542
▁Theoretically 	 -24543
,,, 	 -24544
▁flue 	 -24546
cathode 	 -24547
▁biodistribution 	 -24549
strip 	 -24552
▁Hopf 	 -24554
▁Purity 	 -24555
▁polyols 	 -24556
2+1 	 -24557
▁Shock 	 -24559
Stre 	 -24560
21( 	 -24561
▁Glc 	 -24563
phenols 	 -24564
▁Equilibrium 	 -24565
▁undist 	 -24569
▁internuclear 	 -24571
,..., 	 -24574
stron 	 -24575
▁ultrac 	 -24576
lumin 	 -24580
folding 	 -24582
310 	 -24583
▁−0.4 	 -24584
▁amu 	 -24587
▁propulsion 	 -24590
−] 	 -24591
)][ 	 -24592
ifshitz 	 -24594
▁Intensity 	 -24595
▁∼60 	 -24596
▁glyco 	 -24597
▁2.10 	 -24599
OK 	 -24600
▁PFA 	 -24602
▁rovibrational 	 -24605
▁speckle 	 -24606
▁linewidths 	 -24607
=1,2,..., 	 -24609
,22, 	 -24612
suitable 	 -24613
▁enantiop 	 -24614
▁polyplexes 	 -24615
Ethyl 	 -24616
▁Eh 	 -24617
▁phenotyp 	 -24618
SQ 	 -24621
πσ 	 -24622
riting 	 -24623
▁ultrashort 	 -24625
ethanolamine 	 -24626
≈2 	 -24629
▁Spectroscopic 	 -24631
imethoxysilane 	 -24632
wiley 	 -24634
▁(— 	 -24636
ysteresis 	 -24638
PLs 	 -24641
voltaic 	 -24642
MX 	 -24643
▁duplexes 	 -24644
228 	 -24645
▁unravel 	 -24648
atterning 	 -24649
sensitivity 	 -24650
▁[30], 	 -24651
▁(+)‐ 	 -24654
▁seas 	 -24655
▁785 	 -24656
▁PCEs 	 -24659
▁[16,17 	 -24661
▁templated 	 -24662
▁wavevector 	 -24666
▁96% 	 -24668
▁nitrobenzene 	 -24670
▁incommensurate 	 -24671
hair 	 -24673
▁contaminant 	 -24675
Image 	 -24676
▁redd 	 -24677
hydrogenation 	 -24678
acycle 	 -24679
5–7 	 -24680
−0.4 	 -24681
kingly 	 -24683
heological 	 -24684
▁5%. 	 -24685
.32, 	 -24687
▁3.75 	 -24688
▁∘ 	 -24689
ongation 	 -24690
σσ 	 -24691
HNO 	 -24692
▁paraelectric 	 -24693
▁[1–4]. 	 -24694
▁thermochemical 	 -24697
qs 	 -24698
detector 	 -24699
→4 	 -24700
0.71 	 -24701
▁lithiated 	 -24702
PAS 	 -24703
▁wavy 	 -24704
cinate 	 -24707
13.5 	 -24708
nf 	 -24710
=24 	 -24712
▁nanofiller 	 -24713
cyclodextrin 	 -24714
trichlor 	 -24716
-0.5 	 -24717
Hydroxy 	 -24719
ferromagnetic 	 -24720
▁derivatization 	 -24722
▁LIB 	 -24723
▁AX 	 -24724
▁(3- 	 -24725
▁tos 	 -24727
▁tweezers 	 -24732
▁infiltrated 	 -24733
▁unexplored 	 -24735
▁(110), 	 -24736
TPB 	 -24738
▁alternately 	 -24740
▁(78 	 -24741
▁[17,18 	 -24742
▁acylation 	 -24743
.34, 	 -24745
▁2.35 	 -24747
electrical 	 -24749
▁4–5 	 -24751
719 	 -24752
▁adamant 	 -24753
=1.2 	 -24754
Even 	 -24758
▁Transient 	 -24759
,2, 	 -24763
▁%); 	 -24766
MEA 	 -24767
cone 	 -24768
SERS 	 -24769
2)2] 	 -24771
▁333 	 -24772
/6‐31 	 -24773
Having 	 -24774
stretching 	 -24775
▁CBP 	 -24776
▁dioxygen 	 -24779
Tol 	 -24781
Charge 	 -24782
▁CuSO 	 -24783
▁faradaic 	 -24784
▁interrog 	 -24785
▁AuNRs 	 -24786
)⩽ 	 -24787
conductivity 	 -24790
tiss 	 -24793
luc 	 -24794
NPC 	 -24795
▁unsymmetrical 	 -24796
▁hydrogenolysis 	 -24797
▁Micromeritics 	 -24799
JP 	 -24801
▁pF 	 -24802
▁compactness 	 -24803
yllium 	 -24805
▁MPs 	 -24806
MSOL 	 -24808
▁interacted 	 -24810
bacterial 	 -24811
{− 	 -24812
−16 	 -24813
AlCl 	 -24814
cleaning 	 -24816
Field 	 -24818
▁SED 	 -24819
▁theran 	 -24820
/1, 	 -24821
▁cra 	 -24823
▁nanocrystall 	 -24824
▁(110 	 -24825
▁1.12 	 -24826
▁DDS 	 -24827
▁azido 	 -24829
▁Monomer 	 -24830
TZVP 	 -24831
▁thiolate 	 -24832
▁(1.9 	 -24834
nearest 	 -24839
▁673 	 -24841
uine 	 -24843
Power 	 -24844
▁worn 	 -24845
▁284 	 -24846
▁warp 	 -24848
▁constriction 	 -24849
azan 	 -24851
|/ 	 -24852
▁(1:1) 	 -24853
→0. 	 -24854
oluminescent 	 -24855
▁SCCM 	 -24856
.5–7 	 -24858
▁stereogenic 	 -24859
▁LiOH 	 -24861
)–3( 	 -24863
▁nonrelativistic 	 -24866
12‐ 	 -24867
▁600, 	 -24868
▁hafn 	 -24869
[6] 	 -24871
coordination 	 -24872
hyle 	 -24876
0=− 	 -24879
▁triad 	 -24880
1−2 	 -24881
boration 	 -24882
▁authen 	 -24883
ulfonyl 	 -24885
▁1.27 	 -24886
DMEM 	 -24889
▁mPa 	 -24890
–4000 	 -24892
▁multichannel 	 -24894
ungal 	 -24895
–3.0 	 -24899
.(21) 	 -24900
▁planarity 	 -24901
▁avenue 	 -24902
PEN 	 -24903
▁[18,19 	 -24904
▁catalyzes 	 -24905
▁dips 	 -24906
▁Absorb 	 -24907
▁rationally 	 -24908
▁favoured 	 -24909
▁PNIPAAm 	 -24911
iforn 	 -24913
▁BiOBr 	 -24916
oleptic 	 -24917
▁shuttle 	 -24918
▁1.50 	 -24920
173 	 -24923
interscience 	 -24926
▁imidazol 	 -24927
▁perfluoro 	 -24929
▁15( 	 -24930
ECM 	 -24931
▁1.44 	 -24932
▁ripples 	 -24933
0.002 	 -24934
▁overtone 	 -24935
▁antig 	 -24937
▁overestimates 	 -24939
▁heptane 	 -24941
solv 	 -24943
▁pyrimidine 	 -24945
▁backside 	 -24946
▁NaClO 	 -24947
▁(○) 	 -24951
4–3 	 -24952
▁RCP 	 -24954
▁Membranes 	 -24955
▁Attemp 	 -24957
–41 	 -24960
▁firmly 	 -24962
accel 	 -24964
▁2.16 	 -24969
amber 	 -24971
▁shrinks 	 -24972
▁verifies 	 -24974
▁textiles 	 -24975
grey 	 -24977
238 	 -24978
.25,26 	 -24980
▁galvanic 	 -24981
BDT 	 -24983
Hel 	 -24984
▁Sto 	 -24985
viscosity 	 -24987
))− 	 -24988
‐1,4‐ 	 -24989
gler 	 -24990
163 	 -24993
hlet 	 -24994
▁precious 	 -24996
common 	 -24997
1,1 	 -24998
),(5) 	 -24999
quenching 	 -25002
▁(<10 	 -25004
Eh 	 -25005
{2 	 -25007
ODA 	 -25008
yP 	 -25010
9,50 	 -25012
lowers 	 -25013
▁[2+ 	 -25015
Nm 	 -25018
†, 	 -25021
5)2 	 -25023
6)2 	 -25024
▁quasist 	 -25025
Equations 	 -25026
Differential 	 -25027
▁343 	 -25028
▁retardant 	 -25029
→) 	 -25030
▁399 	 -25034
▁1.06 	 -25035
Long 	 -25037
▁(2.7 	 -25038
▁HCOOH 	 -25039
▁(1– 	 -25040
close 	 -25042
1.75 	 -25044
▁swir 	 -25045
oxazole 	 -25046
▁electrostatics 	 -25047
▁CHA 	 -25048
▁synthetically 	 -25050
▁Beam 	 -25052
Lc 	 -25053
bos 	 -25054
▁flattening 	 -25056
▁photobleaching 	 -25057
▁instantaneously 	 -25061
131 	 -25062
▁6–8 	 -25063
▁1.24 	 -25066
transporting 	 -25069
collinear 	 -25070
▁ghost 	 -25071
WE 	 -25072
▁interdigitated 	 -25074
▁Same 	 -25075
δρ 	 -25076
▁oxalic 	 -25077
BHP 	 -25078
▁biopolymers 	 -25080
▁HEA 	 -25081
qp 	 -25082
acryloyl 	 -25085
▁Panels 	 -25086
▁purging 	 -25088
FeOOH 	 -25089
▁underestimates 	 -25090
αγ 	 -25091
.3–5 	 -25093
▁Optics 	 -25094
▁LiTFSI 	 -25095
▁monometallic 	 -25096
lector 	 -25097
▁9.7 	 -25100
▁unusually 	 -25101
delivery 	 -25103
FeII 	 -25106
,(12) 	 -25107
nitrophenyl 	 -25109
▁curvatures 	 -25111
▁hemicellulose 	 -25112
▁trigly 	 -25115
Photocatalytic 	 -25117
ukawa 	 -25119
assuming 	 -25120
▁multimode 	 -25122
▁aprotic 	 -25123
insertion 	 -25124
Pyr 	 -25125
▁durable 	 -25128
▁[51]. 	 -25130
nuclear 	 -25131
–20]. 	 -25134
▁ZnTe 	 -25135
hancement 	 -25136
▁Coating 	 -25137
diamin 	 -25138
.(20) 	 -25139
What 	 -25143
▁≳ 	 -25145
▁nanosc 	 -25146
▁(18), 	 -25150
3)2, 	 -25152
mine 	 -25153
gregation 	 -25155
▁Förster 	 -25157
▁NLS 	 -25158
2⋯ 	 -25161
29,30 	 -25162
alcohol 	 -25165
▁comprehensively 	 -25166
▁ancillary 	 -25172
▁MTS 	 -25173
-2100 	 -25174
∼1 	 -25175
Schottky 	 -25176
]4 	 -25177
▁(010) 	 -25178
thf 	 -25180
hexanes 	 -25181
▁ITC 	 -25183
▁Angle 	 -25184
▁[19,20 	 -25185
=〈 	 -25186
DCB 	 -25187
oling 	 -25188
▁conceiv 	 -25191
▁trenches 	 -25192
+5 	 -25193
axation 	 -25194
▁nanofluids 	 -25196
:[ 	 -25199
▁Crystallization 	 -25201
▁Lz 	 -25202
glycine 	 -25203
▁adsorbs 	 -25204
▁Kolmogorov 	 -25207
▁Ks 	 -25209
–19]. 	 -25210
▁PbTiO 	 -25211
▁uncharged 	 -25214
▁vulcanization 	 -25215
▁shorten 	 -25218
▁stepped 	 -25220
apshots 	 -25223
▁Variations 	 -25224
−3), 	 -25226
▁SRR 	 -25227
mainly 	 -25229
(−2 	 -25230
▁diols 	 -25231
▁Steady 	 -25232
▁Thomson 	 -25233
OLEDs 	 -25236
▁aerospace 	 -25238
emade 	 -25240
olinite 	 -25241
▁degrading 	 -25242
nor 	 -25243
resentation 	 -25244
▁ZnII 	 -25245
▁reced 	 -25247
singlet 	 -25248
11.2 	 -25249
▁Lambda 	 -25250
▁−60 	 -25252
piece 	 -25253
▁ferrous 	 -25255
▁adiab 	 -25256
EPDM 	 -25257
▁Vd 	 -25258
▁(1): 	 -25259
▁attains 	 -25260
Jn 	 -25261
▁PDB 	 -25264
▁sulfonation 	 -25266
xSr 	 -25269
▁BMG 	 -25270
)⟨ 	 -25272
▁remediation 	 -25273
▁viscoelasticity 	 -25274
▁hindering 	 -25275
▁2,2′- 	 -25276
vinylidene 	 -25277
▁demagneti 	 -25278
imino 	 -25281
).6 	 -25282
CDD 	 -25285
▁DOPC 	 -25286
▁ponder 	 -25287
PAW 	 -25288
▁SZ 	 -25290
▁50/50 	 -25295
ferrite 	 -25296
Dielectric 	 -25298
.36, 	 -25299
360 	 -25301
→1 	 -25303
▁Thickness 	 -25304
allium 	 -25305
▁HSQC 	 -25308
olis 	 -25309
▁1.36 	 -25310
molecules 	 -25312
FEI 	 -25313
.(22) 	 -25314
DTBT 	 -25315
bate 	 -25316
▁rectifying 	 -25317
▁100%, 	 -25318
3000 	 -25319
sintered 	 -25320
▁carbenes 	 -25321
▁Larger 	 -25322
▁sponges 	 -25323
.26,27 	 -25324
▁photoswit 	 -25325
▁515 	 -25326
undec 	 -25329
gmentation 	 -25330
▁quartet 	 -25331
▁eccentricity 	 -25332
)(1) 	 -25333
±0.05 	 -25334
▁redshifted 	 -25335
▁borosilicate 	 -25336
▁Arrows 	 -25338
(1‐ 	 -25339
312 	 -25340
▁fibrillar 	 -25341
22.5 	 -25342
archit 	 -25344
▁qe 	 -25348
▁Hoechst 	 -25349
227 	 -25350
▁3/2 	 -25351
▁PIB 	 -25352
▁423 	 -25353
-1,2- 	 -25355
dba 	 -25356
32) 	 -25358
Recent 	 -25359
▁0.2– 	 -25360
▁bpy 	 -25361
▁50%. 	 -25362
AAm 	 -25363
▁Tianjin 	 -25364
▁TPR 	 -25365
0.004 	 -25368
▁shutter 	 -25369
entang 	 -25373
)2], 	 -25374
rolact 	 -25376
XRF 	 -25377
▁Thermodynamic 	 -25379
–43 	 -25381
▁0.62 	 -25382
PMN 	 -25383
-(3- 	 -25384
▁PGS 	 -25385
▁(2.8 	 -25386
▁triplets 	 -25388
▁monoliths 	 -25389
PTX 	 -25390
(5), 	 -25391
▁BiOI 	 -25393
0.81 	 -25394
immobil 	 -25396
azide 	 -25397
▁1.28 	 -25398
▁anymore 	 -25399
▁EBL 	 -25401
edges 	 -25404
Proper 	 -25405
▁flamm 	 -25406
▁drifts 	 -25407
Dx 	 -25408
strap 	 -25409
▁∼1.5 	 -25410
▁iodides 	 -25411
enzymatic 	 -25412
▁[40, 	 -25413
mK 	 -25415
≠0. 	 -25416
▁HEMT 	 -25418
DEA 	 -25419
Obser 	 -25420
Stability 	 -25422
2{ 	 -25425
-900 	 -25426
sesqui 	 -25428
▁uncoupled 	 -25429
OCO 	 -25431
16.0 	 -25432
ishaw 	 -25433
▁debonding 	 -25434
–1; 	 -25435
▁Fok 	 -25436
molar 	 -25437
11.6 	 -25438
▁POPC 	 -25439
▁interconnects 	 -25440
▁ITG 	 -25443
20% 	 -25445
▁brass 	 -25446
226 	 -25447
osamine 	 -25448
3·6 	 -25450
▁0.15, 	 -25451
▁refs 	 -25452
215 	 -25454
cepting 	 -25455
285 	 -25456
▁−15 	 -25457
▁FEG 	 -25458
ethylhexyl 	 -25459
Plasma 	 -25460
roscale 	 -25461
monolayer 	 -25462
▁1.34 	 -25464
▁restrained 	 -25466
aev 	 -25467
▁CPA 	 -25469
graft 	 -25470
▁dressing 	 -25471
sf 	 -25472
33) 	 -25473
SCR 	 -25474
Tw 	 -25475
▁conducive 	 -25477
(⋅ 	 -25478
▁Industries 	 -25480
▁macromolecule 	 -25481
365 	 -25482
▁Enanti 	 -25483
▁sequest 	 -25484
▁eigenfunction 	 -25485
Δλ 	 -25486
▁1.14 	 -25487
▁Peptide 	 -25488
▁SSP 	 -25490
allad 	 -25494
,13, 	 -25496
1,3, 	 -25497
MCC 	 -25499
▁1.2, 	 -25500
Nt 	 -25501
▁yellowish 	 -25502
▁Concentrations 	 -25503
Ve 	 -25506
×108 	 -25507
▁Spectro 	 -25508
xFex 	 -25510
NALYSIS 	 -25512
,39 	 -25515
▁1/2, 	 -25516
▁SAPO 	 -25517
▁[31], 	 -25520
▁Ih 	 -25523
−1); 	 -25524
▁bipar 	 -25525
▁Scan 	 -25526
▁10.2 	 -25528
▁amphiphiles 	 -25529
▁cyclohexene 	 -25530
▁upwards 	 -25532
∇× 	 -25533
Ter 	 -25534
ipient 	 -25537
▁porosities 	 -25538
▁austenitic 	 -25540
PXRD 	 -25541
▁hMSCs 	 -25542
phenanthroline 	 -25544
21.5 	 -25550
minor 	 -25553
NBR 	 -25555
▁hyg 	 -25556
loidal 	 -25557
trifluoro 	 -25561
▁coacer 	 -25563
▁invis 	 -25565
▁DCF 	 -25566
▁Leica 	 -25567
▁BSE 	 -25568
330 	 -25569
▁5.0, 	 -25570
▁Δν 	 -25571
).(4 	 -25572
▁rougher 	 -25574
929 	 -25576
▁unsuitable 	 -25577
▁protru 	 -25578
▁intricate 	 -25579
lamellar 	 -25580
▁nanopillars 	 -25583
13,14 	 -25584
▁ultralow 	 -25585
substitution 	 -25586
vw 	 -25590
3)2( 	 -25593
▁Fluka 	 -25595
1≤ 	 -25597
Solution 	 -25603
▁Fiber 	 -25604
Nf 	 -25605
▁Impedance 	 -25606
absorbing 	 -25609
▁PNP 	 -25611
iyaura 	 -25614
▁chimer 	 -25615
▁0.9, 	 -25618
GCG 	 -25621
▁Plastic 	 -25623
▁ECE 	 -25625
▁10), 	 -25626
ucing 	 -25628
principle 	 -25629
CuS 	 -25631
3′, 	 -25632
CHA 	 -25635
nBu 	 -25636
energies 	 -25637
(0)+ 	 -25642
VIII 	 -25643
▁photonics 	 -25646
▁Asymmetric 	 -25647
▁chemothe 	 -25649
MHD 	 -25650
▁[63 	 -25651
▁Removal 	 -25652
▁deformable 	 -25653
▁SLG 	 -25656
▁10–5 	 -25657
▁(800 	 -25658
palladium 	 -25659
∼( 	 -25660
xa 	 -25661
ucial 	 -25662
260 	 -25663
KCl 	 -25665
acrylates 	 -25666
▁tann 	 -25667
90, 	 -25669
}= 	 -25671
ifornia 	 -25672
▁Nernst 	 -25673
▁CFD 	 -25674
▁diatom 	 -25675
▁Kinetics 	 -25676
▁Zetasizer 	 -25677
▁prototypical 	 -25678
studied 	 -25679
-311+ 	 -25683
▁unfortunately 	 -25684
▁researched 	 -25685
hexene 	 -25688
▁SPEEK 	 -25689
▁pyrrolic 	 -25691
DCE 	 -25692
yclohexyl 	 -25693
▁diverge 	 -25694
FIB 	 -25696
▁MQWs 	 -25698
▁Schwar 	 -25699
▁Bader 	 -25701
switched 	 -25702
▁ZA 	 -25703
▁RAW 	 -25704
medium 	 -25705
′∣ 	 -25709
▁Chitosan 	 -25710
HMDS 	 -25712
bending 	 -25715
Landau 	 -25716
▁2.75 	 -25718
▁buckled 	 -25719
ethers 	 -25721
).13 	 -25722
▁9), 	 -25723
▁px 	 -25724
3.00 	 -25726
▁triazine 	 -25728
|= 	 -25729
▁Degradation 	 -25730
×1013 	 -25731
)24 	 -25732
iluminescence 	 -25733
▁Magnetization 	 -25735
▁gadolinium 	 -25738
MSA 	 -25739
)(1+ 	 -25740
▁liquef 	 -25741
▁pendulum 	 -25742
Regarding 	 -25743
MNPs 	 -25744
▁1.13 	 -25745
▁nanode 	 -25747
+6 	 -25748
▁EQU 	 -25749
▁topmost 	 -25750
THz 	 -25752
001} 	 -25754
▁(48 	 -25755
▁xanth 	 -25757
Potential 	 -25758
▁Solubility 	 -25759
onics 	 -25761
▁2,2′‐ 	 -25762
1.50 	 -25764
▁unstrained 	 -25765
16), 	 -25766
▁itiner 	 -25768
223 	 -25769
[7] 	 -25770
▁AIMD 	 -25771
↑, 	 -25772
spiro 	 -25775
▁nucleobases 	 -25776
Pu 	 -25777
.6–8 	 -25779
lambda 	 -25780
0.2) 	 -25783
decay 	 -25784
symbols 	 -25785
▁CsPb 	 -25786
▁undoubtedly 	 -25787
▁HPT 	 -25788
▁collimator 	 -25790
olyb 	 -25791
▁Mettler 	 -25792
▁236 	 -25793
ERICAL 	 -25794
▁HKUST 	 -25795
▁Movie 	 -25796
anthracene 	 -25797
▁homemade 	 -25799
▁controllability 	 -25800
1.06 	 -25801
▁DVB 	 -25802
triazine 	 -25803
▁(55 	 -25804
▁[64 	 -25805
▁substitutes 	 -25807
▁COO 	 -25809
▁PDFs 	 -25810
▁xenogra 	 -25811
▁ESA 	 -25812
▁trifluor 	 -25817
▁thymine 	 -25819
▁occupancies 	 -25821
▁diradical 	 -25822
fj 	 -25823
▁Resonance 	 -25825
Germany 	 -25826
▁explosives 	 -25828
iodide 	 -25829
PSA 	 -25832
toxicity 	 -25833
ρσ 	 -25836
▁quadruple 	 -25838
brella 	 -25840
curing 	 -25842
▁commutation 	 -25843
280 	 -25844
acetonate 	 -25845
9–1 	 -25847
▁DIO 	 -25848
▁GNS 	 -25849
–75 	 -25851
Cole 	 -25852
▁miniaturization 	 -25854
NCS 	 -25855
▁(200), 	 -25856
aphylococcus 	 -25857
aS 	 -25858
–7]. 	 -25859
ethylenedioxy 	 -25860
▁ORTEP 	 -25862
▁intersystem 	 -25863
▁topographical 	 -25864
▁1.95 	 -25865
Rj 	 -25868
1× 	 -25870
Nat 	 -25871
▁Weibull 	 -25872
▁weakest 	 -25873
▁bottles 	 -25875
EOM 	 -25876
×109 	 -25877
▁Hugoniot 	 -25878
oxazoline 	 -25879
actile 	 -25881
234 	 -25882
11.3 	 -25883
▁butterfly 	 -25884
▁IMC 	 -25885
thiazol 	 -25887
styrenes 	 -25889
▁polarities 	 -25892
ppen 	 -25894
tpy 	 -25896
▁flocculation 	 -25897
−3). 	 -25898
ortho 	 -25900
▁clearer 	 -25902
▁trapez 	 -25904
▁polyamides 	 -25905
1–5 	 -25906
ignin 	 -25908
▁phosphonium 	 -25909
▁asterisk 	 -25910
▁acrylonitrile 	 -25911
▁muff 	 -25912
11.7 	 -25913
EELS 	 -25917
PTT 	 -25918
▁Vm 	 -25919
),(4 	 -25920
CTR 	 -25924
]${{ 	 -25925
▁FEL 	 -25926
ONa 	 -25927
asco 	 -25929
atos 	 -25930
▁Faradaic 	 -25931
▁analyser 	 -25932
10– 	 -25933
Tz 	 -25935
▁Pickering 	 -25938
▁monohydrate 	 -25939
▁diisocyanate 	 -25940
pVQZ 	 -25941
tling 	 -25946
Transition 	 -25947
11,12 	 -25948
volving 	 -25952
lc 	 -25953
▁solubilization 	 -25955
▁immobile 	 -25956
Vn 	 -25957
MAO 	 -25962
surf 	 -25963
▁atomization 	 -25965
initiators 	 -25967
▁Copolymer 	 -25968
▁colliding 	 -25969
iezoelectric 	 -25970
▁centrosymmetric 	 -25971
10/ 	 -25972
▁625 	 -25973
▁PLS 	 -25974
≈1 	 -25976
iciencies 	 -25978
▁NEXAFS 	 -25980
▁crosshead 	 -25981
ferential 	 -25983
distribution 	 -25986
ttps 	 -25988
▁BCPs 	 -25989
.27,28 	 -25990
(1−2 	 -25992
odymium 	 -25993
▁[52]. 	 -25995
▁IDS 	 -25996
▁recirculation 	 -25998
▁CZT 	 -25999
▁Cc 	 -26000
▁dominantly 	 -26001
▁cyclohexanone 	 -26002
▁Voronoi 	 -26003
▁aerodynamic 	 -26005
▁Shan 	 -26007
▁nH 	 -26009
▁pO 	 -26010
VV 	 -26011
.7–9 	 -26012
▁LMO 	 -26013
▁rotationally 	 -26015
0=( 	 -26016
▁ASE 	 -26017
▁inequivalent 	 -26018
isker 	 -26019
sigma 	 -26020
▁[010] 	 -26021
Px 	 -26022
▁7.5, 	 -26023
▁pave 	 -26027
▁(∼5 	 -26028
assivated 	 -26030
Lorentz 	 -26031
▁propyl 	 -26032
.(23) 	 -26035
▁colourless 	 -26036
phosphino 	 -26037
▁mc 	 -26039
▁calomel 	 -26040
protonated 	 -26044
lator 	 -26045
▁nanoshell 	 -26047
▁unimolecular 	 -26048
1/4 	 -26049
PIC 	 -26050
(1). 	 -26051
Liquid 	 -26052
▁gasoline 	 -26053
▁rectangles 	 -26056
toluenesulf 	 -26057
▁(3.6 	 -26058
CNS 	 -26059
▁92% 	 -26063
FAB 	 -26065
vanostatic 	 -26066
▁chromatogram 	 -26067
▁antiv 	 -26068
formyl 	 -26069
▁coloration 	 -26070
▁sideband 	 -26073
unches 	 -26075
▁relaxing 	 -26076
SeO 	 -26079
UVs 	 -26080
▁VASP 	 -26083
▁reactivities 	 -26084
,40 	 -26085
▁PdCl 	 -26086
Ill 	 -26087
enesis 	 -26088
▁Lamb 	 -26089
▁cocrystal 	 -26090
▁photodiodes 	 -26093
–21]. 	 -26094
▁tracers 	 -26095
annier 	 -26096
▁1.04 	 -26098
▁Solvents 	 -26099
▁localised 	 -26101
▁Instron 	 -26102
233 	 -26103
Act 	 -26104
′)+ 	 -26105
▁PSi 	 -26106
▁nitriles 	 -26108
samples 	 -26109
▁1.67 	 -26110
▁Conjug 	 -26111
alks 	 -26112
▁nondimensional 	 -26113
TIONS 	 -26114
▁viscometer 	 -26115
▁dichalcogenides 	 -26117
PTMS 	 -26118
▁NiII 	 -26119
▁immunoassay 	 -26122
▁recoveries 	 -26123
whm 	 -26125
192 	 -26126
=−∂ 	 -26127
dibromo 	 -26128
▁numbering 	 -26129
▁integrations 	 -26131
▁0.1) 	 -26132
▁rubrene 	 -26133
▁{110} 	 -26134
▁(20), 	 -26136
▁stiffer 	 -26137
batch 	 -26139
SSE 	 -26140
ithiol 	 -26142
▁Fact 	 -26143
▁dpp 	 -26145
▁recal 	 -26146
▁nanoflowers 	 -26147
▁000, 	 -26149
0=0. 	 -26151
noble 	 -26152
▁olefinic 	 -26153
▁industrially 	 -26154
mono 	 -26156
▁1.56 	 -26157
▁nanopowders 	 -26158
▁ACP 	 -26159
Apparatus 	 -26160
amboo 	 -26163
▁intensified 	 -26165
illion 	 -26167
▁ejecta 	 -26168
▁refrigeration 	 -26170
2.. 	 -26171
▁[31, 	 -26172
AlAs 	 -26174
▁IGZO 	 -26178
ophysics 	 -26179
▁wavefront 	 -26180
+‐ 	 -26181
▁Dye 	 -26182
UF 	 -26183
GaSb 	 -26184
▁ponderomotive 	 -26186
▁compacted 	 -26187
▁Conductivity 	 -26189
▁supersaturated 	 -26190
axanes 	 -26191
▁9‐ 	 -26193
▁ethylenediamine 	 -26194
▁Orbit 	 -26195
hv 	 -26197
dash 	 -26198
,23, 	 -26199
Hug 	 -26200
mmm 	 -26201
InN 	 -26202
▁Killing 	 -26203
localized 	 -26204
142 	 -26207
▁mHz 	 -26208
Kd 	 -26209
2/3) 	 -26211
Ii 	 -26213
magneti 	 -26214
▁Methanol 	 -26215
tuning 	 -26217
slow 	 -26219
▁wavepacket 	 -26220
uprofen 	 -26222
▁Δθ 	 -26223
▁faceted 	 -26224
Fer 	 -26225
▁liquor 	 -26227
▁buty 	 -26229
derivative 	 -26230
=−12 	 -26232
BQ 	 -26233
▁[2– 	 -26234
▁DMPC 	 -26235
▁SOFC 	 -26236
physics 	 -26238
None 	 -26240
alls 	 -26241
Application 	 -26243
▁desiccator 	 -26244
isocyan 	 -26245
▁iminium 	 -26246
Analytical 	 -26251
▁Calibration 	 -26252
GNRs 	 -26253
▁HNTs 	 -26259
248 	 -26262
▁penetrated 	 -26264
▁1%, 	 -26266
▁SiNW 	 -26267
synthetic 	 -26270
tifies 	 -26272
▁assis 	 -26274
×10−9 	 -26275
strength 	 -26277
▁1.46 	 -26278
=4, 	 -26279
Vd 	 -26280
60/ 	 -26281
qt 	 -26283
−23 	 -26284
▁Quanta 	 -26285
*- 	 -26288
hydroxyphenyl 	 -26292
▁7‐ 	 -26293
erovsk 	 -26294
▁semiempirical 	 -26295
▁glued 	 -26297
BMIM 	 -26298
pink 	 -26299
ashira 	 -26302
▁120, 	 -26303
oven 	 -26304
issolved 	 -26305
▁monopole 	 -26306
▁desol 	 -26308
.37, 	 -26309
22] 	 -26310
.28,29 	 -26311
▁eluting 	 -26312
dium 	 -26313
▁proportionally 	 -26314
▁1.37 	 -26315
orescein 	 -26316
2+– 	 -26317
▁1.20 	 -26319
HRMS 	 -26322
▁metallurg 	 -26324
45° 	 -26325
BMP 	 -26326
▁cables 	 -26327
≡( 	 -26330
RAS 	 -26331
▁wetted 	 -26332
–22]. 	 -26333
▁1450 	 -26334
▁NiAl 	 -26335
electroph 	 -26336
▁Warburg 	 -26337
Assuming 	 -26338
187 	 -26339
irane 	 -26340
NaYF 	 -26341
11.8 	 -26342
21− 	 -26343
▁NCS 	 -26344
▁800° 	 -26345
▁incipient 	 -26346
▁polaritons 	 -26347
rion 	 -26348
▁AMR 	 -26349
+1), 	 -26350
▁solubilities 	 -26351
⟩=⟨ 	 -26352
referred 	 -26353
)−1, 	 -26354
11.9 	 -26355
▁Periodic 	 -26356
▁SIBs 	 -26360
WG 	 -26362
romechanical 	 -26363
1=( 	 -26364
align 	 -26365
▁≅ 	 -26366
xGex 	 -26368
▁quercetin 	 -26369
DBT 	 -26370
NaO 	 -26371
▁Hydrogels 	 -26372
▁thermogram 	 -26373
▁relativity 	 -26374
.(24) 	 -26377
Growth 	 -26378
▁2-( 	 -26380
Lattice 	 -26381
composite 	 -26382
stri 	 -26384
▁dodeca 	 -26385
▁hydroquinone 	 -26386
PSi 	 -26387
diene 	 -26389
]−1 	 -26390
1.04 	 -26392
▁attractors 	 -26393
tau 	 -26394
▁impinge 	 -26395
▁blockage 	 -26396
▁electroless 	 -26397
.%, 	 -26398
PLL 	 -26399
NIPAm 	 -26400
].( 	 -26401
▁overcomes 	 -26402
0,0) 	 -26404
cym 	 -26406
▁1.08 	 -26407
carbodiimide 	 -26409
Organic 	 -26410
▁baked 	 -26412
▁5′‐ 	 -26413
▁Curves 	 -26414
▁485 	 -26416
▁LiClO 	 -26418
).(2) 	 -26419
▁Used 	 -26420
▁openings 	 -26421
altered 	 -26422
▁equiaxed 	 -26423
6–3 	 -26424
▁penetrates 	 -26425
CMP 	 -26427
ochiral 	 -26428
▁bioconjug 	 -26429
▁diminishing 	 -26432
1.07 	 -26433
▁250, 	 -26434
▁deceleration 	 -26436
eB 	 -26438
erometry 	 -26439
▁DPV 	 -26440
manif 	 -26441
▁[32], 	 -26442
▁chlorination 	 -26443
▁dyad 	 -26444
▁epimer 	 -26445
UMERICAL 	 -26446
▁lysosomes 	 -26447
▁opal 	 -26449
▁torques 	 -26450
evolution 	 -26452
▁Lorenz 	 -26453
▁inaccessible 	 -26454
dentate 	 -26455
▁nonwoven 	 -26457
qz 	 -26458
=60 	 -26459
)≥ 	 -26460
Pure 	 -26461
▁GeTe 	 -26462
▁MTJs 	 -26463
▁ultrafiltration 	 -26464
194 	 -26465
hydrin 	 -26466
▁ASAP 	 -26467
[2, 	 -26468
▁lithographic 	 -26469
▁monodispersed 	 -26470
▁broadens 	 -26471
▁photoelectrode 	 -26472
▁abrasive 	 -26473
▁(19), 	 -26474
▁probabil 	 -26475
▁prospect 	 -26478
▁farther 	 -26479
▁Electrosp 	 -26481
31]. 	 -26482
▁gauche 	 -26483
folded 	 -26486
▁phantoms 	 -26487
▁aze 	 -26488
▁Teff 	 -26489
Calculation 	 -26490
Test 	 -26491
▁stearic 	 -26492
Acet 	 -26494
▁hydrothermally 	 -26496
)–1 	 -26498
▁1.48 	 -26499
▁TFE 	 -26502
14.5 	 -26503
▁SrO 	 -26505
▁collisionality 	 -26506
dj 	 -26507
lasov 	 -26509
▁photoredox 	 -26510
.2–4 	 -26512
▁miniaturized 	 -26514
▁PCH 	 -26515
▁ECSA 	 -26516
ocurrent 	 -26518
▁benzoate 	 -26519
Concentration 	 -26520
▁mechanochemical 	 -26521
ologen 	 -26523
.8–10 	 -26524
▁dwarfs 	 -26525
Simulated 	 -26526
▁sticky 	 -26527
▁methine 	 -26530
▁Lax 	 -26532
loying 	 -26533
▁microdrop 	 -26534
2–4 	 -26536
Amp 	 -26537
▁MDI 	 -26538
▁Dispersion 	 -26539
▁OMMT 	 -26540
02+ 	 -26541
mSiO 	 -26543
▁microfibers 	 -26545
-700 	 -26546
3,5- 	 -26547
×1010 	 -26550
.38, 	 -26551
▁16). 	 -26552
Dox 	 -26553
▁unve 	 -26554
▁resistors 	 -26555
2]+ 	 -26556
=∫0 	 -26557
▁TiOx 	 -26560
▁ramping 	 -26561
▁kN 	 -26562
▁Molecules 	 -26564
▁BDT 	 -26565
▁Diamond 	 -26567
294 	 -26568
▁umbrella 	 -26570
(2)– 	 -26571
Miyaura 	 -26572
▁(0.02 	 -26573
pip 	 -26574
▁2.05 	 -26575
ogashira 	 -26576
▁benzophenone 	 -26579
TMC 	 -26580
-1/2 	 -26582
▁hydroxylated 	 -26583
quinolin 	 -26585
ZnSe 	 -26586
▁FCI 	 -26587
nA 	 -26588
▁SPD 	 -26589
curves 	 -26591
mercapto 	 -26592
Rk 	 -26593
▁Archimed 	 -26596
▁emulsification 	 -26597
diffraction 	 -26598
▁isotopolog 	 -26603
▁destabilizing 	 -26604
▁spherulite 	 -26606
+): 	 -26607
templated 	 -26609
▁diamines 	 -26614
▁impacting 	 -26615
▁semimetal 	 -26616
±5 	 -26617
endor 	 -26619
▁Nickel 	 -26620
▁pyrolytic 	 -26623
▁MIPs 	 -26624
BODIPY 	 -26625
▁1.43 	 -26626
damped 	 -26628
lg 	 -26629
▁titrated 	 -26633
meability 	 -26636
·10 	 -26637
▁vulcanizates 	 -26638
Crystall 	 -26641
▁(126 	 -26642
tleness 	 -26646
association 	 -26647
▁−8 	 -26649
▁stemming 	 -26651
▁353 	 -26653
zeta 	 -26654
▁BMGs 	 -26655
▁hemi 	 -26656
adhesive 	 -26657
oregular 	 -26659
▁insulated 	 -26660
spots 	 -26661
TW 	 -26662
▁∼80 	 -26663
counting 	 -26664
antilever 	 -26665
▁Prepared 	 -26666
ESR 	 -26667
hereafter 	 -26668
▁PPD 	 -26669
TRACT 	 -26670
RDE 	 -26671
),(6) 	 -26673
0001] 	 -26675
▁HDO 	 -26678
(2.1 	 -26679
▁absorptivity 	 -26680
▁CIP 	 -26681
▁1%. 	 -26682
Optimization 	 -26683
dio 	 -26685
inters 	 -26686
APTES 	 -26688
Back 	 -26689
▁miniemulsion 	 -26690
▁−0.6 	 -26691
▁873 	 -26693
▁oleylamine 	 -26694
▁slurries 	 -26695
rF 	 -26696
diamine 	 -26698
▁turbid 	 -26699
▁nascent 	 -26700
Toluene 	 -26701
▁HUVECs 	 -26702
▁slowest 	 -26703
Inf 	 -26704
▁observes 	 -26709
▁OCV 	 -26710
▁HAT 	 -26711
erant 	 -26714
SOI 	 -26715
▁worthy 	 -26716
3′- 	 -26717
1〉 	 -26719
▁epiderm 	 -26721
odiation 	 -26722
exchanged 	 -26723
▁287 	 -26724
1.35 	 -26726
8− 	 -26727
▁doubles 	 -26728
▁balances 	 -26729
omains 	 -26730
DPH 	 -26732
existence 	 -26734
nikov 	 -26735
▁Accur 	 -26737
Poisson 	 -26738
|2) 	 -26739
–350 	 -26740
▁1.47 	 -26742
▁disassembly 	 -26743
(20 	 -26744
scanning 	 -26745
▁astron 	 -26749
▁coherently 	 -26750
vous 	 -26751
▁DRS 	 -26752
PSF 	 -26754
chin 	 -26757
decane 	 -26758
▁emulsifier 	 -26760
▁interferometric 	 -26761
▁523 	 -26763
▁expects 	 -26767
▁polypeptides 	 -26768
▁microwell 	 -26769
▁[53]. 	 -26770
,1,2 	 -26771
▁PDMAEMA 	 -26773
▁[65 	 -26774
▁COMSOL 	 -26775
▁thereof 	 -26776
±= 	 -26779
ipy 	 -26780
▁rhombic 	 -26782
▁heterogeneities 	 -26784
186 	 -26785
284 	 -26786
▁FEA 	 -26787
2′′ 	 -26793
blende 	 -26794
▁amperometric 	 -26796
βα 	 -26797
Newtonian 	 -26799
CPT 	 -26801
Expt 	 -26802
ophenes 	 -26804
▁Titanium 	 -26807
CONH 	 -26808
MAL 	 -26809
▁AdS 	 -26811
burst 	 -26813
−1)+ 	 -26814
▁bron 	 -26815
▁MPD 	 -26816
HSO 	 -26819
).2.2 	 -26822
▁irradiating 	 -26823
Size 	 -26824
▁17.5 	 -26826
methylation 	 -26827
▁plenty 	 -26828
▁bremsstrahlung 	 -26829
deple 	 -26830
▁NCA 	 -26831
×10−10 	 -26832
orious 	 -26833
▁ZrC 	 -26836
liness 	 -26837
▁orthogonality 	 -26838
355 	 -26839
▁biaryl 	 -26841
(1)= 	 -26843
▁(−)- 	 -26845
▁Neutron 	 -26846
▁Microwave 	 -26849
▁acidified 	 -26850
(%) 	 -26851
▁NiSi 	 -26853
▁gelator 	 -26854
▁clamping 	 -26855
oxime 	 -26858
▁compounding 	 -26859
▁phononic 	 -26860
▁ionisation 	 -26861
▁beating 	 -26862
▁rubbers 	 -26864
Por 	 -26865
▁configure 	 -26869
▁2,5‐ 	 -26871
▁Horiba 	 -26873
▁297 	 -26875
benzoate 	 -26876
*2 	 -26877
02, 	 -26878
▁photocurrents 	 -26879
▁flushed 	 -26880
hydroxylation 	 -26881
▁sessile 	 -26882
▁(311) 	 -26884
▁photoacoustic 	 -26885
Mt 	 -26886
▁Fokker 	 -26888
258 	 -26889
▁1640 	 -26890
▁PGA 	 -26891
amates 	 -26892
▁Frenkel 	 -26894
fields 	 -26895
▁MOR 	 -26899
ressor 	 -26900
▁1.02 	 -26902
nitride 	 -26903
▁1.19 	 -26906
▁xerogel 	 -26907
xchange 	 -26908
▁roughening 	 -26909
bx 	 -26910
DAC 	 -26911
265 	 -26913
▁PdII 	 -26914
▁pentagonal 	 -26915
▁retardancy 	 -26916
▁rij 	 -26917
10], 	 -26922
phed 	 -26923
0.012 	 -26924
MIP 	 -26925
▁redist 	 -26926
▁attainable 	 -26927
Km 	 -26928
}] 	 -26929
integral 	 -26930
▁[33], 	 -26932
▁microwaves 	 -26935
▁12.7 	 -26936
▁defic 	 -26937
roscopically 	 -26938
2′, 	 -26939
Ey 	 -26941
▁Viscosity 	 -26942
▁dihydrate 	 -26943
}+ 	 -26944
▁diffusional 	 -26948
▁circul 	 -26950
dynam 	 -26952
▁coalesce 	 -26953
▁ODE 	 -26954
▁cheaper 	 -26956
dI 	 -26957
=90 	 -26958
opropane 	 -26960
▁−1.0 	 -26962
PPE 	 -26964
).7 	 -26965
incorporated 	 -26966
▁chal 	 -26968
±3 	 -26969
288 	 -26970
Real 	 -26971
▁11.0 	 -26972
1.09 	 -26974
▁nanodi 	 -26975
▁1:1, 	 -26976
▁RDFs 	 -26980
▁pyrrolidine 	 -26981
▁directionality 	 -26982
MIM 	 -26983
▁bathochromic 	 -26986
▁iodo 	 -26987
Hk 	 -26988
▁3-( 	 -26991
▁Morse 	 -26993
12: 	 -26994
▁SCS 	 -26995
Crafts 	 -26996
▁0°, 	 -26997
–46 	 -26998
▁entrain 	 -27000
ocycl 	 -27001
▁electrophile 	 -27003
Azo 	 -27004
Lag 	 -27005
▁BaFe 	 -27006
▁Incorporation 	 -27007
▁relaxivity 	 -27010
nF 	 -27011
bac 	 -27013
▁collapses 	 -27015
°; 	 -27016
▁LCs 	 -27017
mT 	 -27019
support 	 -27021
(2). 	 -27022
ationic 	 -27023
otope 	 -27024
▁goni 	 -27025
▁SAC 	 -27028
.29,30 	 -27031
▁illustrative 	 -27032
SBR 	 -27033
▁2.30 	 -27034
▁FTS 	 -27036
▁Yvon 	 -27037
▁impede 	 -27038
▁workup 	 -27039
^\ 	 -27042
MTT 	 -27043
6[ 	 -27045
2⁡ 	 -27047
▁μΩ 	 -27051
▁≥99 	 -27053
programmed 	 -27057
31.0 	 -27058
152 	 -27060
▁0.51 	 -27061
▁SCN 	 -27062
ubbs 	 -27064
compression 	 -27065
Michael 	 -27067
4000 	 -27068
▁unsatis 	 -27076
▁PdO 	 -27077
SWNTs 	 -27078
naphthalene 	 -27079
ferroelectric 	 -27080
179 	 -27082
18] 	 -27084
▁14.5 	 -27085
▁ergodic 	 -27086
4⋅ 	 -27087
▁brittleness 	 -27088
▁BJH 	 -27089
▁solvat 	 -27091
vans 	 -27093
▁unaltered 	 -27094
▁coron 	 -27095
▁pitting 	 -27096
▁(+)- 	 -27099
▁Kapton 	 -27100
24] 	 -27101
▁extensional 	 -27102
blocking 	 -27103
phases 	 -27104
▁0.03, 	 -27105
▁polarizers 	 -27106
▁itinerant 	 -27107
LAR 	 -27109
▁CID 	 -27110
▁solubilized 	 -27111
enna 	 -27112
▁triboelectric 	 -27114
▁99%) 	 -27115
–2, 	 -27117
GNS 	 -27119
▁PEA 	 -27120
phosphonate 	 -27121
ZP 	 -27122
▁ΔΔ 	 -27123
▁Mink 	 -27124
:1). 	 -27127
▁principally 	 -27128
=2. 	 -27129
▁reorient 	 -27133
,(11) 	 -27134
screw 	 -27135
▁achievements 	 -27136
▁diluent 	 -27138
▁10.7 	 -27140
▁Titan 	 -27142
▁terminations 	 -27143
34]. 	 -27144
▁nanodiamond 	 -27145
▁NaF 	 -27146
Protein 	 -27148
▁Celite 	 -27151
▁Qualit 	 -27152
▁Δσ 	 -27153
destructive 	 -27156
.50, 	 -27157
▁plat 	 -27158
Heat 	 -27160
▁pDNA 	 -27162
▁biochar 	 -27163
▁naphthal 	 -27164
]${{{ 	 -27165
modynamic 	 -27166
30° 	 -27167
▁tetras 	 -27169
PEGMA 	 -27170
▁prisms 	 -27172
NFs 	 -27176
∕3 	 -27177
▁normalizing 	 -27178
Oy 	 -27179
▁cytosine 	 -27183
theta 	 -27185
100% 	 -27187
▁prolate 	 -27188
▁(−2 	 -27189
fav 	 -27191
▁isothi 	 -27192
-8, 	 -27195
▁Sonogashira 	 -27197
▁sext 	 -27198
Effective 	 -27199
▁Nikon 	 -27200
Experiments 	 -27201
ulturing 	 -27204
▁microcrystals 	 -27205
▁sizable 	 -27206
▁harness 	 -27208
▁nanometric 	 -27210
▁435 	 -27211
▁resil 	 -27213
,(14) 	 -27215
iducial 	 -27216
▁17) 	 -27217
Phenyl 	 -27218
▁0.75, 	 -27219
▁asper 	 -27220
▁actuated 	 -27221
hemes 	 -27223
cage 	 -27224
–23]. 	 -27225
▁outg 	 -27227
▁silan 	 -27228
▁beryllium 	 -27229
=1.4 	 -27230
▁mesityl 	 -27231
▁[25,26 	 -27234
▁1.03 	 -27237
▁UCNP 	 -27239
▁3.25 	 -27240
sert 	 -27241
▁nanofluid 	 -27243
TEG 	 -27245
recovery 	 -27246
▁dipeptide 	 -27247
diag 	 -27248
▁mismatched 	 -27253
▁kc 	 -27255
▁dichroic 	 -27256
ORR 	 -27257
SEI 	 -27258
111) 	 -27259
▁BCN 	 -27260
▁15.0 	 -27261
▁monotonously 	 -27262
|− 	 -27264
▁344 	 -27266
irror 	 -27267
▁Vf 	 -27270
▁biomolecule 	 -27271
▁wrinkled 	 -27273
2−4 	 -27274
=22 	 -27275
vergence 	 -27277
▁575 	 -27280
▁Separation 	 -27281
koff 	 -27282
▁Attempts 	 -27283
.(26) 	 -27285
pull 	 -27286
^, 	 -27288
20). 	 -27289
▁travels 	 -27290
▁MoOx 	 -27291
12.6 	 -27292
lyte 	 -27293
)(2 	 -27294
Lip 	 -27296
ückel 	 -27297
▁smearing 	 -27298
0.006 	 -27299
▁MRCI 	 -27300
=7.5 	 -27301
.2.1. 	 -27302
▁unexpectedly 	 -27303
)=1− 	 -27304
NEt 	 -27305
entin 	 -27307
acetal 	 -27308
▁nonthermal 	 -27309
▁APD 	 -27312
Δθ 	 -27313
▁PPV 	 -27315
synthesis 	 -27317
Bp 	 -27318
▁Ohm 	 -27319
▁WIT 	 -27320
Jc 	 -27321
Detection 	 -27323
▁NCM 	 -27324
▁Veg 	 -27325
▁UCL 	 -27326
▁blueshif 	 -27328
TiCl 	 -27329
thene 	 -27330
▁DRIFT 	 -27331
60- 	 -27332
100) 	 -27333
MgCl 	 -27334
▁IQE 	 -27335
–450 	 -27336
▁repeatable 	 -27339
17.5 	 -27340
▁headgroup 	 -27341
4−, 	 -27342
▁15° 	 -27343
▁zoomed 	 -27344
▁Cycling 	 -27345
▁ToF 	 -27348
▁sterilized 	 -27350
▁microbalance 	 -27351
▁CrO 	 -27352
.9–11 	 -27353
▁carboxylates 	 -27354
▁vanad 	 -27356
▁1.96 	 -27357
glucopyran 	 -27359
▁Flash 	 -27360
confined 	 -27361
▁{001} 	 -27366
–6]. 	 -27367
▁pinholes 	 -27369
=32 	 -27370
lance 	 -27371
5′- 	 -27372
(0). 	 -27373
▁[46] 	 -27374
reening 	 -27375
precision 	 -27376
HRP 	 -27377
▁nanocon 	 -27378
init 	 -27379
Ui 	 -27383
▁MGs 	 -27384
levels 	 -27386
▁elastically 	 -27387
)‐2 	 -27388
13.0 	 -27389
▁photochemistry 	 -27390
▁pastes 	 -27391
rhod 	 -27392
leasing 	 -27394
▁isobaric 	 -27395
▁widening 	 -27397
dead 	 -27399
▁dien 	 -27400
+⋯ 	 -27401
▁VLS 	 -27402
▁DMRG 	 -27403
requencies 	 -27404
303 	 -27405
▁hexamethyl 	 -27406
▁intraband 	 -27408
,41 	 -27409
▁subcritical 	 -27410
,(6 	 -27411
▁LAM 	 -27412
▁XUV 	 -27413
▁MBA 	 -27415
▁Introducing 	 -27416
ophane 	 -27418
▁spinn 	 -27419
▁99%), 	 -27420
.39, 	 -27421
▁Observed 	 -27422
16] 	 -27423
0.010 	 -27425
ethan 	 -27426
Pore 	 -27427
▁nonresonant 	 -27428
opeptides 	 -27430
200, 	 -27431
rections 	 -27433
▁2.20 	 -27434
▁MLCT 	 -27438
▁catalyzing 	 -27439
▁allosteric 	 -27440
▁biophysical 	 -27441
▁VSM 	 -27442
Membrane 	 -27443
▁Ethanol 	 -27444
▁irreversibly 	 -27447
xOy 	 -27448
▁tableII 	 -27449
0.008 	 -27451
▁1.40 	 -27453
anting 	 -27454
▁pincer 	 -27455
PCS 	 -27456
▁Peltier 	 -27457
′′′ 	 -27458
Upon 	 -27460
qr 	 -27461
▁Symbols 	 -27466
3| 	 -27467
▁1.58 	 -27469
Spectral 	 -27470
▁̅ 	 -27471
lp 	 -27472
▁2,2, 	 -27473
Weight 	 -27474
3)4] 	 -27476
igo 	 -27477
▁irreversibility 	 -27479
vr 	 -27480
25( 	 -27481
▁Soxhlet 	 -27486
Performance 	 -27487
▁enantiopure 	 -27489
xSb 	 -27490
Ee 	 -27491
189 	 -27492
▁3.0, 	 -27493
2=0, 	 -27494
▁ascer 	 -27495
mobility 	 -27496
RSD 	 -27497
▁raref 	 -27498
zheimer 	 -27499
▁MAI 	 -27500
olane 	 -27501
▁(180 	 -27502
▁OTS 	 -27504
–47 	 -27505
hill 	 -27506
5–3 	 -27507
1.15 	 -27508
surfactant 	 -27510
+0 	 -27511
▁dressed 	 -27513
diffusive 	 -27514
stoichiometry 	 -27515
1)] 	 -27517
▁∼300 	 -27518
▁9.9 	 -27519
.(25) 	 -27520
▁Wannier 	 -27521
circular 	 -27522
3+( 	 -27523
▁−7 	 -27524
▁behaved 	 -27526
▁refining 	 -27527
AQ 	 -27528
)(2) 	 -27530
0≈ 	 -27531
▁illuminating 	 -27533
▁1021 	 -27534
▁−0.8 	 -27535
▁ratche 	 -27538
▁nanodrop 	 -27539
Ent 	 -27540
vg 	 -27541
MSs 	 -27542
atm 	 -27543
PLD 	 -27547
▁diffractions 	 -27548
12[ 	 -27550
▁0.01. 	 -27551
12.4 	 -27553
▁9.( 	 -27554
hydration 	 -27559
≪1 	 -27562
18), 	 -27563
▁nF 	 -27564
▁bactericidal 	 -27565
expansion 	 -27566
▁7.26 	 -27567
▁RRAM 	 -27568
296 	 -27569
1.55 	 -27570
sqrt 	 -27572
Visible 	 -27573
▁ethene 	 -27574
▁osteoblast 	 -27575
▁nondestructive 	 -27576
ominal 	 -27578
▁pushing 	 -27579
▁Hydroph 	 -27581
▁microcracks 	 -27582
▁CPD 	 -27583
▁Xc 	 -27585
▁10–6 	 -27587
▁CSD 	 -27588
▁hydroxyls 	 -27589
229 	 -27590
▁maser 	 -27592
onduction 	 -27593
▁7.0, 	 -27594
▁[26,27 	 -27595
▁600° 	 -27596
▁amidation 	 -27598
▁pyrolyzed 	 -27602
arctan 	 -27603
▁erbium 	 -27604
otherms 	 -27605
231 	 -27609
-7- 	 -27610
▁pyramids 	 -27611
▁quantifies 	 -27612
488 	 -27614
▁enantio 	 -27616
▁fluorocarbon 	 -27617
.30,31 	 -27618
retard 	 -27619
ocally 	 -27621
▁Amber 	 -27622
▁[67 	 -27626
▁digly 	 -27627
ocellulosic 	 -27628
Small 	 -27629
Young 	 -27630
ichiometric 	 -27632
MODEL 	 -27634
▁Cotton 	 -27637
▁polyox 	 -27638
▁merid 	 -27640
trapped 	 -27641
Impact 	 -27643
▁redispersed 	 -27645
▁regenerate 	 -27646
16- 	 -27648
metalation 	 -27649
.4.3 	 -27650
TiC 	 -27651
stann 	 -27652
▁chirped 	 -27654
▁resistivities 	 -27655
183 	 -27657
=−∑ 	 -27658
▁cyclability 	 -27661
▁unequiv 	 -27662
▁acetophenone 	 -27663
▁Azo 	 -27664
▁Vlasov 	 -27668
▁degradable 	 -27669
▁Repl 	 -27670
3∕2 	 -27673
▁PHI 	 -27676
▁deteriorate 	 -27681
rifug 	 -27682
▁plasticizers 	 -27684
▁Geometry 	 -27686
▁tetraethyl 	 -27688
.51, 	 -27689
▁1000° 	 -27691
ombination 	 -27692
ecke 	 -27694
▁twinned 	 -27695
▁oleate 	 -27696
▁handed 	 -27699
▁mesoscale 	 -27700
▁AlO 	 -27701
▁(77 	 -27704
▁GDC 	 -27705
verted 	 -27708
▁blackbody 	 -27710
▁Temp 	 -27711
DSSCs 	 -27714
2−) 	 -27715
Nn 	 -27716
▁${\ 	 -27719
bib 	 -27720
mole 	 -27721
)–1( 	 -27722
dispersion 	 -27723
commut 	 -27725
▁acquires 	 -27726
‐11 	 -27727
▁mesoc 	 -27731
molded 	 -27734
GaP 	 -27736
▁impulsive 	 -27737
1.45 	 -27739
.10–12 	 -27740
filler 	 -27741
▁395 	 -27742
▁533 	 -27743
▁halogenated 	 -27744
big 	 -27745
▁NaI 	 -27748
▁TeO 	 -27750
Pj 	 -27752
Alfa 	 -27753
▁talc 	 -27754
IPr 	 -27755
▁baths 	 -27756
▁enamine 	 -27757
prolifer 	 -27759
246 	 -27760
▁allotrop 	 -27761
▁CdO 	 -27762
▁18.2 	 -27763
▁2.28 	 -27765
▁blades 	 -27766
2,53 	 -27767
gineered 	 -27769
▁flowed 	 -27772
▁cP 	 -27774
▁8.0, 	 -27775
acetylation 	 -27776
▁superexchange 	 -27778
†) 	 -27780
=0.01 	 -27781
▁1.07 	 -27782
▁streaks 	 -27783
▁alternation 	 -27784
∂( 	 -27785
▁1.11 	 -27786
▁fluidity 	 -27787
▁ingots 	 -27788
intra 	 -27789
▁nitrates 	 -27790
▁witnessed 	 -27791
▁substructure 	 -27792
▁photoreduction 	 -27793
11.1 	 -27797
▁MSM 	 -27798
▁telecom 	 -27803
▁metallo 	 -27805
mr 	 -27808
▁atop 	 -27809
▁ELMs 	 -27810
▁nanoimp 	 -27811
PEM 	 -27812
▁Markovian 	 -27815
▁MPP 	 -27816
▁illustrations 	 -27817
▁NMC 	 -27818
AsO 	 -27819
▁bulge 	 -27820
▁2,3‐ 	 -27821
▁3,4- 	 -27822
MJ 	 -27823
theore 	 -27824
3′‐ 	 -27825
2)4 	 -27827
▁20%. 	 -27828
▁diazonium 	 -27829
▁desulfurization 	 -27830
▁culturing 	 -27831
0)] 	 -27833
▁rotors 	 -27834
▁asymmetries 	 -27835
xTe 	 -27837
16). 	 -27838
▁LSP 	 -27839
adiazole 	 -27841
▁corroborates 	 -27842
discharging 	 -27845
(2− 	 -27846
2≤ 	 -27847
▁TTA 	 -27848
penta 	 -27850
▁MWD 	 -27852
−0.6 	 -27853
osulf 	 -27854
▁Curve 	 -27855
).8 	 -27856
▁xylose 	 -27859
Pk 	 -27861
▁<10 	 -27862
DOM 	 -27865
RhB 	 -27866
▁SFR 	 -27868
▁sidebands 	 -27869
▁phenylalanine 	 -27870
cum 	 -27871
▁muon 	 -27873
▁allene 	 -27874
1–2 	 -27875
InGaAs 	 -27876
entrant 	 -27877
▁GMR 	 -27878
▁[34], 	 -27881
▁nomenclature 	 -27884
2500 	 -27885
▁monom 	 -27886
−22 	 -27888
PMe 	 -27889
▁PLQY 	 -27890
▁fluorides 	 -27892
SBET 	 -27893
oflav 	 -27894
▁ensu 	 -27895
insulating 	 -27899
▁2.38 	 -27900
001) 	 -27902
▁RSD 	 -27903
▁Graphite 	 -27904
(∣ 	 -27906
▁Doping 	 -27907
12.3 	 -27908
▁740 	 -27909
▁isoprene 	 -27910
660 	 -27914
▁(10% 	 -27915
12= 	 -27917
▁Corning 	 -27918
▁dialkyl 	 -27920
TNT 	 -27922
DMAC 	 -27923
▁PANalytical 	 -27926
10.5 	 -27927
▁JASCO 	 -27928
dissip 	 -27930
12.7 	 -27931
CDI 	 -27932
▁1.30 	 -27934
▁PHEMA 	 -27935
▁Feynman 	 -27936
|2, 	 -27937
laden 	 -27938
Contact 	 -27939
▁classically 	 -27940
.2.7 	 -27941
–55 	 -27942
ipso 	 -27943
Tre 	 -27944
▁NIF 	 -27946
▁receding 	 -27947
sciss 	 -27948
Mode 	 -27949
▁CASPT 	 -27950
Clx 	 -27951
iran 	 -27952
ZFC 	 -27953
▁2.50 	 -27954
▁resorcin 	 -27955
▁Microstructure 	 -27956
▁invisible 	 -27959
▁2.18 	 -27960
▁Blends 	 -27961
▁Liouville 	 -27964
▁myocar 	 -27965
▁DLTS 	 -27966
▁dictates 	 -27969
halide 	 -27970
–0.8 	 -27971
▁NBS 	 -27972
▁succinic 	 -27973
centrosymmetric 	 -27974
eldom 	 -27975
▁bifurcations 	 -27976
equiv 	 -27978
▁HSO 	 -27979
▁WPU 	 -27980
relaxed 	 -27982
▁cuprates 	 -27983
▁Cellulose 	 -27984
▁caption 	 -27988
▁conceivable 	 -27989
OER 	 -27990
SPI 	 -27991
▁drilling 	 -27994
)‐2, 	 -27995
CuPc 	 -27996
,3, 	 -27997
▁CTC 	 -28001
anation 	 -28002
▁photosensitive 	 -28003
′)] 	 -28004
▁COSY 	 -28005
▁18) 	 -28006
▁elap 	 -28007
monia 	 -28010
▁11.2 	 -28011
Investig 	 -28016
PSD 	 -28017
▁Toluene 	 -28019
▁abbreviated 	 -28020
VPE 	 -28021
▁asphaltene 	 -28023
▁picoseconds 	 -28024
′[ 	 -28025
▁TEC 	 -28026
▁[66 	 -28027
▁2.17 	 -28030
▁1.42 	 -28031
▁hill 	 -28032
▁1/4 	 -28033
▁LSCF 	 -28034
rho 	 -28036
▁polymersomes 	 -28037
▁393 	 -28038
VSM 	 -28039
▁multitude 	 -28041
nC 	 -28042
osmo 	 -28044
architecture 	 -28045
▁nanoseconds 	 -28047
▁thermocouples 	 -28048
▁propell 	 -28052
▁eman 	 -28053
▁Vitro 	 -28054
▁imparted 	 -28055
▁immobilize 	 -28056
▁POD 	 -28057
▁ESCALAB 	 -28058
ppenheimer 	 -28059
▁8–10 	 -28061
sulfon 	 -28062
1400 	 -28063
▁moiré 	 -28067
(000 	 -28069
▁GFA 	 -28070
PAMAM 	 -28071
▁ZPE 	 -28072
2(4) 	 -28075
21.4 	 -28077
PDH 	 -28078
▁photoactivity 	 -28079
▁HHG 	 -28082
▁cake 	 -28083
▁NiOx 	 -28086
▁CaH 	 -28089
▁brevity 	 -28094
intuitive 	 -28095
▁Fd 	 -28097
▁870 	 -28098
TPU 	 -28099
0.1% 	 -28102
fluoric 	 -28103
Millipore 	 -28104
▁unloaded 	 -28105
).9 	 -28106
▁Excess 	 -28107
∙∇ 	 -28108
▁(21), 	 -28110
▁layering 	 -28111
▁DMI 	 -28112
▁[54]. 	 -28114
2(3 	 -28115
üne 	 -28117
▁fiducial 	 -28118
πρ 	 -28119
diisopropyl 	 -28120
.41, 	 -28122
▁unintention 	 -28123
236 	 -28124
0.009 	 -28125
▁Yukawa 	 -28126
▁TSC 	 -28128
▁exchanging 	 -28130
acids 	 -28131
1.95 	 -28132
observed 	 -28134
Cyclic 	 -28135
▁photoelectrodes 	 -28136
▁1.53 	 -28137
▁wastes 	 -28138
.4° 	 -28140
▁biog 	 -28142
▁metrology 	 -28143
‐30 	 -28146
▁465 	 -28148
,(15) 	 -28149
12.8 	 -28151
▁sq 	 -28152
▁Grain 	 -28153
CuBr 	 -28155
▁93% 	 -28156
SnI 	 -28159
meV 	 -28160
▁magnetisation 	 -28162
455 	 -28163
▁symmetri 	 -28164
63/ 	 -28166
▁(4.6 	 -28171
‐13 	 -28173
▁529 	 -28174
▁dome 	 -28175
Ear 	 -28176
▁complexing 	 -28177
Fa 	 -28178
hp 	 -28179
Such 	 -28181
).10 	 -28182
▁comet 	 -28183
▁comonomers 	 -28184
continuum 	 -28185
onov 	 -28186
–24]. 	 -28187
▁shake 	 -28189
yO 	 -28190
dust 	 -28193
▁lightly 	 -28194
▁chemoselective 	 -28195
Cx 	 -28196
▁TPV 	 -28197
Nafion 	 -28198
mall 	 -28199
▁aluminosilicate 	 -28200
▁annulus 	 -28201
FeCo 	 -28202
▁Nm 	 -28204
reev 	 -28205
alkene 	 -28206
▁[27,28 	 -28207
CNCs 	 -28208
▁aqua 	 -28212
clusters 	 -28213
▁anisole 	 -28214
▁dispens 	 -28216
▁crystallisation 	 -28217
▁TeV 	 -28218
×[ 	 -28220
MPC 	 -28222
extended 	 -28224
▁dissociates 	 -28225
▁dV 	 -28227
––– 	 -28229
▁bamboo 	 -28230
▁tendencies 	 -28231
/60 	 -28232
▁[35], 	 -28235
▁COFs 	 -28236
▁30%, 	 -28239
/3, 	 -28240
333 	 -28241
▁resemblance 	 -28243
▁trimethylsilyl 	 -28244
azin 	 -28245
▁DMP 	 -28246
▁semil 	 -28247
Microstructure 	 -28249
▁admittance 	 -28251
Cf 	 -28252
▁InxGa 	 -28253
▁0.2. 	 -28255
ogravimetry 	 -28256
▁BaO 	 -28257
▁PPE 	 -28258
▁diffe 	 -28259
▁tentative 	 -28260
▁[32, 	 -28261
proline 	 -28265
▁diverging 	 -28267
▁EPD 	 -28269
▁690 	 -28270
−1.0 	 -28271
▁torr 	 -28272
▁memrist 	 -28273
.42, 	 -28274
Taylor 	 -28275
▁cloak 	 -28276
▁PMO 	 -28277
▁FLG 	 -28278
▁scavengers 	 -28279
–65 	 -28280
▁puff 	 -28281
▁restraints 	 -28284
cad 	 -28285
▁94% 	 -28286
▁TCNQ 	 -28288
▁Scope 	 -28289
▁disintegration 	 -28290
▁−25 	 -28293
ymmetri 	 -28294
!( 	 -28297
▁Jup 	 -28298
▁1.98 	 -28299
deuter 	 -28300
193 	 -28303
▁bubbled 	 -28305
iwan 	 -28306
▁CuAAC 	 -28308
▁singlets 	 -28311
00). 	 -28312
TAP 	 -28314
▁#1 	 -28315
▁POE 	 -28316
click 	 -28317
▁○ 	 -28320
▁SAN 	 -28322
).(4) 	 -28323
▁microlens 	 -28326
335 	 -28328
XM 	 -28329
2+3 	 -28330
4–7 	 -28331
▁puck 	 -28332
▁overshoot 	 -28334
yner 	 -28335
.11–13 	 -28336
▁intral 	 -28338
▁Frame 	 -28339
232 	 -28341
Beijing 	 -28344
=0,( 	 -28345
▁notched 	 -28347
‐50 	 -28349
▁polytetra 	 -28350
mN 	 -28352
BTO 	 -28353
PbO 	 -28354
tdt 	 -28355
▁∼70 	 -28356
TENG 	 -28357
.8%, 	 -28359
▁Aux 	 -28360
HMF 	 -28365
halo 	 -28366
Altern 	 -28367
▁Coordination 	 -28369
skin 	 -28370
iN 	 -28371
kV 	 -28372
336 	 -28374
μα 	 -28375
rN 	 -28377
‐4, 	 -28378
PBT 	 -28379
FEM 	 -28382
▁7.35 	 -28383
▁pipette 	 -28384
▁hexagons 	 -28385
0.013 	 -28389
162 	 -28390
(1)+ 	 -28391
850 	 -28393
LDHs 	 -28394
.9. 	 -28396
▁admixture 	 -28397
experimental 	 -28398
agome 	 -28399
▁nanogra 	 -28400
DDS 	 -28402
ocamp 	 -28403
▁AlxGa 	 -28405
nanoc 	 -28406
Ia 	 -28407
(1+2 	 -28408
PPS 	 -28409
0.007 	 -28410
▁bistability 	 -28412
bd 	 -28413
±0.4 	 -28414
▁SNe 	 -28415
xM 	 -28416
transparent 	 -28417
×∇ 	 -28419
342 	 -28420
DTPA 	 -28421
▁3,5- 	 -28422
▁11.6 	 -28423
▁hydrophob 	 -28427
dipolar 	 -28429
)-1- 	 -28430
▁DDA 	 -28431
CPP 	 -28432
alase 	 -28434
▁mitigated 	 -28435
▁MoTe 	 -28436
▁Galvanostatic 	 -28437
▁[68 	 -28438
.0] 	 -28439
▁incompatibility 	 -28442
MWNTs 	 -28445
)–4 	 -28447
▁monocl 	 -28448
pyridinium 	 -28449
▁RMP 	 -28450
▁Substrates 	 -28453
▁CuInS 	 -28454
▁exosomes 	 -28455
▁XRR 	 -28456
▁calcein 	 -28457
▁kaolinite 	 -28458
–25]. 	 -28460
–1.2 	 -28461
▁skeletons 	 -28463
Japan 	 -28464
▁AcOH 	 -28465
apillary 	 -28469
erovskite 	 -28470
[4 	 -28471
,5, 	 -28472
▁7.25 	 -28473
▁14.1 	 -28477
CQDs 	 -28478
oxamide 	 -28480
PQ 	 -28481
▁[28,29 	 -28482
quat 	 -28483
alkenes 	 -28485
▁FOV 	 -28486
▁fluorescently 	 -28489
12– 	 -28490
▁deactivated 	 -28492
▁necking 	 -28493
▁Stren 	 -28494
▁monof 	 -28495
indol 	 -28498
▁0.3% 	 -28499
‐1,2‐ 	 -28500
TeO 	 -28501
mPEG 	 -28502
▁anvil 	 -28506
▁capsid 	 -28508
aggregate 	 -28509
kii 	 -28511
▁cooler 	 -28513
Aut 	 -28514
aclit 	 -28515
etching 	 -28516
▁Absorbance 	 -28519
▁ferrofluid 	 -28521
▁norbornene 	 -28522
0.. 	 -28523
Amino 	 -28524
▁knife 	 -28525
▁antisite 	 -28527
consistency 	 -28528
amoyl 	 -28532
0.5% 	 -28534
ocent 	 -28535
pole 	 -28536
CASSCF 	 -28538
−18 	 -28539
VF 	 -28542
)2- 	 -28543
31.5 	 -28544
Various 	 -28545
1⊗ 	 -28546
.31,32 	 -28547
▁0.1– 	 -28549
▁lanthanides 	 -28550
spinning 	 -28551
13( 	 -28552
▁kick 	 -28553
▁isosurface 	 -28554
Sur 	 -28555
broken 	 -28556
▁shoulders 	 -28558
▁nucleophilicity 	 -28559
▁SLs 	 -28561
kL 	 -28562
13/2 	 -28565
orrosion 	 -28567
converted 	 -28568
.(27) 	 -28569
▁hexap 	 -28570
|+ 	 -28571
üneisen 	 -28572
aclitaxel 	 -28573
′)( 	 -28574
▁DBR 	 -28575
methan 	 -28577
,24, 	 -28579
▁pulsar 	 -28583
▁HCHO 	 -28584
alkoxy 	 -28585
▁LHC 	 -28588
▁selenide 	 -28589
nz 	 -28590
▁metallocene 	 -28591
▁conflu 	 -28592
▁congru 	 -28593
▁physico 	 -28594
).11 	 -28596
)3]2+ 	 -28597
▁DBS 	 -28598
alar 	 -28599
doub 	 -28600
KG 	 -28601
SSA 	 -28602
▁22.5 	 -28603
▁385 	 -28605
▁Normally 	 -28607
▁kd 	 -28608
51, 	 -28610
trimethoxysilane 	 -28611
SQUID 	 -28612
▁Microp 	 -28613
Original 	 -28614
43− 	 -28616
▁Spitzer 	 -28617
▁undercooling 	 -28618
tunable 	 -28620
▁CPL 	 -28621
316 	 -28623
opeptide 	 -28627
▁0.125 	 -28628
▁kinks 	 -28629
modulation 	 -28630
▁cracked 	 -28631
EMIM 	 -28632
agenesis 	 -28633
▁Temperatures 	 -28634
▁ISM 	 -28635
▁0.10, 	 -28636
▁hinge 	 -28637
[5] 	 -28638
Additional 	 -28639
⟩) 	 -28640
bottomed 	 -28642
COS 	 -28643
Har 	 -28646
fitted 	 -28647
predic 	 -28649
(3)( 	 -28650
Cg 	 -28654
zzles 	 -28658
nB 	 -28659
▁excludes 	 -28660
▁heterocycle 	 -28661
▁tricyclic 	 -28662
Xc 	 -28663
sep 	 -28664
▁cyste 	 -28665
▁photof 	 -28666
▁shallower 	 -28668
▁Substitution 	 -28672
keV 	 -28673
Run 	 -28675
(∞ 	 -28677
▁(112 	 -28679
▁1.32 	 -28682
≪1, 	 -28684
▁intertw 	 -28685
▁schematics 	 -28686
▁Bode 	 -28687
tunnel 	 -28688
▁inspect 	 -28690
nest 	 -28691
▁1.22 	 -28692
▁polyvinylidene 	 -28693
magenta 	 -28696
sputtering 	 -28697
]5 	 -28698
▁nanocatalysts 	 -28699
22.0 	 -28700
▁KdV 	 -28701
▁(22), 	 -28702
),(7) 	 -28705
Oxygen 	 -28706
allowed 	 -28707
▁blanket 	 -28708
=1.6 	 -28709
▁1650 	 -28710
untain 	 -28711
▁dendrons 	 -28712
2≈ 	 -28713
nT 	 -28714
141 	 -28715
▁unde 	 -28716
,42 	 -28718
▁aligning 	 -28719
▁oxidations 	 -28721
237 	 -28723
Δσ 	 -28725
247 	 -28726
abundant 	 -28727
Ck 	 -28729
▁0⩽ 	 -28730
▁232 	 -28731
▁hexamer 	 -28733
shifting 	 -28734
PbTiO 	 -28735
▁11.4 	 -28736
▁OPVs 	 -28737
▁Minkowski 	 -28739
▁phenylene 	 -28740
▁Gyr 	 -28741
▁415 	 -28745
▁Orient 	 -28746
▁hydrazone 	 -28747
Combining 	 -28748
-66- 	 -28750
ergonic 	 -28752
23] 	 -28753
GNP 	 -28756
▁CQD 	 -28757
▁MAPbBr 	 -28758
▁tridentate 	 -28760
▁(3.8 	 -28762
▁AlGaAs 	 -28765
▁endoc 	 -28766
▁isothermally 	 -28767
Δν 	 -28768
pyrene 	 -28769
immobilized 	 -28770
▁scho 	 -28772
▁tart 	 -28775
.13–15 	 -28776
▁Aluminum 	 -28777
▁silanes 	 -28778
▁graphically 	 -28779
exts 	 -28780
▁1.68 	 -28781
▁12.6 	 -28784
▁niobate 	 -28785
filter 	 -28786
▁Shockley 	 -28787
▁gauges 	 -28788
ασ 	 -28789
▁HBP 	 -28790
▁SFE 	 -28791
zzy 	 -28795
▁LCF 	 -28796
▁clog 	 -28797
▁volatilization 	 -28798
.2° 	 -28799
▁LOI 	 -28801
257 	 -28802
BJH 	 -28803
rotaxane 	 -28804
▁OAM 	 -28805
▁Shear 	 -28806
rl 	 -28807
▁postulate 	 -28808
otetra 	 -28809
).12 	 -28811
azene 	 -28812
▁0.2) 	 -28813
▁featureless 	 -28817
VASP 	 -28818
▁galactic 	 -28819
▁NBD 	 -28820
▁isoelectronic 	 -28821
▁PEGDA 	 -28822
▁Modification 	 -28823
▁(220), 	 -28824
▁pyran 	 -28825
▁locates 	 -28826
▁XB 	 -28830
▁(148 	 -28831
assays 	 -28832
15- 	 -28833
▁sorbit 	 -28834
eria 	 -28835
toon 	 -28836
▁11.7 	 -28837
▁rhenium 	 -28838
,30, 	 -28840
polished 	 -28843
Spa 	 -28844
▁14.0 	 -28845
▁sigmoidal 	 -28846
MgAl 	 -28847
▁Bohm 	 -28849
▁lath 	 -28850
Correlation 	 -28851
▁commute 	 -28852
geometric 	 -28853
▁destabilized 	 -28854
0.3) 	 -28855
uille 	 -28856
▁CTCs 	 -28857
JSC 	 -28858
Through 	 -28860
▁EQUATION 	 -28863
▁Swelling 	 -28864
iper 	 -28865
EQ 	 -28867
▁730 	 -28868
ocated 	 -28869
differential 	 -28870
▁128.5, 	 -28872
▁quartic 	 -28874
–26]. 	 -28875
.12–14 	 -28877
.1–6 	 -28878
▁pipes 	 -28879
▁rebound 	 -28880
▁⋯ 	 -28881
2–5 	 -28885
22), 	 -28886
▁Irradiation 	 -28887
▁tomographic 	 -28888
▁Analogous 	 -28889
▁isoelectric 	 -28890
Markovian 	 -28891
▁immense 	 -28894
▁0.81 	 -28897
▁CCTO 	 -28898
▁ACF 	 -28899
▁Vds 	 -28900
▁saturable 	 -28901
▁0.71 	 -28906
▁cyclohexyl 	 -28908
.3° 	 -28909
▁photoconductive 	 -28910
romethane 	 -28911
ochromism 	 -28913
4); 	 -28914
▁inertness 	 -28919
βγ 	 -28920
14.0 	 -28921
MPD 	 -28922
▁${ 	 -28923
▁aro 	 -28925
▁1.0. 	 -28928
▁[55]. 	 -28929
▁OPE 	 -28930
carbene 	 -28931
.45, 	 -28932
XAS 	 -28935
Pf 	 -28937
/2), 	 -28938
▁scatterers 	 -28939
HCF 	 -28940
fted 	 -28941
▁nanore 	 -28942
▁oblate 	 -28943
abilization 	 -28944
▁(0.10 	 -28945
▁boric 	 -28946
∕4 	 -28947
▁lineshape 	 -28948
anford 	 -28950
SCH 	 -28951
Strain 	 -28952
Space 	 -28953
utherford 	 -28955
−). 	 -28956
▁100–200 	 -28957
▁Luminescence 	 -28959
▁coloured 	 -28962
Vf 	 -28963
inh 	 -28964
▁nanogel 	 -28965
▁Ceramic 	 -28966
ethylamine 	 -28967
1(3) 	 -28968
SPM 	 -28969
▁∼12 	 -28971
172 	 -28972
tight 	 -28973
▁1.57 	 -28974
▁25) 	 -28977
▁microbeads 	 -28978
licates 	 -28980
▁ultracold 	 -28981
dichloroethane 	 -28982
▁yttria 	 -28984
Bm 	 -28985
•• 	 -28986
▁BLG 	 -28987
▁[70 	 -28988
▁Schematics 	 -28990
▁BPO 	 -28991
▁EDAX 	 -28992
▁−0.1 	 -28993
▁imino 	 -28995
cavities 	 -28996
triethoxysilane 	 -28999
Ib 	 -29000
Delta 	 -29001
▁MCs 	 -29002
▁baro 	 -29003
Anne 	 -29005
alloyed 	 -29011
▁validating 	 -29012
quartz 	 -29013
▁Andreev 	 -29015
▁centimeter 	 -29016
Nk 	 -29017
▁airc 	 -29018
).(3) 	 -29019
▁elucidating 	 -29020
▁flatness 	 -29021
iPP 	 -29022
▁7.4. 	 -29023
integer 	 -29024
▁woven 	 -29026
(31) 	 -29027
▁3.00 	 -29028
▁quasistatic 	 -29029
▁delithiation 	 -29030
▁THP 	 -29031
magnesium 	 -29032
dodecyl 	 -29033
MFI 	 -29034
▁plasticized 	 -29036
fd 	 -29037
▁(94 	 -29038
▁dyads 	 -29043
42– 	 -29044
1.03 	 -29045
▁rubbing 	 -29046
▁inviscid 	 -29047
▁LCE 	 -29048
▁HEMTs 	 -29049
▁paramount 	 -29050
▁deviated 	 -29051
Oppenheimer 	 -29052
aThe 	 -29054
1′- 	 -29056
13.6 	 -29057
▁NST 	 -29058
phenoxy 	 -29059
osmotic 	 -29060
1300 	 -29061
ridyl 	 -29062
▁enthalpic 	 -29063
▁absciss 	 -29064
▁tellurium 	 -29065
▁liquidus 	 -29066
▁10.9 	 -29068
dichlorobenzene 	 -29070
brush 	 -29071
▁SMM 	 -29074
▁channeling 	 -29075
▁backscatter 	 -29076
)+1 	 -29077
▁multiplets 	 -29078
▁800, 	 -29079
▁EML 	 -29080
▁anodized 	 -29081
▁subdi 	 -29082
zawa 	 -29083
▁Kirk 	 -29084
.(28) 	 -29086
ylind 	 -29087
▁nonmonotonic 	 -29091
/4, 	 -29092
▁quanta 	 -29094
▁whisker 	 -29095
▁Mannich 	 -29096
▁[29,30 	 -29097
▁rearranged 	 -29098
▁Ions 	 -29100
Temp 	 -29102
–2000 	 -29103
▁DMD 	 -29104
bered 	 -29105
∥2 	 -29107
EDC 	 -29108
▁AuNCs 	 -29109
▁exchanger 	 -29111
|∂ 	 -29112
.8° 	 -29113
17.0 	 -29114
▁compromising 	 -29117
Sin 	 -29118
▁CoPt 	 -29119
kA 	 -29120
▁carbocation 	 -29121
:30 	 -29124
▁spectrometric 	 -29125
▁1.78 	 -29127
▁973 	 -29128
Cox 	 -29130
±0.02 	 -29131
uosity 	 -29132
▁knots 	 -29133
18- 	 -29134
▁0.61 	 -29136
.53, 	 -29137
othiazole 	 -29138
▁analogously 	 -29139
▁0.154 	 -29142
0.011 	 -29143
239 	 -29146
▁OTFTs 	 -29148
▁functionalize 	 -29151
▁cumulant 	 -29153
▁deactiv 	 -29156
Volume 	 -29157
▁10–12 	 -29159
▁accid 	 -29160
▁anomeric 	 -29162
▁Mercury 	 -29164
▁ensuing 	 -29165
▁nonplanar 	 -29166
Xs 	 -29167
ohm 	 -29168
▁multiplexed 	 -29169
FeS 	 -29170
oidally 	 -29171
▁reversing 	 -29173
−12( 	 -29174
▁OMe 	 -29178
,(16) 	 -29179
Ng 	 -29181
Within 	 -29182
▁recyclable 	 -29185
▁TBAF 	 -29191
hydrated 	 -29192
▁ascertained 	 -29193
hexylthiophene 	 -29194
▁2.27 	 -29195
▁Factory 	 -29196
2)2( 	 -29198
▁pectin 	 -29199
▁inspected 	 -29200
———— 	 -29203
Joyner 	 -29204
)–4( 	 -29206
▁QP 	 -29208
▁nebul 	 -29209
▁narrowed 	 -29211
▁decrement 	 -29212
▁roller 	 -29213
▁electrokinetic 	 -29214
refer 	 -29215
ZF 	 -29216
▁MMMs 	 -29217
1=2 	 -29218
pyrim 	 -29219
.,,, 	 -29221
ocyanines 	 -29222
echo 	 -29224
.32,33 	 -29225
0]. 	 -29226
owler 	 -29229
21.6 	 -29230
12.2 	 -29231
crossing 	 -29233
background 	 -29234
▁intimately 	 -29235
Ultra 	 -29237
istive 	 -29238
▁nondegenerate 	 -29239
▁Amorphous 	 -29241
▁ThT 	 -29242
▁approximates 	 -29244
▁polydopamine 	 -29245
(−) 	 -29246
).3. 	 -29247
AgNO 	 -29248
nanoparticle 	 -29249
Der 	 -29251
▁attractions 	 -29252
▁HST 	 -29253
alkynyl 	 -29254
▁PGMA 	 -29257
▁nucleobase 	 -29259
~( 	 -29260
13.8 	 -29261
▁binuclear 	 -29263
∈(0, 	 -29264
▁CBD 	 -29266
▁summarised 	 -29267
▁LNO 	 -29268
gested 	 -29269
▁(‐ 	 -29270
–27]. 	 -29272
▁etchant 	 -29277
▁diluting 	 -29278
.60, 	 -29279
▁104, 	 -29280
▁25.0 	 -29281
▁supernov 	 -29282
eret 	 -29285
▁skewness 	 -29286
▁hydrofluoric 	 -29287
▁4:1 	 -29288
magnet 	 -29289
▁heteronuclear 	 -29290
▁Gaussians 	 -29291
0≤ 	 -29292
▁Deionized 	 -29293
▁dianhydride 	 -29294
▁benzoxazine 	 -29295
▁lignocellulosic 	 -29296
▁2200 	 -29298
▁[35, 	 -29299
▁[36], 	 -29302
amplifier 	 -29303
chloroform 	 -29304
[∂ 	 -29306
▁bain 	 -29307
‖∇ 	 -29308
▁SBH 	 -29309
disil 	 -29312
▁128.4, 	 -29313
▁∂∂ 	 -29314
▁PCMs 	 -29315
(32) 	 -29316
xSrx 	 -29317
▁isocyanide 	 -29318
mx 	 -29319
fuel 	 -29320
dles 	 -29322
▁SIS 	 -29323
):= 	 -29325
▁hipp 	 -29326
▁ECAP 	 -29328
▁nanocarrier 	 -29329
++++ 	 -29331
tenes 	 -29332
▁{101 	 -29333
▁4-( 	 -29334
perpendicular 	 -29337
▁propargylic 	 -29341
▁flapping 	 -29345
▁plasticization 	 -29346
1.33 	 -29347
▁ramped 	 -29349
▁nanoprobe 	 -29351
▁(•) 	 -29352
▁2015), 	 -29353
▁flipping 	 -29355
▁Electrons 	 -29356
▁butanol 	 -29358
▁LCMO 	 -29360
internal 	 -29361
▁CoCr 	 -29362
Theory 	 -29363
Bk 	 -29364
hollow 	 -29366
=1.3 	 -29367
4,4′‐ 	 -29369
ganese 	 -29370
▁flares 	 -29371
2=0 	 -29372
▁outdo 	 -29373
▁levitation 	 -29375
1−( 	 -29376
yronitrile 	 -29377
=8.0 	 -29379
301 	 -29380
iseuille 	 -29382
▁128.6, 	 -29383
▁(2.9 	 -29385
▁Pnma 	 -29386
▁spectrograph 	 -29387
▁flexoelectric 	 -29388
1.98 	 -29389
silver 	 -29390
4)6 	 -29392
ocycles 	 -29393
▁movable 	 -29394
▁PAAm 	 -29399
salen 	 -29400
▁compressor 	 -29402
▁cyclometal 	 -29403
▁FLA 	 -29404
▁pelle 	 -29405
▁criticality 	 -29407
rings 	 -29408
▁16( 	 -29409
▁Eulerian 	 -29410
▁[34, 	 -29411
20/ 	 -29413
))] 	 -29414
▁terpolymers 	 -29415
▁nanodevices 	 -29416
1–6 	 -29419
▁leached 	 -29420
▁mannose 	 -29421
Star 	 -29422
▁nanocarbon 	 -29423
issue 	 -29424
▁Excellent 	 -29426
Ae 	 -29427
halose 	 -29428
Olympus 	 -29429
▁precatalyst 	 -29430
GaO 	 -29431
Halenda 	 -29432
,43 	 -29433
,(13) 	 -29434
Alq 	 -29435
rometric 	 -29436
yson 	 -29439
streptomycin 	 -29442
▁820 	 -29443
Malvern 	 -29444
▁neutrinos 	 -29445
▁(−) 	 -29448
)=∫0 	 -29449
▁DSA 	 -29450
ZATION 	 -29451
thus 	 -29453
]=[ 	 -29455
tize 	 -29456
▁SDC 	 -29457
evaporation 	 -29458
13- 	 -29459
▁30) 	 -29460
Biographical 	 -29461
NOL 	 -29462
–180 	 -29463
▁laccase 	 -29466
iterp 	 -29467
spray 	 -29468
▁Absolute 	 -29469
titan 	 -29470
▁300° 	 -29471
ummar 	 -29472
)25 	 -29475
.6° 	 -29476
▁2/3 	 -29477
degener 	 -29478
▁allylation 	 -29479
▁pHs 	 -29480
▁1.66 	 -29483
▁Strength 	 -29484
▁unidentified 	 -29485
3–5 	 -29486
▁7.30 	 -29489
1± 	 -29491
▁(160 	 -29492
▁cocrystals 	 -29494
currence 	 -29496
▁turbines 	 -29499
1.40 	 -29501
bling 	 -29502
▁+3 	 -29503
▁compacts 	 -29504
TY 	 -29505
▁Δδ 	 -29506
Ful 	 -29507
▁repulsions 	 -29508
▁nanoemulsion 	 -29510
;( 	 -29511
Hist 	 -29512
▁3.35 	 -29514
′)− 	 -29515
▁0.012 	 -29516
xA 	 -29517
▁neglects 	 -29518
▁solvable 	 -29519
▁exciplex 	 -29521
∫∫ 	 -29522
▁0.006 	 -29527
▁PTC 	 -29529
▁dyeing 	 -29530
conserving 	 -29531
given 	 -29533
=1.8 	 -29535
▁830 	 -29536
ΔΔ 	 -29537
▁limiter 	 -29538
2200 	 -29540
▁PBG 	 -29541
▁PUs 	 -29542
▁sharpness 	 -29550
imines 	 -29551
▁ECH 	 -29552
▁Hk 	 -29553
).14 	 -29555
Cc 	 -29556
[∑ 	 -29557
▁multiwalled 	 -29558
culature 	 -29560
▁Telescope 	 -29561
▁(3.7 	 -29562
▁pear 	 -29563
▁delight 	 -29564
▁goniometer 	 -29566
1600 	 -29567
▁2,4‐ 	 -29568
▁chopper 	 -29569
ographies 	 -29571
Beta 	 -29572
▁DCC 	 -29573
calib 	 -29574
▁unpolarized 	 -29575
SiGe 	 -29576
.33,34 	 -29578
Vt 	 -29580
–1100 	 -29582
▁∼0.1 	 -29587
(0)− 	 -29588
▁AGNs 	 -29589
aminobenz 	 -29590
▁copolyesters 	 -29591
▁macroscale 	 -29592
axter 	 -29593
isolated 	 -29595
▁∼500 	 -29597
273 	 -29598
▁19) 	 -29599
additive 	 -29601
▁(4.4 	 -29602
3 	 -29604
hcp 	 -29605
rolein 	 -29607
▁viologen 	 -29608
▁(700 	 -29612
▁ANS 	 -29613
▁3400 	 -29614
▁Accel 	 -29615
PGA 	 -29616
ozone 	 -29617
-8- 	 -29619
▁[45] 	 -29620
▁FeOOH 	 -29621
grafting 	 -29622
▁travelling 	 -29623
▁commercialized 	 -29625
21.2 	 -29627
▁MEP 	 -29628
split 	 -29629
DAP 	 -29630
▁electroplating 	 -29631
▁microscopes 	 -29633
▁1.39 	 -29634
▁2.33 	 -29635
▁Hertz 	 -29636
▁anilines 	 -29637
▁1,3,5- 	 -29639
▁[3–5 	 -29640
▁multireference 	 -29642
▁graphen 	 -29647
=7.2 	 -29649
▁triply 	 -29650
enzel 	 -29651
▁SGS 	 -29653
.(29) 	 -29654
Spectra 	 -29655
▁deteriorated 	 -29657
12.9 	 -29658
▁HIP 	 -29659
cymene 	 -29660
▁agate 	 -29661
2• 	 -29662
–1200 	 -29663
▁535 	 -29664
0.014 	 -29665
macro 	 -29666
▁comparably 	 -29667
benzoquinone 	 -29668
Characteristic 	 -29669
ummy 	 -29671
▁scCO 	 -29672
preser 	 -29673
®, 	 -29674
▁lumped 	 -29675
▁unreal 	 -29676
DMAP 	 -29677
▁LIG 	 -29678
AZO 	 -29679
enite 	 -29680
loaddition 	 -29682
coat 	 -29683
12.1 	 -29686
residue 	 -29687
−∇ 	 -29688
Cb 	 -29691
02− 	 -29693
Polymerization 	 -29694
▁prohibitive 	 -29696
HPC 	 -29697
Pz 	 -29698
▁GQD 	 -29700
20] 	 -29701
avis 	 -29703
▁(2000 	 -29704
2_ 	 -29705
1.10 	 -29706
▁KNO 	 -29707
▁[0001] 	 -29708
kR 	 -29709
▁21.5 	 -29710
▁MFCs 	 -29711
▁underlayer 	 -29712
=500 	 -29713
▁(∼100 	 -29715
▁3600 	 -29717
▁guanidine 	 -29719
VBM 	 -29721
Study 	 -29722
vially 	 -29723
uniformity 	 -29724
∣, 	 -29726
tosyl 	 -29727
▁Archimedes 	 -29728
▁demagnetizing 	 -29729
▁1.64 	 -29730
altham 	 -29731
▁bowl 	 -29733
cessed 	 -29734
▁insol 	 -29735
▁photopro 	 -29736
286 	 -29737
▁τα 	 -29738
▁3–6 	 -29739
atistics 	 -29740
▁resists 	 -29741
COCH 	 -29742
▁Cassie 	 -29743
▁theranostic 	 -29745
detection 	 -29747
▁1.76 	 -29749
▁DWs 	 -29751
▁[47] 	 -29752
–0 	 -29753
.55, 	 -29754
gland 	 -29755
sand 	 -29757
▁Alloy 	 -29758
POP 	 -29760
1.48 	 -29761
▁AlOx 	 -29762
▁dealloying 	 -29764
▁technologically 	 -29765
▁88% 	 -29768
2·6 	 -29769
▁68% 	 -29770
▁activators 	 -29771
▁CAs 	 -29772
▁supercooling 	 -29773
▁feedstocks 	 -29775
243 	 -29776
▁oxidization 	 -29777
ZZ 	 -29778
▁dissolves 	 -29781
nexp 	 -29782
▁(5% 	 -29783
▁PBO 	 -29784
▁Calor 	 -29785
▁SMF 	 -29787
selen 	 -29788
▁Eqn 	 -29789
anies 	 -29790
octahedral 	 -29791
▁tyros 	 -29795
4′ 	 -29796
▁pnic 	 -29797
▁Selectivity 	 -29798
0], 	 -29799
▁NPB 	 -29801
=−∇ 	 -29804
caps 	 -29805
PDMAEMA 	 -29806
1.85 	 -29807
▁5–8 	 -29808
▁oxynit 	 -29810
▁DISCUSSIONS 	 -29811
▁MLG 	 -29815
▁decolor 	 -29816
▁alkylated 	 -29817
reducing 	 -29818
4} 	 -29819
▁368 	 -29820
▁domino 	 -29821
▁saturating 	 -29822
.54, 	 -29823
▁7.38 	 -29824
accepting 	 -29825
▁galactose 	 -29826
[3 	 -29827
▁BX 	 -29828
▁Nile 	 -29829
▁Organics 	 -29832
▁ENR 	 -29833
▁golden 	 -29834
▁PPT 	 -29835
▁Rouse 	 -29836
▁PROC 	 -29837
▁PDs 	 -29841
LIBs 	 -29842
▁CaP 	 -29843
▁1.29 	 -29844
▁retraction 	 -29845
dimethylsilyl 	 -29846
CPh 	 -29847
).15 	 -29848
▁AuCl 	 -29849
▁BDE 	 -29850
1.38 	 -29855
▁racemization 	 -29857
4.00 	 -29858
–49 	 -29859
0.018 	 -29861
▁soda 	 -29862
▁concise 	 -29863
arbonylation 	 -29864
▁±0.1 	 -29865
spectra 	 -29867
▁evacuation 	 -29868
outer 	 -29870
▁Toledo 	 -29871
▁absorbent 	 -29872
31) 	 -29874
MSS 	 -29875
AlGaAs 	 -29876
,4, 	 -29878
▁Specimens 	 -29879
▁bends 	 -29881
hemite 	 -29883
249 	 -29886
▁Bx 	 -29887
▁degassing 	 -29889
utyl 	 -29892
▁FSS 	 -29893
.(31) 	 -29896
▁dyed 	 -29897
▁cetyl 	 -29898
▁discer 	 -29899
formylation 	 -29900
▁decomposing 	 -29901
▁1073 	 -29902
▁fluctuate 	 -29904
▁deoxygenated 	 -29906
▁magnetometry 	 -29907
>1, 	 -29908
discus 	 -29909
3)+ 	 -29910
▁Changing 	 -29913
ynchronous 	 -29914
▁accumulates 	 -29915
quantitative 	 -29917
cot 	 -29919
▁hafnium 	 -29920
▁tempering 	 -29925
3)– 	 -29926
▁sublayer 	 -29928
req 	 -29930
Conv 	 -29931
▁endotherm 	 -29932
discip 	 -29933
▁dianion 	 -29934
seeded 	 -29937
▁445 	 -29938
▁PAni 	 -29939
ethered 	 -29940
(−1 	 -29941
344 	 -29942
0.998 	 -29943
▁deoxygenation 	 -29945
.‐ 	 -29946
∘, 	 -29948
▁1.88 	 -29950
▁10× 	 -29952
▁phosphines 	 -29954
40] 	 -29955
pseudo 	 -29957
retardant 	 -29958
hydroxide 	 -29960
▁±2 	 -29961
.62, 	 -29962
▁numbered 	 -29966
▁polyatomic 	 -29967
)17 	 -29968
Jm 	 -29970
2(0) 	 -29971
▁printer 	 -29973
▁FBG 	 -29974
VH 	 -29976
▁cermet 	 -29977
▁biexc 	 -29978
films 	 -29981
Rigaku 	 -29982
Zs 	 -29983
.7° 	 -29984
Tokyo 	 -29985
▁unsatisfactory 	 -29986
▁2.26 	 -29987
.43, 	 -29988
▁tetrakis 	 -29989
▁nanopillar 	 -29990
▁128.7, 	 -29991
hexagonal 	 -29992
▁isolating 	 -29994
▁fluctuates 	 -29995
1.30 	 -29996
▁(93 	 -29997
▁17). 	 -29998
avable 	 -29999
oughness 	 -30000
▁standpoint 	 -30001
▁intersecting 	 -30003
▁nBu 	 -30004
)+12 	 -30006
mise 	 -30007
▁mildly 	 -30008
▁SCLC 	 -30010
▁?? 	 -30011
isomeric 	 -30012
XB 	 -30013
▁NVP 	 -30015
DCP 	 -30016
erite 	 -30017
▁cleave 	 -30019
iH 	 -30020
▁leach 	 -30021
▁OG 	 -30024
21.3 	 -30026
anin 	 -30027
▁ascorbate 	 -30028
▁dimeth 	 -30029
SiW 	 -30030
template 	 -30031
▁biomedicine 	 -30032
▁ReS 	 -30033
▁Aliqu 	 -30034
)23 	 -30036
.1° 	 -30038
sgn 	 -30039
▁deflected 	 -30040
).2.3 	 -30041
Distribution 	 -30042
arser 	 -30045
.16–18 	 -30046
Zi 	 -30048
adro 	 -30049
thienyl 	 -30050
.61, 	 -30051
▁NDR 	 -30052
▁valance 	 -30053
>( 	 -30054
),3 	 -30055
▁348 	 -30056
Silic 	 -30059
raquinone 	 -30061
▁orientated 	 -30062
)1+ 	 -30064
Eint 	 -30065
▁escaping 	 -30067
▁1′ 	 -30068
▁InSe 	 -30069
21.8 	 -30070
/2+ 	 -30071
▁??? 	 -30072
▁EY 	 -30075
▁micropro 	 -30076
▁82% 	 -30077
conform 	 -30078
glycero 	 -30080
PPA 	 -30081
▁miniature 	 -30082
▁hexadecane 	 -30083
Vac 	 -30084
21] 	 -30085
▁Bc 	 -30086
▁1.60 	 -30088
▁PPP 	 -30091
nh 	 -30092
/2− 	 -30093
sesquioxane 	 -30096
▁0.008 	 -30097
▁glance 	 -30098
[...]
