!
"
##!!
##!)
##!,
##!.
##")
##",
##".
###38;
##$2
##&)
##''
##'(
##')
##',
##'-
##'.
##()
##(1):
##(2):
##(2+
##(3):
##(4):
##(5):
##(6):
##(~
##(·
##(·)
##(·,
##(∆
##)))
##***
##****
##********
##,"
##,)
##,*
##,.
##,000
##,~
##,’’
##--
##---
##----
##--------
##----------------
##-.
##-0.
##-01
##-02
##-03
##-04
##-05
##-06
##-07
##-1).
##-10,
##-199
##-201
##-26
##-28
##-31
##-32
##-33
##-35
##-36
##-37
##-38
##-39
##-43
##-44
##-45
##-46
##-47
##-49
##-55
##-64
##-75
##-95
##."
##.'
##.);
##.....
##......
##.......
##........
##.........
##..........
##...........
##............
##.............
##..............
##...............
##................
##./
##.1%)
##.2%)
##.200
##.201
##.3%)
##.4%)
##.~
##.’
##/$
##/$31.00
##/)
##/).
##/+
##/,
##/-
##/.
##/1.
##/10.1021/
##/10.11
##/10.1371/
##/11
##/13
##/14
##/16
##/17
##/18
##/19
##/200
##/201
##/4.
##/4.0/
##/~
##/−
##0);
##0,000
##0.05).
##00.
##000.
##0001
##003
##004
##006
##007
##008
##009
##01)
##01).
##01.
##012
##013
##014
##015
##016
##017
##018
##1%)
##1))
##1):
##1-1
##1-2
##1-3
##1-5
##1016/
##11/
##1371/
##17.
##17].
##18.
##18].
##19.
##19].
##1_
##1—
##1⁄2
##1⁄4
##1⁄41
##2%)
##2-1
##20].
##21-
##23.
##24.
##26.
##26.00
##27.
##28.
##29.
##3%)
##3-1
##30.
##31.
##31.00
##32.
##33.
##36.
##36/
##38/
##386
##38;
##3⁄4
##4):
##40.
##415
##5%),
##5%,
##5.00
##50.
##506
##53-
##6%)
##7%)
##70.
##7695
##8%)
##80.
##90.
##93/
##9:
##:00
##:10.
##:10.10
##:10.100
##:10.1016/
##:10.1038/
##:10.11
##:10.1371/
##:11
##:12
##:13
##:14
##:16
##:17
##:18
##:19
##:7
##:8
##:9
##::
##:;
##<
##</
##<0.0
##<0.00
##<0.001).
##<0.01
##<0.05
##<0.05)
##<0.05).
##="
##==
##====
##>>
##?)
##?,
##?”
##@@
##@@@@
##@@@@@@@@
##@@@@@@@@@@@@@@@@
##AAA
##ABLE
##ABP
##ACC
##ACE
##ACG
##ACH
##ACK
##ACS
##ACT
##ACh
##ADE
##ADS
##AGA
##AGE
##AGG
##AGT
##AIDS
##AK
##ALL
##ALS
##ALU
##ALY
##AMA
##AME
##ANCE
##AND
##ANG
##ANN
##ANOVA
##ANS
##ARC
##ARCH
##ARD
##ARE
##ARS
##ART
##ARY
##ARs
##ASE
##ASH
##ASS
##ATA
##ATC
##ATE
##ATED
##ATG
##ATIONS
##ATPase
##ATS
##ATT
##AUC
##Abb
##Abs
##Af
##Akt
##Ald
##Americ
##American
##Anal
##Applied
##Apr
##Aug
##BMI
##BULLET
##BW
##Bank
##Ben
##Brown
##Bur
##CAD
##CAG
##CAN
##CAR
##CCA
##CCG
##CES
##CESS
##CGG
##CLA
##CLU
##CMV
##CRIPT
##CRP
##CSF
##CTC
##CTG
##CTIONS
##CTT
##Can
##Cap
##Che
##Chen
##Class
##Comm
##Comput
##Conn
##Cons
##Correspondence
##Corresponding
##Cre
##DCs
##Dav
##Daw
##Department
##Down
##Downloaded
##EARCH
##EBP
##ECT
##EDs
##EEE
##EEP
##EGFP
##ELD
##ELL
##EMBER
##EMENTS
##ENCE
##ENS
##ENTS
##EPT
##ERAT
##ERC
##EREN
##ERENCES
##ERG
##ERK
##ERM
##ERT
##ESC
##ETs
##EU
##EY
##Eds
##Eng
##Europe
##FAs
##FGF
##FLD
##FORM
##FV
##Far
##GAA
##GAAG
##GAP
##GFR
##GGG
##GHz
##GMP
##GRO
##GROUND
##GTA
##GTG
##GTT
##GV
##Gen
##Gene
##Go
##HDL
##HIV
##Health
##Her
##Hill
##Hol
##How
##Hu
##IAL
##ICATION
##ICATIONS
##ICE
##ICH
##ICS
##IDE
##IDS
##IDs
##IEEE
##IES
##IFF
##IFN
##IFT
##IGF
##IGN
##IH
##IK
##ILITY
##ILL
##INC
##IND
##INE
##INGS
##INK
##INS
##IPT
##IQR
##ISH
##ISO
##ISP
##ISS
##ISSN
##IST
##ITE
##ITH
##ITION
##IVES
##IZ
##IgG
##Ins
##Instit
##Institute
##Intern
##International
##Inv
##JECT
##Jan
##John
##Jun
##June
##KY
##LAST
##LDL
##LEMENT
##LES
##LEY
##LINE
##Lee
##Level
##Lin
##Liu
##Luc
##MAC
##MAN
##MBER
##MDA
##MENT
##MK
##MMP
##MPs
##MRT
##MSE
##MY
##Map
##May
##Meier
##Mill
##Myc
##NAS
##NAT
##NET
##NOWLED
##NOWLEDG
##NTS
##National
##Neu
##OCK
##OE
##OLD
##OLOG
##OLOGICAL
##OLOGY
##OND
##ONE
##ONS
##ORD
##ORDS
##ORE
##ORK
##ORM
##ORS
##ORT
##ORY
##OSE
##OU
##OURNAL
##OVA
##OW
##Ol
##Online
##Ori
##PAR
##PFC
##PSK
##PSO
##Pres
##Promega
##Pub
##PubMed
##QI
##QL
##QOL
##Qiagen
##QoL
##RACT
##RAP
##RIB
##RIC
##RID
##RIS
##RIT
##RK
##RNAL
##ROC
##ROD
##RODUCTION
##ROM
##RV
##Research
##Rev
##Rob
##Roche
##SAS
##SCC
##SCI
##SING
##SIT
##SOD
##SPSS
##STA
##STAT
##STRACT
##SVM
##Sah
##Saharan
##Santa
##Scientific
##Script
##Seq
##Smith
##Str
##Stud
##Suppl
##Supplemental
##Sw
##TER
##TNF
##TROL
##Tech
##Term
##Tk
##UE
##UG
##UI
##ULAR
##ULL
##ULLET
##ULT
##UME
##UND
##UNEL
##UNG
##URES
##USSION
##UTION
##UTR
##Uni
##Univers
##University
##VEGF
##VER
##Van
##Verlag
##View
##WH
##WHO
##WLED
##Wallis
##Wang
##Web
##West
##Whitney
##Wil
##Willi
##XT
##Xiv
##Xk
##Xt
##Yi
##ZE
##Zhang
##[[
##]]
##_
##_00
##__
##____
##________
##________________
##`
##aacr
##aacrjournals
##aba
##aban
##abb
##abd
##abdominal
##abei
##abel
##abeled
##abelle
##aben
##abet
##abetes
##abeth
##abetic
##abi
##abilistic
##abilized
##abine
##abis
##abit
##abl
##abled
##abling
##abolism
##abstract
##abul
##abular
##abulary
##aca
##acad
##accept
##acces
##access
##acco
##acea
##aceae
##acellular
##acements
##acency
##acental
##acerb
##ache
##acheal
##achen
##acher
##achid
##achine
##achn
##achs
##acht
##achus
##achusetts
##aci
##acia
##acic
##acional
##aciones
##acious
##ación
##ackets
##acle
##acles
##acon
##acqu
##acr
##acrine
##acs
##acterium
##activating
##actively
##activeness
##actory
##acts
##acture
##acturing
##acute
##adal
##adap
##adaptive
##adas
##adata
##adeh
##adel
##adelphia
##adesh
##adher
##adherin
##adian
##adient
##adiol
##adish
##adjusted
##adjuvant
##admin
##administered
##administration
##ador
##ados
##adow
##adren
##adrenergic
##aea
##aeh
##aemia
##afe
##afen
##afenib
##afil
##aften
##afts
##aga
##agan
##agation
##agawa
##agement
##agents
##agers
##agg
##agger
##agglut
##agh
##agi
##agia
##agic
##aginal
##agl
##agland
##agm
##agmatic
##agne
##agog
##ags
##aguchi
##ague
##agul
##agulation
##aha
##ahajournals
##ahan
##ahashi
##ahi
##ahl
##ahme
##ahoo
##ahr
##aight
##ailability
##ailable
##ailand
##ailing
##ailure
##aily
##aind
##ainen
##aints
##aip
##aire
##aires
##airs
##airy
##ais
##ait
##ajournals
##ajp
##akh
##akov
##akr
##aks
##akt
##akter
##aktion
##ala
##alam
##alamic
##alamus
##alan
##aland
##albumin
##alen
##alez
##alf
##alia
##alian
##aliana
##alid
##alis
##alley
##alli
##alliative
##alloc
##alo
##alsh
##alsy
##amen
##amente
##amento
##amet
##amethasone
##ametric
##amicin
##amiliar
##amilies
##amilton
##aminase
##aminergic
##amins
##ammer
##amming
##amous
##amps
##ampsia
##amt
##amura
##amy
##anabe
##analyses
##analytic
##ancement
##ancers
##anche
##anched
##anches
##anchester
##anchez
##ancial
##anco
##ancre
##anda
##ande
##anden
##andes
##andez
##andial
##andon
##andra
##anen
##anese
##angen
##angers
##anghai
##angi
##angiogenic
##angl
##anguage
##anguages
##ania
##anic
##aning
##ankton
##anna
##anned
##annel
##annels
##anner
##anners
##annon
##annual
##anos
##ansas
##ansi
##anson
##ansson
##ante
##anten
##antes
##antib
##antibodies
##antibody
##antle
##anto
##anus
##anz
##anç
##aped
##apers
##apeu
##apeutic
##aphr
##apine
##aplan
##apol
##apolis
##apop
##apoptotic
##apore
##appro
##apse
##apsed
##apses
##apy
##aques
##araj
##aram
##aran
##arant
##arbeit
##arbital
##architect
##arcin
##arcom
##arcoma
##arden
##ardi
##ardia
##ardo
##arean
##arel
##aret
##arez
##arged
##arger
##arginine
##argo
##ariable
##arial
##arian
##arians
##ario
##aris
##arker
##arks
##arma
##armac
##armaceu
##armaceutical
##arms
##aron
##arot
##arr
##arrang
##arri
##arrier
##arriers
##artan
##arten
##arter
##arters
##arth
##arti
##articular
##artile
##artite
##artments
##arts
##arum
##arv
##arvard
##arvest
##aryn
##aryng
##aryngeal
##arynx
##asa
##asaki
##asal
##asant
##asc
##ascul
##asia
##asian
##asible
##asion
##asitic
##aska
##asm
##asmus
##asome
##asonal
##asons
##asp
##aspase
##asse
##assen
##asser
##assess
##assung
##astatin
##astern
##asters
##astom
##astr
##astro
##asty
##atal
##atar
##atation
##ategor
##ategories
##ategory
##atellite
##aten
##ateness
##atenin
##aterally
##atern
##aternal
##athan
##atheter
##athetic
##athy
##athyroid
##atia
##atics
##atid
##atif
##atigue
##atik
##atine
##atinib
##atinine
##ationally
##atisf
##atisfaction
##atism
##atit
##atitis
##atitude
##ativa
##ativec
##ativecommons
##ativen
##ativeness
##atoire
##atonin
##atosis
##atr
##atric
##atrices
##atrick
##atrol
##atten
##attle
##atur
##atural
##aturally
##aturated
##atz
##auc
##aud
##auf
##aur
##ausal
##ausea
##auses
##auth
##author
##authorized
##auti
##autics
##aval
##avas
##avian
##avig
##avin
##aviolet
##avir
##avirus
##aware
##awed
##awi
##aws
##axia
##aya
##ayama
##ayan
##ayashi
##ayed
##azard
##azep
##azi
##azone
##azu
##azz
##ação
##ações
##bB
##bad
##ban
##bank
##baum
##bedd
##bedded
##behav
##behavior
##bei
##being
##bel
##ben
##bens
##bere
##berger
##berts
##best
##bet
##bild
##bildung
##bind
##birth
##bitr
##bladder
##bles
##blind
##blood
##bmj
##bol
##bolic
##books
##borg
##borns
##bot
##bounded
##bour
##bourne
##brain
##bral
##brand
##brane
##branes
##bred
##breeding
##breviations
##bris
##bruary
##bry
##bst
##building
##burn
##bury
##bus
##cadherin
##cans
##cant
##cantly
##carbons
##cardi
##casts
##catal
##catenin
##cations
##cause
##ceedings
##ceiver
##cemia
##cemic
##cens
##central
##cents
##cephal
##cepted
##ceptual
##ceral
##cers
##cessively
##cg
##cha
##chaft
##charomyces
##check
##cheid
##chell
##cheme
##chied
##child
##chitz
##chl
##choice
##chol
##cholesterol
##chool
##chr
##chro
##chron
##chrotron
##cht
##cia
##cience
##cient
##cientific
##cious
##cip
##cipl
##ciples
##cium
##ción
##clamp
##clin
##code
##coding
##cohol
##cology
##comDownloaded
##comm
##commerce
##commercial
##commun
##compass
##compe
##comple
##comput
##computer
##conc
##conditions
##constrained
##contr
##controller
##convex
##coprotein
##cortical
##coun
##course
##cow
##cox
##cre
##creativecommons
##cri
##cribe
##cript
##cripts
##ctomy
##culosis
##cultural
##cussion
##cz
##dan
##das
##dase
##dat
##days
##dehy
##demand
##dens
##depleted
##depress
##derly
##determ
##dev
##develop
##diabetic
##diagn
##die
##digital
##discipl
##disciplinary
##doc
##document
##domen
##dominal
##dominant
##door
##dovepress
##draw
##dro
##ducible
##ducting
##ductivity
##ductor
##ductors
##duk
##early
##earman
##easible
##eca
##ecan
##eced
##eces
##ecl
##eclampsia
##ecn
##econ
##econds
##economic
##ectious
##ectiv
##ectom
##ectomy
##ecton
##ecu
##eda
##ede
##edema
##eder
##edes
##edi
##edia
##ediatr
##ediatric
##eds
##edu
##educ
##edy
##effectiveness
##effects
##efficacy
##ehen
##eight
##eit
##eks
##ekt
##ektion
##ela
##eland
##ele
##elec
##eler
##eleration
##elfare
##elin
##ellate
##ellation
##ellec
##ellectual
##ellen
##ellite
##ellites
##ellows
##ells
##ellt
##ellum
##elly
##elm
##elman
##eln
##elo
##eloc
##elona
##elsevier
##elson
##ely
##emaker
##embl
##embles
##eme
##emed
##ement
##ements
##emer
##emics
##emper
##employ
##emporary
##ems
##emy
##encephal
##encer
##enchmark
##encia
##encoded
##endar
##enden
##enders
##endicular
##endit
##endly
##endocrine
##endorf
##enem
##enen
##enez
##enf
##enge
##enger
##engers
##enges
##engine
##enging
##engue
##enh
##enhagen
##eni
##enia
##enk
##ennes
##ennis
##enosis
##enous
##ensation
##ensch
##ensed
##ensen
##enses
##ensin
##ensitization
##enson
##ensory
##enstr
##entary
##entative
##ente
##enten
##enteric
##enth
##entia
##entiality
##entials
##entif
##entific
##enting
##entis
##entist
##entistry
##entists
##entity
##entlich
##entr
##entral
##entration
##entrations
##entre
##entric
##entricular
##enza
##eon
##epage
##epend
##ependent
##eph
##ephal
##epid
##epithelial
##eps
##epti
##eptic
##eptin
##eption
##eptive
##eptor
##era
##eradish
##eral
##erals
##eras
##erative
##erce
##ercial
##ercise
##erd
##erden
##erem
##eremia
##erencing
##erend
##erentially
##erentiated
##erentiation
##erer
##eres
##erests
##erex
##ergent
##eri
##eric
##ermal
##ermann
##ermark
##ermat
##ermis
##ermost
##erobic
##eron
##erosis
##erotic
##ersch
##ersed
##ersen
##ersham
##ership
##ersonal
##ertation
##erts
##erung
##erv
##ervation
##ervative
##erve
##erved
##erves
##ervical
##ervice
##erving
##esch
##esen
##esophageal
##essen
##esser
##ession
##essional
##essive
##essors
##esta
##estation
##este
##esteem
##esthetic
##esticular
##estock
##etary
##ete
##eten
##etent
##etermin
##eterministic
##ethel
##etine
##eting
##eto
##etooth
##etr
##etrics
##etta
##etti
##etts
##etz
##etzt
##eur
##evalu
##event
##evoked
##ewe
##ework
##eworthy
##exper
##expressing
##expression
##eyer
##facts
##fah
##fahren
##fal
##fall
##falls
##family
##fan
##fang
##fat
##fed
##feeding
##fel
##fem
##ferroni
##ffen
##ffer
##ffi
##ffic
##fficacy
##ffici
##fficiency
##fficient
##fficiently
##fficients
##ffl
##file
##find
##fir
##fire
##fits
##five
##fix
##floxacin
##foli
##folio
##follow
##foot
##forced
##forcement
##forces
##forcing
##forder
##formations
##former
##formin
##found
##frag
##fram
##fre
##fri
##frontiers
##frontiersin
##fulness
##fund
##fung
##fungal
##fusion
##fü
##gaard
##galactosidase
##gang
##gans
##gar
##gart
##gative
##geal
##geb
##geben
##gef
##gem
##geme
##gend
##genden
##gender
##general
##generative
##genes
##genesis
##genome
##geries
##gesch
##gestive
##gets
##gew
##gf
##gh
##gia
##gic
##gical
##giene
##ginate
##givers
##gkin
##gle
##glich
##glob
##global
##gmail
##gone
##good
##gor
##gorith
##gorithm
##gov
##govern
##gow
##graduate
##gramm
##gramming
##grant
##grap
##graphic
##graphy
##grass
##gren
##grund
##gry
##gt
##gulation
##gut
##guyen
##habil
##habilitation
##had
##halb
##halt
##halten
##handlung
##hardt
##harm
##hart
##hasic
##hasone
##haut
##hav
##have
##hea
##heads
##health
##healthy
##heart
##heast
##heastern
##heit
##heits
##held
##heli
##helial
##helin
##helium
##hell
##hend
##hende
##henden
##hens
##hentic
##hep
##hepatic
##herche
##heres
##herichia
##herry
##hesda
##hesised
##hester
##het
##hetamine
##hetic
##heum
##heumat
##hic
##hicle
##him
##hin
##hips
##hir
##hist
##hlen
##hma
##hmen
##hoc
##hoff
##holder
##holders
##holm
##home
##hop
##hospital
##hour
##hous
##hran
##hre
##hren
##hrend
##hrt
##hrung
##htm
##html
##https
##hua
##hum
##hus
##hydr
##hyp
##hypertensive
##hä
##iability
##ials
##ialysis
##iana
##iance
##iances
##iang
##iani
##iano
##ians
##ias
##iasis
##iat
##iatr
##iatric
##iatry
##iatum
##iax
##iazep
##iazol
##iben
##ibli
##ibr
##ibraries
##ibrated
##ibri
##ibrill
##ibt
##ibular
##ican
##icans
##icard
##icardial
##icates
##iced
##iche
##ichen
##icht
##ichte
##ichten
##ichtig
##ichts
##icially
##ician
##icians
##icide
##icides
##icile
##icing
##icion
##icious
##icit
##icits
##icked
##icken
##icks
##icol
##icon
##icos
##icrob
##ict
##icted
##iction
##ictures
##icul
##icult
##iculties
##icultural
##iculture
##icus
##icz
##idad
##idade
##idades
##idae
##idate
##iday
##idazole
##idelberg
##idental
##identif
##idents
##iders
##idge
##idi
##idia
##idian
##idis
##idol
##idopsis
##idos
##ieb
##ieder
##iee
##ieee
##ief
##ieg
##iegel
##ieh
##iehen
##ieht
##iek
##iel
##iele
##ielsen
##iency
##iens
##iento
##ients
##ieren
##iert
##ierte
##ierten
##ierung
##iesen
##iesis
##ietic
##ieu
##iewicz
##ifen
##ifera
##iferation
##iferative
##ifferentiated
##iffiff
##iffiffiffiff
##ifi
##ifiable
##ificant
##ifluor
##ifold
##ifted
##ifting
##ifts
##ifug
##ifuge
##iga
##igare
##ige
##igene
##igenetic
##igenous
##ighbor
##igible
##igkeit
##igl
##igm
##igms
##ignant
##igr
##igroup
##igung
##ih
##ijn
##ika
##ikation
##ikawa
##iked
##ikes
##ikh
##iki
##iking
##ikingly
##iko
##ila
##ilden
##ilder
##ilen
##ilep
##ilia
##iliar
##iliated
##ilical
##ilience
##ilin
##ilipp
##ilis
##ilization
##ilized
##ilk
##illance
##illen
##illips
##illo
##illon
##illy
##ilos
##ilosoph
##iman
##imate
##imb
##iment
##imental
##imentin
##imento
##iments
##imi
##imilar
##imm
##imming
##immune
##imoto
##imotor
##imple
##imura
##imus
##imuth
##inae
##inance
##inar
##inator
##inces
##incial
##incoln
##income
##incott
##incter
##inden
##individual
##inducible
##inducing
##industr
##inea
##inel
##inely
##inen
##inence
##inent
##inescence
##inescent
##inet
##inez
##infected
##infl
##information
##inge
##ingen
##inges
##ingham
##ington
##ingu
##ingual
##inia
##inis
##injected
##inkel
##inki
##inks
##inned
##inoc
##inois
##inos
##inositol
##inous
##input
##inski
##insulin
##intech
##intechopen
##integr
##intensive
##interest
##intervention
##intr
##inus
##inux
##inv
##iolet
##iology
##iones
##iors
##ios
##iosis
##iotics
##iour
##ipe
##ipedia
##ipheral
##ipine
##ipital
##ipl
##ipot
##ipro
##ipschitz
##ipt
##iquit
##ircraft
##irds
##iri
##irk
##irkung
##irmingham
##irms
##irr
##irrh
##irt
##irteen
##irth
##irty
##irubin
##irus
##isa
##iscal
##isch
##ische
##ischen
##isco
##iscons
##isconsin
##isehe
##isehen
##isely
##ishman
##ishment
##isi
##isible
##isions
##isis
##isition
##ismus
##isons
##ispanic
##issa
##isse
##issen
##issens
##isser
##issi
##issible
##issive
##ista
##istan
##istar
##iste
##istem
##istency
##istent
##istered
##istering
##isters
##isti
##istics
##istingu
##istinguish
##istol
##istors
##istr
##istration
##isure
##isy
##itan
##itarian
##itates
##itations
##itative
##itching
##itect
##itely
##item
##iten
##iteria
##iterion
##iterranean
##iti
##itian
##itig
##itigation
##itional
##itis
##itively
##itives
##itney
##itoneal
##itored
##itorial
##itories
##itr
##itrate
##ittal
##ittel
##ittle
##itum
##itus
##ituximab
##itzerland
##ität
##ité
##iu
##iva
##ivable
##ivalence
##ivan
##ivariate
##ivas
##iveness
##ivery
##ivid
##ivided
##ivil
##ivision
##ixon
##iza
##izi
##izin
##izoph
##izophren
##izu
##izumab
##izz
##ión
##jamin
##jan
##jbc
##jee
##join
##jor
##journal
##journals
##joy
##jp
##jt
##ju
##jud
##jun
##kDa
##kan
##kann
##kar
##kary
##keeping
##keit
##keletal
##keleton
##keley
##kenn
##kens
##kers
##keys
##kinase
##kind
##kins
##kinson
##kit
##know
##knowledg
##kop
##krank
##ktop
##ku
##lac
##lage
##lammation
##lammatory
##lamyd
##lane
##language
##lantic
##lash
##lasting
##lastoma
##lat
##lauf
##lav
##leaf
##learning
##leb
##lecommun
##lectomy
##lectric
##ledge
##lee
##leep
##lege
##leich
##lein
##leit
##lek
##lem
##leted
##letes
##letin
##letion
##leveland
##lez
##liament
##licenses
##liche
##lichen
##licher
##lie
##lieh
##lik
##likelihood
##likely
##limb
##lings
##linik
##lining
##lipidemia
##lips
##lique
##lishes
##lism
##list
##litaxel
##liter
##lity
##lj
##lle
##llen
##lora
##loro
##los
##loud
##lr
##lt
##lud
##lude
##ludes
##ludge
##luence
##luid
##luidic
##lund
##lung
##luor
##luores
##luorescence
##luorescent
##lusion
##lusions
##lusive
##lv
##lycer
##lym
##lymph
##lı
##mRNA
##mail
##makers
##making
##management
##many
##mar
##market
##maximal
##may
##mber
##means
##measures
##median
##men
##menopausal
##mental
##mentary
##mente
##menting
##merce
##metric
##metry
##miR
##mia
##mias
##millan
##minute
##miss
##missions
##mmas
##modal
##models
##modium
##module
##modules
##mog
##mogorov
##mology
##mond
##month
##mort
##mortem
##mos
##mosp
##motor
##mouse
##muir
##mus
##myc
##nah
##nahme
##naire
##nals
##nam
##name
##nar
##natal
##national
##native
##nature
##ncia
##nde
##nderungen
##nea
##nee
##neider
##nell
##nen
##nesota
##nett
##neu
##neur
##nex
##nexin
##neys
##nez
##nia
##nian
##nic
##nicity
##nick
##nier
##nih
##nik
##nine
##nings
##nis
##nisse
##nitt
##nium
##nnen
##nos
##now
##nsic
##nsylvan
##nsylvania
##null
##nung
##nutrition
##oA
##oC
##oE
##oL
##oR
##oS
##oT
##oa
##oal
##oarth
##oarthritis
##oba
##obac
##obacht
##obacillus
##obacterial
##obacterium
##obar
##obarbital
##obe
##obia
##obil
##obility
##object
##objective
##obl
##oblastic
##oblastoma
##oblasts
##oblot
##obre
##observer
##oca
##ocaine
##ocarcin
##ocarcinoma
##ocard
##ocardi
##ocardial
##ocarp
##occ
##occur
##occurrence
##ocellular
##ochem
##ochen
##ochim
##ochondri
##ocial
##ocin
##ocket
##ockets
##ocks
##oclonal
##ococc
##ococcal
##ococci
##ocol
##ocomp
##ocon
##oconstr
##ocor
##ocortic
##ocortical
##ocr
##ocracy
##ocratic
##ocrin
##ocrine
##ocrit
##ocular
##ocy
##ocyst
##ocysteine
##ocysts
##ocytic
##odds
##odef
##odegrad
##odel
##odem
##oden
##odend
##oderm
##oderma
##oders
##odia
##odialysis
##odied
##odil
##odiversity
##odon
##odontic
##odynam
##odynamics
##oea
##oeh
##oelec
##oelectron
##oen
##ofacial
##ofen
##offs
##ofil
##ofluorescence
##ofol
##oft
##oga
##ogas
##ogaster
##oge
##ogeneic
##ogenes
##ogenetic
##ogeny
##ogl
##ogle
##oglob
##oglobulin
##oglu
##ogni
##ognitive
##ogon
##ogr
##ograf
##ograft
##ografts
##ograp
##ographics
##ogrel
##ogroup
##ogs
##ogue
##ogy
##ohy
##ohydr
##oides
##oinform
##oinformatics
##oins
##ointed
##ointing
##oints
##oir
##ois
##oj
##oka
##oken
##oker
##okers
##okine
##okines
##olars
##olaryng
##olas
##olated
##olateral
##olation
##olean
##oler
##olerance
##olerant
##olesterol
##olf
##olia
##olinergic
##olipid
##olism
##olization
##olla
##olly
##oln
##ologia
##ologie
##ologische
##ologischen
##ologist
##ologists
##ologous
##olone
##olph
##olus
##olve
##olving
##olys
##oman
##omas
##omat
##omatous
##omed
##omegal
##omerase
##ometri
##ometrics
##omi
##omical
##omide
##ommen
##ommod
##ommons
##ommun
##omnia
##omod
##omol
##omology
##omorphisms
##omotor
##ompatibility
##ompatible
##ompl
##ompson
##omyces
##omyel
##omyelitis
##onald
##onary
##onc
##onch
##onde
##ondition
##onditional
##onds
##ondyl
##onectin
##onen
##onge
##ongevity
##ongr
##ongue
##onia
##onica
##onit
##online
##onn
##ono
##onoi
##onomy
##onormal
##onses
##onstr
##onstrained
##ontal
##ontally
##ontaneous
##ontinu
##onto
##onuclease
##onym
##onymous
##onz
##oon
##ooth
##opa
##opaed
##opaedic
##opamine
##opar
##opathic
##opathies
##opathological
##opathology
##opathy
##opausal
##opause
##opedic
##openia
##operated
##operation
##operatively
##opez
##ophage
##ophageal
##opharmac
##opharyngeal
##ophe
##opher
##ophila
##ophilia
##ophils
##ophilus
##ophosphamide
##ophys
##ophytes
##opia
##opid
##opidogrel
##oplankton
##oplasm
##oplasma
##oplasmic
##oplast
##oplasts
##oplasty
##opo
##opoietic
##opol
##opolysaccharide
##opor
##opos
##opoulos
##opp
##opre
##oprecip
##opres
##opress
##oprol
##oprost
##oprot
##oprotective
##opsis
##opsy
##opter
##optera
##opulations
##opulmonary
##opus
##oqu
##oquin
##oradi
##orbent
##orbid
##orbidity
##ordance
##ordant
##ording
##ords
##oreal
##orec
##orectal
##orel
##orem
##orepine
##orepinephrine
##orest
##orf
##orge
##orh
##oria
##orial
##oriasis
##original
##oris
##ority
##orms
##ornia
##oro
##orously
##orp
##orphism
##orrh
##orsch
##ortal
##ortic
##ortium
##orum
##orylation
##osacchar
##osaccharides
##osarcoma
##oscop
##oscopic
##oscopy
##osely
##osensi
##osensory
##osex
##osexual
##oshi
##osi
##osion
##oso
##osocial
##osom
##osphate
##ospit
##ospitals
##ospor
##ostatin
##oste
##osterone
##ostics
##ostomy
##oston
##ostr
##osts
##osum
##osures
##osus
##osyn
##osynthesis
##osynthetic
##osystem
##osystems
##otarget
##otax
##otechn
##otechnol
##otechnology
##otemporal
##otensin
##otherap
##otherapeutic
##othing
##othor
##othy
##otically
##otics
##otide
##otides
##otine
##otion
##otional
##otive
##otom
##otomy
##oton
##otoxin
##otr
##otransfer
##otransferase
##otrexate
##otroph
##otrophic
##otropin
##otropy
##otstr
##otti
##otyped
##otypes
##otypic
##otypical
##otyping
##oud
##oul
##ounce
##ounds
##ounted
##ountered
##ounting
##ounts
##oup
##oupled
##oupling
##ourced
##ourcing
##ouri
##ournals
##ourse
##outheast
##outs
##ouver
##oux
##ovalent
##ovan
##ovasc
##oved
##ovember
##ovement
##ovepress
##overed
##overlapping
##overn
##overs
##overty
##ovic
##ovich
##oving
##ovir
##ovirus
##ovis
##ovol
##ovolta
##ovoltaic
##owa
##owel
##owels
##owitz
##oxford
##oxfordjournals
##oxifen
##oxins
##oxygenase
##oxylic
##oya
##oyd
##oyle
##ozo
##ozy
##ozyg
##ozygous
##ozyme
##pace
##page
##pain
##pal
##panze
##parametric
##parency
##parent
##particip
##partum
##party
##pat
##pathy
##pati
##patient
##patients
##pattern
##pdf
##pecies
##pecific
##pected
##pectively
##pectral
##pects
##ped
##peer
##perf
##perfusion
##perg
##pergillus
##perm
##permissions
##person
##personal
##phan
##phia
##phones
##phosphory
##phosphorylated
##phosphorylation
##phrine
##phy
##phyl
##phys
##physiology
##pine
##ping
##pir
##piration
##pire
##pired
##pirical
##pit
##place
##plan
##plant
##plantation
##plasia
##platelet
##plates
##pled
##pler
##ples
##plete
##pliance
##plic
##plicate
##plicated
##plicates
##plication
##plications
##plicit
##plicity
##pling
##plo
##ploid
##plos
##plosone
##ploy
##ploys
##ply
##pnas
##pone
##pool
##poration
##ported
##porter
##portion
##ports
##poses
##posing
##posium
##possibly
##posure
##potent
##ppe
##ppel
##pper
##ppers
##ppings
##pple
##ppoc
##ppocamp
##pps
##prac
##pred
##predict
##preserving
##press
##pressing
##pression
##pressive
##pret
##pretation
##pri
##prim
##prin
##prises
##prising
##priv
##prob
##proble
##problem
##problems
##proced
##processor
##producing
##production
##profit
##project
##proof
##prov
##pson
##psych
##pted
##ptions
##ptive
##pton
##pts
##pty
##pu
##pub
##public
##publications
##published
##purpose
##pus
##putation
##qq
##qual
##quartile
##quer
##quez
##quid
##quilibrium
##quir
##quiry
##quito
##rabbit
##raf
##rafish
##rais
##raisal
##ramer
##ranean
##ranial
##rat
##rational
##razole
##reach
##reading
##realistic
##ream
##reat
##reatment
##reb
##receptor
##recht
##reci
##recogn
##rectional
##rectomy
##reek
##reen
##reens
##rees
##reflex
##regation
##regnancy
##regon
##regulate
##rei
##reich
##rein
##reland
##rele
##reless
##relevant
##relin
##rell
##rem
##reme
##rement
##renal
##rences
##rench
##rency
##rend
##reness
##renew
##reng
##rents
##repe
##report
##reported
##reprene
##repres
##requent
##requently
##research
##respondence
##ressively
##restricted
##results
##reten
##retro
##retroviral
##rev
##review
##reviewed
##rew
##rexate
##rey
##rez
##rian
##rics
##rieb
##rien
##rights
##rik
##riks
##ringer
##rington
##rio
##risk
##ritin
##ritis
##ritory
##riz
##rocess
##rof
##rogens
##roke
##rolimus
##rologic
##rological
##roma
##romb
##rombo
##romega
##romes
##romolecules
##romy
##romyces
##romycin
##roni
##rons
##rontal
##ronti
##rontiers
##rooms
##root
##ropathy
##ropl
##roplasty
##ropol
##ropolitan
##roscl
##rosis
##rosophila
##rospinal
##rote
##rotein
##rotic
##rout
##rov
##rovascular
##roy
##rst
##rupt
##ruption
##rus
##rylic
##sage
##sagepub
##sam
##sampling
##say
##sche
##schein
##schem
##schen
##score
##screen
##sea
##search
##seeking
##seg
##seh
##sehe
##sel
##select
##selectin
##selection
##sense
##seq
##serum
##server
##service
##seven
##sevier
##sex
##shop
##shore
##shots
##sians
##sib
##sibilities
##sie
##sies
##significant
##siology
##sions
##sively
##six
##sizing
##ska
##social
##sof
##spe
##specified
##spr
##srep
##sson
##stan
##start
##statis
##stead
##steine
##stell
##stellung
##stem
##stere
##stimulated
##stoff
##ston
##stral
##stroke
##stry
##stud
##study
##style
##subject
##subs
##subunit
##sue
##sung
##sych
##sym
##systems
##tailed
##tainment
##tains
##taking
##talk
##tase
##task
##tax
##tebr
##tech
##techn
##tedly
##tee
##teenth
##tees
##teger
##tegr
##teil
##teilung
##tel
##tem
##tene
##tense
##tensive
##teral
##terase
##terdam
##terms
##tests
##texts
##than
##thel
##theoretic
##theory
##therapy
##these
##thesis
##thetic
##thood
##thread
##threat
##threatening
##thromb
##thrombin
##ths
##thy
##tib
##tibility
##tica
##ticas
##ticed
##ticing
##ticip
##tick
##tico
##ticular
##ticularly
##tie
##tige
##tigen
##tii
##tik
##tillation
##tima
##timacy
##timal
##timate
##timately
##timates
##timation
##timm
##timore
##tioned
##tique
##tisch
##tische
##tischen
##tise
##tish
##tising
##tism
##tisol
##tist
##titis
##titution
##titutional
##tively
##tiven
##tiviral
##tivo
##tiz
##tober
##toc
##tolerant
##toral
##tors
##tosis
##track
##tracking
##tract
##tracted
##tracting
##traction
##tractor
##trained
##training
##tral
##transcription
##transfected
##transi
##translational
##transplant
##trate
##traumatic
##tree
##trees
##trial
##trib
##tribute
##tributed
##tribution
##tributions
##trict
##tricted
##triction
##tricts
##tries
##trim
##trin
##trip
##triv
##tro
##trol
##trom
##tronic
##troph
##trophic
##trophot
##tru
##truc
##truct
##tructed
##truction
##tructions
##tructive
##tructural
##tructure
##tructured
##tructures
##tructuring
##trum
##trust
##try
##tsch
##tte
##ttes
##tual
##tub
##tubulin
##tur
##types
##tzmann
##uC
##uality
##uar
##uates
##uating
##uba
##ubated
##ubation
##ubin
##ubs
##ucci
##uchen
##ucher
##uchs
##ucht
##ucker
##ucks
##ucky
##uctose
##uda
##udden
##uded
##uder
##udi
##ueh
##uen
##uence
##uese
##uez
##uf
##ufig
##ugen
##ugg
##uginosa
##uh
##uin
##uing
##uis
##uitable
##uitary
##uited
##uity
##uka
##ukey
##ukin
##ulae
##ulas
##ulent
##ullary
##uller
##ulli
##ullivan
##ulmonary
##ulo
##uloskeletal
##uls
##ulted
##ultry
##ultures
##ulty
##ulu
##uma
##umab
##umatic
##umbar
##ument
##umental
##uments
##umetric
##umi
##umina
##uminal
##umped
##umps
##ums
##umulation
##una
##unar
##uncan
##unced
##uncil
##unctiv
##unctive
##uncture
##unde
##unden
##unes
##ungen
##ungs
##uni
##unic
##unicip
##unks
##unkt
##unktion
##unn
##unning
##uns
##untary
##uo
##uper
##upervised
##uplex
##uppe
##uppen
##upt
##upta
##upuncture
##upus
##uracy
##urane
##urch
##ureau
##ureh
##urement
##uren
##uretic
##ureus
##urgery
##urgical
##uri
##uria
##uries
##urin
##uris
##urities
##urium
##urk
##urnal
##uro
##urons
##urop
##urope
##urred
##urry
##urs
##urses
##ursive
##urus
##usal
##usamm
##usch
##uscitation
##uscript
##uscripts
##uscular
##user
##users
##uses
##useum
##usi
##usions
##usively
##uskal
##usp
##ussion
##ustering
##usting
##ustr
##usts
##uta
##utaneous
##utch
##utely
##uten
##uterine
##uthan
##uthor
##uti
##util
##uto
##utor
##utors
##utory
##utr
##utri
##utrition
##utroph
##utt
##utton
##utung
##utures
##utz
##uvant
##uzumab
##uzz
##uzzy
##vacizumab
##vage
##validation
##valu
##vascular
##vastatin
##velength
##vely
##vement
##vens
##ventions
##ventive
##venue
##venues
##veolar
##veratrol
##verbal
##verex
##versi
##versial
##versy
##vert
##vii
##viral
##vironments
##virus
##visiae
##vist
##visual
##vit
##vive
##vor
##wage
##wan
##wand
##wang
##wart
##warz
##web
##week
##weg
##wegian
##wei
##weis
##weise
##weisen
##wen
##wend
##wendung
##were
##wert
##west
##western
##whe
##who
##wick
##wid
##wig
##will
##wj
##wk
##word
##words
##worm
##worth
##wr
##writ
##write
##writing
##written
##xia
##xiety
##ximab
##ximate
##ximately
##ximation
##xious
##yahoo
##yal
##yama
##yb
##ycardia
##ycling
##yclonal
##years
##yel
##yen
##yg
##ygd
##yk
##yles
##ylic
##ylvan
##yma
##yman
##yme
##ymer
##ymers
##ymethyl
##ymph
##ympt
##yna
##ynamics
##ynaptic
##ynec
##ynomial
##yon
##yph
##yptoph
##yptophan
##yrate
##yright
##yroid
##yroidism
##ysacchar
##ysaccharide
##ysaccharides
##yses
##ysiol
##ysiology
##ysis
##yster
##ystic
##ysts
##yth
##ythem
##ython
##yzed
##zahl
##zeich
##zeit
##zel
##zellen
##zens
##zh
##zig
##zin
##zoa
##zol
##zt
##zten
##zung
##zw
##zyk
##zym
##~,
##~.
##~~
##~~~~
##
##
##
##
##
##
##
##
##
##
##
##
##
##
##
##
##
##
##
##
##
##¡
##¢
##£
##¤
##¥
##¦
##§
##«
##¬
##¶
##»
##¿
##À
##Á
##Â
##Ä
##Æ
##Ç
##È
##É
##Ê
##Ë
##Ì
##Í
##Î
##Ï
##Ð
##Ñ
##Ò
##ÒÒ
##Ó
##Ô
##Õ
##Ö
##ÖÖ
##Ø
##ØØ
##Ù
##Ú
##Û
##Ü
##Ý
##Þ
##ÞÞ
##ß
##à
##án
##ánd
##ández
##ás
##ã
##ão
##äch
##än
##änd
##är
##ät
##äts
##å
##æ
##ç
##ça
##ção
##ções
##è
##ème
##ère
##ès
##éc
##éd
##ée
##ées
##ég
##él
##ém
##ér
##éri
##és
##ét
##ê
##ência
##ë
##ì
##í
##ía
##ín
##ís
##î
##ï
##ïve
##ð
##ðk
##ðt
##ðtÞ
##ðx
##ðxÞ
##ña
##ño
##ò
##ó
##óg
##ón
##ós
##ô
##õ
##ões
##öglich
##öl
##öm
##ön
##÷
##ù
##ú
##úde
##û
##ül
##üller
##ün
##ür
##üss
##ý
##þ
##ÿ
##Ā
##ā
##ă
##ą
##Ć
##ć
##Ĉ
##ĉ
##Č
##č
##ď
##đ
##Ē
##ē
##ė
##ę
##ě
##Ĝ
##ĝ
##ğ
##ĥ
##Ĩ
##Ī
##ī
##İ
##ı
##ın
##ır
##ış
##Ĵ
##ĵ
##Ł
##ł
##ń
##ō
##ő
##Œ
##œ
##ŕ
##ř
##ś
##Ŝ
##ŝ
##Ş
##ş
##Š
##š
##ţ
##Ũ
##ũ
##Ū
##ū
##ů
##Ŵ
##ŵ
##Ŷ
##ŷ
##ź
##ż
##Ž
##ž
##ƒ
##ǫ
##ȧ
##Ȳ
##ȳ
##ə
##ʹ
##ʼ
##ˇ
##̀
##́
##̆
##̈
##̊
##̋
##̌
##̟
##̧
##̨
##̳
##̸
##̺
##Ι
##Τ
##ά
##έ
##ί
##ο
##ς
##ό
##А
##В
##Г
##Д
##Е
##И
##К
##М
##Н
##О
##П
##Р
##С
##Т
##У
##Ф
##а
##б
##в
##ва
##г
##го
##д
##е
##ен
##ени
##ж
##з
##и
##й
##к
##ко
##л
##ли
##ль
##м
##н
##на
##ни
##но
##ны
##о
##п
##р
##ра
##ре
##ри
##ро
##с
##ст
##т
##те
##то
##у
##ф
##х
##ц
##ч
##ш
##щ
##ы
##ь
##э
##ю
##я
##і
##ї
##֒
##א
##،
##آ
##أ
##ا
##ب
##ة
##ت
##ث
##ج
##ح
##خ
##د
##ذ
##ر
##ز
##س
##ش
##ص
##ض
##ط
##ظ
##ع
##غ
##ـ
##ف
##ق
##ك
##ل
##لا
##م
##ن
##ه
##و
##ى
##ي
##َ
##ٛ
##پ
##ک
##گ
##ی
##น
##ร
##า
##Ḡ
##ḡ
##Ḣ
##Ṁ
##ṁ
##ṗ
##ṙ
##Ṽ
##ṽ
##Ẋ
##ẋ
##ẍ
##ẏ
##Ẑ
##ẑ
##Ẽ
##ẽ
##Ỹ
##ỹ
##ᾱ
##‒
##–0.
##―
##‖2
##’-
##’0
##’’
##’’,
##‚
##„
##‟
##‰
##′1
##‹
##›
##⁄
##⁄2
##⁄4
##⁎
##€
##℄
##℘
##↪
##↵
##↾
##⇀
##⇐
##⇑
##⇒
##⇓
##⇔
##⇠
##⇡
##⇢
##⇤
##⇥
##∃
##∅
##∆
##∉
##−/−
##−1∑
##∗.
##∗1
##∗∗
##∠
##∥∥
##∨
##∮
##∶
##≺
##≻
##⊃
##⊆
##⊇
##⊑
##⊓
##⊔
##⊠
##⊢
##⊤
##⊲
##⋂
##⋃
##⋄
##⌈
##⌉
##⌊
##⌋
##⌘
##⌦
##⌧
##⎛
##⎜
##⎝
##⎞
##⎟
##⎠
##⎡
##⎢
##⎣
##⎤
##⎥
##⎦
##⎧
##⎨
##⎩
##⎪
##⎪⎪
##⎪⎪⎪⎪
##⎫
##⎬
##⎭
##⎯
##─
##■
##▪
##▲
##△
##▶
##▸
##►
##◆
##◊
##●
##◦
##★
##♀
##♂
##♠
##♣
##♥
##♦
##♯
##✉
##✏
##✐
##✓
##✳
##✷
##❃
##❅
##❚
##❛
##❝
##❞
##❡
##❤
##❧
##➝
##、
##。
##あ
##い
##う
##え
##お
##か
##が
##き
##く
##け
##こ
##さ
##し
##す
##そ
##た
##っ
##つ
##て
##で
##と
##ど
##な
##に
##の
##は
##び
##ま
##み
##め
##も
##や
##よ
##ら
##り
##る
##れ
##わ
##を
##ア
##イ
##エ
##キ
##ク
##グ
##コ
##シ
##ジ
##ス
##タ
##チ
##ッ
##テ
##デ
##ト
##ド
##パ
##フ
##プ
##マ
##ミ
##ム
##ラ
##リ
##ル
##レ
##ロ
##ン
##・
##ー
##一
##上
##下
##不
##与
##个
##中
##为
##主
##了
##于
##人
##以
##件
##会
##位
##低
##体
##作
##使
##例
##信
##値
##像
##入
##全
##关
##其
##内
##出
##分
##利
##到
##制
##前
##力
##加
##动
##動
##化
##医
##原
##及
##反
##发
##取
##受
##变
##可
##号
##各
##合
##同
##后
##向
##和
##器
##回
##因
##図
##国
##图
##在
##地
##型
##基
##報
##場
##変
##外
##多
##大
##子
##存
##学
##定
##实
##実
##对
##対
##射
##小
##工
##差
##常
##平
##年
##应
##度
##式
##形
##影
##後
##得
##心
##性
##患
##情
##意
##感
##態
##成
##所
##手
##指
##据
##接
##提
##数
##文
##断
##新
##方
##日
##时
##明
##是
##時
##最
##月
##有
##期
##本
##机
##来
##析
##果
##标
##検
##模
##機
##次
##正
##比
##水
##治
##法
##波
##活
##流
##测
##測
##点
##物
##特
##状
##率
##现
##現
##理
##生
##用
##由
##电
##病
##症
##療
##癌
##発
##的
##目
##相
##知
##研
##示
##神
##种
##科
##程
##究
##第
##等
##算
##管
##系
##素
##細
##経
##結
##線
##组
##结
##统
##群
##考
##者
##而
##胞
##能
##自
##血
##行
##術
##表
##要
##解
##認
##語
##计
##过
##进
##通
##部
##重
##量
##間
##関
##间
##集
##面
##音
##高
##가
##간
##것
##게
##결
##경
##계
##고
##과
##관
##구
##기
##나
##는
##다
##단
##대
##도
##동
##되
##된
##들
##로
##료
##를
##리
##며
##문
##발
##방
##보
##부
##분
##비
##사
##상
##생
##서
##성
##세
##소
##수
##스
##시
##식
##신
##아
##양
##어
##었
##에
##여
##연
##였
##영
##와
##요
##용
##우
##원
##위
##유
##으
##은
##을
##의
##이
##인
##일
##있
##자
##장
##적
##전
##정
##제
##조
##주
##중
##증
##지
##진
##체
##치
##포
##하
##학
##한
##할
##해
##행
##형
##호
##화
##환
##후
##
##
##
##
##
##
##
##
##
##
##
##
##～
$1
$2
&#38;
'
("
($
(&)
(.
(1.
(10.
(11,
(12,
(16).
(17).
(18).
(19).
(193
(194
(195
(196
(1982)
(1983)
(1984)
(1985)
(1986)
(1987)
(1988)
(1989)
(1989).
(1990)
(1990).
(1991)
(1991).
(1992)
(1992).
(1993)
(1993).
(1994)
(1994).
(1995)
(1995).
(1996)
(1996).
(1997)
(1997).
(1998)
(1998).
(1999)
(1999).
(2.
(2.2)
(2.3)
(2.4)
(2.5)
(20).
(2000)
(2000),
(2000).
(2001)
(2001),
(2001).
(2002)
(2002),
(2002).
(2003)
(2003),
(2003).
(2004)
(2004),
(2004).
(2005)
(2005),
(2005).
(2006)
(2006),
(2006).
(2007)
(2007),
(2007).
(2008)
(2008),
(2008).
(2009)
(2009).
(201
(2010).
(2011).
(2012).
(2013).
(2014).
(2015).
(2016).
(2018)
(21).
(22).
(23).
(24).
(25).
(26).
(27).
(28).
(3.
(3.1)
(3.2)
(3.3)
(4.
(44
(5-
(5.
(50)
(6.
(64
(67
(7,
(7.
(8,
(9,
(9.
(95%
({
(·
(∆
(−1)
)(
)()(
))
),(
)2
):
);
)]
)|
)}
)−
*,
+(
++
+/-
+=
+∞
,,
,...,
,0
,1
,2
--
---
-0
-0.
-0.0
-0.00
-1
-1.
-10
-2
-20
-3
-4
-5
-6
->
.(
.)
.,
....
.....
......
.0
.00
.01
.05
.1
.2
.3
.4
.5
.6
.7
.8
.9
//
/0
/1
/2
/∈
0(
0,0
0-
0.0000
0.0001
0.0001).
0.001)
0.001),
0.001).
0.001;
0.01).
0.05),
0.05;
0/
01
02
04
05
06
07
08
0:
0}
0·
1)(
1))
1)-
1):
1,0
1,000
1,2
1-1
1-2
1-3
1.1.
1.2.
10.100
10.1002/
10.1016/
10.1021/
10.1038/
10.11
10.110
10.1109/
10.22
100,000
100.0
10000
10:
10].
11:
12:
13-
13:
14-
14:
15:
16:
17-
179
17:
18-
181
182
183
186
187
189
18:
19%
191
194
1950
1965
1967
1975
1977;
1978
1978;
1979;
1980).
1980;
1981).
1981;
1982
1982).
1982;
1983
1983).
1983,
1983.
1983;
1984
1984).
1984,
1984.
1984;
1985
1985).
1985,
1985.
1985;
1986
1986).
1986,
1986.
1986;
1987
1987).
1987,
1987.
1987;
1988
1988).
1988,
1988.
1988;
1989
1989).
1989,
1989.
1989;
1990)
1990).
1990,
1990.
1990;
1991
1991)
1991).
1991,
1991.
1991;
1992
1992)
1992).
1992,
1992.
1992;
1993
1993)
1993),
1993).
1993,
1993.
1993;
1994
1994)
1994),
1994).
1994,
1994.
1994;
1995)
1995),
1995).
1995,
1995.
1995;
1996)
1996),
1996).
1996,
1996.
1996;
1997)
1997),
1997).
1997,
1997.
1997;
1998)
1998),
1998).
1998,
1998.
1998;
1999
1999)
1999),
1999).
1999,
1999.
1999;
19:
1=
1],
1].
1|
1·
1⁄2
1⁄4
1√
1≤
2-3
2.3.
2.4.
2.5.
2.6.
2000)
2000),
2000).
2000.
2000;
2001)
2001),
2001).
2001,
2001.
2001;
2002)
2002),
2002).
2002,
2002.
2002;
2003)
2003),
2003).
2003.
2003;
2004)
2004),
2004).
2004.
2004;
2005)
2005),
2005).
2005.
2005;
2006)
2006),
2006.
2006;
2007)
2007),
2007.
2007;
2008)
2008),
2008.
2008;
2009)
2009),
2009.
201
2010)
2010),
2010.
2011)
2011),
2011.
2012)
2012),
2012.
2013),
2013.
2014.
2015.
2016.
2017.
2017;
2018,
2018;
202
203
206
20:
21%
219
21:
221
222
229
22:
23%
239
23:
24%
243
247
25-
257
26%
27%
27.
277
28%
28.
29.
2−
3.3.
3.4.
3.5.
3/
301
31.
311
312
314
317
319
32-
32.
321
322
324
326
327
329
33.
34.
35.
36.
37.
378
38.
39,
39.
3].
3⁄4
4.2.
4.3.
4.4.
4/
40-
40.
401
41,
41.
42.
429
43,
43.
44,
44.
45.
46,
46.
47,
47.
48.
49,
49.
4;
4].
5'-
5.1.
5.2.
5/
50.
51,
51.
52,
52.
53,
53.
54,
54.
55.
56,
56.
57,
57.
58,
58.
59,
59-
59.
5;
5].
5’-
6/
60-
60.
61,
61.
62,
62.
63,
63.
64,
64.
65,
65.
66,
66.
68,
69.
6=
6].
6∈
70.
72,
7].
7→
80.
802
802.11
8:
8].
90.
978
978-1
978-1-4
99.
9:
:1
::
:=
<0.00
<0.001
=1
==
?,
AAA
AAAA
AAC
AAV
ABI
ACA
ACK
ACKNOWLEDG
ACKNOWLEDGMENT
ACKNOWLEDGMENTS
ACL
ACM
ACT
ACTH
ACh
ADAM
ADHD
AIC
AIDS
AIM
AIP
AJ
AK
AKI
AKT
ALG
ALGOR
ALL
ALS
ALT
AMD
AMI
AML
AMPK
AMS
ANAL
ANALY
ANO
ANT
AOD
APPEND
APPENDIX
AQP
ARCH
ARE
ART
ARTIC
ARTICLE
ASP
ASS
ATG
ATM
ATPase
AUT
AUTH
AW
AY
Abb
Abbreviations
Abd
Aber
Abnormal
Abr
Abs
Abstr
Acad
Academic
Acc
Accepted
Access
Accessed
Accuracy
Ach
Achie
Acids
Acknowledg
Acknowledgement
Acknowledgment
Acknowledgments
Acous
Acqu
Acquisition
Across
Acta
Actin
Action
Activ
Activities
Acute
Ada
Adam
Adams
Adap
Adaptive
Add
Address
Aden
Adj
Admin
Administration
Adoles
Adult
Adv
Advances
Adverse
Advis
Ae
Aff
Affairs
Africa
African
Agar
Age
Agent
Agents
Agg
Aging
Agr
Agreement
Agricultural
Agriculture
Ah
Aim
Aj
Akt
Alb
Alber
Albert
Alcohol
Aldr
Alexander
Alf
Algebra
Algorith
Algorithm
Algorithms
Ali
Alle
Allen
Allergy
Alpha
Als
Alt
Alter
Alternative
Alz
Ama
Amazon
Amb
Amer
Americans
Amin
Ams
Amsterdam
Ana
Anat
Andr
Andre
Andrew
Android
Anesthe
Angel
Angeles
Angew
Angi
Anim
Animals
Ann
Annals
Annu
Annual
Ans
Antarc
Anten
Anth
Anthrop
Antib
Antibodies
Antim
Anton
Anxiety
ApJ
Apop
Apoptosis
Applic
Approach
Approaches
Apr
April
Aqu
Ara
Arab
Arabic
Arabidopsis
Arbeit
Arc
Architect
Architecture
Arctic
Areas
Argent
Argentina
Ariz
Arizona
Army
Arn
Arnold
Array
Art
Arter
Arth
Arthritis
Article
Artif
Artificial
Ash
Asia
Asian
Aspergillus
Assemb
Assess
Assessment
Assistant
Assoc
Associ
Associate
Associated
Assumption
Ast
Astron
Atl
Atlanta
Atlantic
Atmosp
Attribution
Auch
Aud
Auf
August
Aur
Aus
Austin
Austr
Australian
Austria
Auth
Author
Authors
Auto
Autom
Automated
Automatic
Automation
Availability
Available
Avenue
Ay
BAC
BACK
BACKGROUND
BALB
BCG
BCL
BCR
BDNF
BER
BJ
BK
BLAST
BLOCK
BLOCKIN
BMC
BMD
BMJ
BOLD
BRA
BRAF
BRCA
BU
Bab
Bac
Bacillus
Background
Bacter
Bacterial
Bad
Bag
Bah
Bak
Baker
Ball
Baltimore
Bam
Ban
Banach
Bang
Bangl
Bangladesh
Bank
Barb
Barc
Barcelona
Bart
Base
Basel
Baseline
Basin
Basis
Bat
Bax
Bayes
Bcl
Bd
Bec
Beck
Becker
Bed
Bede
Bedeutung
Befund
Begin
Behandlung
Behav
Behavioral
Behaviour
Bei
Belg
Belgium
Bene
Beng
Benjamin
Benn
Bennett
Bent
Bere
Berkeley
Berlin
Bernard
Bert
Bes
Best
Bet
Beta
Bew
Bey
Bez
Bh
Big
Bil
Bild
Bill
Bin
BioMed
Biochem
Biochemical
Biochemistry
Bioinformatics
Biol
Biology
Biomed
Biomedical
Biophys
Biosciences
Biosystems
Biotech
Biotechnol
Bit
Bj
Blackwell
Ble
Blo
Blood
Bloom
Blu
Bluetooth
Blut
Board
Body
Bol
Bone
Bonferroni
Book
Boolean
Borel
Bos
Boston
Bot
Bou
Bound
Bour
Bow
Box
Boy
Brad
Brain
Branch
Brand
Bras
Braun
Braz
Brazilian
BrdU
Breast
Bren
Bri
Brief
Brit
Britain
British
Bron
Brook
Brow
Bry
Bt
Buch
Buck
Bud
Building
Bul
Bull
Bulletin
Bund
Bureau
Burk
Burn
Bus
Business
CAB
CAC
CAD
CAG
CAL
CAN
CAR
CASE
CBF
CCA
CCL
CCR
CDC
CDK
CES
CHAP
CHAPTER
CHD
CHEM
CIN
CIR
CJ
CKD
CLL
CML
CMV
CNN
COL
COMM
COMMUN
COMP
CON
CONCLU
CONT
CONTROL
COP
COPD
COR
COX
CPS
CRC
CRE
CREB
CRF
CRI
CRP
CRT
CSC
CSF
CSI
CSR
CTL
CXCL
CXCR
Cab
Cad
Cai
Calcium
Calculate
Calif
Call
Campbell
Campus
Canadian
Candid
Candida
Cant
Cao
Cape
Capital
Carcin
Card
Cardi
Cardiac
Cardiol
Cardiology
Cardiovascular
Carls
Carlsbad
Carol
Carolina
Carr
Cases
Cass
Catal
Category
Cath
Cauc
Caucasian
Cav
Cdc
Census
Centers
Cere
ChIP
Cha
Chair
Chall
Challenges
Cham
Channel
Chap
Chapman
Chapter
Character
Charles
Check
Chest
Chic
Chicago
Child
Children
Chile
Chim
Chin
Chir
Chl
Choi
Choice
Choose
Chr
Christ
Christi
Christian
Chronic
Chu
Chung
Church
Cir
Circuit
Circuits
Circulation
Citation
City
Civil
Cj
Ck
Claim
Clark
Clarke
Classification
Clear
Climate
Clin
Clinic
Clinical
Clostr
Cloud
Clustering
Coast
Cob
Coch
Cochrane
Code
Coding
Cognitive
Coh
Cohen
Cold
Collabor
Collaboration
Collaborative
Collec
Collectively
College
Collins
Colomb
Colon
Colorado
Columb
Columbia
Comm
Commit
Commons
Commun
Communications
Community
Comparative
Compe
Competing
Comple
Complexity
Component
Compos
Comprehen
Comprehensive
Comput
Computation
Compute
Computer
Computers
Computing
Conc
Concept
Conceptual
Concer
Concl
Conclusion
Cond
Condition
Conference
Conflic
Conflict
Conflicts
Cong
Congress
Conn
Cons
Conservation
Consortium
Constr
Constraint
Constraints
Construction
Consumer
Contents
Context
Contract
Contrast
Contributions
Controlled
Controller
Controls
Conver
Cook
Cooperative
Coord
Cop
Copenhagen
Cord
Coronary
Correspond
Correspondence
Cos
Cost
Costa
Cot
Coul
Coun
County
Cour
Court
Cov
Cover
Cow
CpG
Cra
Creative
Cred
Cri
Crit
Criteria
Cro
Crohn
Cron
Cronbach
Crow
Cruz
Crypt
Cultural
Cum
Curr
Cust
Cut
Cx
Cyber
Cycle
Cyp
Czech
DAG
DAT
DATA
DCT
DCs
DEC
DEF
DEN
DESIGN
DET
DEV
DIS
DISC
DJ
DK
DNase
DOC
DSM
DSP
Dai
Daily
Dall
Dam
Dan
Daniel
Danish
Dar
Darm
Das
Database
Datas
Dataset
Date
Daten
David
Davies
Davis
Daw
Day
Death
Deb
December
Decision
Declar
Declaration
Ded
Deep
Defense
Define
Defining
Delay
Delhi
Delivery
Delta
Demographic
Denmark
Denote
Dent
Dental
Dentistry
Depend
Depression
Dept
Dermat
Dermatol
Descri
Description
Descriptive
Determ
Deut
Dev
Develop
Developing
Developmental
Dh
Diabetes
Diag
Diagn
Diagnosis
Diagnostic
Diagnostics
Dial
Dic
Dick
Dickinson
Die
Diego
Dies
Diese
Diet
Dietary
Difference
Dim
Ding
Dip
Direc
Director
Discl
Disclosure
Discovery
Discrete
Dise
Disease
Diseases
Disorders
Diss
Distance
Distributed
District
Diversity
Division
Dj
Doc
Document
Does
Dol
Dom
Domain
Dong
Dor
Dose
Doug
Douglas
Dovepress
Down
Downloaded
Drive
Drosophila
Drs
Drugs
Dt
Dub
Duke
Dur
Duration
Durch
Dutch
Dys
EBV
EFF
EGFP
EJ
EK
ELI
EMB
EMBO
EMG
EMT
END
ENS
EPA
ERK
ERP
ESP
EST
EVALU
EXP
EXPERI
EXPERIMENTAL
EZ
East
Eastern
Ech
Eck
Ecol
Ecological
Ecology
Econ
Economic
Economics
Edge
Edin
Edinburgh
Edited
Edition
Editor
Editorial
Educational
Edwards
Efficacy
Egg
Egypt
Eight
Ein
Eine
Eins
Eisen
Ele
Elec
Electr
Electroph
Ellis
Email
Embry
Emerg
Emergency
Emerging
Empirical
Employ
Enc
Endocrin
Endocrinol
Endocrinology
Eng
Engine
Engl
England
English
Enh
Ens
Enter
Enterprise
Ents
Entw
Entwick
Environ
Enzyme
Epid
Epidemi
Epidemiol
Epidemiology
Epit
Epstein
Ergeb
Ergebnisse
Eric
Erkrank
Erl
Ern
Err
Ery
Esc
Esp
Espec
Est
Estab
Estimates
Estimation
Ether
Ethernet
Ethical
Ethics
Ethiop
Ethiopia
Eur
Euro
Evalu
Evans
Events
Evol
Evolutionary
Examination
Excel
Excell
Excellence
Exec
Executive
Exercise
Existing
Exper
Experience
Expert
Extended
Extension
External
Extr
Extraction
Extre
Eye
FAC
FACS
FDG
FDI
FEV
FGF
FIGURE
FISH
FJ
FK
FOX
FPGA
FROM
FSH
FU
FUT
FUTURE
FV
FX
Face
Facebook
Factor
Factors
Faculty
Failure
Fair
Fal
Fall
False
Family
Fan
Fang
Farm
Fas
Fat
Fault
Fax
Feature
Features
Feb
February
Fed
Federal
Federation
Feed
Feedback
Fel
Feld
Fellowship
Fem
Female
Feng
Ferm
Fern
Ferr
Few
Fif
Fifty
File
Filter
Finance
Financial
Find
Finding
Findings
Finland
Finn
Finnish
Fire
Firm
Fish
Fit
Fitz
Fix
Fixed
Fle
Flor
Florida
Fluid
Focus
Fol
Follow
Food
Ford
Fore
Fores
Forest
Formal
Formally
Fors
Forsch
Fort
Forty
Forum
Forward
Foster
Fourth
Fox
Frag
Frage
Fram
Framework
Franc
Francis
Francisco
Fred
French
Fresh
Fri
Friedman
Fro
Front
Frontiers
Fuj
Functions
Fundamental
Funding
Fung
Fur
Fus
Fusion
Fuzzy
GAB
GABA
GABAergic
GAD
GAL
GAP
GAPDH
GATA
GBM
GDP
GEN
GFR
GIS
GJ
GK
GLP
GLUT
GMM
GPS
GPs
GSK
GSM
GU
GUI
GV
GVHD
Gab
Gabor
Gain
Gall
Game
Gamma
Gang
Gar
Garc
Garcia
Gard
Gastro
Gastroenter
Gate
Gaus
Gb
Gef
GenBank
Gender
Generalized
Genes
Genet
Genetic
Genetics
Geneva
Genome
Genomic
Genomics
Geophys
Georg
George
Georgia
Ger
Ges
Gesch
Gest
Gew
Gh
Gil
Gilbert
Gill
Gir
Glas
Glasgow
Gle
Glob
Gluc
Glucose
Glut
Gm
GnRH
God
Gol
Golgi
Gon
Gonz
Google
Gordon
Govern
Government
Grad
Grade
Graduate
Graham
Gran
Grand
Grants
Graphics
Gray
Great
Greece
Greek
Greg
Gren
Grid
Griff
Gross
Ground
Groups
Grund
Guid
Guide
Guidelines
Gulf
Gupta
Gut
Gynec
Gö
HBV
HCV
HDAC
HDL
HEP
HFD
HJ
HLA
HMM
HPV
HSC
HSP
HSV
HTML
HTTP
HW
Hab
Haem
Half
Hamb
Hamm
Hand
Handbook
Hann
Hans
Hansen
Hardware
Hardy
Harm
Harr
Harris
Harrison
Harvard
Has
Hash
Hass
Hat
Haus
Haut
Haw
Hawai
HbA
Head
Healthcare
Healthy
Hear
Heart
Hed
Heidelberg
Hein
Helic
Helm
Hels
Helsinki
Hemat
Hend
Hepat
Hern
Herz
Hier
Hierarch
Hierarchical
Hil
Hin
Hind
Hispanic
Histological
Histor
History
Hn
Hoch
Hod
Hof
Holland
Home
Hon
Hopkins
Horiz
Horm
Horn
Hos
Hospital
Host
Hous
House
Houston
Howard
Hsp
Hub
Huber
Hud
Hughes
Hung
Hur
Hus
Hyp
Hypertension
Hypot
Hypothesis
IBD
IBM
ICA
ICAM
ICC
ICD
ICS
ICU
IEEE
IGF
IH
IHC
IJ
IK
IMP
IND
INF
INFORM
INFORMATION
INTER
IOP
IQ
IRF
IRS
ISBN
ISI
ISP
ISS
ISSN
ITS
Ich
Identif
Identification
Identifier
Identifying
IgA
IgE
IgM
Ii
Ik
Il
Illinois
Illumina
Illustr
Imm
Immune
Immunohist
Immunol
Immunology
Imple
Implementation
Implications
Improved
Improvement
Improving
Incidence
Inclusion
Incor
Incre
Independent
Indian
Indic
Individuals
Indones
Indonesia
Induction
Industr
Infect
Infection
Infectious
Influ
Inform
Informatics
Inhibition
Initiative
Inj
Injury
Innovation
Input
Institut
Institutes
Institution
Institutional
Instituto
Instr
Insulin
Insurance
Integr
Integration
Intel
Intellig
Intelligence
Intelligent
Intensive
Interactive
Interest
Interests
Interfaces
Internal
Internet
Interpretation
Inters
Intervention
Interventions
Interview
Intr
Intra
Intro
Intu
Intuitively
Inv
Invent
Inventory
Invest
Invitrogen
IoT
Iowa
Iran
Ireland
Ish
Isl
Island
Islands
Isolation
Isra
Israel
Iss
Issue
Issues
Italian
Item
Iter
Ito
Iw
JAK
JAMA
JB
JD
JE
JF
JG
JJ
JK
JL
JM
JN
JNK
JO
JOURNAL
JR
JS
JW
Ja
Jac
Jack
Jackson
Jah
Jahre
Jahren
Jak
James
Jane
January
Jap
Japanese
Java
Jay
Jean
Jen
Jenn
Jensen
Jer
Jersey
Jew
Jia
Jim
Jin
Job
Joh
Johns
Joint
Jon
Jordan
Jos
Journal
Journals
Jr
Ju
Jud
Jul
July
Jun
June
Jung
Jus
Justice
KEY
KG
KGa
KGaA
KJ
KK
KY
Kalman
Kam
Kan
Kang
Kaplan
Kas
Kat
Katz
Kauf
Kaw
Kay
Kaz
Kelly
Ken
Kenn
Kennedy
Kent
Kenya
Ker
Kern
Keywords
Kh
Khan
Kid
Kidney
Kin
Kind
Kingdom
Kl
Klinik
Klu
Kluwer
Know
Knowledge
Kob
Koch
Koh
Kol
Kom
Kon
Kong
Kop
Kor
Korean
Kos
Krank
Krebs
Kruskal
Kumar
Kun
Kv
Kw
Kyoto
LAN
LBP
LDL
LIT
LOS
LQ
LTE
LTP
Label
Labor
Lac
Lack
Lact
Lai
Lake
Lanc
Lancet
Lane
Lang
Lange
Language
Languages
Lap
Lars
Las
Lat
Late
Latin
Lau
Laure
Lawrence
Lay
Laz
Lear
Learning
Lebens
Leber
Lecture
Leh
Lem
Length
Leon
Les
Less
Lett
Letters
Leuk
Levels
Levy
Lew
Lex
Liang
Lib
Library
Lic
License
Lif
Lig
Lik
Likert
Limitations
Limited
Lingu
Link
Linux
Lipid
Lipp
Lippincott
Lipschitz
Lis
List
Liter
Literature
Lith
Little
Liver
Living
Lj
Ll
Load
Loc
Location
Lock
Logic
Longitudinal
Looking
Lopez
Loren
Los
Luc
Lud
Lund
Lung
Luo
Lymph
Lyn
MAC
MAG
MAL
MAN
MAPK
MAR
MATERI
MATERIALS
MCA
MCI
MDD
MDS
MEAS
MED
MEF
MEK
MEM
MHC
MIMO
MIN
MMSE
MPEG
MRSA
MSE
MST
MY
Machine
Mack
Macmillan
Madison
Madrid
Mah
Maj
Mak
Making
Malay
Malaysia
Male
Mall
Mamm
Management
Manager
Manchester
Mand
Mang
Manual
Manuf
Manufacturing
Manuscript
Map
Mapping
March
Marg
Mari
Maria
Marine
Market
Mars
Marsh
Marshall
Martin
Martinez
Mary
Maryland
Mas
Massachusetts
Master
Matching
Mater
Maternal
Math
Mathem
Mathematical
Mathematics
Mats
Matter
Matthe
Mayo
Maz
McC
McD
McG
McK
McM
Meas
Measures
Measuring
Mech
Mechanisms
Medi
Media
Median
Medic
Medica
Medicaid
Medicare
Medicine
Mediterranean
Meeting
Meh
Melbourne
Mell
Mem
Member
Members
Memory
Men
Mend
Mental
Merc
Mess
Message
Meta
Metab
Metabolic
Metabolism
Meth
Methodology
Mex
Mexican
Mexico
Meyer
Mice
Mich
Michel
Michigan
Microb
Microbiol
Microbiology
Micros
Microsoft
Middle
Mik
Mill
Mind
Minim
Minimum
Mining
Minnesota
Mir
Mis
Miss
Mitchell
Mitochondri
Mitochondrial
Miy
Mobile
Modelling
Moderate
Modern
Module
Moh
Monitoring
Mont
Montreal
Moore
Morgan
Morph
Morr
Morris
Mort
Mortality
Mos
Mot
Mother
Motion
Motiv
Motivation
Motor
Moun
Mountain
Mouse
Mov
Movement
Muc
Muk
Muller
Multic
Multim
Multimedia
Multiv
Multivariate
Mun
Murphy
Murray
Mus
Musc
Muscle
Museum
Muslim
Mut
Mutation
Mutations
Myc
Mycobacterium
Mé
Müller
NADPH
NASA
NAT
NATURE
NGF
NIC
NMD
NMDA
NOD
NOS
NOT
NSA
NSCLC
NSF
NUMBER
Nach
Nacional
Nam
Name
Nar
Nas
Nash
Nations
Native
Natl
Nav
Nec
Need
Nelson
Neon
Nep
Neph
Nerv
Networks
Neur
Neural
Neuro
Neurob
Neurol
Neurological
Neurology
Neuron
Neurop
Neuroph
Neuropsych
Neuros
Neurosci
Neuroscience
Never
Newman
News
Nguyen
Nich
Nielsen
Niger
Nigeria
Nik
Nin
Nine
Nish
Node
Noise
Nom
Nonlinear
Nord
Nort
Northern
Norway
Norwegian
Notch
Notes
November
Nr
Nrf
Nucl
Nucleic
Num
Numbers
Nur
Nursing
Nutr
Nutri
Nutrition
OBJECT
OBJECTIVE
OBJECTIVES
OECD
OFDM
OK
OLS
ONE
OO
OPT
ORF
ORI
OSA
OUT
OWL
OX
Ober
Obes
Obesity
Obj
Object
Objective
Objectives
Obs
Observation
Observe
Obst
Obstetrics
Oc
Occ
Occup
Occupational
October
Od
Often
Og
Ohio
Ok
Old
Olive
Ols
Om
Onc
Oncol
Oncology
Online
Ont
Ontario
Ontology
Operating
Operation
Operational
Operations
Ophthal
Ophthalmol
Ophthalmology
Opin
Opp
Opt
Optimal
Oral
Ord
Order
Oregon
Org
Organization
Ori
Original
Orth
Orthop
Osaka
Oste
Ot
Others
Ott
Outcome
Outcomes
Output
Ov
Overex
Overexpression
Overview
Ow
Oz
PAD
PAI
PAP
PAR
PARP
PART
PAS
PAT
PATI
PBM
PBMCs
PCC
PCD
PCI
PDGF
PED
PEP
PER
PFS
PGE
PHY
PIN
PJ
PKA
PKC
PLC
PLOS
PLoS
PMC
PMID
POL
POP
POS
PPAR
PRE
PRI
PRL
PROP
PSNR
PSO
PSP
PTEN
PTH
PTP
PTS
PTSD
PURP
PURPOSE
PWM
Pac
Pacific
Pad
Page
Pages
Pain
Pak
Pakistan
Pap
Papers
Parad
Paragon
Parallel
Paras
Pare
Parent
Pareto
Paris
Parker
Parkinson
Particip
Participants
Pasc
Pass
Past
Pat
Patel
Pathol
Pathology
Pati
Patient
Patienten
Patients
Pattern
Patterns
Paulo
Pav
Pax
Pay
Pear
Ped
Pediatr
Pediatric
Pediatrics
Peer
Peng
Penn
Pennsylvania
People
Perc
Percent
Pere
Peripheral
Perm
Permission
Person
Personal
Personality
Perspectives
Pes
Peter
Peters
Peterson
Pharmac
Pharmaceutical
Pharmaceuticals
Pharmacol
Pharmacology
Pharmacy
Phil
Philadelphia
Philipp
Phillips
Philosoph
Phone
Phyl
Phylogenetic
Physi
Physicians
Physiol
Physiological
Physiology
Phyt
Pier
Pig
Pil
Pit
Pitts
Pittsburgh
Pj
Pk
Place
Plan
Planning
Plant
Plants
Plasmodium
Plate
Platform
Ple
Please
Pneum
Poin
Poland
Poli
Polic
Policy
Polish
Political
Poll
Pon
Poor
Pop
Population
Portug
Portugal
Position
Postoperative
Pow
Prac
Practical
Practice
Precision
Pred
Prediction
Pref
Prel
Pren
Present
President
Press
Pret
Prev
Prevalence
Prevention
Price
Prim
Primer
Prin
Princeton
Principal
Principle
Principles
Prism
Priv
Privacy
Private
Probability
Probes
Proble
Problem
Problems
Proc
Proced
Procedures
Proceedings
Processes
Professional
Profile
Prog
Progn
Progr
Programm
Programme
Programming
Programs
Progress
Prol
Property
Pros
Prospective
Prote
Protection
Protoc
Protocol
Psych
Psychiatric
Psychiatry
Psychol
Psychological
Psychology
PubMed
Public
Publication
Publications
Publis
Published
Publisher
Publishers
Pulmonary
Purpose
Put
QOL
QT
QTL
QU
QoL
QoS
Quad
Qualitative
Quality
Quanti
Quantif
Quarter
Quarterly
Que
Queens
Query
Ques
Question
Questionnaire
Questions
RAD
RAM
RAN
RAP
RBF
RCC
RCT
RCTs
REC
RED
REF
REFERENCES
REG
REL
RELATED
REP
REPORT
RESEARCH
RESUL
RET
REV
REVIE
REVIEW
RFID
RIP
RJ
RK
RNAi
RNAs
ROC
ROIs
ROM
RPE
RQ
RSA
RSV
RU
RX
Rac
Radio
Radiology
Raf
Rah
Rain
Raj
Ran
Rand
Randomized
Range
Rank
Rao
Rap
Ras
Rat
Rates
Rating
Rational
Rats
Read
Reading
Reason
Rece
Received
Receptor
Recognition
Recomb
Recombinant
Recomm
Recommend
Recommendations
Recons
Record
Recovery
Reduc
Reduced
Reed
Refer
References
Regional
Register
Registry
Regression
Regular
Regulation
Rehabilitation
Rein
Related
Relation
Relations
Reli
Reliability
Remote
Renal
Repeat
RepoR
Report
Reports
Repres
Representation
Repro
Requ
Request
Require
Requirements
Researchers
Reserve
Resid
Resolution
Resource
Resources
Resp
Respir
Respiratory
Respon
Respond
Responses
Rest
Result
Retrie
Retrieval
Return
Reverse
Reviews
Revised
Reyn
Rheumat
Rho
Rib
Rice
Rig
Rights
Rio
Ris
Risk
Rk
Road
Robert
Roberts
Robinson
Robot
Robotics
Robust
Roc
Roche
Rock
Rod
Rodrig
Rodriguez
Rog
Rogers
Roh
Rol
Role
Rom
Roman
Rome
Root
Rose
Rosen
Roth
Routing
Row
Rt
Rub
Rubin
Rud
Rule
Rules
Rural
Russ
Russell
Russia
Russian
Rx
Ryan
SAP
SAS
SAT
SBP
SCD
SCH
SCI
SEL
SES
SHR
SIAM
SIG
SIMULATION
SIN
SINR
SIP
SIRT
SJ
SLA
SLC
SLE
SME
SMS
SNA
SNP
SNPs
SOA
SOM
SPECT
SPSS
SQL
SSD
SST
STAT
STUD
STUDY
SUB
SUMM
SUMMARY
SUMO
SUPP
SVM
SYBR
SYST
SYSTEM
Sab
Sac
Saccharomyces
Sad
Saf
Safety
Sah
Saint
Sak
Salmon
Salmonella
Sam
Sampling
Sant
Santos
Sap
Sar
Sato
Saudi
Sav
Scal
Scand
Scenari
Scenario
Sche
Sched
Scheduling
Schem
Schl
Schneider
Scholar
Scholars
School
Schr
Schrö
Schul
Schw
Schwartz
Schwarz
ScienceDirect
Score
Scot
Scotland
Scott
Screen
Screening
Sea
Search
Seattle
Secret
Sect
Security
Sed
Seed
Seg
Seh
Sek
Sel
Select
Selection
Sem
Seman
Semantic
Semi
Sen
Send
Senior
Sens
Sensing
Sensitivity
Sensor
Sensors
Seoul
Sep
Sept
September
Sequence
Sequences
Sequencing
Serum
Serv
Server
Service
Services
Session
Setting
Seven
Sevent
Sever
Severe
Sex
Sexual
Sf
Sha
Shah
Sham
Shannon
Shap
Shapiro
Shar
Sharma
Shaw
Sher
Shim
Shin
Should
Sid
Sie
Sig
Signal
Signaling
Signific
Significance
Silva
Simon
Simpson
Singapore
Singh
Sir
Sit
Sixty
Sj
Skin
Sleep
Slo
Smad
Sob
Soc
Soci
Social
Soil
Solving
Sometimes
Song
Sor
Sound
Sources
Southern
Spanish
Spar
Spe
Spearman
Species
Spectrom
Speech
Speed
Spl
Sports
Spr
Sprague
Spring
Springer
Src
Sri
Sta
Staff
Stan
Stand
Stanford
Staphyl
Start
Stat
Statement
Static
Station
Statis
Statistics
Status
Std
Stefan
Stein
Stem
Sten
Stephen
Ster
Stevens
Stewart
Sti
Stim
Stimulation
Stochastic
Stockholm
Stone
Str
Strategic
Strategies
Strategy
Stream
Street
Streng
Streptococcus
Stro
Stroke
Students
Subject
Subjects
Submit
Submitted
Subs
Subst
Substit
Suc
Successful
Sud
Sug
Suite
Sul
Sum
Summ
Sund
Suppl
Supplement
Support
Supported
Supreme
Surg
Surge
Surgery
Surgical
Surv
Surve
Surveillance
Survival
Sustain
Sv
Sweden
Swedish
Swiss
Syd
Sydney
Sym
Symp
Symposium
Sympt
Synchron
Synd
Syndrome
Syst
Systematic
São
TAC
TAG
TAM
TAP
TBI
TCR
TECH
TJ
TLR
TOP
TRAN
TRE
TRI
TRP
TSH
TSP
TUNEL
Tab
Tag
Tage
Tai
Takahashi
Take
Tam
Tanaka
Tanz
Taq
Tar
Task
Tat
Tau
Tax
Teaching
Team
Tech
Techni
Technical
Technique
Techniques
Technol
Teil
Tele
Tem
Temporal
Term
Terms
Tet
Texas
Text
Thailand
Theorems
Therap
Therapeu
Therapeutic
Therapie
Therapy
Thesis
Thi
Thirty
Thompson
Thor
Threshold
Thromb
Tib
Tier
Tim
Times
Tiss
Tissue
Title
Tj
Tk
Tob
Tod
Today
Tok
Toll
Tom
Ton
Tong
Tool
Tools
Toronto
Tour
Towards
Town
Toxic
Toxicol
Trace
Tracking
Trad
Trade
Tradition
Traditional
Traditionally
Traffic
Training
Transactions
Transcription
Transformation
Transi
Transplant
Transplantation
Transportation
Trauma
Treat
Tree
Treg
Trend
Trends
Trial
Trials
Trich
Trig
Tro
Trop
Tropical
True
Trust
Tryp
Tuber
Tukey
Tum
Tun
Tur
Turing
Turk
Turkey
Turkish
Turner
Twelve
Twent
Twenty
Twitter
Types
UAV
UD
UDP
UE
UI
UM
UML
UNIV
URL
USD
USP
UWB
Ug
Uganda
Ui
Ultrasound
Um
Unauthorized
Uncertain
Univ
Univer
Univers
Universal
Universidad
Universidade
Universit
Université
Unter
Unters
Untersuch
Untersuchung
Untersuchungen
Upd
Update
Urban
Urs
User
Users
Ut
VAR
VAS
VOL
VOLUME
VV
Vacc
Validation
Valley
Value
Var
Variable
Variables
Vas
Vascular
Vector
Vehicle
Ven
Verg
Verlag
Verm
Vers
Version
Ves
Vet
Veter
Veterans
Veterinary
Via
Vic
Victor
Victoria
Viet
Vietnam
Vill
Vin
Vinc
Viol
Virgin
Virginia
Virol
Virtual
Virus
Vision
Visualization
Vit
Vitamin
Von
Vor
WH
WHO
WJ
WLAN
WM
WORK
WSN
WW
WWW
Wagner
Wal
Wald
Wales
Walk
Walker
Wall
Walter
War
Ward
Was
Wash
Washington
Wasser
Watson
Way
Weak
Web
Webs
Week
Wei
Wein
Weinheim
Wel
Welfare
Wen
Wer
Whe
Whenever
Which
Whit
Whole
Why
Wid
Wien
Wik
Wikipedia
Wilcox
Wilcoxon
Wild
Wilkins
Will
William
Williams
Win
Windows
Winter
Wir
Wireless
Wirkung
Wisconsin
Wistar
Wnt
Wo
Wolf
Women
Wong
Wor
Word
Words
Working
Workshop
Wright
Writ
Writing
Wy
XI
XML
XX
XXX
Xen
Xenopus
Xia
Xiao
Xie
Xk
Xn
Xt
Yale
Yao
Ye
Year
Yes
Yi
Yin
York
Yosh
You
Your
Yuan
Yun
Zealand
Zeit
Zell
Zellen
Zheng
Zhong
Zi
Zo
Zone
Zu
Zur
Zusamm
Zw
[0.
[199
[200
[29,
[[
])
],
].
^
__
`
abandon
abdomen
abdominal
abelian
aberr
aberrant
abiotic
abnorm
abnormalities
abnormality
abol
abolished
abortion
abroad
abscess
absol
abst
abstr
abstracts
abuse
acad
accelerometer
accent
acceptability
accepts
accesses
accessing
accession
accessions
accident
accidents
acclim
accompl
accoun
accountability
accr
accumulating
accuracies
ace
acetylcholine
acknowledg
acqu
acr
actor
actors
acuity
adaptations
adapting
addiction
adenocarcinoma
adenoma
adenomas
adenovirus
adequacy
adipocytes
adiponectin
adipose
adjacency
adjuvant
adm
admin
administr
administrative
administrator
administrators
admissible
admission
admissions
admitted
adoles
adolescence
adolescent
adolescents
adren
adrenal
ads
adul
adulthood
adults
adver
advers
adversary
advertis
advertising
advice
advis
advised
advoc
advocated
ae
aerial
aesthetic
aeti
af
affective
afferent
affili
affirm
agencies
agency
agenda
agg
aggl
aggrav
aggression
agonists
agr
agreements
ah
airborne
airway
airways
aj
ak
alarm
albicans
alcoholic
alert
alerts
algal
algorithmic
ali
alive
allele
alleles
allelic
allen
allerg
allergen
allergic
allergy
alloc
allocate
allocated
allocation
allogeneic
allograft
alph
alphabet
als
alt
altitude
altogether
alveolar
ambulatory
amel
amelior
amend
amphib
amplic
amygd
amygdala
ana
anaesthe
anaesthesia
anal
analges
analgesia
analgesic
analys
analyst
analysts
analytics
analyzes
anastom
anastomosis
anat
anatomic
anatomical
anatomy
ances
ancest
ancestor
ancestral
ancient
andere
anderen
androgen
anemia
anesthesia
anesthetic
anesthetized
aneur
aneurys
aneurysm
aneurysms
ange
anger
angina
angiogenic
angiography
angiotensin
anim
animation
anis
ankle
annih
anno
annotated
annotation
annotations
announce
announced
annually
anonym
anonymous
ans
answered
answering
answers
antagonist
antagonists
anteced
antecedent
anter
anterior
anthrac
anthropogenic
antico
anticoagul
anticoagulant
anticoagulation
antidepress
antidepressant
antigenic
antipsych
antiretroviral
antisense
antiserum
antiviral
ants
anuscript
anxiety
anyone
anything
anywhere
ao
aort
aorta
aortic
aper
aph
apnea
apop
appeal
append
appetite
appl
apple
appli
appoint
appraisal
appreciate
appreciation
approval
apps
arb
archae
architect
architectural
archive
argu
argues
arous
arousal
arr
arrang
arres
arrhyth
arrhythmias
arrived
arte
artefacts
arteri
arterial
arteries
arth
arthritis
arthroplasty
artic
articular
artif
artis
ascites
ascorb
asking
asks
aspart
aspec
aspir
aspiration
aspirin
assembl
asser
assertion
assertions
asset
assets
assigns
assim
assimilation
assistant
associates
assurance
asth
asthma
astro
astroc
astrocytes
asym
asymptomatic
asynchron
asynchronous
ate
ath
athe
atheroscl
atherosclerosis
atherosclerotic
athletes
ation
atr
atrial
atrophy
attacker
attainment
attem
attempting
attend
attendance
attended
attending
attentional
attenuate
attit
attitude
attitudes
attr
atyp
atypical
auc
auch
auction
aud
audi
audience
audio
audit
auditory
aueh
auf
augment
augmentation
aur
aus
ausge
authentication
authorities
authority
authorized
autism
autoantibodies
autocor
autoimmune
autologous
automata
automation
automaton
autonomic
autonomy
autopsy
autoreg
autosomal
auxin
avec
aversion
avian
avoidance
aw
awa
awarded
awareness
axi
axillary
axiom
axioms
axon
axonal
axons
ay
bab
babies
baby
bac
backsc
backup
bags
balloon
banking
banks
barg
bargaining
bark
barley
basement
bat
beamforming
bean
beats
beds
bee
beef
bees
beet
begun
behalf
behav
behavioral
behavioural
bei
beiden
beim
beings
bekann
belief
beliefs
believes
belonged
benchmarks
benefici
benthic
bere
bereits
bes
besch
besond
besonders
beste
betr
bey
bibli
bid
bidirectional
bilateral
biliary
bilingual
bilirubin
bill
binomial
biodegrad
biodiversity
biofil
bioge
biogenesis
bioinformatics
biologic
biomechanical
biomed
biometric
biopsies
biopsy
bird
birds
births
bivariate
bj
bk
bleeding
blinded
blocker
blockers
blots
bn
boards
bod
bolus
bon
bones
bony
books
boolean
bootstr
borderline
borders
borrow
bot
bounding
bowel
boy
boys
brach
brains
brainstem
brand
breadth
breastfeeding
breed
breeding
broadcast
broadcasting
bronch
bronchial
brow
browser
browsing
bs
buc
bug
bugs
buildings
bulb
bull
bup
burs
buses
business
businesses
busy
butt
button
buy
buyer
buyers
byte
bytes
bzw
cAMP
cache
caches
caching
cada
calcification
calculus
calf
calibr
calling
calls
calves
cam
campaigns
campus
canal
canine
cann
cannabis
canopy
cant
cantly
capill
capita
carbohydr
carc
carcinogenesis
carcinomas
cardinal
cardinality
cardiomyocytes
cardiomyopathy
cardiopulmonary
cards
career
careg
caregiver
caregivers
caries
caring
carotid
carp
cars
cartil
cash
cassette
casual
catal
catalase
catar
cataract
catch
catchment
categorical
categorization
cathe
catheter
catheters
cats
cattle
caud
caudal
caught
causality
causative
cef
cens
census
centr
centrality
centralized
centrally
centrom
cephal
cereb
cerebellar
cerebellum
cerebral
cerebrospinal
cerebrovascular
cerevisiae
certainty
certif
certificate
certification
cerv
cervical
ces
cess
cessation
cet
chall
challeng
challenged
chances
chang
chann
chap
chaper
chaperone
chapters
charg
charts
checkpoint
checks
chel
chemil
chemokine
chemokines
chemot
chest
chicken
chickens
chief
childhood
chim
chimeric
chimpanze
chlorophyll
chloroplast
chol
cholec
cholinergic
chondrocytes
chooses
chor
chr
chromatin
chromos
chromosomal
chromosome
chromosomes
chronically
chunk
ciency
cient
cigare
cigarette
cigarettes
cin
cing
cingulate
cipher
circadian
circuitry
cirrh
cirrhosis
citation
citations
cite
citi
cities
citizen
citizens
citr
city
civil
cj
ck
clade
clades
claims
classi
classifications
classifiers
classifying
classroom
clause
clauses
cleared
clearing
cleft
client
clients
climatic
clinic
clinician
clinicians
clinics
clique
clon
clonal
clone
cloned
clones
cloning
clues
clus
clutter
coalition
coast
coastal
cobal
coc
cocaine
coch
cochlear
cock
cod
codeword
codon
codons
coe
cognition
cognitive
coh
cohe
cohomology
cohort
cohorts
colitis
collaborative
collateral
collec
collections
collects
college
collis
colocal
colonic
colonization
colonoscopy
colorectal
colum
combat
combinator
comfort
comfortable
command
commands
commens
commission
commit
commitment
committed
committee
commod
commodity
communic
communicate
communicated
communicating
commutative
como
comorbid
comorbidities
comorbidity
compan
compelling
compensatory
competence
competencies
competent
competi
competit
competitiveness
competitors
compil
compilation
compiler
compl
complaints
complet
completing
complexities
complication
comply
compost
compr
comprehension
compress
computerized
computers
computes
concaten
conceived
concentr
conception
conclud
concordance
concur
concurrency
conference
conferences
confers
confid
confident
confidentiality
conflict
conflicting
confound
confounders
confounding
confron
confused
congen
congenital
congestion
congr
congruence
congruent
conj
conjunctiv
connective
conscious
consciousness
consent
conserv
consolidation
conson
constellation
constitutional
constitutively
constr
construc
constructions
consult
consultant
consultation
consum
consumers
consumes
contemporary
contention
contextual
continental
conting
contingency
contingent
contrac
contraceptive
contractile
contracting
contractions
contracts
contrad
contradicts
contraind
contral
contralateral
contributors
controversy
conventions
convers
conversation
conversations
converters
convey
convincing
convolutional
cooking
cooperate
coordinator
cope
coping
coral
cornea
corneal
corollary
coronary
corpor
corpora
corporate
corpus
correc
correctness
corrob
corrup
corruption
cortic
corticoster
corticosteroid
corticosteroids
cortisol
cotrans
cou
cough
couns
counsel
counseling
counties
countr
country
county
coupl
court
courts
covari
covariate
covariates
cows
cran
crani
cranial
crash
craw
creatinine
creative
creativity
cred
credibility
credit
credited
crest
crim
crime
criminal
crisis
critic
criticism
cro
crops
crowd
cryp
cryptographic
ct
ctober
cu
cue
cuff
cult
cultiv
cultivars
cultivated
cultural
culturally
curative
currency
curric
curriculum
curv
customer
customers
cutaneous
cv
cyber
cyclase
cyclin
cyclospor
cyst
cystic
cysts
cytology
cytoskeletal
cytosolic
dBm
dab
dairy
dal
dangerous
dann
dans
dar
das
dass
dates
dating
daytime
db
deadline
deaf
deaths
debt
debug
decentral
decentralized
decid
decides
deciding
decisions
declar
declared
declining
decoded
decoder
decoding
decom
decompression
decryp
deduc
deer
defence
defend
defense
defer
defi
defici
deficit
deficits
defin
deformity
degeneration
degenerative
degrad
dehydr
deleg
delete
deleted
deletion
deletions
deliber
delim
dementia
democracy
democratic
demographic
demographics
denen
dengue
deno
denom
dent
department
departments
deployed
deployment
depressive
depri
deprivation
dere
deren
derm
dermal
dermat
dermatitis
descend
descent
descri
descriptive
designer
designers
desire
desktop
destination
detox
deut
developer
developers
developmental
dexamethasone
diagnose
diagnosed
diagnoses
diagnosing
dial
dialog
dialogue
diaphr
diarr
diarrh
diarrhea
diast
diastolic
dichotom
diction
dictionary
didn
died
diese
diesem
diesen
dieser
dieses
diets
dif
differentiable
diffr
digestive
digiti
digits
dilatation
dilated
dilation
dile
dilemma
diph
dipl
diploid
direc
directors
directory
disabilities
disability
disabled
disagree
disaster
disch
discharg
discipl
discipline
disciplines
disclose
disclosure
discom
discomfort
disconn
discontinuation
discontinued
discount
discour
discourse
discretion
discrim
discriminant
discriminating
discriminative
diseased
disj
disjoint
dismut
dismutase
dispar
disparities
dispersal
disposition
dispro
disput
dissected
dissection
dissem
disseminated
dissemination
dissertation
distinc
distinguishes
distress
district
districts
diurnal
divers
diversification
divides
divis
divisions
divor
dj
dk
doc
doctor
doctors
doctr
document
documentation
documents
doesn
dogs
doi
doll
dollars
domestic
dopaminergic
dorm
dors
dorsal
downlink
download
downloaded
downregulated
downregulation
dox
draf
draft
dram
draws
drink
drinks
drivers
drople
drought
ductal
ducts
dumm
dummy
duoden
duplicated
duplication
dur
durch
dureh
dutch
duties
dv
dying
dysfunction
dysp
dysph
dysplasia
dysregulation
dyst
dé
eIF
eNOS
ea
earnings
ears
earthqu
earthquake
east
eastern
eat
eating
eb
eben
ecc
ech
echocardi
ecology
economics
economies
ecosystem
ecosystems
ect
ectop
ectopic
ects
edema
edit
edited
editing
edition
editor
editorial
editors
eds
educated
education
educational
educators
ef
effector
effectors
efficacious
effusion
eggs
eh
eig
eigh
ein
eine
einem
einen
einer
eines
eing
einzel
ej
ek
elbow
eld
elderly
elec
elected
election
elections
elective
electr
electrocardi
electros
elegans
elev
elevations
eleven
elic
elicit
elicited
elig
eligibility
eligible
elite
eluc
email
embedd
embodied
embolism
embolization
embr
embryo
emergency
emo
emotion
emotional
emotions
empathy
emph
empir
employee
employees
employer
employers
empower
enamel
encephal
encode
encoder
encodes
encompass
encompasses
encompassing
encryp
encrypted
encryption
ended
endemic
endocrine
endometri
endometrial
endometriosis
endoplasmic
endors
endos
endoscopic
endoscopy
endot
endothelium
endotoxin
endpoint
endpoints
enforce
enforcement
engagement
engaging
engineers
engr
enh
enhancer
enjoy
enl
enlarg
enrol
enroll
enrolled
enrollment
entail
enterprise
enterprises
enth
enthusi
entit
entitled
entr
entre
entreprene
entrepreneur
entrepreneurs
ents
entsprec
enum
enumeration
enzym
eo
eosinophils
epidemi
epidemic
epidemiological
epidemiology
epidermal
epidermis
epidural
epigenetic
epilep
epilepsy
epileptic
epis
episode
episodes
episodic
epist
epithelium
epitope
epitopes
epochs
equil
equity
era
erad
eradication
ere
eren
erent
erfol
erh
erm
erre
erroneous
ers
erst
ersten
erup
erw
erythem
erythemat
erythrocyte
erythrocytes
esc
escal
esophag
esophageal
esophagus
esp
este
estimators
estr
estradiol
estrogen
estud
ethical
ethics
ethn
ethnic
ethnicity
eti
etiology
etwa
eukaryotes
eukaryotic
euthan
evaluates
evap
evening
everyday
everyone
everything
evoked
ew
exacerb
exagger
examinations
examines
excell
exchang
excised
excision
excitability
excitatory
exclud
excretion
execute
executes
executing
execution
executive
exem
exercises
exon
exons
expec
expectancy
expendit
expenditure
expenditures
expenses
experiencing
experimenter
expert
expertise
experts
expir
explanatory
explants
exploits
exploratory
explores
explos
export
exports
expos
expres
expressive
exten
extern
extinc
extrac
extrap
extremities
extremity
exud
ey
fMRI
facial
facilitation
factorial
factory
faculty
faecal
failing
fairness
faith
fal
falcip
falciparum
fals
familial
familiarity
farm
farmers
farming
farms
fasc
fasting
fatal
father
fathers
faulty
fax
fear
fecal
federal
fee
feeder
feeds
feel
feeling
feelings
fees
feet
fellow
fellowship
females
femin
femoral
femur
fertility
fertilization
fertilizer
fest
fet
fetus
fetuses
fever
ffir
fibrillation
fibrob
fibrosis
fif
fight
fiir
finance
financing
finitely
fir
fires
firms
fiscal
fisher
fishes
fishing
fist
fistula
fj
fk
flanking
flap
flavonoids
fle
flexion
flies
flowering
flowers
fluct
foci
foi
foli
follic
follicle
follicles
follicular
followup
foraging
foram
forb
forearm
forecast
forecasting
forecasts
foreground
forensic
forget
fork
formalin
formats
fort
forwarding
fos
foss
foster
foundations
founded
fram
fraud
freshwater
fri
friends
fro
frog
frontal
fruits
frustr
ft
fum
fun
func
functor
fundament
funds
fungus
fus
für
gad
gait
gam
gamb
gambling
game
games
gamet
gan
gang
gangl
ganglia
ganglion
ganz
gar
gastr
gateway
gathering
gaze
gear
gegen
gender
genera
generative
genetically
genetics
genital
genomes
genomics
genotype
genotypes
genotyping
genu
geographic
geographical
geographically
ger
gering
germination
germline
ges
gesch
gest
gestation
gestational
gesture
gestures
gew
gh
gift
ging
gingival
gir
girl
girls
giv
gland
glands
glauc
glaucoma
gle
gleich
glial
glioma
glomer
glomerular
glucagon
glucocortic
glucocorticoid
glutamine
glycemic
glycogen
glycolysis
glycoprotein
gn
goat
gon
gonad
gone
goods
governance
government
governments
gp
grading
graduate
graduates
gramm
grammar
grammatical
granted
grants
granul
granularity
granule
grap
graphic
graphics
grasp
grass
gravit
greedy
gri
grounds
grouping
grup
gs
guard
guideline
guinea
gyr
gyrus
haben
habitat
habitats
habits
haem
haemat
haemorrh
hallmark
ham
hams
handles
handover
hands
hang
hapl
haplotype
haplotypes
happiness
happy
haptic
harb
harbor
harboring
hash
hat
hazards
headache
header
heading
healthcare
hear
heard
hearing
hearts
heav
hed
helper
helping
hematopoietic
hematoxylin
hemodialysis
hemodynamic
hemorrh
hemorrhage
hemorrhagic
hepar
hepatitis
hepatocellular
herb
herbal
herbiv
hered
hereditary
herit
hernia
hero
herpes
hes
heterod
heterologous
heteros
heterozyg
heterozygous
heur
heuristics
hier
hierarchies
him
himself
hin
hip
hippocamp
hippocampal
hippocampus
histamine
histologic
histologically
histology
histopath
historically
hn
holistic
holomorphic
homepage
homes
homomorphism
homot
homotopy
homozygous
hon
honest
honey
hops
horiz
hormonal
hormone
hormones
horn
hors
horse
horses
hos
hospital
hospitalization
hospitalized
hospitals
hots
hourly
housed
household
households
houses
hrs
hs
ht
https
hub
humoral
hur
hus
husband
hydr
hygiene
hypergly
hyperglycemia
hyperplasia
hypers
hypertension
hypertensive
hypertroph
hypertrophy
hypo
hypogly
hypotension
hypoth
hypothalamic
hypothalamus
hypother
hypoxic
iNOS
iP
ia
ich
ideals
identi
identifiable
identifier
identifiers
idi
idiopathic
idle
ie
iff
ifi
ig
ih
ihre
ihrer
ij
ik
il
ile
ili
iliac
ille
illegal
illness
illnesses
illustr
imagery
immature
immer
immigr
immigrants
immigration
immunity
immunization
immunized
immunoblot
immunoblotting
immunocomp
immunodef
immunoglobulin
immunohist
immunological
immunomod
immunoprecip
immunore
immunosorbent
immunost
immunostaining
immunosupp
immunotherapy
impairment
impairments
impairs
imperf
implements
implic
imported
impos
imprec
impression
impul
inacc
inactivated
inappropriate
incen
incentive
incentives
incidents
incis
incision
includ
inclusive
incom
income
incomes
incons
inconsistencies
inconsistency
incont
incontinence
incorrectly
incumb
incur
incurred
indef
indexing
indiff
indigenous
inducible
inductor
industr
ine
infancy
infant
infants
infarc
infarct
infarction
infeasible
infect
infectious
inferences
infertility
infil
infiltr
infin
infl
influential
influenza
influx
informal
informational
informed
infras
infrastructures
infused
ingestion
ingred
inh
inhabit
inhabitants
inhal
inhalation
inhaled
inheritance
inherited
initialization
initiative
initiatives
injured
injuries
innate
innovation
innovations
inoculation
inoculum
inpatient
inquiry
insec
insect
insectic
insects
insertions
inspec
inspir
install
instanti
institution
institutional
institutions
instr
instruc
instruct
instructed
instruction
instructional
instructor
insu
insufficiency
insurance
insure
intakes
integrates
integrative
intellectual
intelligence
intelligent
inten
intend
intens
intensi
intent
intentional
intentions
intercellular
interferon
interleukin
interne
internet
interneurons
interoper
interp
interpersonal
interrupt
interruption
interv
interventions
interview
interviewed
interviews
intox
intracranial
intract
intram
intramuscular
intran
intraoperative
intrap
intraper
intraperitoneal
intrav
intravenously
introduc
intron
intu
intubation
intuition
invalid
inventory
invertebr
invertible
investigator
investigators
investments
investor
investors
invited
io
ips
ipsilateral
iris
irrig
irrigation
irrit
ischa
ischemia
ischemic
islet
islets
isofl
isoforms
isolates
isometric
isop
issued
ist
iti
ity
iu
ix
iz
ja
jap
jaw
je
jed
jedoch
ji
jj
jk
job
jobs
jointly
jour
journals
judg
judge
judges
judgment
judgments
jug
jun
juris
jurisdic
justice
justif
justification
juven
juvenile
kS
kan
kann
kappa
kary
keine
kerat
keratinocytes
kern
ketamine
keys
keyword
keywords
kidneys
killed
killer
kinem
kits
kj
kk
kl
klein
klin
knew
knockdown
knockout
knows
ko
komm
kon
konn
konnte
kur
kö
können
lM
labor
labour
lacked
lactation
laid
lake
lakes
lamina
landing
landmark
landmarks
lands
lanes
lang
languages
lapa
laparoscopic
larg
larv
larvae
larval
laryngeal
lasting
lat
latencies
latency
latit
launc
launch
lb
lc
ld
leader
leaders
leadership
lean
learned
learner
learners
learns
lec
lectin
lecture
lectures
legacy
legal
legi
legis
legisl
legislation
legitimate
leisure
lending
leng
lep
leptin
lessons
leth
lethal
letting
leuc
leucine
leukemia
leukocyte
leukocytes
leverage
lex
lexical
lexicon
lg
liability
liberal
libitum
lic
license
licensed
lifes
lifespan
lifest
lifestyle
ligase
ligated
lik
limbs
lineage
lineages
lingu
linguistic
lipoprotein
liquidity
lis
listen
listeners
listening
listing
liter
literacy
literal
litter
liv
lived
livers
livestock
ll
lnc
loan
loans
lob
locality
loci
locom
locomotion
locomotor
logging
logics
logistic
logistics
logs
longevity
longterm
lookup
los
loud
love
loyal
ls
lt
lth
lu
lub
luc
lum
lumbar
luminal
lupus
lute
lymphaden
lymphatic
lymphocyte
lymphocytes
lymphoid
lymphoma
lymphomas
lysed
lysosomal
mAbs
mRNAs
mTOR
macular
magne
mail
mainstream
mais
maize
maker
makers
malaria
males
malformations
malicious
malignancies
malignancy
malnutrition
mammals
mammary
manag
managed
manager
managerial
managers
managing
mandibular
maneu
maneuver
mang
manifestations
manipulator
mantle
manuf
manufacturers
margins
mari
marital
marketing
markets
marking
marri
marriage
married
mast
mate
maternal
math
mathematics
mating
maturity
maxillary
maximization
maximizes
maze
meal
meals
meanings
meat
medial
mediast
mediates
mediating
mediation
medication
medications
medicines
medull
meetings
meg
mehr
meist
melanogaster
melatonin
mell
mellitus
membership
membr
mening
meningitis
menstr
menstrual
ment
mental
menu
mesenteric
message
messages
messenger
metac
metadata
metalloprotein
metap
metaph
metaphor
metastases
meteorological
meters
metformin
methionine
methodological
metropolitan
microRNA
microbiota
microgl
microglia
microl
microphone
microsatellite
microtubule
microtubules
microvascular
middleware
midline
migr
migraine
migrants
migratory
military
millions
millis
mine
mirr
misclass
misleading
mismat
missed
missions
mistakes
mitochondri
mitogen
mitosis
mitotic
mitral
mn
mob
mobil
mobilization
mock
modality
moder
modi
modulates
modulo
moi
molec
monetary
money
monitors
monkey
monkeys
monocyt
monocyte
monocytes
monomial
monotherapy
monotone
monthly
mood
mor
moral
morbidity
morning
morphine
morphism
morphogenesis
morphologically
mos
mosquito
mosquitoes
mothers
motivate
motivational
motivations
motives
moun
mountain
mouth
mov
movie
msec
mt
mtDNA
mucosa
mucosal
mucus
mud
mult
multicast
multicenter
multil
multilevel
multimedia
multin
multipath
multivariable
municip
municipal
mur
muscular
musculoskeletal
music
musical
muss
mutagen
mutated
myc
myelin
myeloid
myeloma
myocard
myocardial
myocardium
myocytes
myosin
mys
mé
nach
naeh
naive
nal
nam
naming
nanopar
narc
narr
narrative
nasal
nation
nations
nausea
navig
navigation
naïve
necrotic
ned
negation
negoti
negotiation
neighborhoods
neighbourhood
neighbours
nemat
nematode
neo
neonatal
neonates
neoplas
neoplasia
neoplasms
neoplastic
neph
nephropathy
nerv
nerves
nest
nests
nets
networking
neurob
neuroc
neurode
neuroendocrine
neurogenesis
neuroimaging
neurologic
neurological
neurom
neuromuscular
neurop
neuropath
neuropathy
neuroprot
neuroprotective
neuropsych
neuros
neurotrans
neurotransmit
neutr
neutralizing
neutrop
neutroph
neutrophil
neutrophils
newborn
newborns
newer
news
newsp
nf
niche
nicht
nicotin
nicotine
nieht
nig
nil
nin
nite
nition
nitr
nj
nk
nl
nloaded
nn
noc
noch
nocic
noctur
nodule
nodules
noeh
nonc
nonempty
nonnegative
nonparametric
nons
norepinephrine
normality
normative
norms
nort
nos
nose
notes
notif
notification
notions
noun
nouns
nous
nov
novelty
novo
nozz
nr
nu
numb
numeric
nun
nur
nurse
nurses
nursing
nutrition
nutritional
não
oC
oa
obes
obese
obesity
oblig
obligations
obs
observers
obst
obstruction
obstructive
occasional
occasions
occipital
occlusion
occupational
occurrences
ocular
od
odds
oder
offic
office
officers
official
officials
offline
offshore
offspring
oft
ofthe
og
oh
ohne
oi
ok
oldest
olfactory
oligodend
oligonucle
olive
om
onc
oncogenic
oncology
ons
ont
ontologies
ontology
oo
oocyte
oocytes
openness
ophthal
opi
opinions
opioid
opportunistic
oppos
opposition
optimality
optimistic
optional
oracle
orally
orb
orches
ordinal
ore
org
organis
organisation
organisational
organisations
organizational
organizations
organize
organizing
ortholog
osteoarthritis
osteoclast
osteopor
osteoporosis
ot
ou
ought
outage
outbre
outbreak
outbreaks
outdoor
outgrowth
outlier
outlines
outpatient
outperform
outperforms
outs
ov
ovarian
ovaries
ovary
ove
ovem
overes
overex
overexpressed
overexpressing
overexpression
overflow
overhead
overlo
overload
overlooked
overr
overt
overweight
owned
owner
owners
ownership
oxygenation
pac
pace
pacient
pacientes
pacing
paclitaxel
paediatric
pages
painful
pall
palliative
palp
palsy
pancreas
pancreatitis
pand
pap
papill
papillary
paradigms
paradox
paral
paralle
parallelism
paramet
parasit
parasite
parasites
parathyroid
paren
parench
parenchyma
parental
parenting
parents
pari
parietal
parser
parsim
parsing
parti
participant
participated
participates
parties
partnership
party
pas
passages
passenger
password
patent
patents
paternal
pathogenesis
pathologic
pathologies
pathology
pathoph
pathophysiology
paying
payload
payment
payments
payoff
pdf
peace
pec
pedagog
pedestr
pedestrian
pediatric
peer
peers
pelvic
pelvis
penetr
pension
perce
perceive
percenti
percentile
percep
perception
perceptions
perceptual
percutaneous
perforation
perfused
perin
perinatal
periodontal
perioperative
peritoneal
permissions
permutations
peroxid
peroxidation
peroxis
perp
persisted
personality
personalized
personnel
persons
persu
pert
pervasive
pes
pess
pest
pesticide
pf
phagocytosis
phant
pharmacokine
pharmacy
phe
phenotypes
phenotypic
pherom
pheromone
philosoph
philosophical
philosophy
phone
phones
phonological
phosphatidyl
phospho
phosphory
phosphoryl
photocatal
phrase
phrases
phyl
phylogenetic
phylogeny
physician
physicians
physiologic
physiologically
physiology
phytoplankton
pigs
pill
pine
pituitary
pj
pk
placebo
placent
placenta
placental
planner
plaque
plaques
plasmids
plasmin
plaus
player
players
please
pleural
plex
plexus
plur
pluripot
pmol
pneumonia
pneumoniae
pod
pointer
poli
police
policies
politic
political
politics
pollen
polyc
polyclonal
polyg
polygon
polym
polymorphism
polymorphisms
polyp
polyphen
polyps
polyt
pooled
pooling
pools
popularity
porph
portal
portfolio
portr
posed
positives
positivity
poss
possib
posted
postmenopausal
postnatal
postoperative
postoperatively
postpartum
posts
postsynaptic
postural
posture
potato
potentiation
poultry
pour
poverty
practices
practition
practitioner
practitioners
pragmatic
preca
preceded
preclinical
precondition
precurs
predation
predator
predators
predec
predicate
predicates
predictor
predictors
predis
prednis
predom
preem
pref
prefix
prefrontal
pregn
pregnancies
pregnancy
pregnant
preinc
prelim
premise
premium
prenatal
preoperative
preprocessing
preschool
prescri
prescribing
prescriptions
presentations
presum
presynaptic
pret
preterm
preval
preventive
prey
pricing
pril
primate
primates
primes
priming
primitives
primord
prioriti
priorities
priors
prison
priv
privacy
private
privile
proactive
proc
proced
procedural
proceedings
processors
prod
producer
producers
productive
profession
professional
professionals
professor
proficiency
profit
profitability
profits
progenitors
progeny
progester
progesterone
progn
prognosis
prognostic
progr
programm
programme
programmer
programmers
programmes
progressed
prohibited
proinflammatory
proliferating
proliferative
promot
prono
proofs
prophyl
prophylactic
prophylaxis
propos
proposals
proposing
propositional
propositions
propri
proprietary
pros
prospec
prospectively
prostagland
prostaglandin
prosthesis
prosthetic
proteases
proteasome
proteinuria
proteolysis
proteolytic
proteome
proteomic
proteomics
prototypes
protr
provid
provider
providers
province
provinces
provision
provisions
prox
proxy
pruning
pré
psoriasis
psych
psychiatric
psycho
psychological
psychology
psychometric
psychosis
psychosocial
pt
puber
publicly
publis
publish
publisher
publishing
pulmonary
pun
punc
puncture
punishment
pup
pupil
pups
purchase
purchasing
pursue
pursuit
pus
puts
puzz
pyl
pylori
pyruvate
qPCR
qRT
qualified
quarks
quartile
que
quer
queries
query
questioned
questionnai
questionnaire
questionnaires
queu
queue
queues
qui
quiet
quit
rDNA
rRNA
rabbits
racial
radar
radioactivity
radiographic
radiographs
radiol
radiological
rail
rainfall
randomised
randomization
randomized
rang
ranked
ranks
rap
rapamycin
rated
ratings
rationality
rb
rd
reachable
reactivation
realiz
realm
rearrang
reass
recap
receipt
receivers
receives
recept
reception
receptive
recessive
rech
recipient
recipients
recognised
recognizes
recognizing
recommendation
recommendations
recommends
reconc
reconfig
reconfiguration
recons
reconstit
reconstituted
reconstruc
recr
recre
recruited
recruitment
rectal
rectang
rectif
rectifier
recurrent
recursion
recursively
redes
redis
redund
redundancy
reef
refere
referral
reflec
reflex
reforms
refr
refuge
regim
regimen
regimens
register
registers
registr
registry
regress
regressions
regul
regulates
regulations
regulators
regurg
rehabilitation
reimb
rein
reject
relapse
relatedness
relational
relativ
relatives
relays
reliance
relig
religion
religious
reluct
remember
remind
remission
remot
remov
ren
renin
rent
reper
reperfusion
reperto
repertoire
repetitions
reply
repor
repos
repository
repr
representatives
repression
repressor
reprint
reprints
reproductive
reputation
request
requested
requests
rescue
researc
researcher
resected
resection
reserv
reservation
reserve
reserved
reserves
resident
residential
residents
resilience
resorption
respec
respects
responded
respondent
respondents
responders
responding
responsibility
responsiveness
restaur
restor
restr
restrictive
resuscitation
retail
reti
reticulum
retin
retina
retinopathy
retirement
retr
retrans
retrieve
retrograde
retros
retrospective
retrospectively
rev
revascular
revenue
revenues
revers
reviewers
reviewing
revision
reward
rewards
rewriting
rg
rheumat
rheumatoid
rhin
rhiz
rhyth
rhythm
rhythms
ribosomal
ribosome
richness
rif
rights
risky
rit
rivers
rj
rk
rm
rn
roads
robotic
robotics
robots
rodent
rodents
rol
rom
roof
rooms
rooted
rounds
router
routers
routines
routing
rr
rst
ru
runoff
runtime
rural
rv
ry
ré
rés
sacc
sacr
sad
sag
sagittal
sale
sales
saliency
salient
saliva
salivary
salmon
sam
san
sanc
sarc
sarcom
sarcoma
satisfaction
sav
save
saved
savings
saying
says
scalp
scarc
scat
scav
scene
scenes
sche
schedul
schedule
scheduled
scheduler
schedules
scheduling
schema
schizophren
schizophrenia
scholar
scholars
schon
school
schooling
schools
schw
sci
scientist
scin
scler
sclerosis
scored
scoring
scri
script
scripts
sd
seamless
searc
seasonal
seasons
secre
secret
secrete
secretory
sed
sedation
sedentary
seedling
seedlings
seeing
seeking
seeks
seg
seh
sehr
sein
seiner
seiz
seizure
seizures
sel
selbst
selects
sell
seller
selling
seman
semantic
semantically
semantics
semen
semicon
semigroup
semis
sen
send
sender
sending
sends
senes
senescence
senior
sensation
sensed
senses
sensible
sentence
sentences
senti
sentiment
sep
sepsis
septal
septic
sequel
sequenced
seques
sera
seroton
serotonin
serotype
serv
server
servers
services
sessions
settlement
sevent
sex
sexes
sexual
sexually
shRNA
sham
shareholders
sheep
shel
ship
shoot
shoots
shop
shopping
shore
shortage
shr
sib
sibling
siblings
sich
sick
sieh
sigm
sigmoid
signalling
signed
signi
signifi
silencing
silent
simplex
sind
singleton
sinh
sister
sit
sitting
sj
skewed
skill
skilled
skills
skull
sla
slave
sleep
slots
smartphone
smear
smokers
smoking
snap
sobre
soci
socially
societal
societies
socio
socioeconomic
sold
soll
solvers
som
somat
somatic
someone
sond
sondern
song
sont
sor
sorts
sounds
southern
sow
sowie
spars
sparsity
spati
spatio
spaw
speak
speaker
speakers
speci
specialist
specialists
specialization
specialty
specifies
specifying
spectr
speech
speedup
spend
spending
sper
spermat
spermato
spermatozoa
sph
sphing
spind
spine
spines
spiritual
splen
splenic
splic
splice
splicing
spline
spoken
spons
sponsored
spor
sporadic
spores
sport
sports
spp
spr
sputum
squamous
sr
staff
staging
stake
stakeholders
stance
standardization
starvation
stat
statin
stating
statins
stator
stead
stenosis
stent
stents
steroid
steroids
stig
stigma
stimul
stimulates
stocks
stomach
stone
stones
stool
stores
stories
storm
story
strata
strategic
stratif
stratum
street
streng
stressful
stressors
striatal
striatum
strike
strokes
strom
stroma
stromal
struc
strugg
styl
style
styles
subc
subcl
subclass
subclinical
subd
subdivided
subdivision
subfamily
subgraph
subgroups
subj
subjective
submission
submit
suboptimal
subp
subpopulation
subpopulations
subscale
subscales
subscri
subsequ
subsequence
subsid
subsp
subtree
subtype
subtypes
succession
suffering
suffix
sugg
suggestions
suicidal
suicide
sul
supercon
superfamily
superim
supers
supervis
supervised
supervision
supervisor
supine
supplemental
supplementation
supplements
supplier
suppliers
suppor
supportive
suppressor
supr
surely
surge
surgeon
surgeons
surgeries
surgically
surplus
surv
surveillance
surveyed
surviv
survived
surviving
survivors
suscep
suspicion
suspicious
suture
swallow
swarm
sweet
swine
syll
syllable
sym
symbolic
sympathetic
symptom
symptomatic
symptoms
synapse
synapses
syndrome
syndromes
synov
synovial
synt
syntactic
syntax
syring
sys
syst
systolic
sé
tRNA
tablet
tac
tach
tachycardia
tackle
tactile
tagging
tal
talk
talking
tam
tamoxifen
tanks
tar
tariff
tas
taste
taught
taxa
taxes
taxonomic
taxonomy
teach
teacher
teachers
teams
tech
techni
technically
teen
teeth
telecommun
telephone
teles
television
tells
telom
telomerase
telomere
tem
temper
temperate
temporarily
tender
tendon
terminates
terminology
tern
terr
terrain
territory
terror
testbed
testes
testicular
testis
testosterone
tetrap
texts
textual
tf
thalamus
thaliana
theme
themes
theor
therap
therapist
therapists
thesis
thing
thinking
thirty
thorac
thoracic
thoughts
threats
thresholding
thro
thrombo
thrombocyt
thromboemb
thrombosis
thrombus
thumb
thymus
thyroid
tib
tibia
tibial
tic
tick
tied
tier
ties
timed
timely
timest
tio
tion
tions
titer
titers
titr
tiv
tive
tj
tk
tl
tm
tn
tob
tobacco
token
tokens
told
tolerant
tolerate
tomato
tone
tones
tongue
tonic
topical
tors
tot
tour
tourism
tow
town
toxicities
toxin
toxins
trab
trabec
trache
tracheal
tracker
tractable
tracts
trad
tradeoff
trading
tradition
trafficking
trail
trains
trait
traits
transaction
transactions
transcri
transcribed
transcriptase
transcriptome
transcripts
transduced
transf
transfusion
transgene
transgenic
transiently
transitive
translating
transloc
transm
transmissions
transmits
transmitter
transplant
transplantation
transplanted
transpor
transpos
trat
trauma
traumatic
trav
travers
tread
triangulation
trich
tries
triglyceride
triglycerides
trimester
triv
tro
troph
trophic
tropical
troub
trout
trunk
trust
trusted
trustworth
truth
tt
ttp
tu
tuber
tuberculosis
tubules
tubulin
tumorigen
tumorigenesis
tumours
tunn
tuple
tuples
tur
ture
tutor
twe
tweets
typed
typing
ua
ub
ubiquitin
ubiquitination
uc
ud
ue
ug
uj
uk
ul
ulcer
ulcers
ultrason
ultrasonography
uma
umb
umbilical
una
unaccept
unacceptable
unavailable
unbalanced
uncom
uncommon
uncons
uncor
underes
undergraduate
underlie
underm
underst
undert
undertake
undetectable
undi
undirected
une
unemploy
unemployment
unex
unfold
unic
unilateral
unin
uninfected
union
uniqu
univariate
univer
universally
universities
university
unlabeled
unm
unobs
unobserved
unpredict
unpredictable
unpublished
unrel
unrelated
unreliable
unres
unrestricted
unsatisf
unstructured
unsupervised
unt
unter
unters
updates
updating
upl
uplink
uplo
upregulated
upregulation
ureth
urg
urinary
uro
usability
usable
uter
uterine
uterus
uthor
utilities
utiliz
utter
utterance
utterances
uv
va
vaccinated
vaccination
vaccines
vag
vaginal
valuation
vancomycin
varieties
vascul
vasculature
vasoconstr
vasodil
vegetables
vegetative
vehic
veins
veloc
vend
vendor
vendors
venom
venous
venti
ventil
ventilation
ventral
ventric
ventricle
ventricular
verb
verbal
verbs
veri
verm
verschied
verte
vertebr
vertebra
vertebral
vertebrate
vertebrates
vesic
vess
vestib
vestibular
veter
vibr
victim
victims
videos
viel
vig
vill
village
villages
violated
violations
violence
violent
virulence
visceral
viscos
visit
visited
visiting
visitors
visits
vitre
viv
vj
vk
vn
vo
voc
vocabulary
vocal
voice
volati
volcan
voluntary
volunteer
volunteers
vom
vomiting
vote
voters
votes
voting
vowel
vulgar
vulnerabilities
vulnerability
wage
wages
wait
wal
wanted
wants
ward
ware
waren
warf
warfarin
warning
warr
warrant
warranted
wat
watch
watermark
watermarking
watershed
weaknesses
weaning
weap
website
websites
weekly
weit
wel
welche
welfare
wen
wenn
werden
wes
west
wetland
whi
whom
wi
wie
wieder
wife
wildlife
wildtype
willing
willingness
win
winds
winning
wir
wird
wishes
withdraw
withdrawal
wj
wk
wo
woman
women
won
wonder
worden
worker
workforce
workload
workloads
workplace
workshop
workshops
worlds
worms
wors
worsening
wr
wra
wrist
writes
wrote
wur
wurde
wurden
xed
xj
xk
xm
xp
xs
xt
xx
xxx
yc
ye
yearly
yes
yi
yj
yk
ym
yon
younger
youth
yp
ys
za
zeb
zeig
zeigen
zeigt
zi
zn
zo
zu
zum
zur
zusamm
zw
zwe
zwei
zwischen
{0,
{1,
{{
|2
|=
||
|∇
},
¡
¢
£
¤
¥
¦
§
©200
©201
«
¬
®
¶
·)
»
¿
À
Á
Â
Ä
Æ
Ç
É
Ê
Í
Î
Ï
Ð
Ñ
Ò
Ó
Ô
Õ
Ö
Ø
ØØ
Ù
Û
Ü
Þ
ß
à
á
â
ã
ä
ç
è
é
ét
été
ê
í
î
ð
ñ
ö
ú
û
ü
über
þ
ÿ
ı
ũ
ŷ
Ž
ǫ
ˆ
́
̂
̈
̊
̧
ι
μν
в
д
и
м
о
п
по
с
ت
ر
ن
ه
ي
ẋ
–1
―
‘‘
’
’’
”
„
†
‡
′
′(
′)
′,
′.
′′
⁄
€
↑
↓
⇒
⇔
∂2
∃
∅
∅.
∆
∆(
∏
−(
−0
−0.
−1.
−=
−→
−−
−∞
∗(
∞∑
∣∣
∣∣∣
∣∣∣∣
∥∥
∧
∨
∩
∪
∼=
≺
⊂
⊆
⊕
⊥
⋃
⋆
⎛
⎜
⎝
⎞
⎟
⎠
⎡
⎢
⎣
⎤
⎥
⎦
⎧
⎪
■
●
●●
◦
〉
の
