
!
"
#
##!
##!!
##!)
##!,
##!.
##"
##")
##",
##".
###
###38;
##$
##$2
##%
##%)
##%),
##%).
##%,
##%.
##%;
##&
##&)
##'
##''
##'(
##')
##',
##'-
##'.
##(
##((
##()
##(+
##(+)
##(-
##(0)
##(0,
##(1
##(1)
##(1),
##(1):
##(1+
##(1,
##(1-
##(1/
##(10
##(11
##(11)
##(12)
##(1−
##(2
##(2)
##(2),
##(2):
##(2+
##(2,
##(2-
##(3
##(3)
##(3),
##(3):
##(3,
##(4
##(4)
##(4),
##(4):
##(4,
##(5
##(5)
##(5):
##(6
##(6)
##(6):
##(7)
##(8)
##(9)
##([
##({
##(|
##(~
##(·
##(·)
##(·,
##(∆
##(−
##)
##)!
##)(
##))
##)))
##)),
##)).
##)+
##),
##),(
##)-
##)-1
##).
##)/
##)1
##)2
##)3
##):
##);
##)=
##)[
##)]
##)],
##)].
##)|
##)|2
##)}
##)×
##)–
##)‖
##)→
##)∈
##)−
##)−1
##)〉
##*
##*(
##*)
##**
##***
##****
##********
##*,
##*.
##+
##+(
##+)
##++
##+,
##+-
##+.
##+/
##+1
##+1(
##+1)
##+1,
##+1.
##+2
##+3
##+=
##,
##,"
##,(
##,)
##,*
##,,
##,.
##,0
##,000
##,1
##,1,
##,2
##,3
##,4
##,5
##,6
##,7
##,[
##,~
##,’’
##,”
##,−
##-
##-(
##-)
##-,
##--
##---
##----
##--------
##----------------
##-.
##-/
##-0
##-0.
##-00
##-01
##-02
##-03
##-04
##-05
##-06
##-07
##-1
##-1)
##-1),
##-1).
##-1,
##-1-
##-1.
##-1/
##-10
##-10,
##-100
##-11
##-12
##-13
##-14
##-15
##-16
##-17
##-18
##-19
##-199
##-2
##-2)
##-2,
##-2-
##-2.
##-20
##-200
##-201
##-21
##-22
##-23
##-24
##-25
##-26
##-27
##-28
##-29
##-3
##-3,
##-3-
##-3.
##-30
##-31
##-32
##-33
##-34
##-35
##-36
##-37
##-38
##-39
##-3′
##-4
##-4,
##-4-
##-40
##-43
##-44
##-45
##-46
##-47
##-48
##-49
##-5
##-5,
##-5-
##-50
##-55
##-6
##-6,
##-6-
##-60
##-64
##-67
##-7
##-70
##-75
##-8
##-80
##-9
##-90
##-95
##-[
##.
##."
##.'
##.(
##.)
##.),
##.).
##.);
##.,
##.-
##..
##...
##...,
##....
##.....
##......
##.......
##........
##.........
##..........
##...........
##............
##.............
##..............
##...............
##................
##./
##.0
##.00
##.01
##.1
##.1%
##.1%)
##.1)
##.1,
##.1.
##.10
##.10,
##.11
##.11,
##.12
##.13
##.14
##.15
##.16
##.17
##.18
##.19
##.2
##.2%
##.2%)
##.2)
##.2,
##.2.
##.20
##.200
##.201
##.21
##.22
##.23
##.24
##.25
##.26
##.27
##.28
##.29
##.3
##.3%
##.3%)
##.3)
##.3,
##.3.
##.30
##.31
##.32
##.33
##.34
##.35
##.36
##.37
##.38
##.39
##.4
##.4%
##.4%)
##.4)
##.4,
##.4.
##.40
##.41
##.42
##.43
##.44
##.45
##.46
##.47
##.48
##.49
##.5
##.5%
##.5%)
##.5)
##.5,
##.5.
##.50
##.51
##.52
##.53
##.54
##.55
##.56
##.57
##.58
##.59
##.6
##.6,
##.7
##.7,
##.8
##.9
##.:
##.;
##.[
##.]
##.~
##.’
##.”
##/
##/$
##/$31.00
##/(
##/)
##/).
##/+
##/,
##/-
##/.
##//
##/0
##/1
##/1.
##/10
##/10.
##/10.10
##/10.1016/
##/10.1021/
##/10.11
##/10.1371/
##/100
##/11
##/12
##/13
##/14
##/15
##/16
##/17
##/18
##/19
##/2
##/2)
##/2,
##/2.
##/20
##/200
##/201
##/3
##/4
##/4.
##/4.0/
##/5
##/6
##/7
##/8
##/9
##/~
##/∂
##/−
##0
##0(
##0)
##0),
##0).
##0);
##0+
##0,
##0,000
##0-
##0.
##0.0
##0.00
##0.01
##0.05
##0.05).
##0.1
##0.2
##0.3
##0.4
##0.5
##0.6
##0.7
##0.8
##0.9
##0/
##00
##00)
##00,
##00.
##000
##000,
##000.
##0000
##0001
##001
##002
##003
##004
##005
##006
##007
##008
##009
##01
##01)
##01).
##01,
##01.
##010
##011
##012
##013
##014
##015
##016
##017
##018
##02
##03
##04
##05
##06
##07
##08
##09
##0:
##0;
##0]
##0|
##0}
##1
##1%
##1%)
##1(
##1)
##1))
##1),
##1).
##1):
##1);
##1*
##1+
##1,
##1,...,
##1,2
##1,2,
##1-
##1-1
##1-2
##1-3
##1-5
##1.
##1.0
##1.1
##1.2
##1.3
##1.4
##1.5
##1.6
##1.7
##1.8
##1.9
##1/
##1/2
##10
##10)
##10).
##10,
##10-
##10.
##100
##100,
##1000
##101
##1016/
##102
##103
##104
##105
##106
##107
##108
##109
##10]
##10].
##11
##11)
##11,
##11-
##11.
##11/
##110
##111
##1111
##112
##113
##114
##115
##116
##117
##118
##119
##11]
##11].
##12
##12)
##12,
##12-
##12.
##120
##121
##122
##123
##124
##125
##126
##127
##128
##129
##12]
##12].
##13
##13,
##13.
##130
##132
##133
##134
##135
##136
##137
##1371/
##138
##139
##13]
##13].
##14
##14,
##14.
##140
##144
##145
##146
##147
##148
##149
##14]
##14].
##15
##15,
##15.
##150
##154
##155
##156
##157
##158
##159
##15]
##15].
##16
##16,
##16.
##160
##165
##166
##167
##168
##169
##16].
##17
##17,
##17.
##170
##174
##175
##176
##17].
##18
##18,
##18.
##180
##185
##18].
##19
##19)
##19,
##19.
##190
##195
##196
##197
##198
##199
##19].
##1:
##1;
##1=
##1[
##1]
##1],
##1].
##1_
##1|
##1}
##1–
##1—
##1⁄2
##1⁄4
##1⁄41
##1−
##2
##2%
##2%)
##2(
##2)
##2)(
##2))
##2),
##2).
##2):
##2);
##2*
##2+
##2+,
##2+-
##2+]
##2,
##2,3
##2-
##2-1
##2.
##2.0
##2.1
##2.2
##2.5
##2.6
##2.7
##2.8
##2.9
##2/
##2/2
##2/3
##20
##20)
##20,
##20-
##20.
##200
##2000
##201
##202
##203
##204
##205
##206
##207
##208
##209
##20].
##21
##21)
##21,
##21-
##21.
##21/
##210
##212
##21].
##22
##22,
##22.
##220
##23
##23,
##23.
##235
##24
##24,
##24.
##244
##25
##25,
##25.
##250
##255
##256
##26
##26,
##26.
##26.00
##27
##27,
##27.
##28
##28,
##28.
##29
##29,
##29.
##293
##2:
##2;
##2=
##2[
##2]
##2],
##2].
##2|
##2}
##2–
##2−
##3
##3%
##3%)
##3(
##3)
##3),
##3).
##3):
##3);
##3+
##3,
##3,4
##3-
##3-1
##3.
##3.0
##3.1
##3.2
##3.6
##3.7
##3.8
##3.9
##3/
##3/2
##30
##30,
##30.
##300
##304
##305
##308
##31
##31,
##31.
##31.00
##32
##32,
##32.
##33
##33,
##33.
##34
##34,
##35
##35,
##36
##36,
##36.
##36/
##37
##37,
##38
##38,
##38/
##386
##38;
##39
##39,
##3:
##3;
##3]
##3],
##3].
##3–
##3⁄4
##3−
##4
##4%
##4(
##4)
##4),
##4).
##4):
##4+
##4,
##4-
##4.
##4.0
##4.1
##4.6
##4.7
##4.8
##4.9
##4/
##40
##40,
##40.
##400
##41
##41,
##415
##42
##42,
##43
##44
##44,
##45
##45,
##450
##456
##46
##47
##48
##49
##4:
##4;
##4]
##4],
##4].
##4–
##5
##5%
##5%),
##5%,
##5(
##5)
##5),
##5).
##5);
##5,
##5-
##5.
##5.0
##5.00
##5.6
##5.7
##5.8
##5.9
##5/
##50
##50%
##50,
##50.
##500
##506
##51
##52
##53
##53,
##53-
##54
##549
##55
##56
##57
##58
##59
##5:
##5;
##5]
##5],
##5].
##5–
##6
##6%
##6%)
##6(
##6)
##6),
##6).
##6):
##6,
##6-
##6.
##6.0
##6.1
##6.6
##6.7
##6.8
##6.9
##6/
##60
##60,
##60.
##600
##61
##62
##63
##64
##65
##66
##67
##68
##69
##6:
##6;
##6]
##6],
##6].
##6–
##7
##7%
##7%)
##7)
##7),
##7).
##7,
##7-
##7.
##7.0
##7.6
##7.7
##7.8
##7.9
##7/
##70
##70,
##70.
##700
##71
##72
##73
##74
##75
##76
##7695
##77
##78
##79
##7:
##7;
##7]
##7],
##7].
##7–
##8
##8%
##8%)
##8)
##8),
##8).
##8+
##8,
##8-
##8.
##8.0
##8.6
##8.7
##8.8
##8.9
##8/
##80
##80,
##80.
##800
##81
##82
##83
##84
##85
##86
##87
##88
##89
##8:
##8;
##8]
##8],
##8].
##8–
##9
##9%
##9%)
##9)
##9),
##9).
##9,
##9-
##9.
##9.0
##9.6
##9.9
##9/
##90
##90%
##90.
##900
##91
##92
##93
##93/
##94
##95
##95%
##96
##97
##98
##99
##9:
##9;
##9]
##9],
##9].
##9–
##:
##://
##:0
##:00
##:1
##:10
##:10.
##:10.10
##:10.100
##:10.1016/
##:10.1038/
##:10.11
##:10.1371/
##:11
##:12
##:13
##:14
##:15
##:16
##:17
##:18
##:19
##:2
##:3
##:4
##:5
##:6
##:7
##:8
##:9
##::
##:;
##;
##<
##</
##<0.0
##<0.00
##<0.001).
##<0.01
##<0.05
##<0.05)
##<0.05).
##=
##="
##=(
##=0
##=0,
##=0.
##=0.0
##=0.00
##=1
##=1,
##=1.
##=2
##=3
##=4
##=5
##==
##====
##=−
##>
##>0
##>>
##?
##?)
##?,
##?”
##@
##@@
##@@@@
##@@@@@@@@
##@@@@@@@@@@@@@@@@
##A
##AA
##AAA
##AB
##ABA
##ABC
##ABLE
##ABP
##AC
##ACC
##ACE
##ACG
##ACH
##ACK
##ACS
##ACT
##ACh
##AD
##ADE
##ADS
##AE
##AF
##AG
##AGA
##AGE
##AGG
##AGT
##AH
##AI
##AIDS
##AK
##AL
##ALL
##ALS
##ALU
##ALY
##AM
##AMA
##AME
##AMP
##AN
##ANCE
##AND
##ANG
##ANN
##ANOVA
##ANS
##AP
##APP
##AR
##ARC
##ARCH
##ARD
##ARE
##ARS
##ART
##ARY
##ARs
##AS
##ASE
##ASH
##ASP
##ASS
##AT
##ATA
##ATC
##ATCC
##ATE
##ATED
##ATG
##ATION
##ATIONS
##ATP
##ATPase
##ATS
##ATT
##AUC
##AV
##AX
##Ab
##Abb
##Abs
##Ac
##Ad
##Af
##Ag
##Ai
##Ak
##Akt
##Al
##Ala
##Ald
##Aldrich
##All
##Am
##Americ
##American
##An
##Anal
##And
##Ang
##Ap
##App
##Applied
##Apr
##Ar
##Arg
##As
##Ass
##At
##Au
##Aug
##Av
##Ax
##B
##BA
##BB
##BC
##BD
##BE
##BER
##BF
##BG
##BH
##BI
##BL
##BM
##BMI
##BN
##BO
##BP
##BR
##BS
##BSA
##BT
##BULLET
##BV
##BW
##Ba
##Bank
##Bar
##Based
##Be
##Ben
##Ber
##Bi
##Bio
##Bl
##Bo
##Br
##Brown
##Bs
##Bt
##Bu
##Bur
##C
##CA
##CAA
##CAC
##CAD
##CAG
##CAL
##CAM
##CAN
##CAP
##CAR
##CAS
##CAT
##CB
##CC
##CCA
##CCC
##CCG
##CD
##CE
##CES
##CESS
##CF
##CG
##CGG
##CH
##CI
##CK
##CL
##CLA
##CLU
##CM
##CMV
##CN
##CNT
##CNTs
##CO
##COM
##CON
##CP
##CR
##CRIPT
##CRP
##CS
##CSF
##CT
##CTA
##CTC
##CTG
##CTION
##CTIONS
##CTS
##CTT
##CV
##CX
##CY
##Ca
##Cal
##Cam
##Can
##Cap
##Car
##Cas
##Cd
##Ce
##Cell
##Ch
##Che
##Chem
##Chen
##Ci
##Cl
##Class
##Co
##CoA
##Col
##Com
##Comm
##Comp
##Comput
##Con
##Conn
##Cons
##Control
##Cor
##Correspondence
##Corresponding
##Cp
##Cr
##Cre
##Cs
##Ct
##Cu
##Cy
##D
##DA
##DB
##DC
##DCs
##DD
##DE
##DF
##DG
##DH
##DI
##DL
##DM
##DMSO
##DN
##DNA
##DO
##DP
##DR
##DS
##DT
##DV
##Da
##Data
##Dav
##Daw
##De
##Dec
##Def
##Del
##Dep
##Department
##Des
##Di
##Direct
##Do
##Down
##Downloaded
##Dr
##Ds
##Du
##E
##EA
##EARCH
##EB
##EBP
##EC
##ECT
##ECs
##ED
##EDTA
##EDs
##EE
##EEE
##EEP
##EF
##EG
##EGF
##EGFP
##EI
##EL
##ELD
##ELL
##EM
##EMBER
##EMENT
##EMENTS
##EMS
##EN
##ENCE
##ENS
##ENT
##ENTS
##EP
##EPT
##ER
##ERAT
##ERC
##EREN
##ERENCES
##ERG
##ERI
##ERK
##ERM
##ERS
##ERT
##ES
##ESC
##ESI
##ESS
##EST
##ET
##ETs
##EU
##EV
##EW
##EX
##EY
##Ed
##Eds
##Ei
##El
##Em
##En
##End
##Eng
##Ep
##Eq
##Equ
##Er
##Es
##Et
##Europe
##Ev
##Ex
##F
##FA
##FAs
##FB
##FC
##FD
##FE
##FET
##FF
##FG
##FGF
##FH
##FI
##FL
##FLD
##FM
##FN
##FO
##FORM
##FP
##FR
##FS
##FT
##FU
##FV
##Far
##Fc
##Fe
##Fi
##Fig
##Figs
##Figure
##Figures
##Fisher
##Fl
##Flow
##For
##Fr
##Fs
##G
##GA
##GAA
##GAAG
##GAP
##GB
##GC
##GD
##GE
##GF
##GFP
##GFR
##GG
##GGG
##GH
##GHz
##GI
##GL
##GM
##GMP
##GN
##GO
##GP
##GR
##GRO
##GROUND
##GS
##GT
##GTA
##GTG
##GTT
##GV
##Ga
##Gal
##Gaussian
##Ge
##Gen
##Gene
##Gi
##Gib
##Gl
##Glc
##Glu
##Gly
##Go
##Gold
##Gr
##Grant
##Graph
##Green
##Group
##Gs
##Gu
##Gy
##H
##HA
##HB
##HC
##HCl
##HD
##HDL
##HE
##HER
##HF
##HG
##HH
##HI
##HIV
##HL
##HM
##HN
##HO
##HOD
##HP
##HPLC
##HR
##HS
##HT
##HV
##HY
##Ha
##Hall
##Hb
##He
##Health
##Her
##Hg
##Hi
##High
##Hill
##His
##Ho
##Hol
##How
##Hs
##Hu
##Hy
##Hz
##I
##IA
##IAL
##IB
##IC
##ICA
##ICAL
##ICATION
##ICATIONS
##ICE
##ICH
##ICS
##ID
##IDE
##IDS
##IDs
##IE
##IEEE
##IES
##IF
##IFF
##IFN
##IFT
##IG
##IGF
##IGN
##IH
##II
##III
##IJ
##IK
##IL
##ILITY
##ILL
##IM
##IN
##INC
##IND
##INE
##ING
##INGS
##INK
##INS
##INT
##IO
##ION
##IONAL
##IP
##IPA
##IPT
##IQR
##IR
##IS
##ISA
##ISH
##ISO
##ISP
##ISS
##ISSN
##IST
##IT
##ITC
##ITE
##ITH
##ITION
##ITY
##IV
##IVE
##IVES
##IX
##IZ
##Id
##If
##Ig
##IgG
##Im
##In
##Ind
##Ins
##Instit
##Institute
##Int
##Inter
##Intern
##International
##Inv
##Invitrogen
##Ir
##Is
##It
##J
##JA
##JECT
##Jan
##John
##Jones
##Jun
##June
##K
##KA
##KB
##KD
##KE
##KF
##KH
##KI
##KK
##KL
##KM
##KO
##KS
##KT
##KY
##Ka
##Ke
##Ki
##Kn
##Kr
##Ks
##L
##LA
##LAB
##LAST
##LB
##LC
##LD
##LDL
##LE
##LEMENT
##LES
##LEX
##LEY
##LF
##LI
##LINE
##LL
##LM
##LN
##LO
##LP
##LR
##LS
##LT
##LU
##LV
##LY
##La
##Lab
##Le
##Lee
##Level
##Li
##Life
##Lin
##Liu
##Lo
##Log
##Ls
##Lu
##Luc
##Lys
##M
##MA
##MAC
##MAN
##MAP
##MAX
##MB
##MBER
##MC
##MD
##MDA
##ME
##MENT
##MET
##MF
##MG
##MH
##MHz
##MI
##MIC
##MK
##ML
##MM
##MMP
##MN
##MO
##MOD
##MP
##MPs
##MR
##MRI
##MRT
##MS
##MSC
##MSCs
##MSE
##MSO
##MT
##MV
##MW
##MY
##Ma
##Mac
##Man
##Map
##Mar
##Mark
##Mart
##Mat
##Max
##May
##Mb
##Mc
##Me
##Med
##Meier
##Met
##Mg
##Mi
##Mic
##Mill
##Min
##Mn
##Mo
##Mod
##Model
##Molecular
##Mon
##Mor
##Ms
##My
##Myc
##N
##NA
##NAL
##NAS
##NAT
##NAc
##NB
##NC
##ND
##NE
##NET
##NF
##NG
##NH
##NI
##NK
##NL
##NM
##NMR
##NN
##NO
##NOS
##NOWLED
##NOWLEDG
##NP
##NPs
##NR
##NS
##NT
##NTS
##NTs
##NV
##Na
##National
##Ne
##Net
##Neu
##New
##Ni
##No
##Non
##Note
##Ns
##O
##OA
##OAc
##OB
##OC
##OCK
##OD
##OE
##OF
##OG
##OH
##OL
##OLD
##OLOG
##OLOGICAL
##OLOGY
##OM
##ON
##OND
##ONE
##ONS
##OO
##OP
##OR
##ORD
##ORDS
##ORE
##ORK
##ORM
##ORS
##ORT
##ORY
##OS
##OSE
##OSS
##OT
##OU
##OURNAL
##OV
##OVA
##OW
##OX
##Ob
##Of
##Ol
##On
##One
##Online
##Op
##Or
##Ori
##Os
##Out
##Ox
##P
##PA
##PAGE
##PAR
##PB
##PBS
##PC
##PCA
##PCR
##PD
##PE
##PEG
##PEND
##PET
##PF
##PFC
##PG
##PH
##PI
##PK
##PL
##PLA
##PM
##PN
##PO
##PP
##PR
##PRO
##PS
##PSK
##PSO
##PSS
##PT
##PU
##PV
##Pa
##Pad
##Par
##Pb
##Pd
##Pe
##Per
##Ph
##Phe
##Phys
##Pi
##Pl
##Pn
##Po
##Pol
##Pr
##Pres
##Pro
##Promega
##Ps
##Pt
##Pub
##PubMed
##Q
##QA
##QC
##QI
##QL
##QOL
##QP
##QR
##QU
##Qi
##Qiagen
##QoL
##Qu
##R
##RA
##RACT
##RAP
##RB
##RC
##RD
##RE
##RES
##RF
##RG
##RH
##RI
##RIB
##RIC
##RID
##RIS
##RIT
##RK
##RL
##RM
##RN
##RNA
##RNAL
##RNAs
##RO
##ROC
##ROD
##RODUCTION
##ROM
##ROS
##RP
##RR
##RS
##RT
##RV
##RY
##Ra
##Rad
##Rb
##Rd
##Re
##Rec
##Red
##Ref
##Reg
##Rel
##Rep
##Res
##Research
##Rev
##Rh
##Ri
##Rn
##Ro
##Rob
##Roche
##Rs
##Ru
##S
##SA
##SAR
##SAS
##SB
##SC
##SCC
##SCI
##SCs
##SD
##SDS
##SE
##SEM
##SF
##SG
##SH
##SI
##SIC
##SIM
##SING
##SION
##SIS
##SIT
##SK
##SL
##SM
##SMA
##SN
##SNR
##SO
##SOD
##SP
##SPR
##SPSS
##SR
##SS
##ST
##STA
##STAT
##STM
##STR
##STRACT
##SU
##SV
##SVM
##SW
##SY
##Sa
##Sah
##Saharan
##Sal
##Santa
##Sc
##Sch
##Scheme
##Scientific
##Script
##Se
##Sec
##Section
##See
##Seq
##Ser
##Set
##Sh
##Si
##SiO
##Sigma
##Sil
##Sim
##Sk
##Sl
##Sm
##Smith
##Sn
##Sol
##Sp
##Spec
##Sr
##Ss
##St
##State
##Ste
##Str
##Stud
##Sub
##Supp
##Suppl
##Supplemental
##Supplementary
##Sw
##Syn
##T
##TA
##TB
##TC
##TD
##TE
##TEM
##TER
##TF
##TG
##TH
##TI
##TL
##TM
##TN
##TNF
##TO
##TOF
##TOR
##TP
##TPA
##TR
##TRA
##TROL
##TS
##TT
##TV
##Ta
##Table
##Tables
##Tc
##Te
##Tech
##Term
##Tg
##Th
##The
##Theorem
##Ther
##Thermo
##This
##Ti
##TiO
##Time
##Tk
##Tn
##To
##Tr
##Trans
##Tri
##Ts
##Tx
##Type
##U
##UA
##UB
##UC
##UCT
##UCTION
##UD
##UE
##UG
##UI
##UK
##UL
##ULAR
##ULATION
##ULL
##ULLET
##ULT
##UM
##UME
##UN
##UND
##UNEL
##UNG
##UP
##UR
##URE
##URES
##US
##USA
##USSION
##UST
##UT
##UTION
##UTR
##UV
##Un
##Uni
##Univers
##University
##Up
##Us
##V
##VA
##VC
##VCH
##VD
##VE
##VEGF
##VER
##VI
##VL
##VM
##VO
##VP
##VR
##VS
##VT
##Val
##Van
##Ver
##Verlag
##Vi
##View
##Vis
##Vol
##Vs
##W
##WA
##WB
##WC
##WD
##WF
##WH
##WHO
##WI
##WL
##WLED
##WM
##WN
##WP
##WR
##WS
##WT
##WW
##Wall
##Wallis
##Wang
##We
##Web
##West
##Wh
##Whitney
##Wi
##Wil
##Willi
##Work
##Ws
##X
##XA
##XL
##XR
##XS
##XT
##XX
##XY
##Xi
##Xiv
##Xj
##Xk
##Xn
##Xt
##Y
##YP
##YS
##Yi
##Z
##ZA
##ZE
##Zhang
##Zn
##[
##[(
##[0,
##[1]
##[2]
##[[
##\
##]
##](
##])
##]),
##]).
##]+
##],
##]-
##].
##]:
##];
##][
##]]
##^
##_
##_00
##__
##____
##________
##________________
##`
##a
##aa
##aacr
##aacrjournals
##ab
##aba
##aban
##abase
##abatic
##abb
##abd
##abdominal
##abe
##abei
##abel
##abeled
##abelle
##aben
##abet
##abetes
##abeth
##abetic
##abi
##abil
##abilistic
##abilities
##ability
##abilized
##abin
##abine
##abis
##abit
##abl
##able
##abled
##ables
##abling
##ably
##abol
##abolic
##abolism
##abor
##about
##abric
##abs
##absorption
##abstract
##abul
##abular
##abulary
##ac
##aca
##acad
##acc
##accept
##acces
##access
##acchar
##acco
##ace
##acea
##aceae
##aced
##acellular
##acement
##acements
##acency
##acent
##acental
##aceous
##acer
##acerb
##aces
##acet
##acetate
##acetic
##acetyl
##aceu
##ach
##ache
##acheal
##ached
##achen
##acher
##aches
##achi
##achid
##achine
##aching
##achment
##achn
##achs
##acht
##achus
##achusetts
##aci
##acia
##acial
##acian
##acic
##acid
##acies
##acil
##acin
##acing
##acional
##aciones
##acious
##acity
##ación
##ack
##acker
##acket
##ackets
##acking
##acks
##acle
##acles
##aco
##acon
##acqu
##acr
##acrine
##acryl
##acrylamide
##acrylate
##acs
##act
##acted
##acter
##acterial
##acterium
##actic
##actin
##acting
##action
##actions
##activ
##activated
##activating
##activation
##active
##actively
##activeness
##activity
##actor
##actors
##actory
##acts
##acture
##acturing
##acute
##acy
##acyl
##ad
##ada
##adal
##adap
##adapted
##adaptive
##adas
##adata
##adays
##add
##adder
##ade
##adec
##aded
##adeh
##adel
##adelphia
##aden
##adequ
##ader
##ades
##adesh
##adher
##adherin
##adi
##adian
##adic
##adient
##adily
##ading
##adiol
##adish
##adium
##adj
##adjusted
##adjuvant
##admin
##administered
##administration
##ado
##ador
##ados
##adow
##adren
##adrenergic
##ads
##advant
##ady
##ae
##aea
##aeh
##ael
##aemia
##af
##afe
##afen
##afenib
##aff
##affe
##affected
##affin
##affinity
##afil
##aft
##aften
##after
##afts
##ag
##aga
##agan
##agation
##agawa
##age
##aged
##agement
##agen
##agent
##agents
##ager
##agers
##ages
##agg
##agger
##agglut
##aggreg
##agh
##agi
##agia
##agic
##aginal
##aging
##agl
##agland
##agle
##agm
##agmatic
##agn
##agne
##agner
##agnetic
##ago
##agog
##agon
##agonal
##agraph
##ags
##aguchi
##ague
##agul
##agulation
##ah
##aha
##ahajournals
##ahan
##ahashi
##ahi
##ahl
##ahme
##ahn
##ahoo
##ahr
##ai
##aid
##aight
##aign
##ail
##ailability
##ailable
##ailand
##ailed
##ailing
##ails
##ailure
##aily
##aim
##ain
##aind
##aine
##ained
##ainen
##aining
##ains
##aint
##aints
##aip
##air
##aire
##aired
##aires
##airs
##airy
##ais
##ait
##aj
##ajournals
##ajp
##ak
##aka
##ake
##aked
##aken
##aker
##akers
##akes
##akh
##aki
##aking
##akis
##ako
##akov
##akr
##aks
##akt
##akter
##aktion
##aku
##al
##ala
##alam
##alamic
##alamus
##alan
##aland
##alanine
##albumin
##alc
##ald
##aldehyde
##ale
##aled
##alen
##ales
##alez
##alf
##alg
##algebra
##ali
##alia
##alian
##aliana
##alid
##alignment
##alin
##aline
##aling
##alis
##alities
##ality
##alk
##all
##alle
##alled
##allel
##alley
##alli
##alliative
##allic
##alling
##alloc
##allow
##ally
##alo
##alone
##alpha
##als
##alsh
##also
##alsy
##alt
##alth
##although
##alu
##aly
##am
##ama
##aman
##amate
##amb
##ambda
##ambigu
##ame
##amed
##amel
##amen
##ament
##amental
##amente
##amento
##aments
##amer
##amers
##ames
##amet
##ameter
##ameters
##amethasone
##ametric
##ami
##amic
##amicin
##amid
##amide
##amil
##amiliar
##amilies
##amilton
##amily
##amin
##aminase
##amination
##amine
##aminergic
##amines
##aming
##amino
##amins
##amm
##amma
##ammer
##amming
##amond
##amoto
##amous
##amp
##ampl
##ample
##amples
##ampling
##amps
##ampsia
##ams
##amt
##amura
##amy
##amycin
##amyl
##an
##ana
##anabe
##anal
##analy
##analyses
##analysis
##analytic
##anc
##ance
##anced
##ancement
##ancer
##ancers
##ances
##anch
##anche
##anched
##anches
##anchester
##anchez
##ancial
##ancies
##ancing
##anck
##anco
##ancomycin
##ancre
##ancy
##and
##anda
##ande
##anded
##andem
##anden
##ander
##andes
##andez
##andial
##andid
##anding
##ando
##andom
##andon
##andra
##ands
##ane
##aned
##anen
##aneous
##anes
##anese
##ang
##ange
##angen
##anger
##angers
##anghai
##angi
##angiogenic
##angl
##angle
##angu
##anguage
##anguages
##ani
##ania
##anic
##anil
##anine
##aning
##anium
##ank
##anks
##ankton
##ann
##anna
##anne
##anned
##annel
##annels
##anner
##anners
##anning
##annon
##annual
##ano
##anol
##anos
##ans
##ansas
##ansen
##ansi
##ansion
##anson
##ansson
##ant
##anta
##ante
##anted
##anten
##antes
##anth
##anti
##antib
##antibodies
##antibody
##antit
##antitative
##antle
##antly
##anto
##ants
##antum
##anus
##any
##anyl
##anz
##anç
##ao
##ap
##ape
##aped
##aper
##apers
##apes
##apeu
##apeutic
##aph
##aphr
##aphyl
##apine
##apl
##aplan
##apol
##apolis
##apop
##apoptotic
##apor
##apore
##app
##appa
##apped
##apping
##appro
##approximately
##aps
##apse
##apsed
##apses
##apsing
##apt
##apter
##aptic
##apunov
##apy
##aque
##aques
##ar
##ara
##araj
##aram
##aran
##arant
##aratus
##arb
##arbeit
##arbital
##arbon
##arbonate
##arboxyl
##arc
##arch
##architect
##arcin
##arcom
##arcoma
##ard
##arded
##arden
##ardi
##ardia
##arding
##ardless
##ardo
##ards
##are
##area
##arean
##ared
##arel
##arent
##arer
##ares
##arest
##aret
##arez
##arg
##arge
##arged
##arger
##arget
##arginine
##argo
##ari
##aria
##ariable
##arial
##arian
##arians
##ariate
##aries
##arily
##arin
##aring
##ario
##aris
##arith
##arities
##arity
##arium
##ark
##arker
##arks
##arm
##arma
##armac
##armaceu
##armaceutical
##arms
##arn
##aro
##aron
##arose
##arot
##around
##arp
##arr
##arrang
##array
##arrays
##arri
##arrier
##arriers
##arrow
##ars
##arse
##art
##artan
##arten
##arter
##arters
##arth
##arti
##article
##articular
##artile
##artite
##artment
##artments
##arts
##artz
##arum
##arv
##arvard
##arvest
##ary
##arying
##aryl
##aryn
##aryng
##aryngeal
##arynx
##as
##asa
##asaki
##asal
##asant
##asc
##ascul
##ascular
##ase
##ased
##aser
##ases
##ash
##ashes
##ashi
##ashion
##asi
##asia
##asian
##asible
##asic
##asing
##asion
##asis
##asitic
##ask
##aska
##asks
##asm
##asmus
##asome
##ason
##asonal
##asons
##asp
##aspase
##ass
##assay
##asse
##assemb
##assembly
##assen
##asser
##asses
##assess
##assi
##assisted
##assium
##assive
##associated
##assung
##ast
##astatin
##aste
##asted
##aster
##astern
##asters
##astic
##astically
##astom
##astr
##astro
##asts
##asty
##asure
##asy
##at
##ata
##atable
##atal
##atar
##atase
##atation
##atch
##ate
##ated
##ateg
##ategor
##ategories
##ategory
##atellite
##ately
##aten
##ateness
##atenin
##ater
##ateral
##aterally
##aterial
##aterials
##atern
##aternal
##aters
##ates
##atever
##atform
##ath
##athan
##athe
##ather
##athered
##atheter
##athetic
##athione
##athy
##athyroid
##ati
##atia
##atial
##atic
##atical
##atically
##atics
##atid
##atidyl
##atif
##atigue
##atik
##atile
##atility
##atin
##atine
##ating
##atinib
##atinine
##atinum
##atio
##ation
##ational
##ationally
##ations
##atis
##atisf
##atisfaction
##atism
##atit
##atite
##atitis
##atitude
##ativ
##ativa
##ative
##ativec
##ativecommons
##atively
##ativen
##ativeness
##atives
##ativity
##atization
##atized
##ato
##atoire
##atom
##atomic
##aton
##atonin
##ator
##atories
##ators
##atory
##atosis
##atr
##atri
##atric
##atrices
##atrick
##atrol
##ats
##atsu
##att
##atten
##atter
##attering
##attle
##atum
##atur
##atural
##aturally
##aturated
##aturation
##ature
##atured
##atures
##aturing
##atus
##atz
##au
##auc
##aud
##auer
##auf
##aug
##auge
##ault
##aur
##aus
##ausal
##ause
##ausea
##auses
##auss
##aussian
##aut
##auth
##author
##authorized
##auti
##autics
##aux
##av
##ava
##avage
##availability
##available
##aval
##avas
##ave
##aved
##aven
##aver
##average
##averaged
##aves
##avi
##avian
##avidin
##avig
##avin
##aving
##aviolet
##avir
##avirus
##avity
##avoid
##avor
##avorable
##avy
##aw
##awa
##aware
##away
##awed
##awi
##aws
##ax
##axel
##axia
##axial
##axis
##axy
##ay
##aya
##ayama
##ayan
##ayashi
##ayed
##ayer
##ayers
##aylor
##ays
##az
##aza
##azard
##aze
##azep
##azi
##azine
##azo
##azol
##azole
##azone
##azu
##azz
##ação
##ações
##b
##bB
##ba
##bach
##back
##bad
##bal
##balance
##balanced
##ball
##ban
##band
##bands
##bank
##bar
##bas
##base
##based
##baum
##bb
##bc
##be
##beam
##bean
##bearing
##bec
##because
##becco
##beck
##bed
##bedd
##bedded
##before
##behav
##behavior
##bei
##being
##beit
##bel
##bell
##ben
##bene
##bens
##benz
##ber
##bere
##berg
##berger
##berry
##bers
##bert
##berts
##bes
##best
##bet
##beta
##between
##bi
##biased
##bil
##bild
##bildung
##bility
##bin
##bind
##binding
##bing
##bio
##birth
##bis
##bit
##bitr
##bits
##bj
##bl
##black
##bladder
##ble
##bles
##blind
##block
##blood
##blue
##bmj
##bn
##bo
##board
##body
##bol
##bolic
##bon
##bond
##bone
##book
##books
##bor
##borg
##born
##borne
##borns
##bot
##both
##bottom
##bound
##bounded
##bour
##bourne
##bow
##box
##bp
##br
##bra
##brain
##bral
##brand
##brane
##branes
##bras
##bre
##bred
##breeding
##brevi
##breviations
##brid
##bridge
##bris
##bro
##bruary
##bry
##bs
##bst
##bt
##bu
##buff
##buffered
##building
##bul
##bumin
##bur
##burg
##burgh
##burn
##bury
##bus
##but
##butyl
##by
##c
##ca
##cadherin
##cal
##calc
##cale
##cales
##called
##cam
##can
##cancer
##cans
##cant
##cantly
##cap
##car
##carb
##carbon
##carbons
##cardi
##care
##case
##cast
##casts
##cat
##catal
##catalyzed
##catenin
##cation
##cations
##cause
##cb
##cc
##cd
##ce
##cean
##ced
##ceed
##ceedings
##cein
##ceived
##ceiver
##cel
##cell
##cells
##cellular
##cellulose
##cemia
##cemic
##cence
##cens
##cent
##center
##centered
##central
##centric
##cents
##cep
##cephal
##cept
##cepted
##ception
##ceptions
##ceptor
##ceptors
##cepts
##ceptual
##cer
##ceral
##cerol
##cers
##certain
##ces
##cess
##cession
##cessive
##cessively
##cf
##cg
##cgi
##ch
##cha
##chaft
##chain
##chan
##chang
##change
##changed
##channel
##char
##character
##characterized
##charge
##charomyces
##che
##check
##ched
##cheid
##chel
##chell
##chem
##cheme
##chemical
##chen
##cher
##chers
##ches
##chi
##chied
##child
##ching
##chip
##chitz
##chl
##chlor
##cho
##choice
##chol
##cholesterol
##choline
##chool
##chr
##chro
##chrom
##chron
##chrotron
##cht
##ci
##cia
##cience
##ciences
##cient
##cientific
##cin
##cine
##cing
##cious
##cip
##cipl
##ciples
##circ
##circuit
##cis
##cit
##cium
##ción
##cj
##ck
##cks
##cl
##clamp
##class
##classical
##cle
##clin
##clinical
##clip
##clipse
##clock
##closed
##clusion
##clusive
##cluster
##cm
##cn
##co
##coated
##code
##coded
##coding
##coh
##cohol
##col
##cold
##coll
##cology
##color
##column
##com
##comDownloaded
##comb
##come
##comes
##coming
##comings
##comm
##commerce
##commercial
##commun
##comp
##compass
##compati
##compe
##comple
##complete
##complex
##component
##comput
##computer
##con
##conc
##concept
##condition
##conditions
##conf
##conjug
##conjugated
##conn
##connected
##cons
##consistent
##constrained
##consuming
##cont
##contact
##containing
##content
##continu
##continuous
##contr
##contrast
##control
##controlled
##controller
##conver
##convex
##cool
##coord
##cop
##cope
##coprotein
##copy
##cor
##core
##corrected
##correlation
##corresponding
##cortical
##cos
##cost
##coun
##coupled
##course
##cover
##cow
##cox
##cp
##cr
##cre
##creativecommons
##cri
##cribe
##cribed
##cript
##cription
##cripts
##critical
##cross
##cs
##ct
##ctomy
##cu
##cul
##culosis
##cultural
##culture
##cumin
##cur
##current
##cus
##cussion
##cut
##cutaneous
##cy
##cyc
##cycl
##cycle
##cyt
##cz
##d
##dB
##dL
##dT
##dU
##da
##dam
##dan
##dark
##das
##dase
##dashed
##dat
##data
##date
##day
##days
##db
##dc
##dd
##de
##dec
##ded
##def
##deficient
##defined
##deg
##degree
##dehy
##dehyde
##del
##delay
##dem
##demand
##den
##denoted
##dens
##dense
##density
##deoxy
##dep
##depend
##dependence
##dependent
##depleted
##depress
##depth
##der
##derived
##derly
##ders
##des
##described
##design
##det
##determ
##determined
##dev
##develop
##developed
##df
##dh
##di
##diabetic
##diagn
##diagonal
##diameter
##dic
##die
##diff
##difference
##diffusion
##dig
##digital
##dil
##dim
##dimension
##dimensional
##dimethyl
##din
##ding
##dinger
##dip
##direct
##directed
##direction
##directional
##dis
##disc
##discipl
##disciplinary
##diss
##dist
##distance
##dition
##ditional
##div
##dk
##dl
##dle
##dm
##dn
##do
##doc
##doctoral
##document
##doi
##dom
##domain
##domains
##domen
##dominal
##dominant
##dominated
##don
##door
##doped
##dor
##dose
##dot
##dovepress
##down
##dr
##draw
##dri
##dried
##driven
##dro
##drop
##drug
##ds
##dt
##du
##dual
##duc
##duce
##duced
##ducible
##ducing
##duct
##ducting
##duction
##ductive
##ductivity
##ductor
##ductors
##ducts
##due
##duk
##dx
##dy
##dynamic
##dz
##e
##ea
##each
##ead
##ear
##earch
##eared
##earing
##early
##earman
##ears
##easible
##eb
##ec
##eca
##ecal
##ecan
##ece
##eced
##eces
##ech
##echan
##echanical
##echn
##eck
##ecker
##ecl
##eclampsia
##ecn
##econ
##econd
##econds
##economic
##ecraft
##ect
##ectable
##ected
##ectin
##ecting
##ection
##ections
##ectious
##ectiv
##ective
##ectively
##ectiveness
##ectives
##ectivity
##ectom
##ectomy
##ecton
##ector
##ectors
##ects
##ecture
##ecu
##ecutive
##ed
##eda
##ede
##edema
##eder
##edes
##edge
##edi
##edia
##ediatr
##ediatric
##eding
##edom
##eds
##edu
##educ
##edy
##ee
##eed
##een
##ees
##ef
##eff
##effect
##effective
##effectiveness
##effects
##efficacy
##efficient
##efined
##eg
##eh
##ehen
##ei
##eight
##eit
##either
##ej
##ek
##eks
##ekt
##ektion
##el
##ela
##eland
##elastic
##eld
##ele
##elec
##electric
##electro
##electron
##element
##elen
##eler
##eleration
##eless
##elf
##elfare
##eli
##elian
##elihood
##elin
##eline
##elines
##eling
##ell
##ella
##ellar
##ellate
##ellation
##elle
##ellec
##ellectual
##elled
##ellen
##eller
##elles
##elli
##ellig
##elling
##ellite
##ellites
##ello
##ellow
##ellows
##ellowship
##ells
##ellt
##ellular
##ellum
##elly
##elm
##elman
##eln
##elo
##eloc
##elona
##els
##elsevier
##elson
##elt
##elve
##elves
##ely
##em
##ema
##emaker
##eman
##emann
##emat
##emb
##embedded
##ember
##embered
##embl
##emble
##embles
##eme
##emed
##emens
##ement
##ements
##emer
##emi
##emia
##emic
##emics
##emp
##emper
##emperature
##empl
##employ
##empor
##emporal
##emporary
##empty
##ems
##emy
##en
##ena
##enari
##enberg
##enc
##ence
##enced
##encephal
##encer
##ences
##ench
##enching
##enchmark
##enchymal
##encia
##encies
##encil
##encing
##encl
##enclature
##encoded
##ency
##end
##enda
##endar
##ende
##ended
##enden
##ender
##enders
##endicular
##ending
##endit
##endix
##endly
##endo
##endocrine
##endorf
##ends
##ene
##ened
##enem
##enen
##ener
##energy
##enes
##eness
##enez
##enf
##eng
##enge
##enger
##engers
##enges
##engine
##engineering
##enging
##ength
##engue
##enh
##enhagen
##enhanced
##eni
##enia
##enic
##ening
##enk
##enn
##ennes
##ennis
##eno
##enosis
##enous
##enriched
##ens
##ensable
##ensation
##ensch
##ense
##ensed
##ensen
##enses
##ensi
##ensile
##ensin
##ensing
##ension
##ensis
##ensitive
##ensitivity
##ensitization
##ensity
##ensive
##enson
##ensor
##ensors
##ensory
##enstr
##ensus
##ent
##enta
##ental
##entary
##entation
##entative
##ente
##ented
##enten
##enter
##enteric
##enth
##enti
##entia
##ential
##entiality
##entially
##entials
##entif
##entific
##enting
##ention
##entis
##entist
##entistry
##entists
##entity
##entlich
##ently
##entr
##entral
##entration
##entrations
##entre
##entric
##entricular
##entry
##ents
##enty
##environment
##enz
##enza
##enzyme
##eon
##eor
##ep
##epage
##epend
##ependent
##eper
##eph
##ephal
##epid
##eping
##epit
##epithelial
##eps
##ept
##epti
##eptic
##eptide
##eptides
##eptin
##eption
##eptive
##eptor
##eq
##equ
##equivalent
##er
##era
##eradish
##eral
##erals
##eras
##erate
##erated
##erating
##eration
##erative
##erator
##erc
##erce
##ercetin
##ercial
##ercise
##erd
##erden
##ere
##ered
##erem
##eremia
##eren
##erence
##erences
##erencing
##erend
##erent
##erenti
##erential
##erentially
##erentiated
##erentiation
##erer
##eres
##erest
##erests
##erex
##erg
##erge
##erged
##ergent
##ergic
##ergies
##ergy
##eri
##eric
##eries
##ering
##erm
##ermal
##erman
##ermann
##ermark
##ermat
##ermis
##ermost
##ern
##ero
##erobic
##eron
##erosis
##erotic
##err
##error
##ers
##ersch
##ersed
##ersen
##ersham
##ership
##erson
##ersonal
##ert
##ertation
##erts
##erung
##erv
##ervation
##ervative
##erve
##erved
##erves
##ervical
##ervice
##erving
##ery
##es
##esch
##ese
##esen
##esh
##esian
##esis
##esium
##esophageal
##especially
##ess
##essel
##essen
##esser
##ession
##essional
##essive
##essor
##essors
##est
##esta
##estab
##established
##estation
##este
##ested
##esteem
##ester
##estern
##esthe
##esthetic
##estic
##esticular
##estinal
##esting
##estock
##estone
##estr
##ests
##et
##eta
##etal
##etary
##etch
##ete
##eten
##etent
##eter
##eterm
##etermin
##etermined
##eterministic
##eters
##etes
##eth
##ethanol
##ethe
##ethel
##etheless
##ether
##etherlands
##ethyl
##ethylene
##etin
##etine
##eting
##eto
##eton
##etooth
##etr
##etra
##etric
##etrics
##etry
##ets
##ett
##etta
##ette
##etter
##ettes
##etti
##etting
##etts
##etw
##etween
##etwork
##ety
##etz
##etzt
##eu
##eur
##ev
##evalu
##even
##event
##ever
##evoked
##ew
##ewe
##ewise
##ework
##eworthy
##ex
##exc
##except
##exchange
##existing
##exp
##expensive
##exper
##expl
##exposed
##exposure
##expressed
##expressing
##expression
##ext
##ey
##eyer
##ez
##f
##fa
##face
##faces
##fact
##factor
##factors
##factory
##facts
##fah
##fahren
##fal
##fall
##falls
##family
##fan
##fang
##far
##fast
##fat
##fc
##fe
##fected
##fection
##fed
##feed
##feeding
##fel
##feld
##fem
##fen
##fer
##ference
##ferm
##ferred
##ferroni
##ff
##ffee
##ffen
##ffer
##ffi
##ffic
##fficacy
##ffici
##fficiency
##fficient
##fficiently
##fficients
##ffl
##fi
##fib
##fiber
##field
##fig
##figuration
##figure
##fil
##file
##fill
##filled
##fin
##final
##find
##finite
##fir
##fire
##first
##fish
##fit
##fits
##fitting
##five
##fix
##fixed
##fl
##flat
##flex
##flow
##floxacin
##fluor
##fly
##fm
##fn
##fo
##fol
##fold
##foli
##folio
##follow
##foot
##for
##force
##forced
##forcement
##forces
##forcing
##ford
##forder
##fore
##form
##formaldehyde
##formance
##formation
##formations
##formed
##former
##formin
##forming
##forms
##fort
##forth
##fortunately
##forward
##found
##four
##fp
##fr
##fraction
##frag
##fram
##frame
##fre
##free
##frequency
##fri
##friendly
##from
##front
##frontiers
##frontiersin
##fs
##ft
##ften
##fter
##ful
##full
##fully
##fulness
##function
##functional
##functions
##fund
##fung
##fungal
##fusion
##fü
##g
##ga
##gaard
##gal
##galact
##galactosidase
##gamma
##gan
##gang
##gans
##gap
##gar
##gart
##gas
##gate
##gated
##gative
##gc
##ge
##geal
##geb
##geben
##gebra
##gebras
##ged
##gef
##gel
##gels
##gem
##geme
##gen
##gence
##gend
##genden
##gender
##gene
##gener
##general
##generate
##generated
##generation
##generative
##genes
##genesis
##genic
##genome
##gens
##gent
##ger
##gered
##geries
##gers
##gery
##ges
##gesch
##gest
##gestion
##gestive
##get
##gether
##gets
##gew
##gf
##gg
##gh
##gi
##gia
##gic
##gical
##giene
##gin
##ginate
##gine
##gineering
##ging
##gins
##givers
##gkin
##gl
##gle
##glich
##glob
##global
##gluc
##glucose
##glut
##gly
##glycer
##glycerol
##glycos
##gm
##gmail
##gn
##go
##going
##gone
##good
##gor
##gorith
##gorithm
##gov
##govern
##gow
##gp
##gr
##grad
##grade
##graded
##grading
##graduate
##grained
##gram
##gramm
##gramming
##grams
##gran
##grant
##grap
##graph
##graphic
##graphs
##graphy
##grass
##grav
##gravity
##gre
##green
##gren
##grid
##gro
##ground
##group
##groups
##growth
##grund
##gry
##gs
##gt
##gu
##gue
##guided
##gulation
##gut
##guyen
##gy
##h
##ha
##habil
##habilitation
##had
##hai
##hal
##halb
##half
##halt
##halten
##ham
##han
##hand
##handed
##handlung
##hang
##haps
##har
##hard
##hardt
##harm
##harmonic
##hart
##has
##hasic
##hasone
##hat
##haus
##haut
##hav
##have
##he
##hea
##head
##heads
##health
##healthy
##heart
##heast
##heastern
##hed
##hedra
##hedral
##hedron
##heim
##heimer
##heit
##heits
##hel
##held
##heli
##helial
##helin
##helium
##helix
##hell
##hem
##hemical
##hen
##hend
##hende
##henden
##hene
##heng
##hens
##hentic
##henyl
##hep
##hepatic
##her
##herche
##here
##hered
##herence
##herent
##heres
##heric
##herical
##herichia
##hern
##herry
##hers
##hes
##hesda
##heses
##hesis
##hesised
##hest
##hester
##het
##hetamine
##hetic
##heum
##heumat
##hev
##hex
##hexane
##hh
##hi
##hib
##hic
##hicle
##hig
##high
##him
##hin
##hing
##hip
##hips
##hir
##hire
##his
##hist
##hk
##hl
##hlen
##hler
##hm
##hma
##hmen
##hn
##ho
##hoc
##hod
##hode
##hof
##hoff
##hol
##hold
##holder
##holders
##hole
##holm
##hom
##home
##hood
##hop
##hor
##hospital
##host
##hot
##hou
##hour
##hous
##house
##how
##hr
##hran
##hre
##hren
##hrend
##hrt
##hrung
##hs
##ht
##htm
##html
##http
##https
##hu
##hua
##hum
##human
##hus
##hy
##hybrid
##hyd
##hydr
##hydro
##hydrogen
##hydrox
##hydroxy
##hyl
##hyp
##hyper
##hypertensive
##hyth
##hä
##i
##ia
##iability
##iable
##iae
##ial
##ially
##ials
##ialysis
##ian
##iana
##iance
##iances
##iang
##iani
##iano
##ians
##iao
##ias
##iasis
##iat
##iation
##iatr
##iatric
##iatry
##iatum
##iax
##iaz
##iazep
##iazol
##ib
##iba
##iben
##iber
##ibility
##ible
##ibli
##ibly
##ibr
##ibraries
##ibrary
##ibrated
##ibration
##ibri
##ibrill
##ibt
##ibular
##ic
##ica
##ical
##ically
##ican
##icans
##icard
##icardial
##icate
##icated
##icates
##ication
##ications
##ice
##iced
##ices
##ich
##iche
##ichen
##icher
##ichi
##ichia
##ichlet
##icht
##ichte
##ichten
##ichtig
##ichts
##ici
##icial
##icially
##ician
##icians
##icidal
##icide
##icides
##iciency
##icient
##icile
##icillin
##icin
##icine
##icing
##icion
##icious
##icit
##icits
##icity
##ick
##icked
##ickel
##icken
##icking
##icks
##icle
##ico
##icol
##icon
##icos
##icrob
##icrobial
##ics
##ict
##icted
##iction
##ictures
##icul
##icular
##icult
##iculties
##icultural
##iculture
##icus
##icz
##id
##ida
##idad
##idade
##idades
##idae
##idal
##idase
##idate
##idated
##idation
##iday
##idazole
##idden
##ide
##ideal
##ided
##idel
##idelberg
##idelity
##iden
##idence
##idene
##ident
##idental
##identif
##identified
##idents
##ideo
##ider
##iders
##ides
##idespread
##idge
##idi
##idia
##idian
##idin
##idine
##iding
##idirectional
##idis
##idity
##idium
##ido
##idol
##idone
##idopsis
##idos
##ids
##ie
##ieb
##ied
##ieder
##iee
##ieee
##ief
##ieg
##iegel
##ieh
##iehen
##ieht
##iek
##iel
##ield
##iele
##ielsen
##ien
##ience
##iency
##ienna
##iens
##ient
##iento
##ients
##ier
##ieren
##iers
##iert
##ierte
##ierten
##ierung
##ies
##iesen
##iesis
##iest
##ietic
##ieties
##ieu
##iew
##iewicz
##if
##ife
##ifen
##ifer
##ifera
##iferation
##iferative
##iff
##ifferentiated
##iffiff
##iffiffiffiff
##ifi
##ifiable
##ific
##ifically
##ificant
##ification
##ifications
##ified
##ifier
##ifiers
##ifies
##ifluor
##ifold
##iform
##ift
##ifted
##ifting
##ifts
##ifug
##ifuge
##ify
##ifying
##ig
##iga
##igan
##igare
##ige
##igen
##igene
##igenetic
##igenous
##iger
##igh
##ighbor
##ighed
##ight
##ighted
##ighter
##ights
##igible
##igkeit
##igl
##igm
##igma
##igms
##ign
##ignant
##igned
##ignificant
##ignment
##igr
##igration
##igroup
##igt
##igu
##igung
##ih
##ii
##iii
##ij
##ijing
##ijk
##ijn
##ik
##ika
##ikation
##ikawa
##ike
##iked
##ikes
##ikh
##iki
##iking
##ikingly
##iko
##il
##ila
##ilar
##ilarities
##ilateral
##ilation
##ild
##ilden
##ilder
##ilding
##ile
##iled
##ilen
##ilent
##ilep
##iler
##iles
##iley
##ili
##ilia
##iliar
##iliary
##iliated
##ilibri
##ilibria
##ilibrium
##ilic
##ilical
##ilience
##ilin
##ilinear
##iling
##ilipp
##ilis
##ilities
##ility
##ilization
##ilized
##ilk
##ill
##illa
##illance
##illar
##illary
##ille
##illed
##illen
##iller
##illi
##illin
##illing
##illips
##illo
##illon
##ills
##illus
##illy
##ilos
##ilosoph
##ils
##ilst
##ilt
##ily
##im
##ima
##image
##imaging
##imal
##imals
##iman
##imate
##imb
##ime
##imension
##imensional
##iment
##imental
##imentin
##imento
##iments
##imer
##imeter
##imetic
##imetric
##imetry
##imi
##imid
##imide
##imilar
##imin
##iminary
##imination
##imm
##immer
##imming
##immun
##immune
##imoto
##imotor
##imp
##impact
##imple
##imum
##imura
##imus
##imuth
##in
##ina
##inae
##inal
##inally
##inance
##inant
##inar
##inary
##inase
##inate
##inated
##inates
##inating
##ination
##inations
##inator
##inc
##ince
##inces
##inceton
##inch
##incial
##incip
##including
##incoln
##income
##incott
##increasing
##inct
##incter
##ind
##inde
##inden
##independent
##inder
##index
##inding
##individual
##induced
##inducible
##inducing
##industr
##ine
##inea
##inear
##ined
##inel
##inely
##inement
##inen
##inence
##inent
##iner
##inery
##ines
##inescence
##inescent
##inese
##iness
##inet
##inetic
##inez
##inf
##infected
##infection
##infl
##inflammatory
##information
##infrared
##ing
##inge
##ingen
##inger
##inges
##ingham
##ingly
##ings
##ington
##ingu
##ingual
##inhib
##ini
##inia
##inin
##inine
##ining
##inis
##inite
##initi
##initial
##inities
##inition
##inity
##inj
##injected
##injection
##ink
##inkel
##inki
##inking
##inks
##inn
##inned
##ino
##inoc
##inois
##inos
##inositol
##inous
##input
##ins
##insic
##insically
##inski
##insky
##inson
##inst
##insulin
##int
##intech
##intechopen
##integr
##integration
##intensity
##intensive
##inter
##interest
##intervention
##intestinal
##intr
##inu
##inus
##inux
##inv
##invariant
##invasive
##io
##iod
##iol
##iolet
##iology
##ion
##ional
##ione
##iones
##ionic
##ionine
##ionized
##ions
##iop
##ior
##iors
##ios
##iosis
##iotic
##iotics
##iour
##ious
##ip
##ipe
##ipedia
##iph
##ipher
##ipheral
##ipine
##ipital
##ipl
##ipolar
##ipore
##ipot
##ipped
##ipping
##ipro
##ips
##ipschitz
##ipt
##iqu
##ique
##iques
##iquit
##ir
##ira
##irable
##iral
##irc
##ircraft
##ird
##irds
##ire
##irect
##ired
##ires
##iri
##iring
##irk
##irkung
##irm
##irmingham
##irms
##iro
##iron
##irr
##irrh
##irst
##irt
##irteen
##irth
##irty
##irubin
##irus
##is
##isa
##isation
##isations
##isc
##iscal
##isch
##ische
##ischen
##ischer
##isco
##iscons
##isconsin
##ise
##ised
##isehe
##isehen
##isely
##isen
##iser
##ises
##ish
##ished
##isher
##ishes
##ishi
##ishing
##ishman
##ishment
##isi
##isible
##ising
##ision
##isions
##isis
##isite
##isition
##isk
##ism
##ismic
##isms
##ismus
##iso
##ison
##isons
##isp
##ispanic
##iss
##issa
##isse
##issen
##issens
##isser
##issi
##issible
##ission
##issive
##isson
##ist
##ista
##istan
##istance
##istant
##istar
##iste
##isted
##istem
##istence
##istency
##istent
##ister
##istered
##istering
##isters
##isti
##istic
##istics
##istine
##isting
##istingu
##istinguish
##istol
##iston
##istor
##istors
##istr
##istration
##istribution
##istry
##ists
##isure
##isy
##it
##ita
##itable
##itably
##ital
##itan
##itance
##itarian
##itary
##itate
##itated
##itates
##itating
##itation
##itations
##itative
##itch
##itching
##ite
##itect
##ited
##itely
##item
##iten
##iter
##iteria
##iterion
##iterranean
##ites
##ith
##ither
##ithi
##iti
##itian
##itic
##ities
##itig
##itigation
##itin
##iting
##ition
##itional
##itions
##itis
##itive
##itively
##itives
##itney
##ito
##itol
##iton
##itone
##itoneal
##itor
##itored
##itorial
##itories
##itoring
##itors
##itory
##itosan
##itr
##itrate
##itro
##itrogen
##itron
##its
##itt
##ittal
##ittel
##itter
##itting
##ittle
##itu
##itud
##itude
##itudes
##itudinal
##itum
##itus
##ituximab
##ity
##itz
##itzer
##itzerland
##ität
##ité
##iu
##ium
##ius
##iv
##iva
##ivable
##ival
##ivalence
##ivalent
##ivan
##ivariate
##ivas
##ive
##ived
##iven
##iveness
##iver
##ivered
##ivers
##ivery
##ives
##ivid
##ivided
##ividual
##ivil
##iving
##ivision
##ivity
##ivo
##ix
##ixed
##ixel
##ixon
##iz
##iza
##izability
##izable
##ization
##izations
##ize
##ized
##izer
##izers
##izes
##izi
##izin
##izing
##izoph
##izophren
##izu
##izumab
##izz
##ión
##j
##ja
##jamin
##jan
##jbc
##je
##ject
##jected
##jection
##jective
##jects
##jee
##jet
##ji
##jiang
##jin
##jing
##jj
##jk
##jm
##jn
##jo
##join
##joint
##jor
##journal
##journals
##joy
##jp
##jt
##ju
##jud
##jug
##jun
##k
##kB
##kDa
##ka
##kan
##kann
##kar
##kary
##kb
##ke
##keeping
##keit
##kel
##kele
##keletal
##keleton
##keley
##ken
##kenn
##kens
##ker
##kers
##kes
##ket
##key
##keys
##kg
##kh
##ki
##kin
##kinase
##kind
##king
##kins
##kinson
##kit
##kj
##kk
##kl
##kle
##km
##kn
##know
##knowled
##knowledg
##knowledge
##known
##ko
##kop
##kov
##kr
##krank
##ks
##kt
##ktop
##ku
##kx
##ky
##l
##la
##lab
##label
##labeled
##labelled
##lac
##lact
##lactam
##lag
##lage
##lam
##lamm
##lammation
##lammatory
##lamyd
##lan
##land
##lands
##lane
##language
##lantic
##lar
##large
##las
##lash
##lass
##last
##lastic
##lasting
##lastoma
##lasts
##lat
##late
##lated
##lation
##lational
##lauf
##lav
##law
##lay
##layer
##ld
##le
##leading
##leaf
##lear
##learning
##lease
##leb
##lec
##lecommun
##lect
##lected
##lectic
##lecting
##lection
##lective
##lectivity
##lectomy
##lectric
##lecular
##lecule
##lecules
##led
##ledge
##lee
##leep
##left
##leg
##lege
##leich
##leigh
##lein
##leit
##lek
##lem
##lement
##lemental
##lementary
##lements
##len
##length
##ler
##lers
##les
##less
##let
##lete
##leted
##letes
##letin
##letion
##lets
##lett
##lev
##levant
##level
##leveland
##lex
##ley
##lez
##li
##liament
##lic
##lication
##lice
##licenses
##lich
##liche
##lichen
##licher
##lick
##lie
##lied
##lieh
##lier
##liers
##lies
##liest
##life
##lig
##light
##lik
##like
##likelihood
##likely
##lim
##limb
##limited
##limiting
##lin
##line
##linear
##linearity
##lined
##lines
##ling
##lings
##linik
##lining
##link
##linked
##linking
##links
##lip
##lipid
##lipidemia
##lips
##lique
##liquid
##lis
##lish
##lished
##lishes
##lishing
##lism
##list
##lit
##litaxel
##liter
##lity
##lived
##lj
##lk
##ll
##lla
##lle
##llen
##lm
##ln
##lo
##load
##loaded
##loading
##loc
##local
##location
##lock
##locked
##log
##lon
##long
##look
##loop
##lor
##lora
##loro
##los
##loss
##lot
##loud
##low
##lower
##lr
##ls
##lt
##lu
##lud
##lude
##luded
##ludes
##ludge
##luding
##luence
##luent
##luid
##luidic
##lund
##lung
##luor
##luores
##luorescence
##luorescent
##lusion
##lusions
##lusive
##lux
##lv
##ly
##lycer
##lying
##lyl
##lym
##lymph
##lympus
##lys
##lysis
##lı
##m
##mL
##mM
##mRNA
##ma
##mac
##made
##magn
##mail
##main
##makers
##making
##mal
##male
##man
##management
##mann
##many
##map
##mar
##mark
##marked
##market
##mas
##mass
##mat
##matched
##matching
##math
##matic
##matrix
##max
##maximal
##maximum
##may
##mb
##mber
##mc
##md
##me
##mean
##means
##meas
##measure
##measured
##measures
##med
##medi
##media
##median
##mediate
##mediated
##mediately
##mega
##mel
##mem
##membrane
##memory
##men
##menopausal
##ment
##mental
##mentary
##mentation
##mente
##mented
##menting
##mentioned
##ments
##mer
##merc
##merce
##mes
##met
##metal
##meth
##method
##methyl
##metic
##metric
##metry
##mg
##mi
##miR
##mia
##mias
##mic
##micro
##mid
##middle
##midt
##mill
##millan
##min
##ming
##ministration
##minute
##miss
##mission
##missions
##mit
##mitt
##mitted
##mium
##mix
##mj
##mk
##ml
##mm
##mma
##mmas
##mmol
##mn
##mo
##mod
##modal
##mode
##model
##models
##modified
##modium
##module
##modules
##mog
##mogorov
##mol
##molecular
##molecule
##mology
##mon
##monary
##mond
##month
##more
##mort
##mortem
##mos
##mosp
##most
##motor
##mouse
##mp
##ms
##mt
##mu
##muir
##multi
##mun
##mus
##mut
##my
##myc
##n
##na
##nah
##nahme
##nai
##naire
##nal
##nals
##nam
##name
##nan
##nar
##nas
##nat
##natal
##national
##native
##natural
##nature
##nc
##nce
##ncia
##nd
##nde
##nder
##nderungen
##ne
##nea
##nec
##necess
##ned
##nee
##neg
##negative
##neider
##neighbor
##nel
##nell
##nen
##ner
##ners
##nes
##nesota
##ness
##net
##nett
##network
##neu
##neum
##neur
##neutral
##new
##nex
##nexin
##ney
##neys
##nez
##ng
##ni
##nia
##nian
##nic
##nicity
##nick
##nier
##night
##nih
##nik
##nine
##ning
##nings
##nis
##nisse
##nit
##nitro
##nitt
##nium
##nj
##nk
##nl
##nm
##nn
##nnen
##no
##node
##noise
##non
##norm
##normal
##nos
##not
##note
##nov
##now
##np
##nr
##ns
##nsic
##nsylvan
##nsylvania
##nt
##nu
##nucle
##null
##number
##nung
##nutrition
##ny
##o
##oA
##oC
##oE
##oL
##oR
##oS
##oT
##oa
##oal
##oarth
##oarthritis
##ob
##oba
##obac
##obacht
##obacillus
##obacter
##obacteria
##obacterial
##obacterium
##obal
##obar
##obarbital
##obe
##obenz
##obi
##obia
##obic
##obil
##obile
##obility
##object
##objective
##obl
##oblast
##oblastic
##oblastoma
##oblasts
##oblot
##obre
##obs
##observer
##obut
##oc
##oca
##ocaine
##ocal
##ocarcin
##ocarcinoma
##ocard
##ocardi
##ocardial
##ocarp
##ocation
##occ
##occup
##occur
##occurrence
##ocellular
##ocene
##och
##ochastic
##oche
##ochem
##ochemical
##ochemistry
##ochen
##ochim
##ochond
##ochondri
##ochrom
##ochrome
##oci
##ocial
##ociated
##ociation
##ociety
##ocin
##ock
##ocket
##ockets
##ocking
##ocks
##ocl
##oclonal
##oco
##ococ
##ococc
##ococcal
##ococci
##ococcus
##ocol
##ocomp
##ocon
##oconstr
##ocor
##ocortic
##ocortical
##ocr
##ocracy
##ocratic
##ocrin
##ocrine
##ocrit
##oct
##ocular
##ocus
##ocused
##ocusing
##ocy
##ocyan
##ocyanate
##ocyst
##ocysteine
##ocysts
##ocyt
##ocyte
##ocytes
##ocytic
##ocytosis
##od
##oda
##odal
##odd
##odds
##ode
##odec
##oded
##odef
##odegrad
##odel
##odem
##oden
##odend
##oder
##oderm
##oderma
##oders
##odes
##odi
##odia
##odialysis
##odic
##odied
##odies
##odil
##oding
##odium
##odiversity
##odon
##odontic
##ods
##ody
##odynam
##odynamic
##odynamics
##oe
##oea
##oeh
##oelec
##oelectric
##oelectron
##oen
##of
##ofacial
##ofen
##off
##offs
##ofib
##ofil
##ofl
##ofluorescence
##ofol
##oform
##oft
##og
##oga
##ogas
##ogaster
##oge
##ogel
##ogen
##ogene
##ogeneic
##ogeneity
##ogeneous
##ogenes
##ogenesis
##ogenetic
##ogenic
##ogenicity
##ogenous
##ogens
##ogeny
##ogether
##ogl
##ogle
##oglob
##oglobin
##oglobulin
##oglu
##ogly
##oglycan
##ogn
##ogni
##ognition
##ognitive
##ogon
##ogonal
##ogr
##ograf
##ograft
##ografts
##ogram
##ograms
##ograp
##ograph
##ographed
##ographic
##ographical
##ographically
##ographics
##ographs
##ography
##ogrel
##ogroup
##ogs
##ogue
##ogy
##oh
##ohist
##ohl
##ohn
##ohy
##ohydr
##oi
##oic
##oid
##oidal
##oides
##oids
##oil
##oin
##oinform
##oinformatics
##oins
##oint
##ointed
##ointing
##oints
##oir
##ois
##oj
##ok
##oka
##oke
##oked
##oken
##oker
##okers
##okes
##okine
##okines
##oking
##oks
##ol
##ola
##olar
##olars
##olaryng
##olas
##olate
##olated
##olateral
##olation
##old
##olds
##ole
##olean
##olecular
##oler
##olerance
##olerant
##oles
##olester
##olesterol
##olf
##oli
##olia
##olic
##olin
##oline
##olinergic
##olip
##olipid
##olism
##olite
##olith
##olium
##olization
##olk
##oll
##olla
##ollary
##ollen
##ollow
##olly
##oln
##olo
##olog
##ologia
##ologic
##ological
##ologically
##ologie
##ologies
##ologische
##ologischen
##ologist
##ologists
##ologous
##ology
##olone
##olor
##olph
##ols
##oluble
##oluminescence
##olus
##olution
##olve
##olved
##olving
##oly
##olymer
##olymers
##olys
##olysis
##olytic
##om
##oma
##omain
##omal
##oman
##omas
##omat
##omatic
##omatous
##omb
##ome
##omed
##omegal
##omen
##oment
##omer
##omerase
##omeric
##omers
##omes
##omet
##ometer
##ometers
##ometh
##omethane
##omething
##omethyl
##ometri
##ometric
##ometrically
##ometrics
##ometry
##omi
##omial
##omic
##omical
##omics
##omide
##oming
##omit
##omm
##ommen
##ommod
##ommons
##ommun
##omnia
##omo
##omod
##omol
##omology
##omon
##omonas
##omorph
##omorphic
##omorphism
##omorphisms
##omotor
##omp
##ompati
##ompatibility
##ompatible
##ompl
##omplex
##omponent
##ompos
##omposition
##ompson
##oms
##omy
##omyc
##omyces
##omycin
##omyel
##omyelitis
##on
##ona
##onal
##onald
##onary
##onate
##onc
##onch
##ond
##onde
##onder
##ondition
##onditional
##ondo
##ondon
##onds
##ondyl
##one
##onectin
##oned
##onen
##onent
##onents
##ones
##oney
##ong
##onge
##ongevity
##ongr
##ongue
##oni
##onia
##onic
##onica
##onical
##onin
##onine
##oning
##onit
##onitrile
##onium
##online
##only
##onn
##ono
##onoi
##onom
##onomic
##onomous
##onomy
##onormal
##ons
##onses
##onset
##onstr
##onstrained
##ont
##ontal
##ontally
##ontaneous
##ontinu
##onto
##ontrol
##onucle
##onuclear
##onuclease
##ony
##onyl
##onym
##onymous
##onz
##oo
##ood
##ool
##oon
##oor
##oot
##ooth
##op
##opa
##opaed
##opaedic
##opamine
##opar
##opath
##opathic
##opathies
##opathological
##opathology
##opathy
##opausal
##opause
##ope
##oped
##opedic
##open
##openia
##oper
##operated
##operation
##operative
##operatively
##opes
##opez
##oph
##ophag
##ophage
##ophageal
##opharmac
##opharyngeal
##ophe
##ophen
##ophenyl
##opher
##ophil
##ophila
##ophilia
##ophilic
##ophils
##ophilus
##ophore
##ophores
##ophosph
##ophosphamide
##ophosphate
##ophyl
##ophyll
##ophys
##ophysical
##ophytes
##opia
##opic
##opid
##opidogrel
##oping
##opl
##oplankton
##oplas
##oplasm
##oplasma
##oplasmic
##oplast
##oplastic
##oplasts
##oplasty
##ople
##opo
##opoietic
##opol
##opoly
##opolysaccharide
##opor
##opos
##opoulos
##opp
##opre
##oprecip
##opres
##opress
##opro
##oprol
##oprop
##opropyl
##oprost
##oprot
##oprotective
##oprotein
##ops
##opsis
##opsy
##opt
##opter
##optera
##optic
##optical
##optim
##optimal
##opulation
##opulations
##opulmonary
##opus
##opy
##opyr
##opyran
##oqu
##oquin
##or
##ora
##oradi
##orage
##oral
##oration
##orb
##orbed
##orbent
##orbid
##orbidity
##orbit
##ord
##ordan
##ordance
##ordant
##order
##ordered
##ordering
##orders
##ordinate
##ording
##ordon
##ords
##ore
##oreal
##orec
##orectal
##ored
##oreg
##orel
##orem
##oren
##orent
##orentz
##orepine
##orepinephrine
##orer
##ores
##orescence
##oresis
##orest
##oretic
##orf
##org
##organ
##organic
##organization
##organized
##orge
##orh
##ori
##oria
##orial
##oriasis
##oric
##orient
##orientation
##oriented
##ories
##orig
##original
##oring
##oris
##ority
##ork
##orld
##orm
##ormal
##orms
##orn
##ornia
##oro
##orous
##orously
##orov
##orp
##orph
##orphic
##orphism
##orphous
##orption
##orr
##orrh
##ors
##orsch
##ort
##ortal
##orted
##orter
##orth
##orthy
##ortic
##orting
##ortion
##ortions
##ortium
##orts
##ortun
##ortunately
##orubicin
##orum
##orus
##ory
##orylation
##os
##osa
##osacchar
##osaccharides
##osal
##osan
##osarcoma
##osc
##oscop
##oscope
##oscopic
##oscopy
##ose
##osecond
##osed
##osely
##osen
##osensi
##osensory
##oser
##oses
##osex
##osexual
##osh
##oshi
##osi
##osidase
##oside
##osin
##osine
##osing
##osion
##osis
##osition
##osity
##osm
##oso
##osocial
##osol
##osols
##osom
##osomal
##osome
##osomes
##osp
##ospace
##osph
##osphate
##osphere
##ospheric
##ospit
##ospital
##ospitals
##ospor
##oss
##ost
##ostasis
##ostat
##ostatic
##ostatin
##oste
##oster
##osteric
##osterone
##ostic
##ostics
##ostomy
##oston
##ostr
##osts
##osum
##osure
##osures
##osus
##osyl
##osyn
##osynthesis
##osynthetic
##osystem
##osystems
##ot
##ota
##otal
##otarget
##otation
##otax
##ote
##otechn
##otechnol
##otechnology
##oted
##otemporal
##otensin
##oter
##oters
##otes
##oth
##othe
##othelial
##other
##otherap
##otherapeutic
##otherapy
##othermal
##othing
##othor
##othy
##oti
##otic
##otically
##otics
##otide
##otides
##otin
##otine
##oting
##otion
##otional
##otive
##oto
##otom
##otomy
##oton
##otonic
##otopic
##otor
##otox
##otoxic
##otoxicity
##otoxin
##otr
##otrans
##otransfer
##otransferase
##otrexate
##otri
##otrop
##otroph
##otrophic
##otropic
##otropin
##otropy
##ots
##otstr
##ott
##otti
##ottom
##otyp
##otype
##otyped
##otypes
##otypic
##otypical
##otyping
##ou
##oub
##oubtedly
##oud
##ough
##oul
##ould
##oun
##ounce
##ound
##ounds
##oung
##ount
##ounted
##ountered
##ounting
##ounts
##oup
##oupled
##oupling
##our
##ource
##ourced
##ources
##ourcing
##oured
##ouri
##ournal
##ournals
##ours
##ourse
##ous
##ouse
##ously
##oustic
##out
##outh
##outheast
##outhern
##output
##outs
##ouver
##oux
##ov
##ova
##oval
##ovalent
##ovan
##ovasc
##ovascular
##ove
##oved
##ovember
##ovement
##ovepress
##over
##overed
##overl
##overlapping
##overn
##overs
##overty
##overy
##oves
##ovic
##ovich
##ovine
##oving
##ovir
##ovirus
##ovis
##ovol
##ovolta
##ovoltaic
##ovsk
##ow
##owa
##owel
##owels
##ower
##owever
##owitz
##own
##ows
##owski
##ox
##oxacin
##oxane
##oxford
##oxfordjournals
##oxia
##oxic
##oxicity
##oxid
##oxidant
##oxidase
##oxidation
##oxide
##oxifen
##oxin
##oxins
##oxo
##oxy
##oxygen
##oxygenase
##oxyl
##oxylic
##oxylin
##oxyp
##oy
##oya
##oyd
##oyl
##oyle
##oz
##ozo
##ozy
##ozyg
##ozygous
##ozyme
##p
##pH
##pa
##pace
##pack
##page
##pain
##pair
##pal
##pan
##panze
##par
##parallel
##parameter
##parameters
##parametric
##paration
##pared
##parency
##parent
##part
##particip
##particle
##particles
##parts
##partum
##party
##pass
##pat
##path
##pathy
##pati
##patient
##patients
##pattern
##pc
##pd
##pdf
##pe
##peak
##pec
##pecially
##pecies
##pecific
##pect
##pected
##pective
##pectively
##pectives
##pectral
##pects
##ped
##peer
##pen
##pent
##peptide
##per
##perf
##performance
##perfusion
##perg
##pergillus
##period
##periodic
##perm
##permissions
##pers
##person
##personal
##pert
##pes
##pet
##pez
##pf
##ph
##pha
##phal
##phan
##phase
##phen
##phenyl
##phia
##phone
##phones
##phosph
##phosphate
##phosphory
##phosphorylated
##phosphorylation
##phot
##photon
##phrine
##phthal
##phy
##phyl
##phys
##physical
##physiology
##pi
##pic
##pin
##pine
##ping
##pir
##piration
##pire
##pired
##pirical
##pit
##pite
##pixel
##pj
##pk
##pl
##place
##placement
##plan
##plane
##plant
##plantation
##plas
##plasia
##plastic
##plate
##platelet
##plates
##platin
##play
##ple
##pled
##pler
##ples
##plet
##plete
##plex
##pliance
##plic
##plicate
##plicated
##plicates
##plication
##plications
##plicit
##plicity
##pling
##plo
##ploid
##plos
##plosone
##plot
##ploy
##ploys
##plus
##ply
##pm
##pn
##pnas
##po
##point
##points
##pol
##polar
##polarized
##poly
##polymer
##pon
##pone
##ponential
##pool
##poor
##por
##poration
##port
##ported
##porter
##portion
##ports
##pos
##pose
##posed
##poses
##posing
##position
##positions
##positive
##posium
##possibly
##post
##posure
##pot
##potent
##potential
##pow
##power
##pp
##ppe
##pped
##ppel
##pper
##ppers
##pping
##ppings
##pple
##ppler
##ppm
##ppoc
##ppocamp
##pps
##pq
##pr
##prac
##pre
##pread
##prec
##preced
##pred
##predict
##pres
##present
##preserving
##press
##pressed
##pressing
##pression
##pressive
##pressure
##pret
##pretation
##pri
##prim
##prin
##print
##printing
##prints
##prise
##prises
##prising
##prisingly
##priv
##pro
##prob
##proble
##problem
##problems
##proced
##process
##processed
##processing
##processor
##producing
##product
##production
##products
##prof
##profit
##project
##prol
##proliferative
##prom
##proof
##prop
##proper
##prot
##protected
##protein
##prov
##ps
##pson
##psych
##pt
##pted
##ption
##ptions
##ptive
##pton
##pts
##pty
##pu
##pub
##public
##publications
##published
##pulse
##pur
##purpose
##pus
##put
##putation
##py
##pyr
##q
##qi
##qq
##qu
##quad
##qual
##quality
##quartile
##que
##queous
##quer
##ques
##quet
##quez
##quid
##quilibrium
##quin
##quir
##quiry
##quist
##quito
##r
##ra
##rab
##rabbit
##rac
##rad
##radi
##radiation
##raf
##rafish
##raft
##rafts
##rais
##raisal
##ral
##ram
##ramb
##ramer
##rams
##ran
##random
##rane
##ranean
##rang
##range
##rangian
##ranging
##ranial
##rank
##rap
##raph
##rared
##ras
##rastructure
##rat
##rate
##rated
##ratic
##ratio
##rational
##raulic
##raw
##ray
##rays
##raz
##razole
##rb
##rc
##rd
##re
##rea
##reach
##reactive
##read
##reading
##ready
##real
##realistic
##ream
##rease
##reased
##reasing
##reat
##reatment
##reb
##rec
##receptor
##recht
##reci
##recip
##recogn
##rect
##rected
##rection
##rectional
##rectomy
##red
##reduction
##ree
##reek
##reement
##reen
##reens
##rees
##ref
##reference
##reflex
##reg
##regation
##region
##regn
##regnancy
##regon
##regular
##regulate
##regulated
##regulation
##rehen
##rei
##reich
##rein
##rel
##reland
##related
##relation
##relations
##relative
##rele
##release
##reless
##relevant
##relin
##rell
##rem
##reme
##rement
##ren
##renal
##rence
##rences
##rench
##rency
##rend
##rene
##reness
##renew
##reng
##rent
##rents
##rep
##repe
##report
##reported
##reprene
##repres
##represented
##requ
##requency
##requent
##requently
##rer
##res
##research
##resh
##reshold
##resid
##resistance
##resistant
##resolution
##resolved
##reson
##resp
##respective
##respectively
##respon
##respond
##respondence
##responding
##response
##responsive
##ress
##ressed
##ressing
##ression
##ressive
##ressively
##rest
##restrial
##restricted
##results
##ret
##rete
##reted
##reten
##retion
##retro
##retroviral
##rett
##rev
##review
##reviewed
##rew
##rex
##rexate
##rey
##rez
##rh
##ri
##ria
##rian
##rib
##ric
##rical
##rically
##rices
##rich
##riched
##rick
##rics
##rid
##rie
##rieb
##ried
##rief
##rien
##ries
##rig
##right
##rights
##rik
##riks
##ril
##rile
##rim
##rimin
##rin
##rine
##ring
##ringer
##rington
##rinted
##rints
##rio
##rip
##ris
##risk
##rit
##rite
##rites
##ritic
##ritin
##ritis
##ritory
##rix
##riz
##rk
##rm
##rn
##ro
##road
##rob
##roc
##rocess
##rock
##rocyte
##rocytes
##rod
##rof
##rog
##rogate
##rogen
##rogenic
##rogens
##roid
##roids
##roke
##rol
##role
##roleum
##rolimus
##roll
##rolog
##rologic
##rological
##rology
##rom
##roma
##romagnetic
##romatic
##romb
##rombo
##rome
##romega
##romes
##romo
##romolecules
##romy
##romyces
##romycin
##ron
##ronectin
##roni
##ronic
##rons
##ront
##rontal
##ronti
##rontiers
##room
##rooms
##root
##rop
##ropathy
##roph
##rophic
##rophy
##ropic
##ropl
##roplasty
##ropol
##ropolitan
##ropri
##ropriate
##ropy
##ror
##ros
##roscl
##roscop
##roscope
##roscopic
##roscopy
##rose
##rosine
##rosion
##rosis
##rosophila
##rosp
##rospinal
##ross
##rost
##rot
##rote
##rotein
##rotic
##rough
##rought
##round
##roup
##rous
##rout
##rov
##rovascular
##row
##rowave
##rowing
##rown
##rows
##rowth
##rox
##roy
##rp
##rr
##rs
##rst
##rt
##ru
##ruit
##rum
##run
##rup
##rupt
##ruption
##rus
##ry
##rying
##rylic
##ryp
##ryst
##rystal
##rystall
##rystalline
##rystals
##s
##sa
##sage
##sagepub
##sal
##sam
##sample
##sampling
##say
##sc
##scale
##scan
##sch
##sche
##schein
##schem
##schen
##scher
##science
##scill
##score
##screen
##sd
##se
##sea
##search
##sec
##second
##section
##sectional
##sed
##see
##seed
##seeking
##seg
##segment
##seh
##sehe
##sel
##select
##selected
##selectin
##selection
##selective
##self
##sem
##sen
##sense
##sensitive
##separ
##seq
##sequ
##sequence
##sequent
##sequently
##ser
##series
##serum
##server
##service
##ses
##set
##sets
##seud
##seven
##sevier
##sex
##sey
##sh
##shaped
##sharing
##she
##sheet
##shell
##shift
##shop
##shore
##short
##shot
##shots
##shown
##si
##sia
##sian
##sians
##sib
##sibilities
##sibility
##sible
##sibly
##side
##sided
##sie
##sies
##sight
##sign
##signal
##significant
##sil
##sim
##similar
##sin
##since
##sing
##single
##siology
##sion
##sions
##sip
##sis
##site
##sities
##sive
##sively
##siveness
##sivity
##six
##size
##sized
##sizing
##sj
##sk
##ska
##ski
##sky
##sl
##sm
##small
##sn
##so
##social
##sof
##soft
##sol
##solid
##soluble
##some
##son
##sor
##source
##sover
##sp
##space
##spe
##spec
##species
##specific
##specified
##spectrum
##speed
##spin
##spl
##spr
##spring
##squ
##square
##squared
##squares
##sr
##srep
##ss
##sson
##st
##stable
##stad
##stage
##stained
##stalk
##stan
##stand
##standard
##standing
##stant
##star
##start
##stat
##state
##states
##static
##station
##stationary
##statis
##ste
##stead
##sted
##stein
##steine
##stell
##stellung
##stem
##sten
##step
##ster
##stere
##stim
##stimulated
##stit
##stituted
##sto
##stock
##stoff
##ston
##stone
##str
##stract
##strain
##stral
##strand
##stranded
##strate
##stre
##stream
##stress
##stroke
##strom
##strong
##structure
##structured
##stry
##stud
##study
##style
##su
##sub
##subject
##subs
##subunit
##such
##sue
##sulf
##sum
##sung
##sup
##super
##supp
##supported
##sur
##sure
##surface
##sus
##sw
##sy
##sych
##sym
##symmetric
##syn
##system
##systems
##t
##ta
##table
##tag
##tage
##tagged
##tail
##tailed
##tain
##tained
##taining
##tainment
##tains
##take
##taking
##tal
##talk
##tan
##tance
##target
##targeted
##tase
##task
##tation
##tax
##tc
##td
##te
##tebr
##tech
##techn
##ted
##tedly
##tee
##teen
##teenth
##tees
##teger
##tegr
##teil
##teilung
##tein
##tel
##tem
##temperature
##temporal
##ten
##tenance
##tene
##teness
##tense
##tension
##tensive
##tention
##ter
##teral
##terase
##terdam
##tered
##tering
##terior
##terious
##term
##termin
##terminal
##terminus
##terms
##tern
##ternal
##ters
##tes
##test
##tests
##tet
##tetra
##tex
##text
##texts
##th
##thal
##than
##that
##the
##thel
##theless
##then
##theoretic
##theory
##ther
##therapy
##there
##thermal
##thern
##these
##thesis
##thetic
##thi
##thick
##thing
##third
##this
##thood
##though
##thread
##threat
##threatening
##three
##threshold
##thromb
##thrombin
##through
##throughput
##ths
##thy
##ti
##tia
##tial
##tian
##tiary
##tib
##tibility
##tible
##tic
##tica
##tical
##tically
##ticas
##tice
##ticed
##tices
##ticing
##ticip
##ticity
##tick
##ticle
##ticles
##tico
##tics
##ticular
##ticularly
##tid
##tide
##tidine
##tie
##tier
##ties
##tif
##tiff
##tification
##tified
##tig
##tige
##tigen
##tii
##tik
##til
##tile
##tiles
##tilis
##tility
##till
##tillation
##tilled
##tim
##tima
##timacy
##timal
##timate
##timated
##timately
##timates
##timation
##time
##times
##timm
##timore
##tin
##ting
##tingu
##tio
##tion
##tional
##tioned
##tions
##tious
##tip
##tique
##tir
##tis
##tisch
##tische
##tischen
##tise
##tish
##tising
##tism
##tisol
##tissue
##tist
##tit
##tite
##titial
##tition
##titions
##titis
##titive
##titude
##titudes
##titution
##titutional
##tium
##tiv
##tive
##tively
##tiven
##tiveness
##tives
##tiviral
##tivities
##tivity
##tivo
##tiz
##tization
##tized
##tizing
##tj
##tk
##tl
##tle
##tm
##tn
##to
##tober
##toc
##tol
##tolerant
##ton
##top
##tor
##toral
##tors
##tosis
##tot
##total
##totic
##tr
##tra
##track
##tracking
##tract
##tracted
##tracting
##traction
##tractor
##trained
##training
##tral
##tran
##trans
##transcription
##transfected
##transfer
##transferase
##transformed
##transi
##translational
##transplant
##trate
##tration
##traumatic
##tre
##treat
##treated
##treatment
##tree
##trees
##tri
##trial
##trib
##tribute
##tributed
##tribution
##tributions
##tric
##trict
##tricted
##triction
##tricts
##tries
##trig
##trim
##trin
##trip
##triv
##trivial
##tro
##trol
##trom
##tron
##tronic
##troph
##trophic
##trophot
##tru
##truc
##truct
##tructed
##truction
##tructions
##tructive
##tructural
##tructure
##tructured
##tructures
##tructuring
##true
##trum
##trust
##try
##ts
##tsch
##tt
##tte
##ttes
##ttp
##tu
##tual
##tub
##tubulin
##tumor
##tur
##ture
##tures
##turing
##turn
##tw
##two
##ty
##typ
##type
##types
##typically
##tz
##tzmann
##u
##uC
##ua
##ual
##uality
##ually
##uals
##uan
##uar
##uary
##uate
##uated
##uates
##uating
##uation
##ub
##uba
##ubated
##ubation
##ube
##uber
##ubes
##ubic
##ubicin
##ubin
##uble
##ublic
##ubs
##uc
##uccess
##uccessful
##ucci
##uce
##uced
##uch
##uche
##uchen
##ucher
##uchi
##uchs
##ucht
##uchy
##ucifer
##uciferase
##ucine
##uck
##ucker
##ucks
##ucky
##ucl
##ucle
##uclear
##ucleotide
##uclide
##uclidean
##uct
##uction
##uctose
##ud
##uda
##udden
##ude
##uded
##uder
##udes
##udi
##ue
##ued
##ueh
##uel
##uen
##uence
##uent
##uents
##uer
##ues
##uese
##uez
##uf
##uff
##ufig
##ug
##uge
##ugen
##ugg
##ugh
##ught
##ughter
##ugin
##uginosa
##uh
##ui
##uin
##uing
##uis
##uit
##uitable
##uitary
##uited
##uits
##uity
##uj
##uk
##uka
##ukary
##uker
##ukey
##uki
##ukin
##ul
##ula
##ulae
##ulant
##ular
##ularities
##ulas
##ulate
##ulated
##ulates
##ulating
##ulation
##ulations
##ulative
##ulator
##ulators
##ulatory
##uld
##ule
##uled
##ulence
##ulent
##uler
##ules
##ulf
##ulfide
##uli
##ulic
##ulin
##uling
##ull
##ullary
##uller
##ulli
##ullivan
##ulmonary
##ulo
##ulos
##ulose
##uloskeletal
##uls
##ulse
##ulsion
##ulsive
##ult
##ultaneous
##ulted
##ulti
##ulting
##ultry
##ults
##ultural
##ulture
##ultures
##ulty
##ulu
##ulum
##ulus
##uly
##um
##uma
##umab
##uman
##umann
##umar
##umatic
##umb
##umbar
##umber
##ume
##umed
##umen
##ument
##umental
##uments
##umer
##umes
##umetric
##umi
##umin
##umina
##uminal
##umination
##uminescence
##uming
##umm
##umn
##umor
##ump
##umped
##umps
##umption
##umptions
##ums
##umulation
##un
##una
##unar
##unc
##uncan
##unced
##unch
##uncil
##unct
##unction
##unctional
##unctions
##unctiv
##unctive
##uncture
##und
##undant
##unde
##unden
##under
##undred
##une
##uned
##unes
##ung
##ungen
##ungs
##uni
##unic
##unicip
##uniform
##uning
##unit
##unk
##unks
##unkt
##unktion
##unn
##unning
##unov
##uns
##unt
##untary
##unte
##unter
##unting
##uo
##uous
##up
##uper
##upervised
##uple
##uplex
##upp
##uppe
##uppen
##upper
##ups
##upt
##upta
##upuncture
##upus
##ur
##ura
##urable
##uracy
##ural
##urally
##uran
##urance
##urane
##urate
##uration
##urations
##urb
##urban
##urbed
##urch
##ure
##urea
##ureau
##ured
##ureh
##urement
##uren
##ures
##uretic
##ureus
##urface
##urg
##urgery
##urgical
##uri
##uria
##uric
##uries
##urin
##urine
##uring
##uris
##uristic
##urities
##urity
##urium
##urk
##urn
##urnal
##urning
##uro
##uron
##urons
##urop
##urope
##urred
##urrent
##urry
##urs
##urses
##ursive
##urt
##urther
##urus
##ury
##us
##usal
##usamm
##usc
##usch
##uscitation
##uscript
##uscripts
##uscular
##use
##used
##user
##users
##uses
##useum
##ush
##ushed
##ushing
##usi
##using
##usion
##usions
##usive
##usively
##usk
##uskal
##usp
##uspended
##uss
##ussion
##ust
##usted
##uster
##ustered
##ustering
##usters
##usting
##ustion
##ustr
##usts
##usually
##ut
##uta
##utable
##utaneous
##utation
##utations
##utch
##ute
##uted
##utely
##uten
##uter
##uterine
##utes
##uth
##uthan
##uther
##uthor
##uti
##util
##utin
##uting
##ution
##utions
##utive
##uto
##utor
##utors
##utory
##utr
##utral
##utri
##utrition
##utroph
##uts
##utt
##utter
##utton
##utung
##uture
##utures
##uty
##utz
##uv
##uvant
##uvate
##ux
##uy
##uz
##uzumab
##uzz
##uzzy
##v
##va
##vable
##vac
##vacizumab
##vage
##val
##valence
##validation
##vals
##valu
##value
##valued
##values
##van
##vance
##vant
##var
##vari
##variable
##variant
##varying
##vas
##vascular
##vasive
##vastatin
##vated
##vation
##ve
##vector
##vectors
##ved
##vel
##velength
##velop
##vely
##vement
##ven
##veness
##vens
##vent
##vention
##ventional
##ventions
##ventive
##vents
##venue
##venues
##veolar
##ver
##verage
##veratrol
##verbal
##vere
##vered
##verex
##vern
##vers
##versal
##verse
##versely
##versi
##versial
##version
##versity
##versy
##vert
##very
##ves
##vestig
##vex
##vey
##vi
##via
##vian
##viation
##vic
##vier
##view
##vii
##ville
##vin
##ving
##vinyl
##vious
##viously
##vir
##viral
##viron
##vironment
##vironments
##virus
##vis
##vised
##visiae
##vision
##vist
##visual
##vit
##vity
##vive
##vj
##vk
##vn
##vo
##vol
##voltage
##volume
##volution
##vor
##vs
##vy
##w
##wa
##wage
##wal
##wald
##wall
##wan
##wand
##wang
##war
##ward
##wards
##ware
##wart
##warz
##was
##water
##wave
##wavelength
##way
##ways
##we
##weak
##web
##week
##weg
##wegian
##wei
##weight
##weighted
##weis
##weise
##weisen
##well
##welling
##wen
##wend
##wendung
##went
##wer
##were
##wert
##west
##western
##wh
##what
##whe
##when
##where
##which
##while
##white
##who
##wi
##wich
##wick
##wid
##wide
##width
##wig
##will
##win
##wind
##wing
##wise
##with
##within
##without
##wj
##wk
##wn
##wo
##wood
##word
##words
##work
##workers
##world
##worm
##worth
##wr
##writ
##write
##writing
##written
##ws
##wt
##ww
##www
##x
##xi
##xia
##xiety
##xim
##ximab
##ximate
##ximately
##ximation
##xin
##xious
##xj
##xk
##xl
##xm
##xn
##xp
##xs
##xt
##xx
##xy
##y
##ya
##yahoo
##yal
##yama
##yan
##yb
##yc
##ycardia
##ycin
##ycl
##ycle
##yclic
##ycline
##ycling
##yclonal
##yd
##ye
##year
##years
##yel
##yen
##yer
##yes
##yg
##ygd
##ygen
##yi
##ying
##yj
##yk
##yl
##ylate
##ylated
##ylation
##yle
##ylene
##yles
##ylic
##yll
##ylon
##ylvan
##ym
##yma
##ymal
##yman
##yme
##ymer
##ymers
##ymethyl
##ymmet
##ymmetric
##ymmetry
##ymp
##ymph
##ympt
##yn
##yna
##ynam
##ynamic
##ynamics
##ynaptic
##ynchron
##ynec
##ynes
##ynomial
##yo
##yon
##yp
##ype
##yph
##ypt
##yptoph
##yptophan
##yr
##yrate
##yrene
##yright
##yrin
##yroid
##yroidism
##ys
##ysacchar
##ysaccharide
##ysaccharides
##yses
##ysi
##ysiol
##ysiological
##ysiology
##ysis
##yst
##ystem
##ystems
##yster
##ystic
##ysts
##yt
##yte
##ytes
##yth
##ythem
##ython
##ytic
##yx
##yz
##yzed
##z
##za
##zahl
##zation
##ze
##zed
##zeich
##zeit
##zel
##zellen
##zen
##zens
##zer
##zero
##zes
##zh
##zhou
##zi
##zig
##zin
##zing
##zk
##zn
##zo
##zoa
##zol
##zon
##zone
##zt
##zten
##zu
##zung
##zw
##zy
##zyk
##zym
##zyme
##zymes
##zz
##{
##|
##|)
##|,
##|.
##|2
##||
##}
##})
##},
##}.
##~
##~,
##~.
##~~
##~~~~
##
##
##
##
##
##
##
##
##
##
##
##
##
##
##
##
##
##
##
##
##
##¡
##¢
##£
##¤
##¥
##¦
##§
##©
##«
##¬
##­
##®
##°
##°,
##°.
##±
##±0.
##±0.0
##±1
##¶
##·
##··
##···
##»
##¿
##À
##Á
##Â
##Ã
##Ä
##Å
##Æ
##Ç
##È
##É
##Ê
##Ë
##Ì
##Í
##Î
##Ï
##Ð
##Ñ
##Ò
##ÒÒ
##Ó
##Ô
##Õ
##Ö
##ÖÖ
##×
##×10
##Ø
##ØØ
##Ù
##Ú
##Û
##Ü
##Ý
##Þ
##ÞÞ
##ß
##à
##á
##án
##ánd
##ández
##ás
##â
##ã
##ão
##ä
##äch
##än
##änd
##är
##ät
##äts
##å
##æ
##ç
##ça
##ção
##ções
##è
##ème
##ère
##ès
##é
##éc
##éd
##ée
##ées
##ég
##él
##ém
##én
##ér
##éri
##és
##ét
##ê
##ência
##ë
##ì
##í
##ía
##ín
##ís
##î
##ï
##ïve
##ð
##ðk
##ðt
##ðtÞ
##ðx
##ðxÞ
##ñ
##ña
##ño
##ò
##ó
##óg
##ón
##ós
##ô
##õ
##ões
##ö
##öglich
##öl
##öm
##ön
##ör
##÷
##ø
##ù
##ú
##úde
##û
##ü
##ück
##ül
##üller
##ün
##ür
##üss
##ý
##þ
##ÿ
##Ā
##ā
##ă
##ą
##Ć
##ć
##Ĉ
##ĉ
##Č
##č
##ď
##đ
##Ē
##ē
##ė
##ę
##ě
##Ĝ
##ĝ
##ğ
##Ĥ
##ĥ
##ħ
##Ĩ
##Ī
##ī
##İ
##ı
##ın
##ır
##ış
##Ĵ
##ĵ
##Ł
##ł
##ń
##ō
##ő
##Œ
##œ
##ŕ
##ř
##ś
##Ŝ
##ŝ
##Ş
##ş
##Š
##š
##ţ
##Ũ
##ũ
##Ū
##ū
##ů
##Ŵ
##ŵ
##Ŷ
##ŷ
##ź
##ż
##Ž
##ž
##ƒ
##ǫ
##ȧ
##Ȳ
##ȳ
##ə
##ɛ
##ʹ
##ʼ
##ˆ
##ˇ
##̀
##́
##̂
##̃
##̄
##̅
##̆
##̇
##̈
##̊
##̋
##̌
##̟
##̧
##̨
##̳
##̸
##̺
##Γ
##Δ
##Θ
##Ι
##Λ
##Ξ
##Π
##Σ
##Τ
##Υ
##Φ
##Ψ
##Ω
##ά
##έ
##ί
##α
##αβ
##β
##γ
##δ
##ε
##ζ
##η
##θ
##ι
##κ
##λ
##μ
##μν
##ν
##ξ
##ο
##π
##ρ
##ς
##σ
##τ
##υ
##φ
##χ
##ψ
##ω
##ό
##А
##В
##Г
##Д
##Е
##И
##К
##М
##Н
##О
##П
##Р
##С
##Т
##У
##Ф
##а
##б
##в
##ва
##г
##го
##д
##е
##ен
##ени
##ж
##з
##и
##й
##к
##ко
##л
##ли
##ль
##м
##н
##на
##ни
##но
##ны
##о
##п
##р
##ра
##ре
##ри
##ро
##с
##ст
##т
##те
##то
##у
##ф
##х
##ц
##ч
##ш
##щ
##ы
##ь
##э
##ю
##я
##і
##ї
##֒
##א
##،
##آ
##أ
##ا
##ب
##ة
##ت
##ث
##ج
##ح
##خ
##د
##ذ
##ر
##ز
##س
##ش
##ص
##ض
##ط
##ظ
##ع
##غ
##ـ
##ف
##ق
##ك
##ل
##لا
##م
##ن
##ه
##و
##ى
##ي
##َ
##ٛ
##پ
##ک
##گ
##ی
##น
##ร
##า
##Ḡ
##ḡ
##Ḣ
##Ṁ
##ṁ
##ṗ
##ṙ
##Ṽ
##ṽ
##Ẋ
##ẋ
##ẍ
##ẏ
##Ẑ
##ẑ
##Ẽ
##ẽ
##Ỹ
##ỹ
##ᾱ
##‐
##‒
##–
##–(
##–0.
##–1
##–1.
##–10
##–100
##–11
##–12
##–13
##–14
##–15
##–16
##–17
##–18
##–19
##–2
##–20
##–200
##–21
##–22
##–23
##–24
##–25
##–26
##–28
##–3
##–30
##–32
##–33
##–34
##–35
##–4
##–40
##–44
##–5
##–50
##–6
##–60
##–7
##–70
##–8
##–80
##–9
##–[
##––
##—
##——
##―
##‖
##‖2
##‘
##’
##’)
##’,
##’-
##’.
##’0
##’’
##’’,
##‚
##“
##”
##”)
##”),
##”).
##”,
##”.
##„
##‟
##†
##‡
##•
##‰
##′
##′(
##′)
##′),
##′,
##′-
##′.
##′1
##′2
##′′
##‹
##›
##⁄
##⁄2
##⁄4
##⁎
##€
##⃗
##℄
##℘
##←
##↑
##→
##→∞
##↓
##↔
##↪
##↵
##↾
##⇀
##⇐
##⇑
##⇒
##⇓
##⇔
##⇠
##⇡
##⇢
##⇤
##⇥
##∀
##∂
##∃
##∅
##∆
##∇
##∈
##∉
##∏
##∑
##−
##−(
##−)
##−,
##−/−
##−1
##−1(
##−1)
##−1),
##−1).
##−1,
##−1.
##−1/2
##−1∑
##−2
##−2)
##−3
##−4
##−=
##−→
##−−
##∓
##∕
##∗
##∗(
##∗)
##∗,
##∗.
##∗1
##∗∗
##∘
##∙
##√
##∝
##∞
##∞(
##∞)
##∞,
##∠
##∣
##∣∣
##∥
##∥∥
##∧
##∨
##∩
##∪
##∫
##∮
##∶
##∼
##≃
##≅
##≈
##≠
##≡
##≤
##≥
##≥0
##≪
##≫
##≺
##≻
##⊂
##⊃
##⊆
##⊇
##⊑
##⊓
##⊔
##⊕
##⊗
##⊙
##⊠
##⊢
##⊤
##⊥
##⊲
##⋂
##⋃
##⋄
##⋅
##⋆
##⋯
##⌈
##⌉
##⌊
##⌋
##⌘
##⌦
##⌧
##⎛
##⎜
##⎝
##⎞
##⎟
##⎠
##⎡
##⎢
##⎣
##⎤
##⎥
##⎦
##⎧
##⎨
##⎩
##⎪
##⎪⎪
##⎪⎪⎪⎪
##⎫
##⎬
##⎭
##⎯
##─
##■
##□
##▪
##▲
##△
##▶
##▸
##►
##◆
##◊
##○
##●
##◦
##★
##♀
##♂
##♠
##♣
##♥
##♦
##♯
##✉
##✏
##✐
##✓
##✳
##✷
##❃
##❅
##❚
##❛
##❝
##❞
##❡
##❤
##❧
##➝
##⟨
##⟩
##、
##。
##〈
##〉
##〉,
##〉.
##あ
##い
##う
##え
##お
##か
##が
##き
##く
##け
##こ
##さ
##し
##す
##そ
##た
##っ
##つ
##て
##で
##と
##ど
##な
##に
##の
##は
##び
##ま
##み
##め
##も
##や
##よ
##ら
##り
##る
##れ
##わ
##を
##ア
##イ
##エ
##キ
##ク
##グ
##コ
##シ
##ジ
##ス
##タ
##チ
##ッ
##テ
##デ
##ト
##ド
##パ
##フ
##プ
##マ
##ミ
##ム
##ラ
##リ
##ル
##レ
##ロ
##ン
##・
##ー
##一
##上
##下
##不
##与
##个
##中
##为
##主
##了
##于
##人
##以
##件
##会
##位
##低
##体
##作
##使
##例
##信
##値
##像
##入
##全
##关
##其
##内
##出
##分
##利
##到
##制
##前
##力
##加
##动
##動
##化
##医
##原
##及
##反
##发
##取
##受
##变
##可
##号
##各
##合
##同
##后
##向
##和
##器
##回
##因
##図
##国
##图
##在
##地
##型
##基
##報
##場
##変
##外
##多
##大
##子
##存
##学
##定
##实
##実
##对
##対
##射
##小
##工
##差
##常
##平
##年
##应
##度
##式
##形
##影
##後
##得
##心
##性
##患
##情
##意
##感
##態
##成
##所
##手
##指
##据
##接
##提
##数
##文
##断
##新
##方
##日
##时
##明
##是
##時
##最
##月
##有
##期
##本
##机
##来
##析
##果
##标
##検
##模
##機
##次
##正
##比
##水
##治
##法
##波
##活
##流
##测
##測
##点
##物
##特
##状
##率
##现
##現
##理
##生
##用
##由
##电
##病
##症
##療
##癌
##発
##的
##目
##相
##知
##研
##示
##神
##种
##科
##程
##究
##第
##等
##算
##管
##系
##素
##細
##経
##結
##線
##组
##结
##统
##群
##考
##者
##而
##胞
##能
##自
##血
##行
##術
##表
##要
##解
##認
##語
##计
##过
##进
##通
##部
##重
##量
##間
##関
##间
##集
##面
##音
##高
##가
##간
##것
##게
##결
##경
##계
##고
##과
##관
##구
##기
##나
##는
##다
##단
##대
##도
##동
##되
##된
##들
##로
##료
##를
##리
##며
##문
##발
##방
##보
##부
##분
##비
##사
##상
##생
##서
##성
##세
##소
##수
##스
##시
##식
##신
##아
##양
##어
##었
##에
##여
##연
##였
##영
##와
##요
##용
##우
##원
##위
##유
##으
##은
##을
##의
##이
##인
##일
##있
##자
##장
##적
##전
##정
##제
##조
##주
##중
##증
##지
##진
##체
##치
##포
##하
##학
##한
##할
##해
##행
##형
##호
##화
##환
##후
##
##
##
##
##
##
##
##
##
##
##
##
##～
$
$1
$2
%
%)
%),
%).
%,
%.
&
&#38;
'
(
("
(#
($
(%
(%)
(&)
((
()
(*
(+
(+)
(-
(.
(0
(0)
(0,
(0.
(0.0
(0.00
(0.01
(0.1
(0.2
(0.3
(0.4
(0.5
(0.6
(0.7
(0.8
(0.9
(1
(1)
(1),
(1).
(1,
(1-
(1.
(1.0
(1.1
(1.1)
(1.2
(1.3
(1.4
(1.5
(1/
(10
(10)
(10),
(10).
(10,
(10.
(100
(11
(11)
(11),
(11).
(11,
(12
(12)
(12),
(12).
(12,
(13
(13)
(13),
(13).
(14
(14)
(14),
(14).
(15
(15)
(15).
(150
(16
(16)
(16).
(17
(17)
(17).
(18
(18)
(18).
(19
(19)
(19).
(193
(194
(195
(196
(197
(198
(1982)
(1983)
(1984)
(1985)
(1986)
(1987)
(1988)
(1989)
(1989).
(199
(1990)
(1990).
(1991)
(1991).
(1992)
(1992).
(1993)
(1993).
(1994)
(1994).
(1995)
(1995).
(1996)
(1996).
(1997)
(1997).
(1998)
(1998).
(1999)
(1999).
(1:
(1−
(2
(2)
(2),
(2).
(2,
(2-
(2.
(2.1
(2.1)
(2.2
(2.2)
(2.3
(2.3)
(2.4
(2.4)
(2.5
(2.5)
(20
(20)
(20).
(200
(2000)
(2000),
(2000).
(2001)
(2001),
(2001).
(2002)
(2002),
(2002).
(2003)
(2003),
(2003).
(2004)
(2004),
(2004).
(2005)
(2005),
(2005).
(2006)
(2006),
(2006).
(2007)
(2007),
(2007).
(2008)
(2008),
(2008).
(2009)
(2009).
(201
(2010)
(2010).
(2011)
(2011).
(2012)
(2012).
(2013)
(2013).
(2014)
(2014).
(2015)
(2015).
(2016)
(2016).
(2017)
(2018)
(21
(21)
(21).
(22
(22)
(22).
(23
(23)
(23).
(24
(24)
(24).
(25
(25)
(25).
(26
(26)
(26).
(27
(27)
(27).
(28
(28)
(28).
(29
(29)
(3
(3)
(3),
(3).
(3,
(3.
(3.1
(3.1)
(3.2
(3.2)
(3.3
(3.3)
(3.4
(30
(30)
(300
(31)
(32
(32)
(33
(33)
(34
(34)
(35
(35)
(36
(36)
(37
(37)
(38
(38)
(39)
(4
(4)
(4),
(4).
(4,
(4.
(4.1
(4.2
(4.3
(40
(40)
(400
(41)
(42)
(43)
(44
(44)
(45
(45)
(46)
(5
(5)
(5),
(5).
(5,
(5-
(5.
(5.1
(50
(50)
(500
(6
(6)
(6),
(6).
(6,
(6.
(60
(64
(65
(67
(7
(7)
(7),
(7).
(7,
(7.
(70
(75
(8
(8)
(8),
(8).
(8,
(80
(9
(9)
(9),
(9).
(9,
(9.
(90
(95
(95%
(<
(=
(>
([
({
(|
(~
(±
(·
(‘
(“
(∂
(∆
(−
(−1)
(∼
(≥
)
)(
)()(
))
),
),(
).
)2
):
);
)]
)|
)}
)−
*
**
***
*,
+
+(
++
+/-
+1
+2
+=
+∞
,
,,
,...,
,0
,1
,2
-
--
---
-0
-0.
-0.0
-0.00
-1
-1.
-10
-2
-20
-3
-4
-5
-6
->
.
.(
.)
.,
..
...
...,
....
.....
......
.0
.00
.01
.05
.1
.2
.3
.4
.5
.6
.7
.8
.9
/
//
/0
/1
/2
/∈
0
0%
0(
0)
0),
0).
0,
0,0
0-
0.
0.0
0.00
0.000
0.0000
0.0001
0.0001).
0.001
0.001)
0.001),
0.001).
0.001,
0.001;
0.002
0.003
0.004
0.005
0.01
0.01)
0.01).
0.01,
0.02
0.025
0.03
0.04
0.05
0.05%
0.05)
0.05),
0.05).
0.05,
0.05.
0.05;
0.06
0.07
0.08
0.09
0.1
0.1%
0.1,
0.10
0.11
0.12
0.13
0.14
0.15
0.16
0.17
0.18
0.19
0.2
0.2%
0.20
0.21
0.22
0.23
0.24
0.25
0.26
0.27
0.28
0.29
0.3
0.30
0.31
0.32
0.33
0.34
0.35
0.36
0.37
0.38
0.39
0.4
0.40
0.42
0.43
0.44
0.45
0.46
0.47
0.48
0.49
0.5
0.5%
0.5,
0.50
0.53
0.54
0.55
0.56
0.57
0.58
0.59
0.6
0.60
0.63
0.64
0.65
0.66
0.67
0.68
0.69
0.7
0.70
0.72
0.73
0.74
0.75
0.76
0.77
0.78
0.79
0.8
0.80
0.82
0.83
0.84
0.85
0.86
0.87
0.88
0.89
0.9
0.90
0.91
0.92
0.93
0.94
0.95
0.96
0.97
0.98
0.99
0/
00
000
01
02
03
04
05
06
07
08
09
0:
0;
0]
0}
0·
0–
1
1%
1(
1)
1)(
1))
1),
1)-
1).
1):
1+
1,
1,0
1,000
1,2
1,2,
1-
1-1
1-2
1-3
1.
1.0
1.00
1.01
1.05
1.1
1.1.
1.2
1.2.
1.25
1.3
1.4
1.5
1.5%
1.6
1.7
1.8
1.9
1/
1/2
1/3
10
10%
10(
10)
10).
10,
10,000
10-
10.
10.0
10.10
10.100
10.1002/
10.1016/
10.1021/
10.1038/
10.11
10.110
10.1109/
10.22
10.3
10.4
10.5
100
100%
100,
100,000
100-
100.
100.0
1000
10000
101
102
1024
103
104
105
106
107
108
109
10:
10].
10−
11
11%
11)
11).
11,
11-
11.
11.5
110
1100
111
112
113
114
115
116
117
118
119
11:
12
12%
12)
12).
12,
12-
12.
12.0
12.5
120
1200
121
122
123
124
125
126
127
128
129
12:
13
13%
13)
13).
13,
13-
13.
130
131
132
133
134
135
136
137
138
139
13:
14
14%
14)
14,
14-
14.
140
141
142
143
144
145
146
147
148
149
14:
15
15%
15)
15,
15-
15.
150
1500
151
152
153
154
155
156
157
158
159
15:
16
16%
16)
16,
16-
16.
160
1600
161
162
163
164
165
166
167
168
169
16:
17
17%
17,
17-
17.
170
171
172
173
174
175
176
177
178
179
17:
18
18%
18,
18-
18.
180
181
182
183
184
185
186
187
188
189
18:
19
19%
19,
19.
190
191
192
193
194
195
1950
196
1960
1965
1967
197
1970
1975
1977;
1978
1978;
1979;
198
1980
1980).
1980;
1981).
1981;
1982
1982).
1982;
1983
1983).
1983,
1983.
1983;
1984
1984).
1984,
1984.
1984;
1985
1985).
1985,
1985.
1985;
1986
1986).
1986,
1986.
1986;
1987
1987).
1987,
1987.
1987;
1988
1988).
1988,
1988.
1988;
1989
1989).
1989,
1989.
1989;
199
1990
1990)
1990).
1990,
1990.
1990;
1991
1991)
1991).
1991,
1991.
1991;
1992
1992)
1992).
1992,
1992.
1992;
1993
1993)
1993),
1993).
1993,
1993.
1993;
1994
1994)
1994),
1994).
1994,
1994.
1994;
1995
1995)
1995),
1995).
1995,
1995.
1995;
1996
1996)
1996),
1996).
1996,
1996.
1996;
1997
1997)
1997),
1997).
1997,
1997.
1997;
1998
1998)
1998),
1998).
1998,
1998.
1998;
1999
1999)
1999),
1999).
1999,
1999.
1999;
19:
1:
1:1
1;
1=
1]
1],
1].
1|
1}
1·
1–
1–2
1–3
1⁄2
1⁄4
1−
1√
1≤
2
2%
2(
2)
2),
2).
2+
2,
2-
2-3
2.
2.0
2.1
2.1.
2.2
2.2.
2.3
2.3.
2.4
2.4.
2.5
2.5%
2.5.
2.6
2.6.
2.7
2.8
2.9
2/
20
20%
20)
20,
20-
20.
20.0
200
2000
2000)
2000),
2000).
2000,
2000.
2000;
2001
2001)
2001),
2001).
2001,
2001.
2001;
2002
2002)
2002),
2002).
2002,
2002.
2002;
2003
2003)
2003),
2003).
2003,
2003.
2003;
2004
2004)
2004),
2004).
2004,
2004.
2004;
2005
2005)
2005),
2005).
2005,
2005.
2005;
2006
2006)
2006),
2006).
2006,
2006.
2006;
2007
2007)
2007),
2007).
2007,
2007.
2007;
2008
2008)
2008),
2008).
2008,
2008.
2008;
2009
2009)
2009),
2009).
2009,
2009.
2009;
201
2010
2010)
2010),
2010).
2010,
2010.
2010;
2011
2011)
2011),
2011).
2011,
2011.
2011;
2012
2012)
2012),
2012).
2012,
2012.
2012;
2013
2013)
2013),
2013).
2013,
2013.
2013;
2014
2014)
2014),
2014).
2014,
2014.
2014;
2015
2015)
2015).
2015,
2015.
2015;
2016
2016).
2016,
2016.
2016;
2017
2017).
2017,
2017.
2017;
2018
2018,
2018;
202
203
204
205
206
207
208
209
20:
21
21%
21,
21.
210
211
212
213
214
215
216
217
218
219
21:
22
22%
22,
22.
220
221
222
223
224
225
226
227
228
229
22:
23
23%
23,
23.
230
233
234
235
237
238
239
23:
24
24%
24,
24-
24.
240
243
245
247
248
25
25%
25,
25-
25.
250
2500
254
255
256
257
26
26%
26,
26.
260
265
266
27
27%
27,
27.
270
275
277
278
28
28%
28,
28.
280
285
288
29
29,
29.
290
293
295
298
299
2:
2;
2]
2].
2–
2–3
2−
3
3%
3(
3)
3),
3).
3,
3-
3.
3.0
3.1
3.1.
3.2
3.2.
3.3
3.3.
3.4
3.4.
3.5
3.5.
3.6
3.7
3.8
3.9
3/
30
30%
30,
30-
30.
300
3000
301
305
308
30°
31
31,
31.
310
311
312
313
314
315
316
317
318
319
32
32,
32-
32.
320
321
322
323
324
325
326
327
328
329
33
33%
33,
33.
330
334
335
336
337
338
339
34
34,
34.
340
345
35
35%
35,
35.
350
36
36,
36.
360
365
37
37,
37.
370
375
378
37°
38
38,
38.
380
39
39,
39.
390
3:
3;
3].
3–
3′
3⁄4
4
4%
4(
4)
4),
4).
4,
4-
4.
4.0
4.1
4.1.
4.2
4.2.
4.3
4.3.
4.4
4.4.
4.5
4.6
4.7
4.8
4.9
4/
40
40%
40,
40-
40.
400
4000
401
405
41
41,
41.
410
42
42,
42.
420
429
43
43,
43.
430
44
44,
44.
440
45
45%
45,
45.
450
46
46,
46.
460
47
47,
47.
48
48,
48.
480
488
49
49,
49.
4:
4;
4].
4°
5
5%
5'-
5(
5)
5),
5).
5,
5-
5.
5.0
5.1
5.1.
5.2
5.2.
5.3
5.4
5.5
5.6
5.7
5.8
5.9
5/
50
50%
50,
50-
50.
500
5000
51
51,
51.
510
512
52
52,
52.
53
53,
53.
54
54,
54.
540
55
55%
55,
55.
550
56
56,
56.
57
57,
57.
58
58,
58.
59
59,
59-
59.
5:
5;
5].
5’-
5′
5′-
6
6%
6(
6)
6),
6).
6,
6-
6.
6.0
6.1
6.2
6.3
6.4
6.5
6.6
6.7
6.8
6.9
6/
60
60%
60,
60-
60.
600
6000
61
61,
61.
62
62,
62.
63
63,
63.
64
64,
64.
65
65%
65,
65.
650
66
66,
66.
67
68
68,
69
69.
6:
6=
6].
6∈
7
7%
7(
7)
7),
7).
7,
7-
7.
7.0
7.1
7.2
7.3
7.4
7.5
7.6
7.7
7.8
7.9
70
70%
70,
70.
700
71
72
72,
73
74
75
75%
75,
750
76
77
78
79
7:
7].
7→
8
8%
8(
8)
8),
8).
8,
8-
8.
8.0
8.1
8.2
8.3
8.4
8.5
8.6
8.7
8.8
80
80%
80,
80.
800
802
802.11
81
82
83
84
85
85%
86
87
88
89
8:
8].
9
9%
9(
9)
9).
9,
9-
9.
9.0
9.1
9.2
9.3
9.4
9.5
90
90%
90,
90.
900
91
92
93
94
95
95%
96
96-
97
978
978-1
978-1-4
98
98%
99
99%
99.
9:
:
:1
::
:=
;
<
</
<0.00
<0.001
=
=1
==
>
?
?,
@
A
AA
AAA
AAAA
AAC
AAV
AB
ABA
ABC
ABI
ABSTRACT
AC
ACA
ACC
ACE
ACK
ACKNOWLEDG
ACKNOWLEDGMENT
ACKNOWLEDGMENTS
ACL
ACM
ACS
ACT
ACTH
ACh
AD
ADAM
ADC
ADHD
ADP
AE
AES
AF
AFM
AG
AH
AI
AIC
AIDS
AIM
AIP
AJ
AK
AKI
AKT
AL
ALG
ALGOR
ALL
ALP
ALS
ALT
AM
AMD
AMI
AML
AMP
AMPK
AMS
AN
ANAL
ANALY
ANALYSIS
AND
ANN
ANO
ANOVA
ANT
AO
AOD
AP
APC
API
APP
APPEND
APPENDIX
AQ
AQP
AR
ARCH
ARE
ART
ARTIC
ARTICLE
AS
ASA
ASC
ASD
ASP
ASS
AST
AT
ATCC
ATG
ATM
ATP
ATPase
AU
AUC
AUT
AUTH
AV
AW
AY
AZ
Ab
Abb
Abbreviations
Abd
Aber
Abnormal
About
Above
Abr
Abs
Abstr
Abstract
Ac
Acad
Academic
Academy
Acc
Accepted
Access
Accessed
According
Accordingly
Accuracy
Acet
Ach
Achie
Acid
Acids
Acknowledg
Acknowledgement
Acknowledgment
Acknowledgments
Acous
Acqu
Acquisition
Across
Act
Acta
Actin
Action
Activ
Activation
Active
Activities
Activity
Actually
Acute
Ad
Ada
Adam
Adams
Adap
Adaptive
Add
Adding
Addition
Additional
Additionally
Address
Aden
Adj
Admin
Administration
Adoles
Adult
Adv
Advanced
Advances
Adverse
Advis
Ae
Aer
Af
Aff
Affairs
Afric
Africa
African
After
Afterwards
Ag
Again
Agar
Age
Agency
Agent
Agents
Agg
Agilent
Aging
Agr
Agreement
Agricultural
Agriculture
Ah
Ai
Aim
Air
Aj
Ak
Akt
Al
Ala
Alb
Alber
Albert
Alcohol
Aldr
Alex
Alexa
Alexander
Alf
Algebra
Algorith
Algorithm
Algorithms
Ali
Alice
Alk
All
Alle
Allen
Allergy
Almost
Along
Alpha
Als
Also
Alt
Alter
Altern
Alternative
Alternatively
Although
Alz
Alzheimer
Am
Ama
Amazon
Amb
Amer
Americ
America
American
Americans
Amin
Among
Ampl
Ams
Amsterdam
An
Ana
Anal
Analog
Analy
Analyses
Analysis
Analytical
Anat
And
Anderson
Andr
Andre
Andrew
Android
Anesthe
Ang
Angel
Angeles
Angew
Angi
Anim
Animal
Animals
Ann
Annals
Anne
Annu
Annual
Another
Ans
Ant
Antarc
Anten
Anth
Anthrop
Anti
Antib
Antibodies
Antim
Anton
Anxiety
Any
Ap
ApJ
Apart
Apop
Apoptosis
App
Apparent
Appendix
Appl
Applic
Application
Applications
Applied
Applying
Appro
Approach
Approaches
Approximately
Apr
April
Aqu
Ar
Ara
Arab
Arabic
Arabidopsis
Arbeit
Arc
Arch
Architect
Architecture
Arctic
Are
Area
Areas
Arg
Argent
Argentina
Ariz
Arizona
Arm
Army
Arn
Arnold
Array
Art
Arter
Arth
Arthritis
Article
Artif
Artificial
As
Ash
Asia
Asian
Asp
Aspergillus
Ass
Assay
Assemb
Assess
Assessment
Assistant
Assoc
Associ
Associate
Associated
Association
Assume
Assuming
Assumption
Ast
Astron
At
Atl
Atlanta
Atlantic
Atmosp
Atomic
Att
Attribution
Au
Auch
Aud
Auf
Aug
August
Aur
Aus
Aust
Austin
Austr
Australia
Australian
Austria
Aut
Auth
Author
Authors
Auto
Autom
Automated
Automatic
Automation
Av
Availability
Available
Avenue
Average
Award
Ax
Ay
Az
B
BA
BAC
BACK
BACKGROUND
BAL
BALB
BAS
BB
BBB
BC
BCG
BCL
BCR
BD
BDNF
BE
BER
BF
BG
BH
BI
BJ
BK
BL
BLAST
BLOCK
BLOCKIN
BM
BMC
BMD
BMI
BMJ
BMP
BN
BO
BOLD
BP
BR
BRA
BRAF
BRCA
BS
BSA
BT
BU
BV
BW
BY
Ba
Bab
Bac
Bacillus
Back
Background
Bacter
Bacterial
Bad
Bag
Bah
Bak
Baker
Bal
Ball
Baltimore
Bam
Ban
Banach
Band
Bang
Bangl
Bangladesh
Bank
Bar
Barb
Barc
Barcelona
Barrett
Bart
Bas
Base
Based
Basel
Baseline
Basic
Basin
Basis
Bat
Bax
Bay
Bayes
Bayesian
Bcl
Bd
Be
Bec
Because
Beck
Becker
Bed
Bede
Bedeutung
Before
Befund
Begin
Behandlung
Behav
Behavior
Behavioral
Behaviour
Bei
Beijing
Being
Bel
Belg
Belgium
Bell
Below
Ben
Bene
Beng
Benjamin
Benn
Bennett
Bent
Benz
Ber
Bere
Berg
Berkeley
Berlin
Bern
Bernard
Bert
Bes
Besides
Best
Bet
Beta
Between
Bew
Bey
Beyond
Bez
Bh
Bi
Big
Bil
Bild
Bill
Bin
Binding
Bio
BioMed
Biochem
Biochemical
Biochemistry
Bioinformatics
Biol
Biological
Biology
Biom
Biomed
Biomedical
Biophys
Bios
Biosciences
Biosystems
Biot
Biotech
Biotechnol
Biotechnology
Bir
Bis
Bit
Bj
Bl
Black
Blackwell
Ble
Blo
Block
Blood
Bloom
Blu
Blue
Bluetooth
Blut
Bn
Bo
Board
Bob
Body
Bog
Boh
Bol
Boltzmann
Bon
Bond
Bone
Bonferroni
Book
Boolean
Bor
Borel
Bos
Boston
Bot
Both
Bou
Bound
Bour
Bow
Box
Boy
Br
Bra
Brad
Brain
Branch
Brand
Bras
Braun
Braz
Brazil
Brazilian
BrdU
Bre
Breast
Bren
Bri
Brief
Briefly
Brit
Britain
British
Bro
Broad
Bron
Brook
Brow
Brown
Brownian
Brun
Bry
Bt
Bu
Buch
Buck
Bud
Building
Bul
Bull
Bulletin
Bund
Bur
Bureau
Burg
Burk
Burn
Bus
Business
But
By
C
CA
CAB
CAC
CAD
CAG
CAL
CAM
CAN
CAP
CAR
CAS
CASE
CAT
CB
CBF
CC
CCA
CCD
CCL
CCR
CCS
CCT
CD
CDC
CDCl
CDK
CE
CEA
CER
CES
CF
CFT
CFU
CG
CH
CHAP
CHAPTER
CHAR
CHD
CHEM
CHF
CHO
CI
CIN
CIR
CJ
CK
CKD
CL
CLL
CM
CML
CMOS
CMS
CMV
CN
CNN
CNS
CNT
CNTs
CO
COD
COL
COM
COMM
COMMUN
COMP
CON
CONCLU
CONCLUSION
CONCLUSIONS
CONT
CONTROL
COP
COPD
COR
COS
COX
CP
CPS
CPT
CPU
CQ
CR
CRC
CRE
CREB
CRF
CRI
CRP
CRT
CS
CSA
CSC
CSF
CSI
CSP
CSR
CT
CTL
CU
CV
CVD
CW
CX
CXCL
CXCR
CY
CYP
Ca
CaCl
Cab
Cad
Cai
Cal
Calc
Calcium
Calculate
Calculation
Calif
California
Call
Cam
Cambridge
Camp
Campbell
Campus
Can
Canada
Canadian
Cancer
Candid
Candida
Cant
Cao
Cap
Cape
Capital
Car
Carb
Carbon
Carcin
Card
Cardi
Cardiac
Cardiol
Cardiology
Cardiovascular
Care
Carl
Carlo
Carls
Carlsbad
Carol
Carolina
Carr
Cart
Cartesian
Cas
Case
Cases
Cass
Cast
Cat
Catal
Category
Cath
Cauc
Caucasian
Cauchy
Cav
Cd
Cdc
Ce
Cel
Cell
Cells
Cellular
Census
Cent
Center
Centers
Central
Centre
Cer
Cere
Certain
Cf
Ch
ChIP
Cha
Chain
Chair
Chall
Challenges
Cham
Chan
Chand
Chang
Change
Changes
Channel
Chap
Chapman
Chapter
Char
Character
Characteristics
Charles
Che
Check
Chem
Chemical
Chemicals
Chemistry
Chen
Cheng
Chern
Chest
Chi
Chic
Chicago
Child
Children
Chile
Chim
Chin
China
Chinese
Chir
Chl
Chlor
Cho
Choi
Choice
Choose
Chr
Christ
Christi
Christian
Chrom
Chromat
Chronic
Chu
Chung
Church
Ci
Cir
Circ
Circuit
Circuits
Circulation
Citation
City
Civil
Cj
Ck
Cl
Claim
Clark
Clarke
Class
Classification
Cle
Clear
Clearly
Climate
Clin
Clinic
Clinical
Close
Clostr
Cloud
Cluster
Clustering
Cm
Cn
Co
Coast
Cob
Coch
Cochrane
Code
Coding
Cognitive
Coh
Cohen
Col
Cold
Cole
Coll
Collabor
Collaboration
Collaborative
Collec
Collection
Collectively
College
Collins
Colomb
Colon
Color
Colorado
Columb
Columbia
Column
Com
Comb
Combined
Combining
Comm
Commercial
Commission
Commit
Committee
Common
Commons
Commun
Communication
Communications
Community
Comp
Company
Compar
Comparative
Compared
Comparing
Comparison
Comparisons
Compe
Competing
Comple
Complete
Complex
Complexity
Component
Components
Compos
Composition
Compound
Compounds
Comprehen
Comprehensive
Comput
Computation
Computational
Compute
Computer
Computers
Computing
Con
Conc
Concentration
Concept
Conceptual
Concer
Concerning
Concl
Conclusion
Conclusions
Cond
Condition
Conditions
Conf
Conference
Conflic
Conflict
Conflicts
Cong
Congress
Conn
Cons
Consequently
Conservation
Consid
Consider
Considering
Consistent
Consortium
Constant
Constr
Constraint
Constraints
Construction
Consumer
Cont
Contact
Content
Contents
Context
Continu
Continuous
Contr
Contract
Contrary
Contrast
Contributions
Control
Controlled
Controller
Controls
Conventional
Conver
Conversely
Cook
Cooper
Cooperative
Coord
Cop
Copenhagen
Copyright
Cor
Cord
Core
Corollary
Coronary
Corp
Corporation
Correlation
Correspond
Correspondence
Corresponding
Cos
Cost
Costa
Cot
Coul
Coulomb
Coun
Council
County
Cour
Court
Cov
Cover
Cow
Cox
Cp
CpG
Cr
Cra
Cre
Creative
Cred
Cri
Crit
Criteria
Critical
Cro
Crohn
Cron
Cronbach
Cross
Crow
Cruz
Cry
Crypt
Crystal
Crystall
Cs
Ct
Cu
Cultural
Culture
Cum
Cur
Curr
Current
Currently
Cust
Cut
Cx
Cy
Cyber
Cyc
Cycl
Cycle
Cyp
Cys
Cyt
Cz
Czech
D
DA
DAC
DAG
DAP
DAPI
DAT
DATA
DB
DBP
DC
DCM
DCT
DCs
DD
DE
DEC
DEF
DEM
DEN
DEP
DES
DESIGN
DET
DEV
DF
DFT
DG
DH
DHA
DI
DIC
DIS
DISC
DISCUSSION
DJ
DK
DL
DM
DMEM
DMF
DMSO
DN
DNA
DNS
DNase
DO
DOC
DOI
DOX
DP
DPP
DQ
DR
DS
DSC
DSM
DSP
DSS
DT
DTT
DU
DV
DW
DY
Da
Dai
Daily
Dal
Dall
Dam
Dan
Daniel
Danish
Dar
Darm
Das
Dat
Data
Database
Datas
Dataset
Date
Daten
Dav
David
Davies
Davis
Daw
Day
De
Death
Deb
Dec
December
Decision
Declar
Declaration
Ded
Deep
Def
Defense
Define
Defining
Definition
Deg
Del
Delay
Delhi
Delivery
Delta
Dem
Demographic
Den
Denmark
Denote
Density
Dent
Dental
Dentistry
Dep
Department
Depend
Depending
Depression
Dept
Der
Deriv
Dermat
Dermatol
Des
Descri
Description
Descriptive
Design
Despite
Det
Detailed
Details
Detection
Determ
Determination
Deut
Dev
Develop
Developing
Development
Developmental
Device
Devices
Dex
Dh
Di
Diabetes
Diag
Diagn
Diagnosis
Diagnostic
Diagnostics
Dial
Dic
Dick
Dickinson
Die
Diego
Dies
Diese
Diet
Dietary
Diff
Difference
Differences
Different
Differential
Diffusion
Dig
Digital
Dim
Dimension
Ding
Dip
Dir
Dirac
Direc
Direct
Director
Dirichlet
Dis
Disc
Discl
Disclosure
Discovery
Discrete
Discussion
Dise
Disease
Diseases
Disorders
Diss
Dist
Distance
Distributed
Distribution
District
Div
Diversity
Division
Dj
Dn
Do
Doc
Document
Does
Dol
Dom
Domain
Don
Dong
Doppler
Dor
Dose
Double
Doug
Douglas
Dovepress
Dow
Down
Downloaded
Dr
Dri
Drive
Drosophila
Drs
Drug
Drugs
Dry
Ds
Dt
Du
Dual
Dub
Due
Duke
Dul
Dun
Dur
Duration
Durch
During
Dutch
Dy
Dynamic
Dynamics
Dys
E
EA
EB
EBV
EC
ECG
ECL
ECM
ECs
ED
EDTA
EE
EEG
EF
EFF
EG
EGF
EGFP
EGFR
EH
EI
EJ
EK
EL
ELI
ELISA
EM
EMB
EMBO
EMG
EMT
EN
END
ENS
EO
EP
EPA
EPR
EPS
EQ
ER
ERK
ERP
ES
ESI
ESP
ESR
EST
ET
EU
EV
EVALU
EW
EX
EXP
EXPERI
EXPERIMENT
EXPERIMENTAL
EZ
Each
Eagle
Ear
Earlier
Early
Earth
East
Eastern
Eb
Ec
Ech
Eck
Eco
Ecol
Ecological
Ecology
Econ
Economic
Economics
Ed
Edge
Edin
Edinburgh
Edited
Edition
Editor
Editorial
Educ
Education
Educational
Edwards
Ef
Eff
Effect
Effective
Effects
Efficacy
Efficiency
Efficient
Eg
Egg
Egypt
Ei
Eight
Ein
Eine
Eins
Einstein
Eisen
Ek
El
Ele
Elec
Electr
Electric
Electrical
Electro
Electron
Electronic
Electronics
Electroph
Element
Ellis
Elsevier
Em
Email
Embry
Emerg
Emergency
Emerging
Empirical
Employ
En
Enc
End
Endocrin
Endocrinol
Endocrinology
Energy
Eng
Engine
Engineering
Engl
England
English
Enh
Enhanced
Ens
Ent
Enter
Enterprise
Ents
Entw
Entwick
Environ
Environment
Environmental
Enzyme
Ep
Epid
Epidemi
Epidemiol
Epidemiology
Epit
Epstein
Eq
Eqs
Equ
Equation
Equations
Er
Ergeb
Ergebnisse
Eric
Erkrank
Erl
Ern
Err
Error
Ery
Es
Esc
Escherichia
Esp
Espec
Especially
Ess
Est
Estab
Estim
Estimates
Estimation
Et
Eth
Ether
Ethernet
Ethical
Ethics
Ethiop
Ethiopia
Eu
Euclidean
Euler
Eur
Euro
Europe
European
Ev
Evalu
Evaluation
Evans
Even
Event
Events
Every
Evidence
Evol
Evolution
Evolutionary
Ex
Examination
Example
Examples
Exc
Excel
Excell
Excellence
Except
Exchange
Exec
Executive
Exercise
Existing
Exp
Exper
Experience
Experim
Experiment
Experimental
Experiments
Expert
Expl
Exposure
Expression
Ext
Extended
Extension
Extensive
External
Extr
Extraction
Extre
Eye
F
FA
FAC
FACS
FB
FBS
FC
FCS
FD
FDA
FDG
FDI
FE
FEM
FEV
FF
FFT
FG
FGF
FH
FI
FIG
FIGURE
FIR
FISH
FITC
FJ
FK
FL
FM
FN
FO
FOR
FOX
FP
FPGA
FR
FRET
FROM
FS
FSH
FT
FTIR
FU
FUT
FUTURE
FV
FW
FX
Fa
Fab
Fac
Face
Facebook
Facility
Factor
Factors
Faculty
Failure
Fair
Fal
Fall
False
Family
Fan
Fang
Far
Farm
Fas
Fast
Fat
Fault
Fax
Fc
Fe
Feature
Features
Feb
February
Fed
Federal
Federation
Feed
Feedback
Fel
Feld
Fellowship
Fem
Female
Feng
Fer
Ferm
Fermi
Fern
Ferr
Few
Fi
Fib
Field
Fif
Fifty
Fig
Figs
Figure
Figures
Fil
File
Filter
Fin
Final
Finally
Finance
Financial
Find
Finding
Findings
Fine
Finite
Finland
Finn
Finnish
Fire
Firm
First
Firstly
Fischer
Fish
Fisher
Fit
Fitz
Five
Fix
Fixed
Fl
Fle
Flex
Flo
Flor
Florida
Flow
Flu
Fluid
Fluor
Fluorescence
Fm
Fn
Fo
Focus
Fol
Follow
Following
Food
For
Force
Ford
Fore
Fores
Forest
Form
Formal
Formally
Formation
Fors
Forsch
Fort
Fortunately
Forty
Forum
Forward
Foster
Found
Foundation
Four
Fourier
Fourth
Fox
Fr
Fra
Fraction
Frag
Frage
Fram
Framework
Franc
France
Francis
Francisco
Frank
Fre
Fred
Free
French
Frequency
Fresh
Fri
Fried
Friedman
Fro
From
Front
Frontiers
Fu
Fuj
Fuk
Ful
Full
Function
Functional
Functions
Fund
Fundamental
Funding
Fung
Fur
Further
Furthermore
Fus
Fusion
Future
Fuzzy
G
GA
GAB
GABA
GABAergic
GAD
GAG
GAL
GAP
GAPDH
GATA
GB
GBM
GC
GD
GDP
GE
GEN
GF
GFP
GFR
GG
GH
GHz
GI
GIS
GJ
GK
GL
GLP
GLUT
GM
GMM
GN
GO
GP
GPS
GPU
GPs
GR
GRO
GS
GSH
GSK
GSM
GST
GT
GTP
GU
GUI
GV
GVHD
GW
Ga
GaAs
GaN
Gab
Gabor
Gain
Gal
Gall
Game
Gamma
Gang
Gao
Gar
Garc
Garcia
Gard
Gas
Gastro
Gastroenter
Gate
Gaus
Gauss
Gaussian
Gb
Gd
Ge
GeV
Gef
Gel
Gem
Gen
GenBank
Gender
Gene
Gener
General
Generalized
Generally
Generation
Genes
Genet
Genetic
Genetics
Geneva
Genome
Genomic
Genomics
Geophys
Georg
George
Georgia
Ger
Germ
German
Germany
Ges
Gesch
Gest
Gew
Gh
Gi
Gib
Gibbs
Gil
Gilbert
Gill
Gir
Given
Gl
Glas
Glasgow
Glass
Gle
Glob
Global
Glu
Gluc
Glucose
Glut
Gly
Gm
Gmb
GmbH
Gn
GnRH
Go
God
Gol
Gold
Golgi
Gon
Gonz
Good
Google
Gordon
Govern
Government
Gr
Gra
Grad
Grade
Graduate
Graham
Gram
Gran
Grand
Grant
Grants
Graph
Graphics
Gray
Gre
Great
Greece
Greek
Green
Greg
Gren
Grid
Griff
Gro
Gross
Ground
Group
Groups
Growth
Grund
Gu
Guang
Guid
Guide
Guidelines
Gulf
Guo
Gupta
Gut
Gy
Gynec
Gö
H
HA
HB
HBV
HC
HCC
HCT
HCV
HCl
HD
HDAC
HDL
HE
HEK
HEP
HEPES
HER
HF
HFD
HG
HH
HI
HIF
HIV
HJ
HK
HL
HLA
HM
HMM
HN
HO
HP
HPA
HPLC
HPV
HR
HRMS
HRP
HS
HSC
HSP
HSV
HT
HTML
HTTP
HU
HUV
HV
HW
HY
Ha
Hab
Had
Haem
Hal
Half
Hall
Ham
Hamb
Hamilton
Hamiltonian
Hamm
Han
Hand
Handbook
Hann
Hans
Hansen
Har
Hard
Hardware
Hardy
Harm
Harr
Harris
Harrison
Hart
Harvard
Has
Hash
Hass
Hat
Haus
Haut
Having
Haw
Hawai
Hay
Hb
HbA
He
HeLa
Head
Health
Healthcare
Healthy
Hear
Heart
Heat
Hed
Heidelberg
Hein
Hel
Helic
Helm
Hels
Helsinki
Hem
Hemat
Hen
Hence
Hend
Henry
Hep
HepG
Hepat
Her
Here
Herein
Herm
Hern
Herz
Hes
Heter
Hf
Hg
Hi
Hier
Hierarch
Hierarchical
Hig
Higgs
High
Higher
Hil
Hilbert
Hill
Hin
Hind
Hir
His
Hispanic
Hist
Histological
Histor
History
Hn
Ho
Hoch
Hod
Hof
Hoff
Hol
Holland
Hom
Home
Hon
Hong
Hop
Hopkins
Hor
Horiz
Horm
Horn
Hos
Hospital
Host
Hot
Hous
House
Houston
How
Howard
However
Hs
Hsp
Hu
Huang
Hub
Huber
Hud
Hug
Hughes
Hum
Human
Hung
Hur
Hus
Hy
Hybrid
Hyd
Hydro
Hydrogen
Hyp
Hyper
Hypertension
Hypot
Hypothesis
Hz
I
IA
IB
IBD
IBM
IC
ICA
ICAM
ICC
ICD
ICP
ICS
ICT
ICU
ID
IE
IEEE
IF
IFN
IG
IGF
IH
IHC
II
III
IJ
IK
IL
IM
IMF
IMP
IN
IND
INF
INFORM
INFORMATION
INS
INT
INTER
INTRODUCTION
IO
IOP
IP
IQ
IR
IRF
IRS
IS
ISBN
ISI
ISO
ISP
ISS
ISSN
IT
ITS
IU
IV
IX
Ia
Ib
Ich
Id
Ide
Ideally
Identif
Identification
Identifier
Identifying
If
Ig
IgA
IgE
IgG
IgM
Ii
Ik
Il
Ill
Illinois
Illumina
Illustr
Im
Image
Images
Imaging
Imm
Immun
Immune
Immunohist
Immunol
Immunology
Imp
Impact
Imple
Implementation
Implications
Import
Importantly
Impro
Improved
Improvement
Improving
In
Inc
Incidence
Inclusion
Incor
Incre
Increased
Increasing
Ind
Indeed
Independent
Index
India
Indian
Indic
Individual
Individuals
Indones
Indonesia
Induction
Industr
Industrial
Industry
Inf
Infect
Infection
Infectious
Influ
Influence
Inform
Informatics
Information
Inhib
Inhibition
Initi
Initial
Initially
Initiative
Inj
Injury
Innov
Innovation
Input
Ins
Inst
Instead
Instit
Institut
Institute
Institutes
Institution
Institutional
Instituto
Instr
Instrument
Instruments
Insulin
Insurance
Int
Integr
Integrated
Integration
Intel
Intellig
Intelligence
Intelligent
Intensive
Inter
Interaction
Interactions
Interactive
Interest
Interestingly
Interests
Interface
Interfaces
Intern
Internal
International
Internet
Interpretation
Inters
Intervention
Interventions
Interview
Intr
Intra
Intro
Introduction
Intu
Intuitively
Inv
Invent
Inventory
Invest
Investig
Investigation
Invitrogen
IoT
Ion
Iowa
Ip
Ir
Iran
Ireland
Iron
Is
Ish
Isl
Island
Islands
Iso
Isolation
Isra
Israel
Iss
Issue
Issues
It
Italian
Italy
Item
Iter
Ito
Its
Iw
Iz
J
JA
JAK
JAMA
JB
JC
JD
JE
JF
JG
JH
JJ
JK
JL
JM
JN
JNK
JO
JOURNAL
JP
JR
JS
JT
JW
Ja
Jac
Jack
Jackson
Jacob
Jacobian
Jah
Jahre
Jahren
Jak
James
Jan
Jane
January
Jap
Japan
Japanese
Java
Jay
Je
Jean
Jeff
Jen
Jenn
Jensen
Jer
Jersey
Jew
Ji
Jia
Jiang
Jim
Jin
Jo
Job
Joh
John
Johns
Johnson
Joint
Jon
Jones
Jordan
Jos
Jose
Joseph
Journal
Journals
Jr
Ju
Jud
Jul
July
Jun
June
Jung
Jus
Just
Justice
K
KA
KB
KC
KCl
KD
KE
KEY
KF
KG
KGa
KGaA
KH
KI
KJ
KK
KL
KM
KO
KP
KR
KS
KT
KY
Ka
Kal
Kalman
Kam
Kan
Kang
Kap
Kaplan
Kar
Kas
Kat
Katz
Kauf
Kaw
Kay
Kaz
Kd
Ke
Kel
Kelly
Ken
Kenn
Kennedy
Kent
Kenya
Ker
Kern
Key
Keywords
Kh
Khan
Ki
Kid
Kidney
Kim
Kin
Kind
King
Kingdom
Kir
Kit
Kl
Kle
Klein
Klinik
Klu
Kluwer
Km
Kn
Know
Knowledge
Ko
Kob
Koch
Koh
Kol
Kom
Kon
Kong
Kop
Kor
Kore
Korea
Korean
Kos
Kr
Kra
Krank
Kre
Krebs
Kruskal
Ku
Kumar
Kun
Kur
Kv
Kw
Ky
Kyoto
L
LA
LAN
LB
LBP
LC
LD
LDA
LDH
LDL
LE
LED
LF
LG
LH
LI
LIT
LJ
LL
LLC
LM
LN
LO
LOD
LOS
LP
LPS
LQ
LR
LS
LT
LTE
LTP
LU
LV
LW
LY
La
Lab
Label
Labor
Laboratories
Laboratory
Lac
Lack
Lact
Lag
Lagrange
Lagrangian
Lai
Lake
Lam
Lanc
Lancet
Land
Lane
Lang
Lange
Langmuir
Language
Languages
Lap
Lapl
Laplace
Laplacian
Lar
Large
Lars
Las
Laser
Last
Lastly
Lat
Late
Later
Latin
Lau
Laure
Law
Lawrence
Lay
Layer
Laz
Le
Lead
Lear
Learning
Lebens
Leber
Lecture
Lee
Left
Leg
Leh
Lem
Lemma
Length
Leon
Les
Less
Let
Lett
Letters
Leu
Leuk
Lev
Level
Levels
Levy
Lew
Lewis
Lex
Li
Liang
Lib
Library
Lic
License
Lie
Lif
Life
Lig
Light
Lik
Like
Likert
Likewise
Lim
Limitations
Limited
Lin
Lind
Line
Linear
Lingu
Link
Linux
Lip
Lipid
Lipp
Lippincott
Lipschitz
Lis
List
Liter
Literature
Lith
Little
Liu
Liver
Living
Lj
Ll
Ln
Lo
Load
Loc
Local
Location
Lock
Log
Logic
London
Long
Longitudinal
Looking
Lopez
Loren
Lorentz
Los
Loss
Lou
Louis
Low
Lower
Lp
Ltd
Lu
Luc
Lud
Lund
Lung
Luo
Ly
Lyapunov
Lymph
Lyn
Lys
M
MA
MAC
MAG
MAL
MALDI
MAN
MAP
MAPK
MAR
MAS
MAT
MATERI
MATERIALS
MATLAB
MAX
MB
MC
MCA
MCF
MCI
MCM
MCP
MCS
MD
MDA
MDD
MDR
MDS
ME
MEAS
MED
MEF
MEK
MEM
MEMS
MES
MET
METHOD
METHODS
MF
MG
MH
MHC
MHz
MI
MIC
MIL
MIM
MIMO
MIN
MIP
MIS
MIT
MJ
MK
ML
MM
MMP
MMSE
MN
MO
MOD
MODEL
MOS
MOSFET
MP
MPC
MPEG
MPI
MPa
MR
MRI
MRSA
MS
MSA
MSC
MSCs
MSE
MST
MT
MTT
MTX
MU
MV
MW
MY
MZ
Ma
Mac
Mach
Machine
Mack
Macmillan
Mad
Madison
Madrid
Mag
Magn
Magnetic
Mah
Main
Maj
Major
Mak
Making
Mal
Malay
Malaysia
Male
Mall
Mamm
Man
Management
Manager
Manchester
Mand
Mang
Mann
Manual
Manuf
Manufacturing
Manuscript
Many
Map
Mapping
Mar
Marc
March
Marg
Mari
Maria
Marine
Mark
Market
Markov
Mars
Marsh
Marshall
Mart
Martin
Martinez
Mary
Maryland
Mas
Mass
Massachusetts
Master
Mat
Matching
Mater
Material
Materials
Maternal
Math
Mathem
Mathematical
Mathematics
Matlab
Matrix
Mats
Matter
Matthe
Max
Maximum
Maxwell
May
Mayo
Maz
Mb
Mc
McC
McD
McG
McK
McM
Me
MeOH
MeV
Mean
Meanwhile
Meas
Measure
Measurement
Measurements
Measures
Measuring
Mech
Mechan
Mechanical
Mechanism
Mechanisms
Med
Medi
Media
Median
Medic
Medica
Medicaid
Medical
Medicare
Medicine
Mediterranean
Medium
Meeting
Meh
Mel
Melbourne
Mell
Mem
Member
Members
Membrane
Memory
Men
Mend
Mental
Mer
Merc
Merck
Mes
Mess
Message
Met
Meta
Metab
Metabolic
Metabolism
Metal
Meth
Method
Methodology
Methods
Methyl
Mex
Mexican
Mexico
Meyer
Mg
MgCl
Mi
Mic
Mice
Mich
Michael
Michel
Michigan
Micro
Microb
Microbiol
Microbiology
Micros
Microscopy
Microsoft
Mid
Middle
Mik
Mil
Mill
Miller
Min
Mind
Mini
Minim
Minimum
Mining
Ministry
Minnesota
Mir
Mis
Miss
Mit
Mitchell
Mitochondri
Mitochondrial
Mix
Mixed
Miy
Mn
Mo
Mobile
Mod
Mode
Model
Modeling
Modelling
Models
Moderate
Modern
Modified
Module
Moh
Mol
Molecular
Mon
Monitoring
Mont
Monte
Montreal
Moore
Mor
More
Moreover
Morgan
Morph
Morr
Morris
Mort
Mortality
Mos
Most
Mot
Mother
Motion
Motiv
Motivation
Motor
Moun
Mountain
Mouse
Mov
Movement
Mr
Ms
Mt
Mu
Muc
Much
Muk
Mul
Muller
Multi
Multic
Multim
Multimedia
Multiple
Multiv
Multivariate
Mun
Mur
Murphy
Murray
Mus
Musc
Muscle
Museum
Muslim
Mut
Mutation
Mutations
My
Myc
Mycobacterium
Mé
Mü
Müller
N
NA
NAC
NAD
NADH
NADPH
NASA
NAT
NATURE
NB
NC
ND
NE
NET
NF
NG
NGC
NGF
NH
NHS
NI
NIC
NIH
NIR
NJ
NK
NL
NM
NMD
NMDA
NMR
NN
NO
NOD
NOS
NOT
NP
NPC
NPs
NR
NS
NSA
NSC
NSCLC
NSF
NT
NU
NUMBER
NV
NW
NY
Na
NaCl
NaH
NaOH
Nach
Nacional
Nag
Nak
Nam
Name
Namely
Nan
Nano
Nanos
Nar
Nas
Nash
Nat
National
Nations
Native
Natl
Natural
Nature
Nav
Nb
Nc
Nd
Ne
Near
Nec
Need
Neg
Negative
Neither
Nelson
Neon
Nep
Neph
Nerv
Net
Netherlands
Network
Networks
Neu
Neumann
Neur
Neural
Neuro
Neurob
Neurol
Neurological
Neurology
Neuron
Neurop
Neuroph
Neuropsych
Neuros
Neurosci
Neuroscience
Never
Nevertheless
New
Newman
News
Newton
Next
Ng
Nguyen
Ni
Nic
Nich
Nielsen
Niger
Nigeria
Nik
Nin
Nine
Nish
Nit
No
Node
Noise
Nom
Non
None
Nonetheless
Nonlinear
Nor
Nord
Norm
Normal
Nort
North
Northern
Norway
Norwegian
Nos
Not
Notably
Notch
Note
Notes
Notice
Nov
Novel
November
Now
Nowadays
Np
Nr
Nrf
Ns
Nt
Nu
Nucl
Nucle
Nuclear
Nucleic
Num
Number
Numbers
Numer
Numerical
Numerous
Nur
Nursing
Nutr
Nutri
Nutrition
Ny
O
OA
OB
OBJECT
OBJECTIVE
OBJECTIVES
OC
OCT
OD
OE
OECD
OF
OFDM
OFF
OH
OK
OL
OLS
OM
ON
ONE
OO
OP
OPT
OR
ORF
ORI
OS
OSA
OT
OUT
OV
OVA
OWL
OX
Ob
Ober
Obes
Obesity
Obj
Object
Objective
Objectives
Obs
Observ
Observation
Observations
Observe
Obst
Obstetrics
Obviously
Oc
Occ
Occup
Occupational
Ocean
Oct
October
Od
Of
Off
Office
Often
Og
Oh
Ohio
Oil
Ok
Ol
Old
Olig
Olive
Ols
Om
On
Onc
Once
Oncol
Oncology
One
Online
Only
Ont
Ontario
Ontology
Op
Open
Oper
Operating
Operation
Operational
Operations
Ophthal
Ophthalmol
Ophthalmology
Opin
Opp
Opt
Optical
Optim
Optimal
Optimization
Or
Oral
Ord
Order
Oregon
Org
Organ
Organic
Organization
Ori
Orig
Original
Orth
Orthop
Os
Osaka
Oste
Ot
Other
Others
Otherwise
Ott
Our
Out
Outcome
Outcomes
Output
Ov
Over
Overall
Overex
Overexpression
Overview
Ow
Owing
Ox
Oxford
Oxid
Oxygen
Oz
P
PA
PAC
PAD
PAH
PAI
PAM
PAN
PAP
PAR
PARP
PART
PAS
PAT
PATI
PB
PBM
PBMCs
PBS
PC
PCA
PCB
PCC
PCD
PCI
PCM
PCP
PCR
PCS
PCs
PD
PDA
PDE
PDF
PDGF
PDMS
PE
PED
PEG
PEP
PER
PET
PF
PFC
PFS
PG
PGE
PH
PHY
PI
PIC
PID
PIN
PIP
PJ
PK
PKA
PKC
PL
PLA
PLC
PLOS
PLoS
PM
PMA
PMC
PMID
PMS
PN
PO
POL
POP
POS
PP
PPAR
PPI
PQ
PR
PRE
PRI
PRL
PRO
PROP
PS
PSA
PSD
PSI
PSNR
PSO
PSP
PT
PTEN
PTH
PTP
PTS
PTSD
PU
PURP
PURPOSE
PV
PW
PWM
PY
PZ
Pa
Pac
Pacific
Pack
Pad
Page
Pages
Pain
Pak
Pakistan
Pal
Pan
Panel
Pap
Paper
Papers
Par
Parad
Paragon
Parallel
Parameter
Parameters
Paras
Pare
Parent
Pareto
Paris
Park
Parker
Parkinson
Part
Partial
Particip
Participants
Particle
Particularly
Pas
Pasc
Pass
Past
Pat
Patel
Path
Pathol
Pathology
Pati
Patient
Patienten
Patients
Pattern
Patterns
Paul
Paulo
Pav
Pax
Pay
Pb
Pc
Pd
Pe
Peak
Pear
Pearson
Ped
Pediatr
Pediatric
Pediatrics
Peer
Pel
Pen
Peng
Penn
Pennsylvania
People
Per
Perc
Percent
Percentage
Pere
Performance
Perhaps
Period
Peripheral
Perm
Permission
Pers
Person
Personal
Personality
Perspectives
Pes
Pet
Peter
Peters
Peterson
Petri
Pf
Ph
PhD
Pharm
Pharmac
Pharmaceutical
Pharmaceuticals
Pharmacol
Pharmacology
Pharmacy
Phase
Phe
Phen
Phil
Philadelphia
Philipp
Phillips
Philosoph
Phone
Phosph
Phot
Photon
Phyl
Phylogenetic
Phys
Physi
Physical
Physicians
Physics
Physiol
Physiological
Physiology
Phyt
Pi
Pic
Pick
Pier
Pig
Pil
Pin
Pit
Pitts
Pittsburgh
Pj
Pk
Pl
Place
Plan
Planck
Planning
Plant
Plants
Plas
Plasma
Plasmodium
Plate
Platform
Ple
Please
Plus
Pm
Pn
Pneum
Po
Poin
Point
Poisson
Pol
Poland
Polar
Poli
Polic
Policy
Polish
Political
Poll
Poly
Polym
Polymer
Pon
Poor
Pop
Population
Por
Port
Portug
Portugal
Pos
Position
Positive
Possible
Post
Postoperative
Pot
Potential
Pow
Power
Pp
Pr
Prac
Practical
Practice
Pre
Prec
Precision
Pred
Predic
Prediction
Pref
Prel
Preliminary
Pren
Preparation
Pres
Presence
Present
President
Press
Pressure
Pret
Prev
Prevalence
Prevention
Previous
Previously
Pri
Price
Prim
Primary
Primer
Prin
Princeton
Princip
Principal
Principle
Principles
Prior
Prism
Priv
Privacy
Private
Pro
Prob
Probability
Probes
Proble
Problem
Problems
Proc
Proced
Procedure
Procedures
Proceedings
Process
Processes
Processing
Product
Production
Products
Prof
Professional
Professor
Profile
Prog
Progn
Progr
Program
Programm
Programme
Programming
Programs
Progress
Project
Prol
Prom
Proof
Prop
Proper
Properties
Property
Proposed
Proposition
Pros
Prospective
Prot
Prote
Protection
Protein
Proteins
Protoc
Protocol
Prov
Province
Ps
Pseud
Pseudomonas
Psych
Psychiatric
Psychiatry
Psychol
Psychological
Psychology
Pt
Pu
Pub
PubMed
Public
Publication
Publications
Publis
Published
Publisher
Publishers
Publishing
Pul
Pulmonary
Pur
Pure
Purification
Purpose
Put
Py
Pyr
Q
QA
QC
QCD
QD
QDs
QOL
QR
QT
QTL
QU
Qi
QoL
QoS
Qu
Quad
Qual
Qualitative
Quality
Quanti
Quantif
Quantification
Quantitative
Quantum
Quarter
Quarterly
Que
Queens
Query
Ques
Question
Questionnaire
Questions
R
RA
RAD
RAM
RAN
RAP
RAS
RB
RBC
RBF
RC
RCC
RCT
RCTs
RD
RDF
RE
REC
RED
REF
REFERENCES
REG
REL
RELATED
REM
REP
REPORT
RES
RESEARCH
RESUL
RESULTS
RET
REV
REVIE
REVIEW
RF
RFID
RG
RGB
RH
RI
RIP
RJ
RK
RL
RM
RMS
RMSE
RN
RNA
RNAi
RNAs
RNase
RO
ROC
ROI
ROIs
ROM
ROS
RP
RPE
RPMI
RQ
RR
RS
RSA
RSV
RT
RU
RV
RW
RX
Ra
Rab
Rac
Rad
Radi
Radiation
Radio
Radiology
Raf
Rah
Rain
Raj
Ram
Raman
Ran
Rand
Random
Randomized
Range
Rank
Rao
Rap
Rapid
Ras
Rat
Rate
Rates
Rather
Rating
Ratio
Rational
Rats
Raw
Ray
Rayleigh
Rb
Rd
Re
Reaction
Read
Reading
Real
Reason
Rec
Recall
Rece
Received
Recent
Recently
Receptor
Recognition
Recomb
Recombinant
Recomm
Recommend
Recommendations
Recons
Record
Recovery
Red
Reduc
Reduced
Reduction
Reed
Ref
Refer
Reference
References
Refs
Reg
Regarding
Regardless
Region
Regional
Register
Registry
Regression
Regular
Regulation
Rehabilitation
Rein
Rel
Related
Relation
Relations
Relationship
Relative
Release
Reli
Reliability
Rem
Remark
Remote
Ren
Renal
Rep
Repe
Repeat
RepoR
Report
Reports
Repres
Representation
Representative
Repro
Republic
Requ
Request
Require
Requirements
Res
Resear
Research
Researchers
Reserve
Resid
Resistance
Resolution
Reson
Resource
Resources
Resp
Respir
Respiratory
Respon
Respond
Response
Responses
Rest
Result
Results
Ret
Retrie
Retrieval
Return
Rev
Rever
Reverse
Review
Reviews
Revised
Reyn
Reynolds
Rf
Rh
Rheumat
Rho
Rhod
Ri
Rib
Ric
Rice
Rich
Richard
Richardson
Riemann
Rig
Right
Rights
Ring
Rio
Ris
Risk
River
Rk
Rm
Rn
Ro
Road
Rob
Robert
Roberts
Robinson
Robot
Robotics
Robust
Roc
Roche
Rock
Rod
Rodrig
Rodriguez
Rog
Rogers
Roh
Rol
Role
Rom
Roman
Rome
Room
Root
Ros
Rose
Rosen
Ross
Rot
Roth
Rout
Routing
Row
Roy
Royal
Rp
Rs
Rt
Ru
Rub
Rubin
Rud
Rule
Rules
Run
Rural
Rus
Russ
Russell
Russia
Russian
Rx
Ry
Ryan
S
SA
SAM
SAP
SAR
SAS
SAT
SB
SBP
SC
SCA
SCC
SCD
SCH
SCI
SCR
SD
SDS
SE
SEC
SEL
SEM
SER
SES
SET
SF
SG
SH
SHR
SI
SIAM
SIG
SIM
SIMULATION
SIN
SINR
SIP
SIR
SIRT
SJ
SK
SL
SLA
SLC
SLE
SM
SMA
SMC
SME
SMS
SN
SNA
SNP
SNPs
SNR
SO
SOA
SOC
SOD
SOL
SOM
SP
SPE
SPECT
SPSS
SQ
SQL
SR
SS
SSA
SSC
SSD
SST
ST
STAT
STEM
STM
STR
STS
STUD
STUDY
SU
SUB
SUMM
SUMMARY
SUMO
SUPP
SV
SVM
SW
SY
SYBR
SYST
SYSTEM
Sa
Sab
Sac
Saccharomyces
Sad
Saf
Safety
Sah
Saint
Sak
Sal
Salmon
Salmonella
Sam
Sample
Samples
Sampling
San
Sand
Sant
Santa
Santos
Sap
Sar
Sat
Sato
Saudi
Sav
Sb
Sc
Scal
Scale
Scand
Scanning
Scenari
Scenario
Sch
Sche
Sched
Scheduling
Schem
Schematic
Scheme
Schl
Schmidt
Schneider
Scholar
Scholars
School
Schr
Schrö
Schul
Schw
Schwartz
Schwarz
Sci
Science
ScienceDirect
Sciences
Scientific
Score
Scot
Scotland
Scott
Screen
Screening
Se
Sea
Search
Seattle
Sec
Second
Secondary
Secondly
Secret
Sect
Section
Sections
Security
Sed
See
Seed
Seg
Seh
Sek
Sel
Select
Selected
Selection
Selective
Self
Sem
Seman
Semantic
Semi
Sen
Send
Senior
Sens
Sensing
Sensitivity
Sensor
Sensors
Seoul
Sep
Separ
Sept
September
Sequ
Sequence
Sequences
Sequencing
Ser
Series
Serum
Serv
Server
Service
Services
Session
Set
Setting
Seven
Sevent
Sever
Several
Severe
Sex
Sexual
Sf
Sh
Sha
Shah
Sham
Shanghai
Shannon
Shap
Shapiro
Shar
Sharma
Shaw
She
Shen
Sher
Shi
Shim
Shin
Short
Should
Si
SiO
Sid
Sie
Sig
Sigma
Sign
Signal
Signaling
Signific
Significance
Significant
Significantly
Sil
Silva
Silver
Sim
Similar
Similarly
Simon
Simple
Simpson
Simulation
Simulations
Simultaneous
Sin
Since
Sing
Singapore
Singh
Single
Sir
Sit
Site
Six
Sixty
Size
Sj
Sk
Skin
Sl
Sleep
Slo
Sm
Smad
Small
Smart
Smith
Sn
So
Sob
Soc
Soci
Social
Society
Sodium
Soft
Software
Soil
Sol
Solar
Solid
Solution
Solutions
Solving
Some
Sometimes
Son
Song
Sons
Sor
Sound
Source
Sources
South
Southern
Sox
Sp
Space
Spain
Span
Spanish
Spar
Spatial
Spe
Spearman
Spec
Special
Species
Specific
Specifically
Spect
Spectral
Spectrom
Spectrum
Speech
Speed
Spin
Spl
Sports
Spr
Sprague
Spring
Springer
Squ
Sr
Src
Sri
St
Sta
Stability
Stable
Staff
Stage
Stan
Stand
Standard
Standards
Stanford
Staphyl
Staphylococcus
Star
Start
Starting
Stat
State
Statement
States
Static
Station
Statis
Statistical
Statistics
Status
Std
Ste
Stefan
Stein
Stem
Sten
Step
Stephen
Ster
Stern
Stevens
Stewart
Sti
Still
Stim
Stimulation
Stochastic
Stock
Stockholm
Stokes
Stone
Storage
Str
Strain
Strateg
Strategic
Strategies
Strategy
Stre
Stream
Street
Streng
Strept
Streptococcus
Stress
Stro
Stroke
Strong
Structural
Structure
Structures
Stud
Student
Students
Studies
Study
Su
Sub
Subject
Subjects
Submit
Submitted
Subs
Subsequent
Subsequently
Subst
Substit
Substituting
Suc
Successful
Such
Sud
Sug
Suite
Sul
Sulf
Sum
Summ
Summary
Sun
Sund
Sup
Super
Supp
Suppl
Supplement
Supplemental
Supplementary
Support
Supported
Supporting
Suppose
Supreme
Sur
Surface
Surg
Surge
Surgery
Surgical
Surprisingly
Surv
Surve
Surveillance
Survey
Survival
Sus
Sustain
Suz
Suzuki
Sv
Sw
Swed
Sweden
Swedish
Swiss
Switzerland
Sy
Syd
Sydney
Sym
Symp
Symposium
Sympt
Syn
Synchron
Synd
Syndrome
Synthesis
Synthetic
Syst
System
Systematic
Systems
Sz
São
T
TA
TABLE
TAC
TAG
TAM
TAP
TB
TBI
TC
TCA
TCP
TCR
TD
TE
TECH
TEM
TF
TG
TGF
TH
THE
THF
THz
TI
TJ
TK
TL
TLC
TLR
TM
TMS
TN
TNF
TO
TOP
TP
TR
TRA
TRAN
TRE
TRI
TRP
TS
TSH
TSP
TT
TU
TUNEL
TV
TW
TX
Ta
Tab
Table
Tables
Tag
Tage
Tai
Taiwan
Tak
Takahashi
Take
Taken
Taking
Tal
Tam
Tan
Tanaka
Tang
Tanz
Taq
Tar
Target
Task
Tat
Tau
Tax
Taylor
Tb
Tc
Te
Teaching
Team
Tech
Techn
Techni
Technical
Technique
Techniques
Technol
Technologies
Technology
Teil
Tel
Tele
Tem
Temperature
Temporal
Ten
Ter
Term
Terms
Tes
Test
Testing
Tests
Tet
Tetra
Tex
Texas
Text
Tf
Tg
Th
Thailand
Thanks
That
The
Their
Then
Theore
Theorem
Theorems
Theoretical
Theory
Ther
Therap
Therapeu
Therapeutic
Therapie
Therapy
There
Thereafter
Therefore
Therm
Thermal
Thermo
These
Thesis
They
Thi
Thin
Third
Thirty
This
Thom
Thomas
Thompson
Thor
Those
Though
Thr
Three
Threshold
Thromb
Through
Throughout
Thus
Ti
TiO
Tian
Tib
Tier
Tim
Time
Times
Tiss
Tissue
Tit
Title
Tj
Tk
Tm
Tn
To
Tob
Tod
Today
Together
Tok
Tokyo
Tol
Toll
Tom
Ton
Tong
Tool
Tools
Top
Tor
Toronto
Total
Tour
Tow
Towards
Town
Toxic
Toxicol
Tp
Tr
Tra
Trace
Tracking
Trad
Trade
Tradition
Traditional
Traditionally
Traffic
Training
Trans
Transactions
Transcription
Transfer
Transform
Transformation
Transi
Transition
Transmission
Transplant
Transplantation
Transport
Transportation
Trauma
Tre
Treat
Treatment
Tree
Treg
Trend
Trends
Tri
Trial
Trials
Trich
Trig
Tris
Triton
Tro
Trop
Tropical
Trp
True
Trust
Tryp
Ts
Tu
Tuber
Tukey
Tum
Tumor
Tun
Tur
Turb
Turing
Turk
Turkey
Turkish
Turner
Tw
Tween
Twelve
Twent
Twenty
Twitter
Two
Tx
Ty
Typ
Type
Types
Typical
Typically
Tyr
U
UA
UAV
UC
UD
UDP
UE
UI
UK
UL
UM
UML
UN
UNIV
UP
URL
US
USA
USD
USP
UT
UV
UWB
Ub
Ug
Uganda
Ui
Ul
Ultimately
Ultr
Ultra
Ultras
Ultrasound
Um
Un
Unauthorized
Uncertain
Und
Under
Understanding
Unfortunately
Uni
Union
Unit
United
Univ
Univer
Univers
Universal
Universidad
Universidade
Universit
University
Université
Unlike
Unter
Unters
Untersuch
Untersuchung
Untersuchungen
Until
Up
Upd
Update
Upon
Upper
Ur
Urban
Urs
Us
Use
User
Users
Using
Usually
Ut
Util
V
VA
VAR
VAS
VB
VC
VD
VE
VEGF
VF
VG
VH
VI
VII
VIII
VL
VM
VO
VOL
VOLUME
VP
VR
VS
VT
VV
Va
Vacc
Val
Validation
Valley
Value
Values
Van
Var
Vari
Variable
Variables
Variation
Various
Vas
Vascular
Ve
Vector
Vehicle
Vel
Ven
Ver
Verg
Verlag
Verm
Vers
Version
Very
Ves
Vet
Veter
Veterans
Veterinary
Vi
Via
Vic
Victor
Victoria
Video
Vienna
Viet
Vietnam
View
Vill
Vin
Vinc
Viol
Vir
Virgin
Virginia
Virol
Virtual
Virus
Vis
Vision
Visual
Visualization
Vit
Vitamin
Vo
Vol
Voltage
Volume
Von
Vor
W
WA
WB
WC
WD
WE
WF
WG
WH
WHO
WI
WITH
WJ
WL
WLAN
WM
WORK
WP
WR
WS
WSN
WT
WW
WWW
Wa
Wagner
Wal
Wald
Wales
Walk
Walker
Wall
Walter
Wang
War
Ward
Was
Wash
Washington
Wasser
Wat
Water
Waters
Watson
Wave
Way
We
Weak
Web
Weber
Webs
Week
Wei
Weib
Weight
Wein
Weinheim
Weiss
Wel
Welfare
Well
Wen
Wer
West
Western
Wh
What
Whe
When
Whenever
Where
Whereas
Whether
Which
While
Whit
White
Whole
Why
Wi
Wid
Wide
Wien
Wik
Wikipedia
Wil
Wilcox
Wilcoxon
Wild
Wiley
Wilkins
Will
Willi
William
Williams
Wilson
Win
Wind
Windows
Winter
Wir
Wireless
Wirkung
Wisconsin
Wistar
Wit
With
Within
Without
Wnt
Wo
Wol
Wolf
Women
Wong
Wood
Wor
Word
Words
Work
Working
Workshop
World
Wright
Writ
Writing
Wu
Wy
X
XI
XL
XML
XP
XRD
XX
XXX
XY
Xen
Xenopus
Xi
Xia
Xiao
Xie
Xk
Xn
Xt
Xu
Y
Yale
Yam
Yan
Yang
Yao
Ye
Year
Yes
Yet
Yi
Yield
Yin
York
Yosh
You
Young
Your
Yu
Yuan
Yun
Z
Ze
Zealand
Zeiss
Zeit
Zell
Zellen
Zh
Zhang
Zhao
Zheng
Zhong
Zhou
Zhu
Zi
Zn
ZnO
Zo
Zone
Zr
Zu
Zur
Zusamm
Zw
[
[(
[0
[0,
[0.
[1
[1,
[10
[10,
[10]
[10],
[10].
[11,
[11]
[11],
[11].
[12,
[12]
[12],
[12].
[13,
[13]
[13],
[13].
[14
[14,
[14]
[14],
[14].
[15
[15,
[15]
[15],
[15].
[16,
[16]
[16],
[16].
[17,
[17]
[17],
[17].
[18
[18,
[18]
[18],
[18].
[19,
[199
[19]
[19],
[19].
[1]
[1],
[1].
[1–
[2
[2,
[20
[20,
[200
[20]
[20],
[20].
[21,
[21]
[21],
[21].
[22,
[22]
[22],
[22].
[23,
[23]
[23],
[23].
[24,
[24]
[24],
[24].
[25,
[25]
[25],
[25].
[26,
[26]
[26],
[26].
[27,
[27]
[27],
[27].
[28,
[28]
[28],
[28].
[29,
[29]
[29].
[2]
[2],
[2].
[3
[3,
[30
[30]
[30].
[31]
[31].
[32]
[32].
[33]
[33].
[34]
[34].
[35]
[35].
[36]
[36].
[37]
[37].
[38]
[38].
[39]
[39].
[3]
[3],
[3].
[4
[4,
[40
[40]
[40].
[41]
[41].
[42]
[42].
[43]
[43].
[44]
[44].
[45].
[46].
[47].
[4]
[4],
[4].
[5
[5,
[50
[5]
[5],
[5].
[6
[6,
[60
[6]
[6],
[6].
[7
[7,
[7]
[7],
[7].
[8
[8,
[8]
[8],
[8].
[9
[9,
[9]
[9],
[9].
[[
[−
\
]
])
],
].
^
_
__
`
a
aa
ab
abandon
abbrevi
abdomen
abdominal
abelian
aber
aberr
aberrant
aberrations
abilities
ability
abiotic
ablation
able
abnorm
abnormal
abnormalities
abnormality
abol
abolished
abortion
about
above
abroad
abrupt
abs
abscess
absence
absent
absol
absolute
absolutely
absor
absorb
absorbance
absorbed
absorbing
absorption
abst
abstr
abstract
abstraction
abstracts
abund
abundance
abundances
abundant
abuse
ac
acad
academic
acc
accel
acceler
accelerate
accelerated
accelerating
acceleration
accelerometer
accent
accept
acceptability
acceptable
acceptance
accepted
accepting
acceptor
accepts
acces
access
accessed
accesses
accessibility
accessible
accessing
accession
accessions
accessory
accident
accidents
acclim
accommod
accommodate
accommodation
accomp
accompan
accompanied
accompanying
accompl
accomplish
accomplished
accord
accordance
according
accordingly
accoun
account
accountability
accounted
accounting
accounts
accr
accretion
accum
accumulate
accumulated
accumulating
accumulation
accur
accuracies
accuracy
accurate
accurately
ace
acet
acetate
acetic
acetone
acetonitrile
acetyl
acetylation
acetylcholine
ach
achie
achievable
achieve
achieved
achievement
achieves
achieving
acid
acidic
acids
acknowled
acknowledg
acknowledge
acknowledged
acknowledges
acoustic
acqu
acquire
acquired
acquiring
acquisition
acr
across
act
acted
actin
acting
action
actions
activ
activate
activated
activates
activating
activation
activator
active
actively
activities
activity
actor
actors
acts
actu
actual
actually
actuator
actuators
acuity
acute
acyclic
acyl
ad
adap
adapt
adaptation
adaptations
adapted
adapting
adaptive
add
added
addiction
adding
addition
additional
additionally
additions
additive
additives
address
addressed
addresses
addressing
adds
adducts
aden
adenine
adenocarcinoma
adenoma
adenomas
adenosine
adenovirus
adequ
adequacy
adequate
adequately
adhe
adhere
adherence
adherent
adhesion
adhesive
adi
adiabatic
adip
adipocytes
adiponectin
adipose
adj
adjacency
adjacent
adjoint
adjust
adjustable
adjusted
adjusting
adjustment
adjustments
adjuvant
adm
admin
administered
administr
administration
administrative
administrator
administrators
admissible
admission
admissions
admit
admits
admitted
adoles
adolescence
adolescent
adolescents
adop
adopt
adopted
adopting
adoption
adopts
adren
adrenal
ads
adsorb
adsorbed
adsorption
adul
adult
adulthood
adults
adv
advance
advanced
advancement
advances
advancing
advant
advantage
advantageous
advantages
advent
adver
advers
adversary
adverse
adversely
advertis
advertising
advice
advis
advised
advoc
advocated
ae
aer
aerial
aerobic
aerosol
aeruginosa
aesthetic
aeti
af
aff
affect
affected
affecting
affective
affects
afferent
affili
affine
affinities
affinity
affirm
afford
afforded
afore
aforementioned
after
afterwards
ag
again
against
agar
agarose
age
aged
ageing
agencies
agency
agenda
agent
agents
ages
agg
aggl
aggrav
aggreg
aggregate
aggregated
aggregates
aggregation
aggression
aggressive
aging
ago
agon
agonist
agonists
agr
agre
agree
agreed
agreement
agreements
agrees
agricultural
agriculture
ah
ahead
ai
aid
aids
aim
aimed
aiming
aims
air
airborne
aircraft
airway
airways
aj
ak
al
alanine
alarm
alb
albeit
albicans
albumin
alcoh
alcohol
alcoholic
ald
alert
alerts
alg
algae
algal
algebra
algebraic
algebras
algorith
algorithm
algorithmic
algorithms
ali
align
aligned
alignment
alignments
aliqu
aliquot
aliquots
alive
alk
alkal
alkaline
alkyl
all
alle
allele
alleles
allelic
allen
allerg
allergen
allergic
allergy
allevi
alleviate
allo
alloc
allocate
allocated
allocation
allogeneic
allograft
allow
allowed
allowing
allows
alloy
alloys
ally
almost
alone
along
alongside
alph
alpha
alphabet
already
als
also
alt
alter
alteration
alterations
altered
altering
altern
alternate
alternating
alternative
alternatively
alternatives
alters
although
altitude
altogether
alumin
aluminum
alveolar
always
am
amb
ambient
ambigu
ambiguity
ambiguous
ambulatory
amel
amelior
amen
amenable
amend
amide
amin
amine
amines
amino
ammon
ammonia
ammonium
among
amongst
amorphous
amount
amounts
amp
amph
amphib
ampl
amplic
amplification
amplified
amplifier
amplifiers
amplify
amplitude
amplitudes
amygd
amygdala
amyl
amyloid
an
ana
anaerobic
anaesthe
anaesthesia
anal
analges
analgesia
analgesic
analog
analogous
analogs
analogue
analogues
analogy
analy
analys
analyse
analysed
analyses
analysing
analysis
analyst
analysts
analyte
analytes
analytic
analytical
analytically
analytics
analyze
analyzed
analyzer
analyzes
analyzing
anastom
anastomosis
anat
anatom
anatomic
anatomical
anatomy
anc
ances
ancest
ancestor
ancestral
anch
anchor
ancient
and
andere
anderen
androgen
anemia
anesthe
anesthesia
anesthetic
anesthetized
aneur
aneurys
aneurysm
aneurysms
ang
ange
anger
angi
angina
angiogenesis
angiogenic
angiography
angiotensin
angle
angles
angular
anim
animal
animals
animation
anion
anions
anis
anisotropic
anisotropy
ankle
ann
anne
annealing
annih
anno
annot
annotated
annotation
annotations
announce
announced
annual
annually
anode
anomal
anomalies
anomalous
anomaly
anonym
anonymous
another
ans
answ
answer
answered
answering
answers
ant
antagon
antagonist
antagonists
anteced
antecedent
anten
antenna
antennas
anter
anterior
anth
anthrac
anthrop
anthropogenic
anti
antib
antibacterial
antibiotic
antibiotics
antibodies
antibody
antic
anticancer
anticip
anticipate
anticipated
antico
anticoagul
anticoagulant
anticoagulation
antidepress
antidepressant
antifungal
antigen
antigenic
antigens
antim
antimicrobial
antioxid
antioxidant
antioxidants
antipsych
antiretroviral
antis
antisense
antiserum
antit
antitumor
antiviral
ants
anuscript
anxiety
any
anyone
anything
anywhere
ao
aort
aorta
aortic
ap
apart
aper
aperture
apex
aph
apical
apnea
apo
apop
apoptosis
apoptotic
app
apparatus
apparent
apparently
appe
appeal
appealing
appear
appearance
appeared
appearing
appears
append
appendix
appetite
appl
apple
appli
applic
applicability
applicable
application
applications
applied
applies
apply
applying
appoint
appraisal
appreci
appreciate
appreciated
appreciation
appro
approach
approached
approaches
approaching
appropri
appropriate
appropriately
approval
approved
approxim
approximate
approximated
approximately
approximating
approximation
approximations
apps
apt
aqu
aquatic
aqueous
ar
arb
arbitr
arbitrarily
arbitrary
arc
arch
archae
architect
architectural
architecture
architectures
archive
arcs
are
area
areas
arg
arginine
argon
argu
argue
argued
argues
argument
arguments
arise
arises
arising
arith
arithmetic
arm
arms
arom
aromatic
arose
around
arous
arousal
arr
arrang
arranged
arrangement
arrangements
array
arrays
arres
arrest
arrhyth
arrhythmias
arri
arrival
arrive
arrived
arrives
arriving
arrow
arrows
arsen
arsenic
art
arte
artefacts
arter
arteri
arterial
arteries
artery
arth
arthritis
arthroplasty
artic
article
articles
articular
artif
artifact
artifacts
artificial
artificially
artis
aryl
as
asc
ascending
ascertain
ascites
ascorb
ascribed
ash
aside
ask
asked
asking
asks
aspart
aspec
aspect
aspects
aspir
aspiration
aspirin
ass
assay
assayed
assays
assemb
assembl
assembled
assemblies
assembly
asser
assertion
assertions
assess
assessed
assessing
assessment
assessments
asset
assets
assign
assigned
assigning
assignment
assignments
assigns
assim
assimilation
assist
assistance
assistant
assisted
associ
associate
associated
associates
association
associations
associative
assum
assume
assumed
assumes
assuming
assumption
assumptions
assurance
assure
aster
asth
asthma
astro
astroc
astrocytes
asym
asymmet
asymmetric
asymmetry
asympt
asymptomatic
asymptotic
asymptotically
asynchron
asynchronous
at
ate
ath
athe
atheroscl
atherosclerosis
atherosclerotic
athletes
ation
atmosp
atmosphere
atmospheric
atom
atomic
atoms
atr
atrial
atrophy
att
attach
attached
attachment
attack
attacker
attacks
attain
attained
attainment
attem
attempt
attempted
attempting
attempts
atten
attend
attendance
attended
attending
attention
attentional
attenuate
attenuated
attenuation
attit
attitude
attitudes
attr
attract
attracted
attraction
attractive
attrib
attributable
attribute
attributed
attributes
atyp
atypical
au
auc
auch
auction
aud
audi
audience
audio
audit
auditory
aueh
auf
aug
augment
augmentation
augmented
aur
aureus
aus
ausge
aut
auth
authentic
authentication
author
authorities
authority
authorized
authors
autism
auto
autoantibodies
autocor
autocorrelation
autoimmune
autologous
autom
automata
automated
automatic
automatically
automation
automaton
automotive
autonomic
autonomous
autonomy
autophag
autophagy
autopsy
autoreg
autosomal
aux
auxiliary
auxin
av
avail
availability
available
avec
aver
average
averaged
averages
averaging
aversion
avian
avoid
avoidance
avoided
avoiding
avoids
aw
awa
award
awarded
aware
awareness
away
ax
axes
axi
axial
axillary
axiom
axioms
axis
axon
axonal
axons
ay
az
azimuth
b
ba
bab
babies
baby
bac
back
backbone
background
backgrounds
backsc
backup
backward
bacter
bacteri
bacteria
bacterial
bacterium
bad
bag
bags
bal
balance
balanced
balancing
ball
balloon
balls
ban
band
bands
bandwidth
bank
banking
banks
bar
bare
barg
bargaining
bark
barley
barri
barrier
barriers
bars
bary
bas
basal
base
based
baseline
basement
bases
basic
basically
basin
basins
basis
bat
batch
batches
bath
batter
batteries
battery
bc
be
bead
beads
beam
beamforming
beams
bean
bear
bearing
bears
beat
beats
bec
became
because
become
becomes
becoming
bed
beds
bee
beef
been
bees
beet
before
beg
began
begin
beginning
begins
begun
beh
behalf
behav
behave
behaves
behavi
behavior
behavioral
behaviors
behaviour
behavioural
behaviours
behind
bei
beiden
beim
being
beings
bekann
bel
belie
belief
beliefs
believe
believed
believes
belong
belonged
belonging
belongs
below
belt
ben
benchmark
benchmarks
bending
bene
beneath
benef
benefici
beneficial
benefit
benefits
benign
bent
benthic
benz
benzene
ber
bere
bereits
bes
besch
besides
besond
besonders
best
beste
bet
beta
betr
better
between
bey
beyond
bi
bias
biased
biases
bibli
bic
bicarbonate
bid
bidirectional
bif
bifur
bifurcation
big
bigger
biggest
bil
bilateral
bilayer
bile
biliary
bilinear
bilingual
bilirubin
bill
billion
bim
bin
binary
bind
binding
binds
binomial
bins
bio
bioactive
bioavailability
bioc
biochemical
biodegrad
biodiversity
biof
biofil
biofilm
biofilms
bioge
biogenesis
bioinformatics
biologic
biological
biologically
biology
biom
biomark
biomarker
biomarkers
biomass
biomechanical
biomed
biomedical
biometric
biop
biopsies
biopsy
biore
bios
biosynthesis
biosynthetic
biotin
biotinylated
bip
bipartite
bipolar
bir
bird
birds
birth
births
bis
bit
bits
bivariate
bj
bk
bl
black
bladder
blade
blank
blast
ble
bleeding
blend
blind
blinded
blo
block
blockade
blocked
blocker
blockers
blocking
blocks
blood
blot
blots
blotting
blow
blue
blur
bn
bo
board
boards
bod
bodies
body
boiling
bol
bold
bolus
bomb
bon
bond
bonded
bonding
bonds
bone
bones
bony
book
books
boolean
boost
bootstr
bootstrap
bor
border
borderline
borders
bore
born
borrow
bos
bot
both
bott
bottle
bottlen
bottleneck
bottom
bound
boundaries
boundary
bounded
bounding
bounds
bovine
bow
bowel
box
boxes
boy
boys
bp
br
bra
brach
bracket
brackets
brain
brains
brainstem
bran
branch
branched
branches
branching
brand
bre
bread
breadth
break
breakdown
breaking
breaks
breakthrough
breast
breastfeeding
breath
breathing
breed
breeding
brid
bridge
bridges
bridging
brief
briefly
bright
brightness
bring
bringing
brings
bro
broad
broadband
broadcast
broadcasting
broadening
broader
broadly
broken
brom
bromide
bronch
bronchial
broth
brought
brow
brown
browser
browsing
brush
bs
bu
bub
bubble
bubbles
buc
buck
bud
budget
buff
buffer
buffered
buffers
bug
bugs
build
building
buildings
builds
built
bul
bulb
bulk
bull
bund
bundle
bundles
bup
bur
burden
buried
burn
burning
burs
burst
bursts
bus
buses
business
businesses
busy
but
butt
butter
button
buy
buyer
buyers
by
bypass
byte
bytes
bzw
c
cAMP
cDNA
ca
cable
cache
caches
caching
cad
cada
cadmium
caffe
caffeine
cage
cages
cal
calc
calcd
calcification
calcium
calculate
calculated
calculates
calculating
calculation
calculations
calculus
calf
calibr
calibrated
calibration
call
called
calling
calls
calor
calves
cam
came
camera
cameras
camp
campaign
campaigns
campus
can
canal
canc
cancel
cancell
cancellation
cancer
cancers
candid
candidate
candidates
canine
cann
cannabis
cannot
canonical
canopy
cant
cantile
cantly
cap
capabilities
capability
capable
capac
capacitance
capacities
capacitor
capacitors
capacity
capill
capillaries
capillary
capita
capital
caps
capsule
capture
captured
captures
capturing
car
carb
carbohydr
carbohydrate
carbohydrates
carbon
carbonate
carbonyl
carboxyl
carc
carcin
carcinogenesis
carcinoma
carcinomas
card
cardi
cardiac
cardinal
cardinality
cardiomy
cardiomyocytes
cardiomyopathy
cardiopulmonary
cardiovascular
cards
care
career
careful
carefully
careg
caregiver
caregivers
cargo
caries
caring
caro
caroten
carotid
carp
carri
carried
carrier
carriers
carries
carry
carrying
cars
cart
cartil
cartilage
cas
casc
cascade
cascades
case
cases
cash
caspase
cass
cassette
cast
casual
cat
catal
catalase
catalog
cataly
catalysis
catalyst
catalysts
catalytic
catalyzed
catar
cataract
catast
catch
catchment
catech
catechol
categor
categorical
categories
categorization
categorized
category
cathe
catheter
catheters
cathode
cation
cationic
cations
cats
cattle
caud
caudal
caught
caus
causal
causality
causative
cause
caused
causes
causing
caution
cav
cave
cavities
cavity
cc
cd
ce
cef
cell
cells
cellul
cellular
cellulose
cement
cen
cens
census
cent
center
centered
centers
centr
central
centrality
centralized
centrally
centre
centres
centrifug
centrifugation
centrifuged
centroid
centrom
century
cephal
cer
ceramic
cere
cereb
cerebellar
cerebellum
cerebral
cerebrospinal
cerebrovascular
cerevisiae
certain
certainly
certainty
certif
certificate
certification
certified
cerv
cervical
ces
cess
cessation
cet
cf
ch
cha
chain
chains
chair
chall
challeng
challenge
challenged
challenges
challenging
cham
chamber
chambers
chance
chances
chang
change
changed
changes
changing
chann
channel
channels
chaos
chaotic
chap
chaper
chaperone
chapter
chapters
char
character
characterised
characteristic
characteristics
characterize
characterized
characterizes
characterizing
characters
charg
charge
charged
charges
charging
chart
charts
che
cheap
check
checked
checking
checkpoint
checks
chel
chem
chemical
chemically
chemicals
chemil
chemistry
chemo
chemokine
chemokines
chemot
chemotherapy
chest
chi
chick
chicken
chickens
chief
child
childhood
children
chim
chimeric
chimpanze
chip
chips
chir
chiral
chitosan
chlor
chloride
chloroform
chlorophyll
chloroplast
cho
choice
choices
chol
cholec
cholesterol
choline
cholinergic
chond
chondrocytes
choose
chooses
choosing
chor
chord
chose
chosen
chr
chrom
chromat
chromatic
chromatin
chromatographic
chromatography
chromos
chromosomal
chromosome
chromosomes
chron
chronic
chronically
chunk
ci
ciency
cient
cigare
cigarette
cigarettes
cin
cing
cingulate
cipher
circ
circadian
circle
circles
circuit
circuitry
circuits
circular
circulating
circulation
circum
circumference
circumst
circumstances
circumvent
cirrh
cirrhosis
cis
cisplatin
cit
citation
citations
cite
cited
citi
cities
citizen
citizens
citr
citrate
city
civil
cj
ck
cl
clade
clades
claim
claimed
claims
clamp
clar
clarified
clarify
clarity
class
classes
classi
classic
classical
classification
classifications
classified
classifier
classifiers
classify
classifying
classroom
clause
clauses
clay
cle
clean
cleaned
cleaning
clear
clearance
cleared
clearing
clearly
cleavage
cleaved
cleft
click
client
clients
clim
climate
climatic
clin
clinic
clinical
clinically
clinician
clinicians
clinics
clique
clock
clon
clonal
clone
cloned
clones
cloning
clos
close
closed
closely
closer
closest
closing
closure
clot
cloud
clouds
clues
clus
cluster
clustered
clustering
clusters
clutter
cm
cn
co
coagulation
coal
coales
coalition
coars
coarse
coast
coastal
coat
coated
coating
coatings
cobal
cobalt
coc
cocaine
coch
cochlear
cock
cod
code
coded
codes
codeword
coding
codon
codons
coe
coefficient
coefficients
coex
coexistence
coffee
cogn
cognition
cognitive
coh
cohe
coherence
coherent
cohesion
cohomology
cohort
cohorts
coil
coils
coin
coinc
coincide
coincidence
coincides
col
cold
coli
colitis
coll
collabor
collaboration
collaborative
collagen
collapse
collapsed
collateral
colle
colleag
colleagues
collec
collect
collected
collecting
collection
collections
collective
collectively
collector
collects
college
collis
collision
collisions
colloidal
colocal
colon
colonic
colonies
colonization
colonoscopy
colony
color
colorectal
colored
colors
colour
colum
column
columns
com
comb
combat
combination
combinations
combinator
combinatorial
combine
combined
combines
combining
combustion
come
comes
comfort
comfortable
coming
comm
command
commands
commens
comment
comments
commerc
commercial
commercially
commission
commit
commitment
committed
committee
commod
commodity
common
commonly
commun
communic
communicate
communicated
communicating
communication
communications
communities
community
commut
commutative
como
comorbid
comorbidities
comorbidity
comp
compact
compan
companies
companion
company
compar
comparable
comparative
comparatively
compare
compared
compares
comparing
comparison
comparisons
compartment
compartments
compati
compatibility
compatible
compe
compelling
compens
compensate
compensated
compensation
compensatory
compet
compete
competence
competencies
competent
competi
competing
competit
competition
competitive
competitiveness
competitors
compil
compilation
compiled
compiler
compl
complaints
comple
complement
complementary
complemented
complet
complete
completed
completely
completeness
completes
completing
completion
complex
complexes
complexities
complexity
compli
compliance
compliant
complic
complicated
complication
complications
comply
compon
component
components
compos
composed
composite
composites
composition
compositional
compositions
compost
compound
compounds
compr
comprehen
comprehension
comprehensive
compress
compressed
compression
compressive
comprise
comprised
comprises
comprising
comprom
compromise
compromised
comput
computation
computational
computationally
computations
compute
computed
computer
computerized
computers
computes
computing
con
conc
concaten
concave
conce
conceived
concentr
concentrate
concentrated
concentration
concentrations
concept
conception
concepts
conceptual
conceptually
concer
concern
concerned
concerning
concerns
conclud
conclude
concluded
concludes
concluding
conclusion
conclusions
concomit
concomitant
concordance
concrete
concur
concurrency
concurrent
concurrently
cond
condens
condensation
condensed
condition
conditional
conditioned
conditioning
conditions
conduc
conduct
conductance
conducted
conducting
conduction
conductive
conductivity
conductor
cone
cones
conf
confer
conference
conferences
confers
confid
confidence
confident
confidentiality
config
configuration
configurations
configured
confined
confinement
confirm
confirmation
confirmed
confirming
confirms
conflic
conflict
conflicting
conflicts
confocal
conform
conformal
conformation
conformational
conformations
confound
confounders
confounding
confron
confused
confusion
cong
congen
congenital
congestion
congr
congruence
congruent
conj
conject
conjecture
conjug
conjugate
conjugated
conjugates
conjugation
conjunction
conjunctiv
conn
connect
connected
connecting
connection
connections
connective
connectivity
connects
cons
conscious
consciousness
consecutive
consensus
consent
consequ
consequence
consequences
consequent
consequently
conserv
conservation
conservative
conserved
consid
consider
considerable
considerably
consideration
considerations
considered
considering
considers
consist
consisted
consistency
consistent
consistently
consisting
consists
consol
consolidation
conson
const
constant
constantly
constants
constellation
constit
constitu
constituent
constituents
constitute
constituted
constitutes
constitutional
constitutive
constitutively
constr
constrain
constrained
constraint
constraints
construc
construct
constructed
constructing
construction
constructions
constructive
constructs
consult
consultant
consultation
consum
consume
consumed
consumer
consumers
consumes
consuming
consumption
cont
contact
contacted
contacts
contain
contained
container
containers
containing
contains
contamin
contaminants
contaminated
contamination
contemporary
content
contention
contents
context
contexts
contextual
contig
contiguous
contin
continental
conting
contingency
contingent
continu
continually
continuation
continue
continued
continues
continuing
continuity
continuous
continuously
continuum
contour
contours
contr
contrac
contraceptive
contract
contractile
contracting
contraction
contractions
contracts
contrad
contradic
contradict
contradiction
contradictory
contradicts
contraind
contral
contralateral
contrary
contrast
contrasting
contrasts
contrib
contribute
contributed
contributes
contributing
contribution
contributions
contributor
contributors
contro
control
controll
controllable
controlled
controller
controllers
controlling
controls
controversial
controversy
conv
conve
convection
convective
conven
convenience
convenient
convention
conventional
conventions
conver
converge
convergence
convergent
converges
convers
conversation
conversations
converse
conversion
convert
converted
converter
converters
converting
converts
convex
convey
convinc
convincing
convolution
convolutional
cooking
cool
cooled
cooling
cooper
cooperate
cooperation
cooperative
coord
coordin
coordinate
coordinated
coordinates
coordinating
coordination
coordinator
cop
cope
copies
coping
copolymer
copper
copy
copyright
cor
coral
cord
core
cores
corn
corne
cornea
corneal
corner
corners
corollary
coronal
coronary
corpor
corpora
corporate
corpus
correc
correct
corrected
correcting
correction
corrections
correctly
correctness
correl
correlate
correlated
correlates
correlation
correlations
correspond
corresponded
correspondence
corresponding
correspondingly
corresponds
corrob
corrobor
corrosion
corrup
corruption
cortex
cortic
cortical
corticoster
corticosteroid
corticosteroids
cortisol
cos
cosine
cosm
cosmic
cosmological
cost
costly
costs
cot
cotrans
cotton
cou
cough
could
coun
couns
counsel
counseling
count
counted
counter
counterpart
counterparts
counties
counting
countr
countries
country
counts
county
coupl
couple
coupled
couples
coupling
couplings
cour
course
courses
court
courts
coval
covalent
covari
covariance
covariate
covariates
cover
coverage
covered
covering
covers
cow
cowork
coworkers
cows
cp
cr
crack
cracks
cran
crani
cranial
crash
craw
cre
create
created
creates
creating
creatinine
creation
creative
creativity
cred
credibility
credit
credited
crest
cri
crim
crime
criminal
crisis
criter
criteria
criterion
critic
critical
critically
criticism
cro
crop
crops
cros
cross
crossed
crosses
crossing
crossover
crosstalk
crow
crowd
crown
cruc
crucial
crude
crust
cry
cryp
crypt
cryptographic
cryst
crystal
crystall
crystalline
crystallization
crystals
cs
ct
ctober
cu
cub
cube
cubic
cue
cues
cuff
cul
cult
cultiv
cultivars
cultivated
cultivation
cultural
culturally
culture
cultured
cultures
cum
cumulative
cup
cur
curative
curcumin
cure
cured
currency
current
currently
currents
curric
curriculum
curv
curvature
curve
curved
curves
cust
custom
customer
customers
customized
cut
cutaneous
cutoff
cuts
cutting
cv
cy
cyan
cyber
cyc
cycl
cyclase
cycle
cycles
cyclic
cyclin
cycling
cyclo
cyclospor
cyl
cylind
cylinder
cylindrical
cyst
cysteine
cystic
cysts
cyt
cytochrome
cytok
cytokine
cytokines
cytology
cytometry
cytoplas
cytoplasm
cytoplasmic
cytos
cytoskeletal
cytoskeleton
cytosol
cytosolic
cytotoxic
cytotoxicity
d
dB
dBm
dS
dT
da
dab
daily
dairy
dal
dam
damage
damaged
damages
damaging
damp
damping
danger
dangerous
dann
dans
dar
dark
das
dashed
dass
dat
data
datab
database
databases
datas
dataset
datasets
date
dates
dating
daughter
day
days
daytime
db
dc
dd
de
dead
deadline
deaf
deal
dealing
deals
dealt
death
deaths
deb
debate
debris
debt
debug
dec
decade
decades
decay
decays
decentral
decentralized
decid
decide
decided
decides
deciding
decision
decisions
decl
declar
declare
declared
decline
declined
declines
declining
decoded
decoder
decoding
decom
decompose
decomposed
decomposition
decompression
decon
decor
decoupling
decre
decrease
decreased
decreases
decreasing
decryp
ded
dedicated
deduc
deduce
deduced
deemed
deep
deeper
deeply
deer
def
default
defect
defective
defects
defence
defend
defense
defer
defi
defici
deficiencies
deficiency
deficient
deficit
deficits
defin
define
defined
defines
defining
definite
definitely
definition
definitions
definitive
deflection
deform
deformation
deformations
deformed
deformity
deg
degen
degener
degenerate
degeneration
degenerative
degrad
degradation
degrade
degraded
degree
degrees
dehydr
dehydration
dehydrogen
dehydrogenase
deionized
del
delay
delayed
delays
dele
deleg
delete
deleted
deleterious
deletion
deletions
delib
deliber
delim
deline
deliver
delivered
delivering
delivers
delivery
delta
dem
demand
demanding
demands
dementia
democracy
democratic
demographic
demographics
demonstr
demonstrate
demonstrated
demonstrates
demonstrating
demonstration
den
denaturation
dend
dendrites
dendritic
denen
dengue
deno
denom
denominator
denote
denoted
denotes
denoting
dens
dense
densely
densities
density
dent
dental
deoxy
dep
depar
department
departments
departure
depend
depended
dependence
dependencies
dependency
dependent
depending
depends
depic
depict
depicted
depicts
deple
depleted
depletion
deploy
deployed
deployment
depolar
depolarization
depos
deposit
deposited
deposition
deposits
depressed
depression
depressive
depri
deprivation
depth
depths
der
dere
deren
deriv
derivation
derivative
derivatives
derive
derived
derives
deriving
derm
dermal
dermat
dermatitis
des
desc
descend
descending
descent
descri
describe
described
describes
describing
descript
description
descriptions
descriptive
descriptor
descriptors
design
designated
designed
designer
designers
designing
designs
desirable
desire
desired
desktop
desorption
despite
dest
destabil
destination
destroy
destroyed
destruction
destructive
det
detached
detachment
detail
detailed
details
detect
detectable
detected
detecting
detection
detector
detectors
detects
deter
detergent
deterior
deterioration
determ
determin
determinant
determinants
determination
determinations
determine
determined
determines
determining
deterministic
detox
detrim
detrimental
deut
dev
develop
developed
developer
developers
developing
development
developmental
developments
develops
devi
deviate
deviation
deviations
device
devices
devised
devoted
dex
dexamethasone
df
di
diabetes
diabetic
diag
diagn
diagnose
diagnosed
diagnoses
diagnosing
diagnosis
diagnostic
diagnostics
diagonal
diagram
diagrams
dial
dialog
dialogue
dialysis
diam
diameter
diameters
diamond
diaphr
diaphragm
diarr
diarrh
diarrhea
diast
diastolic
dic
dich
dichlor
dichotom
dict
diction
dictionary
did
didn
die
died
dielectric
dies
diese
diesel
diesem
diesen
dieser
dieses
diet
dietary
diets
dif
diff
differ
differed
differen
difference
differences
different
differenti
differentiable
differential
differentially
differentiate
differentiated
differentiating
differentiation
differently
differing
differs
difficult
difficulties
difficulty
diffr
diffraction
diffus
diffuse
diffusion
diffusivity
dig
diges
digested
digestion
digestive
digit
digital
digiti
digits
dil
dilatation
dilated
dilation
dile
dilemma
dilute
diluted
dilution
dilutions
dim
dimension
dimensional
dimensionality
dimensionless
dimensions
dimer
dimers
dimethyl
dimin
diminish
diminished
din
diode
diodes
dioxide
dip
diph
dipl
diploid
dipole
dire
direc
direct
directed
direction
directional
directions
directly
director
directors
directory
dis
disabilities
disability
disabled
disadvant
disadvantage
disadvantages
disag
disagree
disagreement
disapp
disappear
disappearance
disappeared
disaster
disc
discarded
discern
disch
discharg
discharge
discharged
discharges
discipl
discipline
disciplines
discl
disclose
disclosed
disclosure
discom
discomfort
disconn
disconnected
discontinu
discontinuation
discontinued
discontinuity
discontinuous
discount
discour
discourse
discover
discovered
discovery
discre
discrep
discrepancies
discrepancy
discrete
discretion
discretization
discretized
discrim
discrimin
discriminant
discriminate
discriminating
discrimination
discriminative
discs
discus
discuss
discussed
discusses
discussing
discussion
discussions
dise
disease
diseased
diseases
dish
dishes
disj
disjoint
disk
disks
dislocation
dismut
dismutase
disorder
disordered
disorders
disp
dispar
disparities
disparity
disper
dispers
dispersal
dispersed
dispersion
displ
displaced
displacement
displacements
display
displayed
displaying
displays
dispos
disposal
disposition
dispro
disproportion
disput
disreg
disrup
disrupt
disrupted
disruption
diss
dissected
dissection
dissem
disseminated
dissemination
dissertation
dissimilar
dissip
dissipation
dissoci
dissociated
dissociation
dissolution
dissolved
dist
distal
distance
distances
distant
distilled
distinc
distinct
distinction
distinctive
distinctly
distingu
distinguish
distinguished
distinguishes
distinguishing
distorted
distortion
distortions
distress
distrib
distribute
distributed
distribution
distributions
district
districts
disturb
disturbance
disturbances
disturbed
disulfide
diurnal
div
diver
divergence
divergent
divers
diverse
diversification
diversity
divid
divide
divided
divides
dividing
divis
division
divisions
divor
dj
dk
dl
dm
dn
do
doc
docking
doctor
doctors
doctr
document
documentation
documented
documents
dodec
dodecyl
does
doesn
dog
dogs
doi
doing
doll
dollars
dom
domain
domains
domestic
domin
dominance
dominant
dominate
dominated
dominates
dominating
don
donation
done
donor
donors
door
dop
dopamine
dopaminergic
doped
doping
dorm
dors
dorsal
dos
dosage
dose
doses
dosing
dot
dots
dotted
doub
double
doubled
doubling
doubly
doubt
down
downlink
download
downloaded
downregulated
downregulation
downstream
downward
dox
doxorubicin
dp
dr
draf
draft
drag
drain
drainage
dram
dramatic
dramatically
drastically
draw
drawback
drawbacks
drawing
drawn
draws
dri
dried
drift
drink
drinking
drinks
drive
driven
driver
drivers
drives
driving
dro
drop
drople
droplet
droplets
dropped
dropping
drops
drought
drug
drugs
dry
drying
ds
dt
du
dual
duality
duc
duct
ductal
ducts
due
dumm
dummy
duoden
duplex
duplicate
duplicated
duplication
dur
duration
durations
durch
dureh
during
dust
dutch
duties
duty
dv
dwar
dwarf
dwell
dx
dy
dye
dyes
dying
dynam
dynamic
dynamical
dynamically
dynamics
dys
dysfunction
dysp
dysph
dysplasia
dysregulation
dyst
dz
dé
e
eIF
eNOS
eV
ea
each
ear
earlier
earliest
early
earnings
ears
earth
earthqu
earthquake
eas
ease
easier
easily
east
eastern
easy
eat
eating
eb
eben
ec
ecc
ech
echo
echocardi
ecological
ecology
econ
econom
economic
economical
economically
economics
economies
economy
ecosystem
ecosystems
ect
ectop
ectopic
ects
ed
eddy
edema
edge
edges
edit
edited
editing
edition
editor
editorial
editors
eds
educ
educated
education
educational
educators
ee
ef
eff
effect
effective
effectively
effectiveness
effector
effectors
effects
effic
efficacious
efficacy
effici
efficiencies
efficiency
efficient
efficiently
effluent
efflux
effort
efforts
effusion
eg
egg
eggs
eh
ei
eig
eigen
eigenvalue
eigenvalues
eigenvector
eigenvectors
eigh
eight
ein
eine
einem
einen
einer
eines
eing
einzel
either
ej
ejection
ek
el
elabor
elaborate
elaborated
elapsed
elast
elastic
elasticity
elbow
eld
elderly
ele
elec
elect
elected
election
elections
elective
electr
electric
electrical
electrically
electricity
electro
electrocardi
electrochemical
electrode
electrodes
electroly
electrolyte
electrom
electromagnetic
electron
electronic
electronics
electrons
electroph
electrophoresis
electros
electrostatic
eleg
elegans
element
elemental
elementary
elements
elev
elevated
elevation
elevations
eleven
elic
elicit
elicited
elig
eligibility
eligible
elimin
eliminate
eliminated
eliminates
eliminating
elimination
elite
ellip
ellipso
elliptic
elliptical
elong
elongated
elongation
else
elsewhere
eluc
elucid
elucidate
elucidated
eluted
elution
em
email
emb
embed
embedd
embedded
embedding
embodied
embolism
embolization
embr
embry
embryo
embryonic
embryos
emerg
emerge
emerged
emergence
emergency
emergent
emerges
emerging
emission
emissions
emit
emitted
emitting
emo
emotion
emotional
emotions
empathy
emph
emphas
emphasis
emphasize
emphasized
emphasizes
emphasizing
empir
empirical
empirically
employ
employed
employee
employees
employer
employers
employing
employment
employs
empower
empty
emulsion
en
enab
enable
enabled
enables
enabling
enamel
enanti
enc
encaps
encapsulated
encapsulation
encephal
encl
enclosed
encode
encoded
encoder
encodes
encoding
encompass
encompasses
encompassing
encoun
encounter
encountered
encounters
encour
encourage
encouraged
encouraging
encryp
encrypted
encryption
end
ende
ended
endemic
ending
endocrine
endocytosis
endogenous
endometri
endometrial
endometriosis
endoplasmic
endors
endos
endoscopic
endoscopy
endot
endothelial
endothelium
endotoxin
endow
endpoint
endpoints
ends
endurance
energe
energetic
energies
energy
enforce
enforced
enforcement
eng
engage
engaged
engagement
engaging
engine
engineer
engineered
engineering
engineers
engines
engr
enh
enhance
enhanced
enhancement
enhancer
enhances
enhancing
enjoy
enl
enlarg
enlarged
enlargement
enorm
enormous
enough
enrich
enriched
enrichment
enrol
enroll
enrolled
enrollment
ens
ensemble
ensure
ensured
ensures
ensuring
ent
entail
entails
entang
entanglement
enter
entered
entering
enterprise
enterprises
enters
enth
enthal
enthusi
enti
entire
entirely
entit
entities
entitled
entity
entr
entrance
entre
entreprene
entrepreneur
entrepreneurs
entries
entropy
entry
ents
entsprec
enum
enumeration
envelop
envelope
environment
environmental
environmentally
environments
envision
enzym
enzymatic
enzyme
enzymes
eo
eosin
eosinophils
ep
epid
epidemi
epidemic
epidemiological
epidemiology
epidermal
epidermis
epidural
epigenetic
epilep
epilepsy
epileptic
epis
episode
episodes
episodic
epist
epit
epithelial
epithelium
epitope
epitopes
epoch
epochs
epoxy
eq
equ
equal
equality
equally
equals
equation
equations
equator
equil
equilibria
equilibrium
equip
equipment
equipped
equity
equiv
equival
equivalence
equivalent
equivalently
equivalents
er
era
erad
eradication
ere
eren
erent
erfol
erg
erh
erm
erosion
err
erre
errone
erroneous
error
errors
ers
erst
ersten
erup
erw
eryth
erythem
erythemat
erythrocyte
erythrocytes
es
esc
escal
escape
esophag
esophageal
esophagus
esp
especially
ess
essence
essential
essentially
est
estab
establish
established
establishes
establishing
establishment
este
ester
esters
estim
estimate
estimated
estimates
estimating
estimation
estimations
estimator
estimators
estr
estradiol
estrogen
estud
et
etc
etching
eth
ethanol
ether
ethical
ethics
ethn
ethnic
ethnicity
ethyl
ethylene
eti
etiology
etwa
eu
eukary
eukaryotes
eukaryotic
euthan
ev
evac
evalu
evaluate
evaluated
evaluates
evaluating
evaluation
evaluations
evap
evapor
evaporated
evaporation
even
evening
evenly
event
events
eventual
eventually
ever
every
everyday
everyone
everything
everywhere
evid
evidence
evidenced
evidences
evident
evoked
evol
evolution
evolutionary
evolve
evolved
evolves
evolving
ew
ex
exacerb
exact
exactly
exagger
exam
examination
examinations
examine
examined
examines
examining
example
examples
exc
exceed
exceeded
exceeding
exceeds
excell
excellent
except
exception
exceptional
exceptions
excess
excessive
exchang
exchange
exchanged
exchanges
excised
excision
excit
excitability
excitation
excitations
excitatory
excited
exciting
excl
exclud
exclude
excluded
excluding
exclusion
exclusive
exclusively
excretion
exec
execute
executed
executes
executing
execution
executive
exem
exempl
exer
exerc
exercise
exercises
exert
exerted
exerts
exhaus
exhaustive
exhib
exhibit
exhibited
exhibiting
exhibits
exist
existed
existence
existing
exists
exit
exogenous
exon
exons
exp
expand
expanded
expanding
expands
expansion
expansions
expec
expect
expectancy
expectation
expectations
expected
expendit
expenditure
expenditures
expense
expenses
expensive
exper
experi
experience
experienced
experiences
experiencing
experim
experiment
experimental
experimentally
experimentation
experimenter
experiments
expert
expertise
experts
expir
expl
explain
explained
explaining
explains
explan
explanation
explanations
explanatory
explants
explicit
explicitly
explo
exploit
exploitation
exploited
exploiting
exploits
explor
exploration
exploratory
explore
explored
explores
exploring
explos
explosion
expon
exponent
exponential
exponentially
exponents
export
exports
expos
expose
exposed
exposure
exposures
expres
express
expressed
expresses
expressing
expression
expressions
expressive
ext
exten
extend
extended
extending
extends
extension
extensions
extensive
extensively
extent
exterior
extern
external
externally
extinc
extinction
extr
extra
extrac
extracellular
extract
extracted
extracting
extraction
extracts
extraord
extrap
extrapol
extrapolated
extrapolation
extrem
extreme
extremely
extremes
extremities
extremity
extrinsic
exud
ey
eye
eyes
f
fMRI
fa
fabric
fabricated
fabrication
fac
face
faced
faces
facet
facets
facial
facil
facilit
facilitate
facilitated
facilitates
facilitating
facilitation
facilities
facility
facing
fact
factor
factorial
factorization
factors
factory
facts
faculty
fading
faecal
fail
failed
failing
fails
failure
failures
fair
fairly
fairness
faith
fal
falcip
falciparum
fall
falling
falls
fals
false
fam
famil
familial
familiar
familiarity
families
family
famous
fan
far
farm
farmers
farming
farms
fasc
fashion
fast
faster
fastest
fasting
fat
fatal
fate
father
fathers
fatigue
fatty
fault
faults
faulty
fav
favor
favorable
favored
favors
favour
favourable
fax
fc
fe
fear
feas
feasibility
feasible
feature
features
fecal
fed
federal
fee
feed
feedback
feeder
feeding
feeds
feel
feeling
feelings
fees
feet
fell
fellow
fellowship
felt
fem
female
females
femin
femoral
femur
fer
ferm
fermentation
ferritin
fertil
fertility
fertilization
fertilizer
fest
fet
fetal
fetus
fetuses
fever
few
fewer
ff
ffir
fi
fib
fiber
fibers
fibr
fibre
fibres
fibrill
fibrillation
fibrils
fibrin
fibrinogen
fibrob
fibroblast
fibroblasts
fibronectin
fibrosis
fibrous
fic
fidelity
field
fields
fif
fifth
fig
fight
figure
figures
fiir
fil
filament
filaments
file
files
fill
filled
filling
film
films
filter
filtered
filtering
filters
filtration
fin
final
finally
financ
finance
financial
financing
find
finding
findings
finds
fine
finer
fing
finger
fingerprint
fingers
finish
finished
finite
finitely
fir
fire
fires
firing
firm
firms
first
firstly
fiscal
fish
fisher
fishes
fishing
fission
fist
fistula
fit
fitness
fits
fitted
fitting
five
fix
fixation
fixed
fixing
fj
fk
fl
flag
flame
flank
flanking
flap
flash
flask
flat
flatten
flav
flavon
flavonoids
flavor
fle
flex
flexibility
flexible
flexion
flies
flight
flip
flo
floating
flood
flooding
floor
flour
flow
flower
flowering
flowers
flowing
flows
flu
fluct
fluctu
fluctuation
fluctuations
fluid
fluids
fluor
fluores
fluorescein
fluorescence
fluorescent
fluoride
flux
fluxes
fly
fm
fn
fo
foam
foc
focal
foci
focus
focused
focuses
focusing
foi
fol
folate
fold
folded
folding
folds
foli
follic
follicle
follicles
follicular
follow
followed
following
follows
followup
food
foods
foot
footprint
for
foraging
foram
forb
force
forced
forces
forcing
fore
forearm
forecast
forecasting
forecasts
foreground
foreign
forensic
fores
forest
forests
forget
fork
form
formal
formaldehyde
formalin
formalism
formally
format
formation
formats
formed
former
forming
forms
formul
formula
formulae
formulas
formulate
formulated
formulation
formulations
fort
forth
forward
forwarding
fos
foss
fossil
foster
found
foundation
foundations
founded
four
fourth
fr
fra
fract
fractal
fraction
fractional
fractionation
fractions
fracture
fractures
frag
fragment
fragmentation
fragmented
fragments
fram
frame
frames
framework
frameworks
fraud
fre
free
freedom
freely
freeze
freezing
frequ
frequencies
frequency
frequent
frequently
fresh
freshly
freshwater
fri
fric
friction
friend
friendly
friends
fro
frog
from
fron
front
frontal
frontier
frozen
fructose
fruit
fruits
frustr
fs
ft
fu
fuel
fuels
ful
fulf
fulfill
fulfilled
full
fully
fum
fun
func
function
functional
functionalities
functionality
functionally
functioning
functions
functor
fund
fundament
fundamental
fundamentally
funded
funding
funds
fung
fungal
fungi
fungus
fur
furn
further
furthermore
fus
fused
fusion
future
fuzzy
für
g
ga
gad
gain
gained
gaining
gains
gait
gal
galact
galax
galaxies
galaxy
gall
gam
gamb
gambling
game
games
gamet
gamma
gan
gang
gangl
ganglia
ganglion
ganz
gap
gaps
gar
gas
gases
gast
gastr
gastric
gastro
gate
gates
gateway
gather
gathered
gathering
gating
gaug
gauge
gave
gaze
ge
gear
gegen
gel
gelatin
gels
gem
gen
gender
gene
gener
genera
general
generality
generalization
generalize
generalized
generally
generate
generated
generates
generating
generation
generations
generative
generator
generators
generic
genes
genetic
genetically
genetics
genital
genome
genomes
genomic
genomics
genotype
genotypes
genotyping
gent
gentle
gently
genu
genuine
genus
geodes
geodesic
geographic
geographical
geographically
geomet
geometric
geometrical
geometries
geometry
ger
gering
germ
germination
germline
ges
gesch
gest
gestation
gestational
gesture
gestures
get
gets
getting
gew
gh
gi
giant
gift
ging
gingival
gir
girl
girls
giv
give
given
gives
giving
gl
gland
glands
glass
glasses
glauc
glaucoma
gle
gleich
gli
glial
glioma
glob
global
globally
glomer
glomerular
glu
gluc
glucagon
glucocortic
glucocorticoid
glucose
glut
glutamate
glutamine
glutathione
gly
glyc
glycemic
glycer
glycerol
glycine
glycogen
glycol
glycolysis
glycoprotein
glycos
glycosylation
gm
gn
go
goal
goals
goat
goes
going
gold
gon
gonad
gone
good
goodness
goods
got
gover
govern
governance
governed
governing
government
governments
gp
gr
gra
grad
grade
graded
grades
gradi
gradient
gradients
grading
gradual
gradually
graduate
graduates
graf
graft
grafting
grafts
grain
grains
gram
gramm
grammar
grammatical
gran
grand
grant
granted
grants
granul
granular
granularity
granule
granules
grap
graph
graphene
graphic
graphical
graphics
graphite
graphs
grasp
grass
grate
grateful
gratefully
grating
grav
gravit
gravitational
gravity
gray
grazing
gre
great
greater
greatest
greatly
greedy
green
greenhouse
grew
grey
gri
grid
grids
gro
groove
gross
ground
grounded
grounds
groundwater
group
grouped
grouping
groups
grow
growing
grown
grows
growth
grup
gs
gu
guan
guarant
guarantee
guaranteed
guarantees
guard
guess
guest
guid
guidance
guide
guided
guideline
guidelines
guides
guiding
guinea
gun
gut
gy
gyr
gyrus
h
ha
hab
haben
habit
habitat
habitats
habits
had
haem
haemat
haemorrh
hair
hal
half
hall
hallmark
halo
ham
hamp
hams
hand
handle
handled
handles
handling
handover
hands
hang
hapl
haplotype
haplotypes
happ
happen
happened
happens
happiness
happy
haptic
har
harb
harbor
harboring
hard
harder
hardly
hardness
hardware
harm
harmful
harmon
harmonic
harmonics
harves
harvest
harvested
harvesting
has
hash
hat
have
having
haz
hazard
hazardous
hazards
he
head
headache
header
heading
heads
healing
health
healthcare
healthy
hear
heard
hearing
heart
hearts
heat
heated
heating
heav
heavily
heavy
hed
height
heights
hel
held
helic
helical
helices
helium
helix
help
helped
helper
helpful
helping
helps
hem
hemat
hematopoietic
hematoxylin
heme
hemisp
hemisphere
hemodialysis
hemodynamic
hemoglobin
hemorrh
hemorrhage
hemorrhagic
hence
hep
hepar
heparin
hepat
hepatic
hepatitis
hepatocellular
hepatocytes
her
herb
herbal
herbiv
here
hereafter
hered
hereditary
herein
herit
hernia
hero
herpes
hes
heter
heterod
heterogeneity
heterogeneous
heterologous
heteros
heterozyg
heterozygous
heur
heuristic
heuristics
hex
hexagonal
hi
hidden
hier
hierarch
hierarchical
hierarchies
hierarchy
hig
high
higher
highest
highl
highlight
highlighted
highlighting
highlights
highly
him
himself
hin
hind
hip
hippocamp
hippocampal
hippocampus
his
hist
histamine
histidine
histogram
histograms
histologic
histological
histologically
histology
histone
histopath
histor
historical
historically
histories
history
hit
hits
hn
ho
hoc
hol
hold
holder
holding
holds
hole
holes
holistic
hollow
holog
holomorphic
hom
home
homeostasis
homepage
homes
homogen
homogeneity
homogeneous
homogenized
homogenous
homolog
homologous
homology
homomorphism
homot
homotopy
homozygous
hon
honest
honey
hop
hope
hops
hor
horiz
horizon
horizontal
horizontally
horm
hormonal
hormone
hormones
horn
hors
horse
horses
hos
hospital
hospitalization
hospitalized
hospitals
host
hosts
hot
hots
hour
hourly
hours
hous
house
housed
household
households
houses
housing
how
however
hr
hrs
hs
ht
http
https
hub
huge
hull
hum
human
humans
humid
humidity
humoral
hundred
hundreds
hur
hus
husband
hy
hyal
hybrid
hybridization
hybridized
hybrids
hyd
hydr
hydration
hydraulic
hydro
hydrocarbon
hydrocarbons
hydrochlor
hydrochloride
hydrodynamic
hydrogel
hydrogels
hydrogen
hydroly
hydrolysis
hydroph
hydrophilic
hydrophobic
hydrox
hydroxide
hydroxy
hydroxyl
hygiene
hyp
hyper
hyperbolic
hypergly
hyperglycemia
hyperplasia
hypers
hypertension
hypertensive
hypertroph
hypertrophy
hypo
hypogly
hypot
hypotension
hypoth
hypothalamic
hypothalamus
hypothe
hypother
hypotheses
hypothesis
hypothesize
hypothesized
hypothetical
hypoxia
hypoxic
hystere
hysteresis
i
iNOS
iP
ia
ib
ic
ice
ich
id
ide
idea
ideal
ideally
ideals
ideas
iden
identi
identical
identically
identif
identifiable
identification
identified
identifier
identifiers
identifies
identify
identifying
identities
identity
idi
idiopathic
idle
ie
if
iff
ifi
ig
ign
ignore
ignored
ignoring
ih
ihre
ihrer
ii
iii
ij
ik
il
ile
ili
iliac
ill
ille
illegal
illness
illnesses
illumin
illuminated
illumination
illustr
illustrate
illustrated
illustrates
illustrating
illustration
im
imag
image
imaged
imagery
images
imaginary
imagine
imaging
imbalance
imm
immature
immediate
immediately
immer
immersed
immersion
immigr
immigrants
immigration
immobil
immobilization
immobilized
immun
immune
immunity
immunization
immunized
immuno
immunoblot
immunoblotting
immunocomp
immunodef
immunoglobulin
immunohist
immunological
immunomod
immunoprecip
immunore
immunos
immunosorbent
immunost
immunostaining
immunosupp
immunotherapy
imp
impact
impacted
impacts
impair
impaired
impairment
impairments
impairs
imped
impedance
imper
imperative
imperf
imperfect
impl
implant
implantation
implanted
implants
implement
implementation
implementations
implemented
implementing
implements
implic
implicated
implication
implications
implicit
implicitly
implied
implies
imply
implying
import
importance
important
importantly
imported
impos
impose
imposed
imposes
imposing
impossible
imprec
impression
impressive
impro
improve
improved
improvement
improvements
improves
improving
impul
impulse
impurities
in
inability
inacc
inaccurate
inactivated
inactivation
inactive
inadequ
inadequate
inapp
inappropriate
inc
incen
incentive
incentives
incidence
incident
incidents
incis
incision
incl
inclination
inclined
includ
include
included
includes
including
inclusion
inclusions
inclusive
incom
income
incomes
incoming
incompatible
incomplete
incon
incons
inconsist
inconsistencies
inconsistency
inconsistent
incont
incontinence
incor
incorpor
incorporate
incorporated
incorporates
incorporating
incorporation
incorrect
incorrectly
incre
increase
increased
increases
increasing
increasingly
increment
incremental
increments
incub
incubated
incubation
incubator
incumb
incur
incurred
ind
indeed
indef
independ
independence
independent
independently
index
indexed
indexes
indexing
indic
indicate
indicated
indicates
indicating
indication
indications
indicative
indicator
indicators
indices
indiff
indigenous
indirect
indirectly
indisp
indispensable
indistinguish
individ
individual
individually
individuals
indoor
induc
induce
induced
induces
inducible
inducing
inductance
induction
inductive
inductor
industr
industrial
industries
industry
ine
ineffective
inefficient
inequ
inequalities
inequality
iner
inert
inertia
inertial
inev
inevitable
inevitably
inexpensive
inf
infancy
infant
infants
infarc
infarct
infarction
infeasible
infect
infected
infection
infections
infectious
infer
inference
inferences
inferior
inferred
infertility
infil
infiltr
infiltration
infin
infinite
infinitely
infinity
infl
inflamm
inflammation
inflammatory
inflation
inflow
influ
influence
influenced
influences
influencing
influential
influenza
influx
inform
informal
information
informational
informative
informed
infra
infrared
infras
infrastructure
infrastructures
infused
infusion
ing
ingestion
ingred
ingredient
ingredients
inh
inhabit
inhabitants
inhal
inhalation
inhaled
inher
inherent
inherently
inheritance
inherited
inhib
inhibit
inhibited
inhibiting
inhibition
inhibitor
inhibitors
inhibitory
inhibits
inhom
inhomogeneous
initi
initial
initialization
initialized
initially
initiate
initiated
initiates
initiating
initiation
initiative
initiatives
inj
inject
injected
injecting
injection
injections
injured
injuries
injury
ink
inlet
inn
innate
inner
innov
innovation
innovations
innovative
inoc
inoculated
inoculation
inoculum
inorganic
inpatient
input
inputs
inquiry
ins
insec
insect
insectic
insects
insensitive
inser
insert
inserted
inserting
insertion
insertions
inserts
inset
inside
insight
insights
insignificant
insoluble
inspec
inspection
inspir
inspired
inst
instability
install
installation
installed
instance
instances
instant
instantaneous
instanti
instead
instit
institution
institutional
institutions
instr
instruc
instruct
instructed
instruction
instructional
instructions
instructor
instrument
instrumental
instrumentation
instruments
insu
insufficiency
insufficient
insulation
insulin
insurance
insure
int
intact
intake
intakes
inte
integer
integers
integr
integrable
integral
integrals
integrate
integrated
integrates
integrating
integration
integrative
integrin
integrity
intellectual
intellig
intelligence
intelligent
inten
intend
intended
intens
intense
intensi
intensities
intensity
intensive
intent
intention
intentional
intentions
inter
interact
interacting
interaction
interactions
interactive
interacts
intercal
intercellular
intercept
interchange
interconn
interconnect
interconnected
interconnection
interest
interested
interesting
interests
interf
interface
interfaces
interfacial
interfer
interfere
interference
interfering
interferon
interior
interle
interleukin
intermedi
intermediate
intermediates
intermitt
intermittent
intermolecular
intern
internal
internalization
internally
international
interne
internet
interneurons
interoper
interp
interpersonal
interplay
interpol
interpolated
interpolation
interpre
interpret
interpretation
interpretations
interpreted
interpreting
interrup
interrupt
interrupted
interruption
inters
intersect
intersection
intersections
interstitial
interv
interval
intervals
interven
intervention
interventions
interview
interviewed
interviews
intest
intestinal
intestine
intimate
into
intox
intr
intra
intrac
intracellular
intracranial
intract
intram
intramolecular
intramuscular
intran
intraoperative
intrap
intraper
intraperitoneal
intrav
intravenous
intravenously
intrigu
intriguing
intrinsic
intrinsically
intro
introduc
introduce
introduced
introduces
introducing
introduction
intron
intrusion
intu
intubation
intuition
intuitive
intuitively
inv
invalid
invari
invariance
invariant
invariants
invas
invasion
invasive
invent
inventory
inver
inverse
inversely
inversion
invertebr
inverted
inverter
invertible
inves
invest
investig
investigate
investigated
investigates
investigating
investigation
investigations
investigator
investigators
investment
investments
investor
investors
invited
invoked
invol
involve
involved
involvement
involves
involving
inward
io
iod
iodide
iodine
ion
ionic
ionization
ions
ip
ips
ipsilateral
ir
iris
iron
irradi
irradiance
irradiated
irradiation
irre
irreducible
irregular
irrelevant
irrespective
irrever
irreversible
irrig
irrigation
irrit
is
ischa
ischem
ischemia
ischemic
island
islands
islet
islets
iso
isofl
isoform
isoforms
isol
isolate
isolated
isolates
isolation
isomer
isomers
isometric
isomorphic
isomorphism
isop
isot
isother
isotope
isotopic
isotropic
iss
issue
issued
issues
ist
it
item
items
iter
iteration
iterations
iterative
iteratively
ith
iti
its
itself
ity
iu
iv
ix
iz
j
ja
jap
jaw
je
jed
jedoch
jet
jets
ji
jitter
jj
jk
jo
job
jobs
join
joined
joining
joint
jointly
joints
jour
journal
journals
jth
ju
jud
judg
judge
judged
judges
judgment
judgments
jug
juice
jump
jumps
jun
junction
junctions
juris
jurisdic
jus
just
justice
justif
justification
justified
justify
juven
juvenile
k
kDa
kHz
kJ
kPa
kS
kV
kW
ka
kan
kann
kappa
kary
kb
kcal
ke
keV
keep
keeping
keeps
keine
kept
ker
kerat
keratin
keratinocytes
kern
kernel
kernels
ket
ketamine
key
keys
keyword
keywords
kg
ki
kid
kidney
kidneys
kil
kill
killed
killer
killing
kin
kinase
kinases
kind
kindly
kinds
kine
kinem
kinematic
kinematics
kinetic
kinetics
kit
kits
kj
kk
kl
klein
klin
km
kn
knee
knew
knock
knockdown
knockout
knot
know
knowing
knowledge
known
knows
ko
komm
kon
konn
konnte
kr
ks
kt
kth
kur
kö
können
l
lM
la
lab
label
labeled
labeling
labelled
labelling
labels
labor
laboratories
laboratory
labour
lac
lack
lacked
lacking
lacks
lact
lactate
lactation
lactic
ladder
lag
laid
lake
lakes
lam
lamin
lamina
laminar
lamp
land
landing
landmark
landmarks
lands
landsc
landscape
landscapes
lane
lanes
lang
langu
language
languages
lap
lapa
laparoscopic
lar
larg
large
largely
larger
largest
larv
larvae
larval
laryngeal
las
laser
lasers
last
lasted
lasting
lat
late
latencies
latency
latent
later
lateral
latest
latit
latitude
latter
lattice
lattices
launc
launch
launched
law
laws
lay
layer
layered
layers
layout
lb
lc
ld
le
lead
leader
leaders
leadership
leading
leads
leaf
leak
leakage
lean
lear
learn
learned
learner
learners
learning
learns
least
leave
leaves
leaving
lec
lect
lectin
lecture
lectures
led
left
leg
legacy
legal
legi
legis
legisl
legislation
legitimate
legs
leisure
lemma
len
lending
leng
length
lengthen
lengths
lens
lenses
lep
lept
leptin
les
lesion
lesions
less
lesser
lessons
let
leth
lethal
letter
letters
letting
leuc
leucine
leuk
leukemia
leukocyte
leukocytes
lev
level
levels
lever
leverage
lex
lexical
lexicon
lg
li
liability
lib
liberal
libitum
libraries
library
lic
license
licensed
lid
lie
lies
lif
life
lifes
lifespan
lifest
lifestyle
lifetime
lift
lifting
lig
ligament
ligand
ligands
ligase
ligated
ligation
light
lighting
lights
lign
lignin
lik
like
likelihood
likely
likewise
lim
limb
limbs
limit
limitation
limitations
limited
limiting
limits
lin
line
lineage
lineages
linear
linearity
linearized
linearly
lines
lingu
linguistic
link
linkage
linkages
linked
linker
linking
links
lip
lipase
lipid
lipids
lipoprotein
liposomes
liqu
liquid
liquidity
liquids
lis
list
listed
listen
listeners
listening
listing
lists
lit
liter
literacy
literal
literature
lith
lithium
litter
little
liv
live
lived
liver
livers
lives
livestock
living
ll
lm
ln
lnc
lo
load
loaded
loading
loadings
loads
loan
loans
lob
lobe
lobes
loc
local
locality
localization
localize
localized
locally
locate
located
locating
location
locations
loci
lock
locked
locking
locom
locomotion
locomotor
locus
log
logarith
logarithm
logarithmic
logging
logic
logical
logics
logistic
logistics
logs
long
longer
longest
longevity
longitudinal
longterm
look
looked
looking
looks
lookup
loop
loops
loose
loosely
los
lose
losing
loss
losses
lost
lot
lots
loud
love
low
lower
lowered
lowering
lowers
lowest
loyal
ls
lt
lth
lu
lub
lubric
luc
luciferase
lum
lumbar
lumen
lumin
luminal
luminance
luminescence
luminosity
lung
lungs
lupus
lute
ly
lying
lymph
lymphaden
lymphatic
lymphocyte
lymphocytes
lymphoid
lymphoma
lymphomas
lys
lysate
lysates
lysed
lysine
lysis
lysosomal
m
mA
mAb
mAbs
mL
mM
mRNA
mRNAs
mS
mT
mTOR
mV
mW
ma
mac
mach
machine
machinery
machines
macro
macroph
macrophage
macrophages
macroscopic
macular
made
mag
magn
magne
magnesium
magnet
magnetic
magnetization
magnification
magnitude
magnitudes
mail
main
mainly
mainstream
maintain
maintained
maintaining
maintains
maintenance
mais
maize
major
majority
make
maker
makers
makes
making
mal
malaria
male
males
malformations
malicious
malign
malignancies
malignancy
malignant
malnutrition
mamm
mammalian
mammals
mammary
man
manag
manage
managed
management
manager
managerial
managers
managing
mand
mandatory
mandibular
maneu
maneuver
mang
manganese
manif
manifest
manifestation
manifestations
manifested
manifold
manifolds
manip
manipulate
manipulated
manipulating
manipulation
manipulations
manipulator
mann
manner
mantle
manual
manually
manuf
manufacture
manufactured
manufacturer
manufacturers
manufacturing
manuscript
many
map
mapped
mapping
mappings
maps
mar
marg
margin
marginal
marginally
margins
mari
marine
marital
mark
marked
markedly
marker
markers
market
marketing
markets
marking
marks
marri
marriage
married
marrow
mas
mask
masked
masking
masks
mass
masses
massive
mast
master
mat
match
matched
matches
matching
mate
material
materials
maternal
math
mathem
mathematical
mathematically
mathematics
mating
matrices
matrix
matter
matters
maturation
mature
maturity
max
maxillary
maxim
maxima
maximal
maximally
maximization
maximize
maximized
maximizes
maximizing
maximum
may
maybe
maze
me
meal
meals
mean
meaning
meaningful
meanings
means
meant
meas
measurable
measure
measured
measurement
measurements
measures
measuring
meat
mechan
mechanical
mechanically
mechanics
mechanism
mechanisms
mechanistic
med
medi
media
medial
median
mediast
mediate
mediated
mediates
mediating
mediation
mediator
mediators
medic
medical
medication
medications
medicinal
medicine
medicines
medium
medull
meet
meeting
meetings
meets
meg
mehr
meist
mel
melan
melanogaster
melanoma
melatonin
mell
mellitus
melt
melting
mem
member
members
membership
membr
membrane
membranes
memories
memory
men
mening
meningitis
menstr
menstrual
ment
mental
mention
mentioned
mentioning
menu
mer
merc
mercury
mere
merely
merg
merge
merged
merger
merging
merit
merits
mes
mesenchymal
mesenteric
mesh
meshes
mess
message
messages
messenger
met
meta
metab
metabol
metabolic
metabolism
metabolite
metabolites
metac
metadata
metal
metall
metallic
metalloprotein
metals
metam
metap
metaph
metaphor
metast
metastases
metastasis
metastatic
meteor
meteorological
meter
meters
metformin
meth
methan
methane
methanol
methionine
method
methodological
methodologies
methodology
methods
methyl
methylated
methylation
metric
metrics
metropolitan
mg
mi
miR
miRNA
miRNAs
mic
mice
micelles
micro
microRNA
microarray
microb
microbes
microbi
microbial
microbiota
microc
microf
microfluidic
microgl
microglia
microl
microm
micron
microorgan
microorganisms
microp
microphone
micros
microsatellite
microscop
microscope
microscopic
microscopy
microsp
microspheres
microstructure
microtub
microtubule
microtubules
microv
microvascular
microwave
mid
middle
middleware
midline
might
migr
migraine
migrants
migrate
migrated
migrating
migration
migratory
mil
mild
military
milk
mill
million
millions
millis
mim
mimic
mimics
min
mind
mine
mineral
mineralization
minerals
mini
minim
minima
minimal
minimally
minimization
minimize
minimized
minimizes
minimizing
minimum
mining
minor
minority
minus
minute
minutes
mir
mirr
mirror
mirrors
mis
misc
misclass
misleading
mism
mismat
mismatch
miss
missed
missing
mission
missions
mist
mistakes
mit
mitig
mitigate
mitigation
mitochondri
mitochondria
mitochondrial
mitogen
mitosis
mitotic
mitral
mix
mixed
mixing
mixture
mixtures
ml
mm
mmHg
mmol
mn
mo
mob
mobil
mobile
mobility
mobilization
mock
mod
modal
modalities
modality
mode
model
modeled
modeling
modelled
modelling
models
moder
moderate
moderately
modern
modes
modest
modi
modification
modifications
modified
modifies
modify
modifying
modular
modulate
modulated
modulates
modulating
modulation
modulator
modulators
module
modules
moduli
modulo
modulus
moi
moieties
moiety
moist
moisture
mol
molar
mold
mole
molec
molecular
molecule
molecules
mom
moment
moments
momentum
mon
monetary
money
monitor
monitored
monitoring
monitors
monkey
monkeys
mono
monoc
monoclonal
monocyt
monocyte
monocytes
monol
monolayer
monolayers
monolith
monomer
monomeric
monomers
monomial
mononuclear
monop
monot
monotherapy
monoton
monotone
monotonic
monotonically
month
monthly
months
mood
mor
moral
morbidity
more
moreover
morning
morph
morphine
morphism
morphogenesis
morphological
morphologically
morphologies
morphology
mort
mortality
mos
mosa
mosaic
mosquito
mosquitoes
most
mostly
mot
mother
mothers
motif
motifs
motility
motion
motions
motiv
motivate
motivated
motivation
motivational
motivations
motives
motor
motors
moun
mountain
mounted
mounting
mouse
mouth
mov
move
moved
movement
movements
moves
movie
moving
mp
ms
msec
mt
mtDNA
mu
muc
much
mucosa
mucosal
mucus
mud
mul
mult
multi
multic
multicast
multicenter
multif
multil
multilayer
multilevel
multim
multimedia
multimodal
multin
multip
multipath
multipl
multiple
multiplex
multiplexing
multiplic
multiplication
multiplicative
multiplicity
multiplied
multiplier
multipliers
multiply
multiplying
multiv
multivariable
multivariate
municip
municipal
mur
murine
mus
musc
muscle
muscles
muscular
musculoskeletal
music
musical
muss
must
mut
mutagen
mutagenesis
mutant
mutants
mutated
mutation
mutations
mutual
mutually
my
myc
myel
myelin
myeloid
myeloma
myocard
myocardial
myocardium
myocytes
myosin
mys
mé
n
nM
na
nach
naeh
naive
nal
nam
name
named
namely
names
naming
nan
nano
nanoc
nanocompos
nanom
nanop
nanopar
nanoparticle
nanoparticles
nanor
nanos
nanoscale
nanostructures
nanot
nanotubes
nanow
nanowires
narc
narr
narrative
narrow
narrower
narrowing
nas
nasal
nat
nation
national
nations
native
natural
naturally
nature
nausea
navig
navigation
naïve
nc
nd
ne
near
nearby
nearest
nearly
nec
necess
necessarily
necessary
necessity
neck
necrosis
necrotic
ned
need
needed
needle
needles
needs
neg
negation
negative
negatively
neglect
neglected
neglig
negligible
negoti
negotiation
neigh
neighb
neighbor
neighborhood
neighborhoods
neighboring
neighbors
neighbour
neighbourhood
neighbouring
neighbours
neither
nemat
nematode
neo
neon
neonatal
neonates
neoplas
neoplasia
neoplasms
neoplastic
neph
nephropathy
nerv
nerve
nerves
nervous
nest
nested
nests
net
nets
network
networking
networks
neu
neur
neural
neuro
neurob
neuroc
neurode
neuroendocrine
neurogenesis
neuroimaging
neurologic
neurological
neurom
neuromuscular
neuron
neuronal
neurons
neurop
neuropath
neuropathy
neuroprot
neuroprotective
neuropsych
neuros
neurot
neurotrans
neurotransmit
neut
neutr
neutral
neutralization
neutralizing
neutrino
neutron
neutrop
neutroph
neutrophil
neutrophils
never
nevertheless
new
newborn
newborns
newer
newly
news
newsp
next
nf
ng
ni
nic
nice
niche
nicht
nickel
nicotin
nicotine
nieht
nig
night
nil
nin
nine
nit
nite
nition
nitr
nitrate
nitric
nitrite
nitro
nitrogen
nj
nk
nl
nloaded
nm
nmol
nn
no
noc
noch
nocic
noctur
nod
nodal
node
nodes
nodule
nodules
noeh
noise
noises
noisy
nom
nominal
non
nonc
nond
none
nonempty
nonetheless
noninvasive
nonlinear
nonlinearity
nonnegative
nonparametric
nons
nonspecific
nontrivial
nonzero
nor
norepinephrine
norm
normal
normality
normalization
normalize
normalized
normally
normative
norms
nort
north
northern
nos
nose
not
notable
notably
notation
notations
note
noted
notes
noteworthy
nothing
notice
noticeable
noticed
notif
notification
noting
notion
notions
noun
nouns
nous
nov
novel
novelty
novo
now
nowadays
nozz
np
nr
ns
nt
nth
nu
nucle
nuclear
nucleation
nuclei
nucleic
nucleotide
nucleotides
nucleus
nude
null
num
numb
number
numbers
numer
numeric
numerical
numerically
numerous
nun
nur
nurse
nurses
nursing
nut
nutri
nutrient
nutrients
nutrition
nutritional
não
o
oC
oa
ob
obes
obese
obesity
obey
obj
object
objective
objectives
objects
oblig
obligations
oblique
obs
obsc
obser
observ
observable
observables
observation
observational
observations
observe
observed
observer
observers
observing
obst
obstacle
obstacles
obstruction
obstructive
obtain
obtained
obtaining
obtains
obvious
obviously
oc
occ
occas
occasion
occasional
occasionally
occasions
occipital
occlusion
occup
occupancy
occupation
occupational
occupied
occupy
occur
occurred
occurrence
occurrences
occurring
occurs
ocean
oct
ocular
od
odd
odds
oder
odor
of
off
offer
offered
offering
offers
offic
office
officers
official
officials
offline
offset
offshore
offspring
oft
often
ofthe
og
oh
ohne
oi
oil
oils
ok
ol
old
older
oldest
ole
olfactory
olig
oligodend
oligomer
oligomers
oligonucle
oligonucleotide
olive
om
omit
omitted
on
onc
once
oncogenic
oncology
one
ones
ongoing
online
only
ons
onset
ont
onto
ontologies
ontology
oo
oocyte
oocytes
op
open
opened
opening
openness
opens
oper
operate
operated
operates
operating
operation
operational
operations
operative
operator
operators
ophthal
opi
opin
opinion
opinions
opioid
opp
opportun
opportunistic
opportunities
opportunity
oppos
opposed
opposing
opposite
opposition
opt
optic
optical
optically
optics
optim
optimal
optimality
optimally
optimisation
optimistic
optimization
optimizations
optimize
optimized
optimizing
optimum
option
optional
options
or
oracle
oral
orally
orange
orb
orbit
orbital
orbitals
orbits
orches
ord
order
ordered
ordering
orders
ordinal
ordinary
ore
org
organ
organelles
organic
organis
organisation
organisational
organisations
organism
organisms
organization
organizational
organizations
organize
organized
organizing
organs
orient
orientation
orientations
oriented
orig
origin
original
originally
originate
originated
originates
originating
origins
orth
orthogonal
ortholog
orthonormal
os
oscill
oscillation
oscillations
oscillator
oscillators
oscillatory
osm
osmotic
oste
osteoarthritis
osteoblasts
osteoc
osteoclast
osteopor
osteoporosis
ot
other
others
otherwise
ou
ought
our
ours
ourselves
out
outage
outbre
outbreak
outbreaks
outcome
outcomes
outdoor
outer
outflow
outgoing
outgrowth
outlet
outlier
outliers
outline
outlined
outlines
outpatient
outper
outperform
outperforms
output
outputs
outs
outside
outstanding
outward
ov
oval
ovari
ovarian
ovaries
ovary
ove
ovem
oven
over
overall
overcome
overes
overex
overexpressed
overexpressing
overexpression
overflow
overhead
overl
overlap
overlapped
overlapping
overlaps
overlay
overlo
overload
overlooked
overnight
overr
oversh
overt
overview
overw
overweight
overwhel
ow
owing
own
owned
owner
owners
ownership
ox
oxal
oxid
oxidase
oxidation
oxidative
oxide
oxides
oxidized
oxygen
oxygenation
ozone
p
pA
pH
pM
pN
pT
pa
pac
pace
pacient
pacientes
pacing
pack
package
packages
packaging
packed
packet
packets
packing
paclitaxel
pad
paediatric
page
pages
paid
pain
painful
pair
paired
pairing
pairs
pairwise
pal
pale
pall
palliative
palm
palp
palsy
pan
pancre
pancreas
pancreatic
pancreatitis
pand
panel
panels
pap
paper
papers
papill
papillary
par
para
parabolic
parad
paradigm
paradigms
paradox
paraffin
paragraph
paral
paralle
parallel
parallelism
param
paramet
parameter
parameterized
parameters
parametri
parametric
paras
parasit
parasite
parasites
parasitic
parathyroid
paren
parench
parenchyma
parent
parental
parentheses
parenting
parents
pari
parietal
parity
parser
parsim
parsing
part
parti
partial
partially
partic
particip
participant
participants
participate
participated
participates
participating
participation
particle
particles
particular
particularly
particulate
parties
partition
partitioned
partitioning
partitions
partly
partner
partners
partnership
parts
party
pas
pass
passage
passages
passed
passenger
passes
passi
passing
passive
password
past
paste
pat
patch
patches
patent
patents
paternal
path
pathogen
pathogenesis
pathogenic
pathogens
pathologic
pathological
pathologies
pathology
pathoph
pathophysiology
paths
pathway
pathways
pati
patient
patients
pattern
patterning
patterns
pay
paying
payload
payment
payments
payoff
pc
pdf
pe
peace
peak
peaked
peaks
pec
peculi
peculiar
ped
pedagog
pedestr
pedestrian
pediatric
peer
peers
pel
pellet
pellets
pelvic
pelvis
pen
penal
penalty
pend
penetr
penetrate
penetration
penicillin
pension
pent
people
pepti
peptide
peptides
per
perc
perce
perceive
perceived
percent
percentage
percentages
percenti
percentile
percep
perception
perceptions
perceptual
percutaneous
perf
perfect
perfectly
perfor
perforation
perform
performance
performances
performed
performing
performs
perfused
perfusion
perhaps
peri
peric
perin
perinatal
period
periodic
periodically
periodicity
periodontal
periods
perioperative
peripher
peripheral
periphery
peritoneal
perm
perman
permanent
perme
permeability
permission
permissions
permit
permits
permitted
permittivity
permutation
permutations
perox
peroxid
peroxidase
peroxidation
peroxide
peroxis
perp
perpendicular
pers
persist
persisted
persistence
persistent
persists
person
personal
personality
personalized
personnel
persons
perspective
perspectives
persu
pert
pertaining
pertinent
perturb
perturbation
perturbations
perturbed
pervasive
pes
pess
pest
pestic
pesticide
pesticides
pet
petroleum
pf
pg
ph
phag
phage
phagocytosis
phant
phantom
pharm
pharmac
pharmaceutical
pharmacokine
pharmacokinetic
pharmacological
pharmacy
phase
phases
phe
phen
phenol
phenolic
phenomen
phenomena
phenomenon
phenotype
phenotypes
phenotypic
phenyl
pherom
pheromone
philosoph
philosophical
philosophy
phon
phone
phones
phonological
phonon
phosph
phosphatase
phosphate
phosphatidyl
phospho
phospholip
phospholipid
phospholipids
phosphorus
phosphory
phosphoryl
phosphorylated
phosphorylation
phot
photo
photoc
photocatal
photod
photograph
photographs
photon
photonic
photons
photore
photos
photosynthesis
photosynthetic
phr
phrase
phrases
phyl
phylogenetic
phylogeny
phys
physi
physic
physical
physically
physician
physicians
physicochemical
physics
physiologic
physiological
physiologically
physiology
phyt
phytoplankton
pi
pic
pick
picked
picture
pictures
pie
piec
piece
pieces
piecewise
piez
piezoelectric
pig
pigment
pigs
pil
pill
pilot
pin
pine
pione
pip
pipe
pipeline
pit
pitch
pituitary
piv
pivotal
pix
pixel
pixels
pj
pk
pl
place
placebo
placed
placement
placent
placenta
placental
places
placing
plain
plan
planar
plane
planes
planet
planned
planner
planning
plans
plant
plants
plaque
plaques
plas
plasm
plasma
plasmid
plasmids
plasmin
plasmon
plastic
plasticity
plate
plateau
plated
platelet
platelets
plates
platform
platforms
platinum
plaus
plausible
play
played
player
players
playing
plays
ple
please
pleural
plex
plexus
plot
plots
plotted
plug
plur
pluripot
plus
pm
pmol
pn
pneum
pneumonia
pneumoniae
po
pocket
pod
poin
point
pointed
pointer
pointing
points
poison
poisoning
pol
polar
polarity
polarization
polarized
pole
poles
poli
polic
police
policies
policy
politic
political
politics
poll
pollen
pollut
pollutants
pollution
poly
polyacrylamide
polyc
polyclonal
polyethylene
polyg
polygon
polym
polymer
polymerase
polymeric
polymerization
polymers
polymorph
polymorphic
polymorphism
polymorphisms
polynomial
polynomials
polyp
polypeptide
polyphen
polyps
polys
polysaccharide
polysaccharides
polyt
pool
pooled
pooling
pools
poor
poorer
poorly
pop
popular
popularity
populated
population
populations
por
porcine
pore
pores
porosity
porous
porph
port
portable
portal
portfolio
portion
portions
portr
ports
pos
pose
posed
poses
posi
position
positional
positioned
positioning
positions
positive
positively
positives
positivity
positron
poss
possess
possessed
possesses
possessing
possib
possibilities
possibility
possible
possibly
post
posted
poster
posterior
postmenopausal
postnatal
postoperative
postoperatively
postpartum
posts
postsynaptic
postulated
postural
posture
pot
potassium
potato
potency
potent
potenti
potential
potentially
potentials
potentiation
poultry
pour
poverty
pow
powder
power
powered
powerful
powers
pp
ppm
pr
prac
practical
practically
practice
practices
practition
practitioner
practitioners
pragmatic
pre
prec
preca
preced
preceded
preceding
precip
precipitate
precipitated
precipitation
precise
precisely
precision
preclinical
precondition
precurs
precursor
precursors
pred
predation
predator
predators
predec
predefined
predetermined
predic
predicate
predicates
predict
predictable
predicted
predicting
prediction
predictions
predictive
predictor
predictors
predicts
predis
prednis
predom
predominant
predominantly
preem
pref
prefer
preferable
preference
preferences
preferential
preferentially
preferred
prefix
prefrontal
pregn
pregnancies
pregnancy
pregnant
preinc
prelim
preliminary
prem
premature
premise
premium
prenatal
preoperative
prep
prepar
preparation
preparations
prepare
prepared
preparing
preprocessing
prerequ
prerequisite
pres
preschool
prescri
prescribed
prescribing
prescription
prescriptions
presence
present
presentation
presentations
presented
presenting
presently
presents
preservation
preserve
preserved
preserves
preserving
press
pressing
pressure
pressures
presum
presumably
presumed
presynaptic
pret
preterm
pretreated
pretreatment
prev
prevailing
preval
prevalence
prevalent
prevent
prevented
preventing
prevention
preventive
prevents
previous
previously
prey
pri
price
prices
pricing
pril
prim
primarily
primary
primate
primates
prime
primer
primers
primes
priming
primitive
primitives
primord
prin
princip
principal
principle
principles
print
printed
printing
prior
priori
prioriti
priorities
priority
priors
prison
priv
privacy
private
privile
pro
proactive
prob
probabilistic
probabilities
probability
probable
probably
probe
probed
probes
probing
proble
problem
problematic
problems
proc
proced
procedural
procedure
procedures
proceed
proceeded
proceeding
proceedings
proceeds
process
processed
processes
processing
processor
processors
prod
produc
produce
produced
producer
producers
produces
producing
product
production
productive
productivity
products
prof
profession
professional
professionals
professor
proficiency
profile
profiles
profiling
profit
profitability
profits
profound
prog
progen
progenitor
progenitors
progeny
progester
progesterone
progn
prognosis
prognostic
progr
program
programm
programmable
programme
programmed
programmer
programmers
programmes
programming
programs
progress
progressed
progresses
progression
progressive
progressively
prohib
prohibited
proinflammatory
proj
project
projected
projection
projections
projective
projects
prol
prolif
proliferating
proliferation
proliferative
proline
prolong
prolonged
prom
promin
prominent
promise
promising
promot
promote
promoted
promoter
promoters
promotes
promoting
promotion
prompt
prompted
pron
prone
prono
pronounced
proof
proofs
prop
propag
propagate
propagated
propagating
propagation
propensity
proper
properly
properties
property
prophyl
prophylactic
prophylaxis
propor
proportion
proportional
proportions
propos
proposal
proposals
propose
proposed
proposes
proposing
proposition
propositional
propositions
propri
proprietary
pros
prospec
prospective
prospectively
prospects
prost
prostagland
prostaglandin
prostate
prosthesis
prosthetic
prot
prote
protease
proteases
proteasome
protect
protected
protecting
protection
protective
protects
protein
proteins
proteinuria
proteolysis
proteolytic
proteome
proteomic
proteomics
proto
protoc
protocol
protocols
proton
protons
prototype
prototypes
protr
prov
prove
proved
proven
proves
provid
provide
provided
provider
providers
provides
providing
province
provinces
proving
provision
provisions
prox
proxim
proximal
proximity
proxy
pruning
pré
ps
pseud
pseudo
psoriasis
psych
psychiatric
psycho
psychological
psychology
psychometric
psychosis
psychosocial
pt
pu
pub
puber
public
publication
publications
publicly
publis
publish
published
publisher
publishing
pul
pull
pulmonary
pulp
puls
pulse
pulsed
pulses
pump
pumping
pumps
pun
punc
punct
puncture
punishment
pup
pupil
pups
pur
purch
purchase
purchased
purchasing
pure
purely
purification
purified
purity
purpose
purposes
purs
pursu
pursue
pursued
pursuit
pus
push
pushed
put
putative
puts
putting
puzz
py
pyl
pylori
pyr
pyram
pyramidal
pyro
pyruvate
q
qPCR
qRT
qi
qu
quad
quadr
quadrant
quadratic
quadrature
quadrup
qual
qualified
qualit
qualitative
qualitatively
qualities
quality
quanti
quantif
quantification
quantified
quantify
quantifying
quantit
quantitative
quantitatively
quantities
quantity
quantization
quantized
quantum
quark
quarks
quarter
quartile
quartz
quas
quasi
quatern
que
quenc
quenching
quer
queries
query
ques
question
questioned
questionnai
questionnaire
questionnaires
questions
queu
queue
queues
qui
quick
quickly
quies
quiescent
quiet
quin
quit
quite
quoted
quoti
quotient
r
rDNA
rRNA
ra
rab
rabbit
rabbits
rac
race
racial
rad
radar
radi
radial
radiation
radiative
radical
radicals
radii
radio
radioactive
radioactivity
radiographic
radiographs
radiol
radiological
radiotherapy
radius
rail
rain
rainfall
raise
raised
raises
raising
ram
ramp
ran
random
randomised
randomization
randomized
randomly
randomness
rang
range
ranged
ranges
ranging
rank
ranked
ranking
ranks
rap
rapamycin
rapid
rapidly
rare
rarely
rat
rate
rated
rates
rather
rati
rating
ratings
ratio
rational
rationale
rationality
ratios
rats
raw
ray
rays
rb
rc
rd
re
reach
reachable
reached
reaches
reaching
react
reacted
reaction
reactions
reactivation
reactive
reactivity
reactor
read
reader
readers
readily
reading
readings
readout
reads
ready
reag
reagent
reagents
real
realistic
reality
realiz
realization
realizations
realize
realized
really
realm
rear
rearrang
rearrangement
rearrangements
reason
reasonable
reasonably
reasoning
reasons
reass
rec
recall
recap
rece
receipt
receive
received
receiver
receivers
receives
receiving
recent
recently
recept
reception
receptive
receptor
receptors
recessive
rech
recip
recipient
recipients
reciproc
reciprocal
recogn
recognised
recognition
recognize
recognized
recognizes
recognizing
recomb
recombinant
recombination
recomm
recommend
recommendation
recommendations
recommended
recommends
recon
reconc
reconfig
reconfiguration
recons
reconstit
reconstituted
reconstruc
reconstruct
reconstructed
reconstruction
reconstructions
record
recorded
recording
recordings
records
recover
recovered
recovering
recovery
recr
recre
recruit
recruited
recruitment
rect
rectal
rectang
rectangle
rectangular
rectif
rectifier
recur
recurrence
recurrent
recursion
recursive
recursively
recycling
red
redes
redis
redistribution
redox
redshift
reduc
reduce
reduced
reduces
reducing
reductase
reduction
reductions
redund
redundancy
redundant
reef
ref
refer
refere
referen
reference
referenced
references
referral
referred
referring
refers
refine
refined
refinement
reflec
reflect
reflectance
reflected
reflecting
reflection
reflections
reflective
reflects
reflex
reflux
reform
reforms
refr
refractive
refractory
refrig
refuge
reg
regard
regarded
regarding
regardless
regards
regen
regeneration
regenerative
regim
regime
regimen
regimens
regimes
region
regional
regions
register
registered
registers
registr
registration
registry
regress
regression
regressions
regul
regular
regularity
regularization
regularly
regulate
regulated
regulates
regulating
regulation
regulations
regulator
regulators
regulatory
regurg
rehabilitation
reimb
rein
reinforce
reinforced
reinforcement
reject
rejected
rejection
rel
relapse
relate
related
relatedness
relates
relating
relation
relational
relations
relationship
relationships
relativ
relative
relatively
relatives
relativistic
relax
relaxation
relaxed
relay
relays
rele
release
released
releases
releasing
relevance
relevant
reli
reliability
reliable
reliably
reliance
relie
relied
relief
relies
relig
religion
religious
reluct
rely
relying
rem
remain
remainder
remained
remaining
remains
remark
remarkable
remarkably
remarks
remember
remind
remission
remn
remod
remodeling
remot
remote
remov
removal
remove
removed
removes
removing
ren
renal
rend
render
rendered
rendering
renders
renew
renewable
renin
renormal
rent
reorganization
rep
repair
repe
repeat
repeated
repeatedly
repeating
repeats
reper
reperfusion
reperto
repertoire
repetition
repetitions
repetitive
repl
replace
replaced
replacement
replaces
replacing
replic
replica
replicate
replicated
replicates
replication
reply
repor
report
reported
reporter
reporting
reports
repos
repository
repr
repres
represent
representation
representations
representative
representatives
represented
representing
represents
repression
repressor
reprint
reprints
repro
reproduc
reproduce
reproduced
reproducibility
reproducible
reproduction
reproductive
reputation
requ
request
requested
requests
requi
require
required
requirement
requirements
requires
requiring
res
resc
rescue
resear
researc
research
researcher
researchers
researches
resected
resection
resemb
resemble
resembles
resembling
reserv
reservation
reserve
reserved
reserves
reservoir
reservoirs
reset
resid
reside
residence
resident
residential
residents
resides
residing
residual
residuals
residue
residues
resilience
resin
resis
resist
resistance
resistant
resistive
resistivity
resistor
resol
resolution
resolutions
resolve
resolved
resolving
reson
resonance
resonances
resonant
resonator
resorption
resource
resources
resp
respec
respect
respective
respectively
respects
respir
respiration
respiratory
respon
respond
responded
respondent
respondents
responders
responding
responds
response
responses
responsibility
responsible
responsive
responsiveness
rest
restaur
resting
restor
restoration
restore
restored
restr
restric
restrict
restricted
restricting
restriction
restrictions
restrictive
restricts
resul
result
resultant
resulted
resulting
results
resuscitation
resuspended
ret
retail
retain
retained
retaining
retains
retard
retardation
retention
reti
retic
reticulum
retin
retina
retinal
retinopathy
retirement
retr
retrans
retrie
retrieval
retrieve
retrieved
retro
retrograde
retros
retrospective
retrospectively
return
returned
returning
returns
reus
reuse
rev
revascular
reve
reveal
revealed
revealing
reveals
revenue
revenues
rever
revers
reversal
reverse
reversed
reversible
review
reviewed
reviewers
reviewing
reviews
revis
revised
revision
revolution
reward
rewards
rewrite
rewriting
rewritten
rf
rg
rh
rhe
rheumat
rheumatoid
rhin
rhiz
rhod
rhyth
rhythm
rhythms
ri
rib
ribosomal
ribosome
rice
rich
richness
rid
ridge
rif
rig
right
rights
rigid
rigidity
rigorous
rim
ring
rings
rins
rinsed
rip
ripple
ris
rise
rises
rising
risk
risks
risky
rit
river
rivers
rj
rk
rm
rms
rn
ro
road
roads
rob
robot
robotic
robotics
robots
robust
robustness
rock
rocks
rod
rodent
rodents
rods
rol
role
roles
roll
rolling
rom
roof
room
rooms
root
rooted
roots
rose
rot
rotary
rotated
rotating
rotation
rotational
rotations
rotor
rough
roughly
roughness
round
rounded
rounds
rout
route
router
routers
routes
routine
routinely
routines
routing
row
rows
rp
rpm
rr
rs
rst
rt
ru
rub
rubber
rule
ruled
rules
run
running
runoff
runs
runtime
rup
rupture
rural
rv
ry
ré
rés
s
sa
sac
sacc
sacr
sacrific
sacrificed
sad
saddle
saf
safe
safely
safety
sag
sagittal
said
sake
sal
sale
sales
saliency
salient
saline
salinity
saliv
saliva
salivary
salmon
salt
salts
sam
same
sample
sampled
samples
sampling
san
sanc
sand
sap
sarc
sarcom
sarcoma
sat
satellite
satellites
satis
satisf
satisfaction
satisfactory
satisfied
satisfies
satisfy
satisfying
satur
saturated
saturation
sav
save
saved
saving
savings
saw
say
saying
says
sc
scaff
scaffold
scaffolds
scal
scalability
scalable
scalar
scale
scaled
scales
scaling
scalp
scan
scanned
scanner
scanning
scans
scar
scarc
scarce
scat
scatter
scattered
scattering
scav
scavenging
scenari
scenario
scenarios
scene
scenes
sch
sche
sched
schedul
schedule
scheduled
scheduler
schedules
scheduling
schem
schema
schematic
scheme
schemes
schizophren
schizophrenia
scholar
scholars
schon
school
schooling
schools
schw
sci
science
sciences
scientific
scientist
scientists
scin
scler
sclerosis
scope
score
scored
scores
scoring
scr
scrap
scratch
screen
screened
screening
screens
screw
scri
script
scripts
scrutin
sd
se
sea
seal
sealed
seam
seamless
searc
search
searched
searches
searching
season
seasonal
seasons
seaw
seawater
sec
second
secondary
seconds
secre
secret
secrete
secreted
secretion
secretory
section
sections
sector
sectors
secure
security
sed
sedation
sedentary
sediment
sedimentation
sediments
see
seed
seeded
seeding
seedling
seedlings
seeds
seeing
seek
seeking
seeks
seem
seemed
seemingly
seems
seen
sees
seg
segment
segmental
segmentation
segmented
segments
segreg
segregation
seh
sehr
sein
seiner
seismic
seiz
seizure
seizures
sel
selbst
seldom
selec
select
selected
selecting
selection
selective
selectively
selectivity
selects
selen
selenium
self
sell
seller
selling
sem
seman
semantic
semantically
semantics
semen
semi
semic
semicon
semiconductor
semigroup
seminal
semis
sen
send
sender
sending
sends
senes
senescence
senior
sens
sensation
sense
sensed
senses
sensi
sensible
sensing
sensitive
sensitivities
sensitivity
sensitization
sensor
sensors
sensory
sent
sentence
sentences
senti
sentiment
sep
separ
separable
separate
separated
separately
separates
separating
separation
sepsis
sept
septal
septic
septum
sequ
sequel
[...]
