
#
##!
##"
###
##$
##%
##%)
##%),
##%).
##%,
##%.
##%;
##&
##'
##(
##((
##(+
##(+)
##(-
##(0)
##(0,
##(1
##(1)
##(1),
##(1+
##(1,
##(1-
##(1/
##(10
##(11
##(11)
##(12)
##(1−
##(2
##(2)
##(2),
##(2,
##(2-
##(3
##(3)
##(3),
##(3,
##(4
##(4)
##(4),
##(4,
##(5
##(5)
##(6
##(6)
##(7)
##(8)
##(9)
##([
##({
##(|
##(−
##)
##)!
##)(
##))
##)),
##)).
##)+
##),
##),(
##)-
##)-1
##).
##)/
##)1
##)2
##)3
##):
##);
##)=
##)[
##)]
##)],
##)].
##)|
##)|2
##)}
##)×
##)–
##)‖
##)→
##)∈
##)−
##)−1
##)〉
##*
##*(
##*)
##**
##*,
##*.
##+
##+(
##+)
##++
##+,
##+-
##+.
##+/
##+1
##+1(
##+1)
##+1,
##+1.
##+2
##+3
##+=
##,
##,(
##,,
##,0
##,1
##,1,
##,2
##,3
##,4
##,5
##,6
##,7
##,[
##,”
##,−
##-
##-(
##-)
##-,
##-/
##-0
##-00
##-1
##-1)
##-1),
##-1,
##-1-
##-1.
##-1/
##-10
##-100
##-11
##-12
##-13
##-14
##-15
##-16
##-17
##-18
##-19
##-2
##-2)
##-2,
##-2-
##-2.
##-20
##-200
##-21
##-22
##-23
##-24
##-25
##-27
##-29
##-3
##-3,
##-3-
##-3.
##-30
##-34
##-3′
##-4
##-4,
##-4-
##-40
##-48
##-5
##-5,
##-5-
##-50
##-6
##-6,
##-6-
##-60
##-67
##-7
##-70
##-8
##-80
##-9
##-90
##-[
##.
##.(
##.)
##.),
##.).
##.,
##.-
##..
##...
##...,
##....
##.0
##.00
##.01
##.1
##.1%
##.1)
##.1,
##.1.
##.10
##.10,
##.11
##.11,
##.12
##.13
##.14
##.15
##.16
##.17
##.18
##.19
##.2
##.2%
##.2)
##.2,
##.2.
##.20
##.21
##.22
##.23
##.24
##.25
##.26
##.27
##.28
##.29
##.3
##.3%
##.3)
##.3,
##.3.
##.30
##.31
##.32
##.33
##.34
##.35
##.36
##.37
##.38
##.39
##.4
##.4%
##.4)
##.4,
##.4.
##.40
##.41
##.42
##.43
##.44
##.45
##.46
##.47
##.48
##.49
##.5
##.5%
##.5%)
##.5)
##.5,
##.5.
##.50
##.51
##.52
##.53
##.54
##.55
##.56
##.57
##.58
##.59
##.6
##.6,
##.7
##.7,
##.8
##.9
##.:
##.;
##.[
##.]
##.”
##/
##/(
##//
##/0
##/1
##/10
##/10.
##/10.10
##/10.1016/
##/100
##/12
##/15
##/2
##/2)
##/2,
##/2.
##/20
##/3
##/4
##/5
##/6
##/7
##/8
##/9
##/∂
##0
##0(
##0)
##0),
##0).
##0+
##0,
##0-
##0.
##0.0
##0.00
##0.01
##0.05
##0.1
##0.2
##0.3
##0.4
##0.5
##0.6
##0.7
##0.8
##0.9
##0/
##00
##00)
##00,
##000
##000,
##0000
##001
##002
##005
##01
##01,
##010
##011
##02
##03
##04
##05
##06
##07
##08
##09
##0:
##0;
##0]
##0|
##0}
##1
##1%
##1(
##1)
##1),
##1).
##1);
##1*
##1+
##1,
##1,...,
##1,2
##1,2,
##1-
##1.
##1.0
##1.1
##1.2
##1.3
##1.4
##1.5
##1.6
##1.7
##1.8
##1.9
##1/
##1/2
##10
##10)
##10).
##10,
##10-
##10.
##100
##100,
##1000
##101
##102
##103
##104
##105
##106
##107
##108
##109
##10]
##10].
##11
##11)
##11,
##11-
##11.
##110
##111
##1111
##112
##113
##114
##115
##116
##117
##118
##119
##11]
##11].
##12
##12)
##12,
##12-
##12.
##120
##121
##122
##123
##124
##125
##126
##127
##128
##129
##12]
##12].
##13
##13,
##13.
##130
##132
##133
##134
##135
##136
##137
##138
##139
##13]
##13].
##14
##14,
##14.
##140
##144
##145
##146
##147
##148
##149
##14]
##14].
##15
##15,
##15.
##150
##154
##155
##156
##157
##158
##159
##15]
##15].
##16
##16,
##16.
##160
##165
##166
##167
##168
##169
##16].
##17
##17,
##170
##174
##175
##176
##18
##18,
##180
##185
##19
##19)
##19,
##190
##195
##196
##197
##198
##199
##1:
##1;
##1=
##1[
##1]
##1],
##1].
##1|
##1}
##1–
##1−
##2
##2%
##2(
##2)
##2)(
##2))
##2),
##2).
##2):
##2);
##2*
##2+
##2+,
##2+-
##2+]
##2,
##2,3
##2-
##2.
##2.0
##2.1
##2.2
##2.5
##2.6
##2.7
##2.8
##2.9
##2/
##2/2
##2/3
##20
##20)
##20,
##20-
##20.
##200
##2000
##201
##202
##203
##204
##205
##206
##207
##208
##209
##21
##21)
##21,
##21.
##21/
##210
##212
##21].
##22
##22,
##22.
##220
##23
##23,
##235
##24
##24,
##244
##25
##25,
##25.
##250
##255
##256
##26
##26,
##27
##27,
##28
##28,
##29
##29,
##293
##2:
##2;
##2=
##2[
##2]
##2],
##2].
##2|
##2}
##2–
##2−
##3
##3%
##3(
##3)
##3),
##3).
##3):
##3);
##3+
##3,
##3,4
##3-
##3.
##3.0
##3.1
##3.2
##3.6
##3.7
##3.8
##3.9
##3/
##3/2
##30
##30,
##300
##304
##305
##308
##31
##31,
##32
##32,
##33
##33,
##34
##34,
##35
##35,
##36
##36,
##37
##37,
##38
##38,
##39
##39,
##3:
##3;
##3]
##3],
##3].
##3–
##3−
##4
##4%
##4(
##4)
##4),
##4).
##4+
##4,
##4-
##4.
##4.0
##4.1
##4.6
##4.7
##4.8
##4.9
##4/
##40
##40,
##400
##41
##41,
##42
##42,
##43
##44
##44,
##45
##45,
##450
##456
##46
##47
##48
##49
##4:
##4;
##4]
##4],
##4].
##4–
##5
##5%
##5(
##5)
##5),
##5).
##5);
##5,
##5-
##5.
##5.0
##5.6
##5.7
##5.8
##5.9
##5/
##50
##50%
##50,
##500
##51
##52
##53
##53,
##54
##549
##55
##56
##57
##58
##59
##5:
##5;
##5]
##5],
##5].
##5–
##6
##6%
##6(
##6)
##6),
##6).
##6):
##6,
##6-
##6.
##6.0
##6.1
##6.6
##6.7
##6.8
##6.9
##6/
##60
##60,
##60.
##600
##61
##62
##63
##64
##65
##66
##67
##68
##69
##6:
##6;
##6]
##6],
##6].
##6–
##7
##7%
##7)
##7),
##7).
##7,
##7-
##7.
##7.0
##7.6
##7.7
##7.8
##7.9
##7/
##70
##70,
##700
##71
##72
##73
##74
##75
##76
##77
##78
##79
##7:
##7;
##7]
##7],
##7].
##7–
##8
##8%
##8)
##8),
##8).
##8+
##8,
##8-
##8.
##8.0
##8.6
##8.7
##8.8
##8.9
##8/
##80
##80,
##800
##81
##82
##83
##84
##85
##86
##87
##88
##89
##8:
##8;
##8]
##8],
##8].
##8–
##9
##9%
##9%)
##9)
##9),
##9).
##9,
##9-
##9.
##9.0
##9.6
##9.9
##9/
##90
##90%
##900
##91
##92
##93
##94
##95
##95%
##96
##97
##98
##99
##9;
##9]
##9],
##9].
##9–
##:
##://
##:0
##:1
##:10
##:15
##:2
##:3
##:4
##:5
##:6
##;
##=
##=(
##=0
##=0,
##=0.
##=0.0
##=0.00
##=1
##=1,
##=1.
##=2
##=3
##=4
##=5
##=−
##>
##>0
##?
##@
##A
##AA
##AB
##ABA
##ABC
##AC
##AD
##AE
##AF
##AG
##AH
##AI
##AL
##AM
##AMP
##AN
##AP
##APP
##AR
##AS
##ASP
##AT
##ATCC
##ATION
##ATP
##AV
##AX
##Ab
##Ac
##Ad
##Ag
##Ai
##Ak
##Al
##Ala
##Aldrich
##All
##Am
##An
##And
##Ang
##Ap
##App
##Ar
##Arg
##As
##Ass
##At
##Au
##Av
##Ax
##B
##BA
##BB
##BC
##BD
##BE
##BER
##BF
##BG
##BH
##BI
##BL
##BM
##BN
##BO
##BP
##BR
##BS
##BSA
##BT
##BV
##Ba
##Bar
##Based
##Be
##Ber
##Bi
##Bio
##Bl
##Bo
##Br
##Bs
##Bt
##Bu
##C
##CA
##CAA
##CAC
##CAL
##CAM
##CAP
##CAS
##CAT
##CB
##CC
##CCC
##CD
##CE
##CF
##CG
##CH
##CI
##CK
##CL
##CM
##CN
##CNT
##CNTs
##CO
##COM
##CON
##CP
##CR
##CS
##CT
##CTA
##CTION
##CTS
##CV
##CX
##CY
##Ca
##Cal
##Cam
##Car
##Cas
##Cd
##Ce
##Cell
##Ch
##Chem
##Ci
##Cl
##Co
##CoA
##Col
##Com
##Comp
##Con
##Control
##Cor
##Cp
##Cr
##Cs
##Ct
##Cu
##Cy
##D
##DA
##DB
##DC
##DD
##DE
##DF
##DG
##DH
##DI
##DL
##DM
##DMSO
##DN
##DNA
##DO
##DP
##DR
##DS
##DT
##DV
##Da
##Data
##De
##Dec
##Def
##Del
##Dep
##Des
##Di
##Direct
##Do
##Dr
##Ds
##Du
##E
##EA
##EB
##EC
##ECs
##ED
##EDTA
##EE
##EF
##EG
##EGF
##EI
##EL
##EM
##EMENT
##EMS
##EN
##ENT
##EP
##ER
##ERI
##ERS
##ES
##ESI
##ESS
##EST
##ET
##EV
##EW
##EX
##Ed
##Ei
##El
##Em
##En
##End
##Ep
##Eq
##Equ
##Er
##Es
##Et
##Ev
##Ex
##F
##FA
##FB
##FC
##FD
##FE
##FET
##FF
##FG
##FH
##FI
##FL
##FM
##FN
##FO
##FP
##FR
##FS
##FT
##FU
##Fc
##Fe
##Fi
##Fig
##Figs
##Figure
##Figures
##Fisher
##Fl
##Flow
##For
##Fr
##Fs
##G
##GA
##GB
##GC
##GD
##GE
##GF
##GFP
##GG
##GH
##GI
##GL
##GM
##GN
##GO
##GP
##GR
##GS
##GT
##Ga
##Gal
##Gaussian
##Ge
##Gi
##Gib
##Gl
##Glc
##Glu
##Gly
##Gold
##Gr
##Grant
##Graph
##Green
##Group
##Gs
##Gu
##Gy
##H
##HA
##HB
##HC
##HCl
##HD
##HE
##HER
##HF
##HG
##HH
##HI
##HL
##HM
##HN
##HO
##HOD
##HP
##HPLC
##HR
##HS
##HT
##HV
##HY
##Ha
##Hall
##Hb
##He
##Hg
##Hi
##High
##His
##Ho
##Hs
##Hy
##Hz
##I
##IA
##IB
##IC
##ICA
##ICAL
##ID
##IE
##IF
##IG
##II
##III
##IJ
##IL
##IM
##IN
##ING
##INT
##IO
##ION
##IONAL
##IP
##IPA
##IR
##IS
##ISA
##IT
##ITC
##ITY
##IV
##IVE
##IX
##Id
##If
##Ig
##Im
##In
##Ind
##Int
##Inter
##Invitrogen
##Ir
##Is
##It
##J
##JA
##Jones
##K
##KA
##KB
##KD
##KE
##KF
##KH
##KI
##KK
##KL
##KM
##KO
##KS
##KT
##Ka
##Ke
##Ki
##Kn
##Kr
##Ks
##L
##LA
##LAB
##LB
##LC
##LD
##LE
##LEX
##LF
##LI
##LL
##LM
##LN
##LO
##LP
##LR
##LS
##LT
##LU
##LV
##LY
##La
##Lab
##Le
##Li
##Life
##Lo
##Log
##Ls
##Lu
##Lys
##M
##MA
##MAP
##MAX
##MB
##MC
##MD
##ME
##MET
##MF
##MG
##MH
##MHz
##MI
##MIC
##ML
##MM
##MN
##MO
##MOD
##MP
##MR
##MRI
##MS
##MSC
##MSCs
##MSO
##MT
##MV
##MW
##Ma
##Mac
##Man
##Mar
##Mark
##Mart
##Mat
##Max
##Mb
##Mc
##Me
##Med
##Met
##Mg
##Mi
##Mic
##Min
##Mn
##Mo
##Mod
##Model
##Molecular
##Mon
##Mor
##Ms
##My
##N
##NA
##NAL
##NAc
##NB
##NC
##ND
##NE
##NF
##NG
##NH
##NI
##NK
##NL
##NM
##NMR
##NN
##NO
##NOS
##NP
##NPs
##NR
##NS
##NT
##NTs
##NV
##Na
##Ne
##Net
##New
##Ni
##No
##Non
##Note
##Ns
##O
##OA
##OAc
##OB
##OC
##OD
##OF
##OG
##OH
##OL
##OM
##ON
##OO
##OP
##OR
##OS
##OSS
##OT
##OV
##OX
##Ob
##Of
##On
##One
##Op
##Or
##Os
##Out
##Ox
##P
##PA
##PAGE
##PB
##PBS
##PC
##PCA
##PCR
##PD
##PE
##PEG
##PEND
##PET
##PF
##PG
##PH
##PI
##PK
##PL
##PLA
##PM
##PN
##PO
##PP
##PR
##PRO
##PS
##PSS
##PT
##PU
##PV
##Pa
##Pad
##Par
##Pb
##Pd
##Pe
##Per
##Ph
##Phe
##Phys
##Pi
##Pl
##Pn
##Po
##Pol
##Pr
##Pro
##Ps
##Pt
##Q
##QA
##QC
##QP
##QR
##QU
##Qi
##Qu
##R
##RA
##RB
##RC
##RD
##RE
##RES
##RF
##RG
##RH
##RI
##RL
##RM
##RN
##RNA
##RNAs
##RO
##ROS
##RP
##RR
##RS
##RT
##RY
##Ra
##Rad
##Rb
##Rd
##Re
##Rec
##Red
##Ref
##Reg
##Rel
##Rep
##Res
##Rh
##Ri
##Rn
##Ro
##Rs
##Ru
##S
##SA
##SAR
##SB
##SC
##SCs
##SD
##SDS
##SE
##SEM
##SF
##SG
##SH
##SI
##SIC
##SIM
##SION
##SIS
##SK
##SL
##SM
##SMA
##SN
##SNR
##SO
##SP
##SPR
##SR
##SS
##ST
##STM
##STR
##SU
##SV
##SW
##SY
##Sa
##Sal
##Sc
##Sch
##Scheme
##Se
##Sec
##Section
##See
##Ser
##Set
##Sh
##Si
##SiO
##Sigma
##Sil
##Sim
##Sk
##Sl
##Sm
##Sn
##Sol
##Sp
##Spec
##Sr
##Ss
##St
##State
##Ste
##Sub
##Supp
##Supplementary
##Syn
##T
##TA
##TB
##TC
##TD
##TE
##TEM
##TF
##TG
##TH
##TI
##TL
##TM
##TN
##TO
##TOF
##TOR
##TP
##TPA
##TR
##TRA
##TS
##TT
##TV
##Ta
##Table
##Tables
##Tc
##Te
##Tg
##Th
##The
##Theorem
##Ther
##Thermo
##This
##Ti
##TiO
##Time
##Tn
##To
##Tr
##Trans
##Tri
##Ts
##Tx
##Type
##U
##UA
##UB
##UC
##UCT
##UCTION
##UD
##UK
##UL
##ULATION
##UM
##UN
##UP
##UR
##URE
##US
##USA
##UST
##UT
##UV
##Un
##Up
##Us
##V
##VA
##VC
##VCH
##VD
##VE
##VI
##VL
##VM
##VO
##VP
##VR
##VS
##VT
##Val
##Ver
##Vi
##Vis
##Vol
##Vs
##W
##WA
##WB
##WC
##WD
##WF
##WI
##WL
##WM
##WN
##WP
##WR
##WS
##WT
##WW
##Wall
##We
##Wh
##Wi
##Work
##Ws
##X
##XA
##XL
##XR
##XS
##XX
##XY
##Xi
##Xj
##Xn
##Y
##YP
##YS
##Z
##ZA
##Zn
##[
##[(
##[0,
##[1]
##[2]
##\
##]
##](
##])
##]),
##]).
##]+
##],
##]-
##].
##]:
##];
##][
##^
##a
##aa
##ab
##abase
##abatic
##abe
##abil
##abilities
##ability
##abin
##able
##ables
##ably
##abol
##abolic
##abor
##about
##abric
##abs
##absorption
##ac
##acc
##acchar
##ace
##aced
##acement
##acent
##aceous
##acer
##aces
##acet
##acetate
##acetic
##acetyl
##aceu
##ach
##ached
##aches
##achi
##aching
##achment
##acial
##acian
##acid
##acies
##acil
##acin
##acing
##acity
##ack
##acker
##acket
##acking
##acks
##aco
##acryl
##acrylamide
##acrylate
##act
##acted
##acter
##acterial
##actic
##actin
##acting
##action
##actions
##activ
##activated
##activation
##active
##activity
##actor
##actors
##acy
##acyl
##ad
##ada
##adapted
##adays
##add
##adder
##ade
##adec
##aded
##aden
##adequ
##ader
##ades
##adi
##adic
##adily
##ading
##adium
##adj
##ado
##ads
##advant
##ady
##ae
##ael
##af
##aff
##affe
##affected
##affin
##affinity
##aft
##after
##ag
##age
##aged
##agen
##agent
##ager
##ages
##aggreg
##aging
##agle
##agn
##agner
##agnetic
##ago
##agon
##agonal
##agraph
##ah
##ahn
##ai
##aid
##aign
##ail
##ailed
##ails
##aim
##ain
##aine
##ained
##aining
##ains
##aint
##air
##aired
##aj
##ak
##aka
##ake
##aked
##aken
##aker
##akers
##akes
##aki
##aking
##akis
##ako
##aku
##al
##alanine
##alc
##ald
##aldehyde
##ale
##aled
##ales
##alg
##algebra
##ali
##alignment
##alin
##aline
##aling
##alities
##ality
##alk
##all
##alle
##alled
##allel
##allic
##alling
##allow
##ally
##alone
##alpha
##als
##also
##alt
##alth
##although
##alu
##aly
##am
##ama
##aman
##amate
##amb
##ambda
##ambigu
##ame
##amed
##amel
##ament
##amental
##aments
##amer
##amers
##ames
##ameter
##ameters
##ami
##amic
##amid
##amide
##amil
##amily
##amin
##amination
##amine
##amines
##aming
##amino
##amm
##amma
##amond
##amoto
##amp
##ampl
##ample
##amples
##ampling
##ams
##amycin
##amyl
##an
##ana
##anal
##analy
##analysis
##anc
##ance
##anced
##ancer
##ances
##anch
##ancies
##ancing
##anck
##ancomycin
##ancy
##and
##anded
##andem
##ander
##andid
##anding
##ando
##andom
##ands
##ane
##aned
##aneous
##anes
##ang
##ange
##anger
##angle
##angu
##ani
##anil
##anine
##anium
##ank
##anks
##ann
##anne
##anning
##ano
##anol
##ans
##ansen
##ansion
##ant
##anta
##anted
##anth
##anti
##antit
##antitative
##antly
##ants
##antum
##any
##anyl
##ao
##ap
##ape
##aper
##apes
##aph
##aphyl
##apl
##apor
##app
##appa
##apped
##apping
##approximately
##aps
##apsing
##apt
##apter
##aptic
##apunov
##aque
##ar
##ara
##aratus
##arb
##arbon
##arbonate
##arboxyl
##arc
##arch
##ard
##arded
##arding
##ardless
##ards
##are
##area
##ared
##arent
##arer
##ares
##arest
##arg
##arge
##arget
##ari
##aria
##ariate
##aries
##arily
##arin
##aring
##arith
##arities
##arity
##arium
##ark
##arm
##arn
##aro
##arose
##around
##arp
##array
##arrays
##arrow
##ars
##arse
##art
##article
##artment
##artz
##ary
##arying
##aryl
##as
##ascular
##ase
##ased
##aser
##ases
##ash
##ashes
##ashi
##ashion
##asi
##asic
##asing
##asis
##ask
##asks
##ason
##ass
##assay
##assemb
##assembly
##asses
##assi
##assisted
##assium
##assive
##associated
##ast
##aste
##asted
##aster
##astic
##astically
##asts
##asure
##asy
##at
##ata
##atable
##atase
##atch
##ate
##ated
##ateg
##ately
##ater
##ateral
##aterial
##aterials
##aters
##ates
##atever
##atform
##ath
##athe
##ather
##athered
##athione
##ati
##atial
##atic
##atical
##atically
##atidyl
##atile
##atility
##atin
##ating
##atinum
##atio
##ation
##ational
##ations
##atis
##atite
##ativ
##ative
##atively
##atives
##ativity
##atization
##atized
##ato
##atom
##atomic
##aton
##ator
##atories
##ators
##atory
##atri
##ats
##atsu
##att
##atter
##attering
##atum
##aturation
##ature
##atured
##atures
##aturing
##atus
##au
##auer
##aug
##auge
##ault
##aus
##ause
##auss
##aussian
##aut
##aux
##av
##ava
##avage
##availability
##available
##ave
##aved
##aven
##aver
##average
##averaged
##aves
##avi
##avidin
##aving
##avity
##avoid
##avor
##avorable
##avy
##aw
##awa
##away
##ax
##axel
##axial
##axis
##axy
##ay
##ayer
##ayers
##aylor
##ays
##az
##aza
##aze
##azine
##azo
##azol
##azole
##b
##ba
##bach
##back
##bal
##balance
##balanced
##ball
##band
##bands
##bar
##bas
##base
##based
##bb
##bc
##be
##beam
##bean
##bearing
##bec
##because
##becco
##beck
##bed
##before
##beit
##bell
##bene
##benz
##ber
##berg
##berry
##bers
##bert
##bes
##beta
##between
##bi
##biased
##bil
##bility
##bin
##binding
##bing
##bio
##bis
##bit
##bits
##bj
##bl
##black
##ble
##block
##blue
##bn
##bo
##board
##body
##bon
##bond
##bone
##book
##bor
##born
##borne
##both
##bottom
##bound
##bow
##box
##bp
##br
##bra
##bras
##bre
##brevi
##brid
##bridge
##bro
##bs
##bt
##bu
##buff
##buffered
##bul
##bumin
##bur
##burg
##burgh
##but
##butyl
##by
##c
##ca
##cal
##calc
##cale
##cales
##called
##cam
##can
##cancer
##cap
##car
##carb
##carbon
##care
##case
##cast
##cat
##catalyzed
##cation
##cb
##cc
##cd
##ce
##cean
##ced
##ceed
##cein
##ceived
##cel
##cell
##cells
##cellular
##cellulose
##cence
##cent
##center
##centered
##centric
##cep
##cept
##ception
##ceptions
##ceptor
##ceptors
##cepts
##cer
##cerol
##certain
##ces
##cess
##cession
##cessive
##cf
##cgi
##ch
##chain
##chan
##chang
##change
##changed
##channel
##char
##character
##characterized
##charge
##che
##ched
##chel
##chem
##chemical
##chen
##cher
##chers
##ches
##chi
##ching
##chip
##chlor
##cho
##choline
##chrom
##ci
##ciences
##cin
##cine
##cing
##circ
##circuit
##cis
##cit
##cj
##ck
##cks
##cl
##class
##classical
##cle
##clinical
##clip
##clipse
##clock
##closed
##clusion
##clusive
##cluster
##cm
##cn
##co
##coated
##coded
##coh
##col
##cold
##coll
##color
##column
##com
##comb
##come
##comes
##coming
##comings
##comp
##compati
##complete
##complex
##component
##con
##concept
##condition
##conf
##conjug
##conjugated
##conn
##connected
##cons
##consistent
##consuming
##cont
##contact
##containing
##content
##continu
##continuous
##contrast
##control
##controlled
##conver
##cool
##coord
##cop
##cope
##copy
##cor
##core
##corrected
##correlation
##corresponding
##cos
##cost
##coupled
##cover
##cp
##cr
##cribed
##cription
##critical
##cross
##cs
##ct
##cu
##cul
##culture
##cumin
##cur
##current
##cus
##cut
##cutaneous
##cy
##cyc
##cycl
##cycle
##cyt
##d
##dB
##dL
##dT
##dU
##da
##dam
##dark
##dashed
##data
##date
##day
##db
##dc
##dd
##de
##dec
##ded
##def
##deficient
##defined
##deg
##degree
##dehyde
##del
##delay
##dem
##den
##denoted
##dense
##density
##deoxy
##dep
##depend
##dependence
##dependent
##depth
##der
##derived
##ders
##des
##described
##design
##det
##determined
##developed
##df
##dh
##di
##diagonal
##diameter
##dic
##diff
##difference
##diffusion
##dig
##dil
##dim
##dimension
##dimensional
##dimethyl
##din
##ding
##dinger
##dip
##direct
##directed
##direction
##directional
##dis
##disc
##diss
##dist
##distance
##dition
##ditional
##div
##dk
##dl
##dle
##dm
##dn
##do
##doctoral
##doi
##dom
##domain
##domains
##dominated
##don
##doped
##dor
##dose
##dot
##down
##dr
##dri
##dried
##driven
##drop
##drug
##ds
##dt
##du
##dual
##duc
##duce
##duced
##ducing
##duct
##duction
##ductive
##ducts
##due
##dx
##dy
##dynamic
##dz
##e
##ea
##each
##ead
##ear
##earch
##eared
##earing
##ears
##eb
##ec
##ecal
##ece
##ech
##echan
##echanical
##echn
##eck
##ecker
##econd
##ecraft
##ect
##ectable
##ected
##ectin
##ecting
##ection
##ections
##ective
##ectively
##ectiveness
##ectives
##ectivity
##ector
##ectors
##ects
##ecture
##ecutive
##ed
##edge
##eding
##edom
##ee
##eed
##een
##ees
##ef
##eff
##effect
##effective
##efficient
##efined
##eg
##eh
##ei
##either
##ej
##ek
##el
##elastic
##eld
##electric
##electro
##electron
##element
##elen
##eless
##elf
##eli
##elian
##elihood
##eline
##elines
##eling
##ell
##ella
##ellar
##elle
##elled
##eller
##elles
##elli
##ellig
##elling
##ello
##ellow
##ellowship
##ellular
##els
##elt
##elve
##elves
##em
##ema
##eman
##emann
##emat
##emb
##embedded
##ember
##embered
##emble
##emens
##emi
##emia
##emic
##emp
##emperature
##empl
##empor
##emporal
##empty
##en
##ena
##enari
##enberg
##enc
##ence
##enced
##ences
##ench
##enching
##enchymal
##encies
##encil
##encing
##encl
##enclature
##ency
##end
##enda
##ende
##ended
##ender
##ending
##endix
##endo
##ends
##ene
##ened
##ener
##energy
##enes
##eness
##eng
##engineering
##ength
##enhanced
##enic
##ening
##enn
##eno
##enriched
##ens
##ensable
##ense
##ensi
##ensile
##ensing
##ension
##ensis
##ensitive
##ensitivity
##ensity
##ensive
##ensor
##ensors
##ensus
##ent
##enta
##ental
##entation
##ented
##enter
##enti
##ential
##entially
##ention
##ently
##entry
##ents
##enty
##environment
##enz
##enzyme
##eor
##ep
##eper
##eping
##epit
##ept
##eptide
##eptides
##eq
##equ
##equivalent
##er
##erate
##erated
##erating
##eration
##erator
##erc
##ercetin
##ere
##ered
##eren
##erence
##erences
##erent
##erenti
##erential
##erest
##erg
##erge
##erged
##ergic
##ergies
##ergy
##eries
##ering
##erm
##erman
##ern
##ero
##err
##error
##ers
##erson
##ert
##ery
##es
##ese
##esh
##esian
##esis
##esium
##especially
##ess
##essel
##essor
##est
##estab
##established
##ested
##ester
##estern
##esthe
##estic
##estinal
##esting
##estone
##estr
##ests
##et
##eta
##etal
##etch
##eter
##eterm
##etermined
##eters
##etes
##eth
##ethanol
##ethe
##etheless
##ether
##etherlands
##ethyl
##ethylene
##etin
##eton
##etra
##etric
##etry
##ets
##ett
##ette
##etter
##ettes
##etting
##etw
##etween
##etwork
##ety
##eu
##ev
##even
##ever
##ew
##ewise
##ex
##exc
##except
##exchange
##existing
##exp
##expensive
##expl
##exposed
##exposure
##expressed
##ext
##ey
##ez
##f
##fa
##face
##faces
##fact
##factor
##factors
##factory
##far
##fast
##fc
##fe
##fected
##fection
##feed
##feld
##fen
##fer
##ference
##ferm
##ferred
##ff
##ffee
##fi
##fib
##fiber
##field
##fig
##figuration
##figure
##fil
##fill
##filled
##fin
##final
##finite
##first
##fish
##fit
##fitting
##fixed
##fl
##flat
##flex
##flow
##fluor
##fly
##fm
##fn
##fo
##fol
##fold
##for
##force
##ford
##fore
##form
##formaldehyde
##formance
##formation
##formed
##forming
##forms
##fort
##forth
##fortunately
##forward
##four
##fp
##fr
##fraction
##frame
##free
##frequency
##friendly
##from
##front
##fs
##ft
##ften
##fter
##ful
##full
##fully
##function
##functional
##functions
##g
##ga
##gal
##galact
##gamma
##gan
##gap
##gas
##gate
##gated
##gc
##ge
##gebra
##gebras
##ged
##gel
##gels
##gen
##gence
##gene
##gener
##generate
##generated
##generation
##genic
##gens
##gent
##ger
##gered
##gers
##gery
##ges
##gest
##gestion
##get
##gether
##gg
##gi
##gin
##gine
##gineering
##ging
##gins
##gl
##gluc
##glucose
##glut
##gly
##glycer
##glycerol
##glycos
##gm
##gn
##go
##going
##gp
##gr
##grad
##grade
##graded
##grading
##grained
##gram
##grams
##gran
##graph
##graphs
##grav
##gravity
##gre
##green
##grid
##gro
##ground
##group
##groups
##growth
##gs
##gu
##gue
##guided
##gy
##h
##ha
##hai
##hal
##half
##ham
##han
##hand
##handed
##hang
##haps
##har
##hard
##harmonic
##has
##hat
##haus
##he
##head
##hed
##hedra
##hedral
##hedron
##heim
##heimer
##hel
##helix
##hem
##hemical
##hen
##hene
##heng
##henyl
##her
##here
##hered
##herence
##herent
##heric
##herical
##hern
##hers
##hes
##heses
##hesis
##hest
##hev
##hex
##hexane
##hh
##hi
##hib
##hig
##high
##hing
##hip
##hire
##his
##hk
##hl
##hler
##hm
##hn
##ho
##hod
##hode
##hof
##hol
##hold
##hole
##hom
##hood
##hor
##host
##hot
##hou
##house
##how
##hr
##hs
##ht
##http
##hu
##human
##hy
##hybrid
##hyd
##hydro
##hydrogen
##hydrox
##hydroxy
##hyl
##hyper
##hyth
##i
##ia
##iable
##iae
##ial
##ially
##ian
##iao
##iation
##iaz
##ib
##iba
##iber
##ibility
##ible
##ibly
##ibrary
##ibration
##ic
##ica
##ical
##ically
##icate
##icated
##ication
##ications
##ice
##ices
##ich
##icher
##ichi
##ichia
##ichlet
##ici
##icial
##icidal
##iciency
##icient
##icillin
##icin
##icine
##icity
##ick
##ickel
##icking
##icle
##ico
##icrobial
##ics
##icular
##id
##ida
##idal
##idase
##idated
##idation
##idden
##ide
##ideal
##ided
##idel
##idelity
##iden
##idence
##idene
##ident
##identified
##ideo
##ider
##ides
##idespread
##idin
##idine
##iding
##idirectional
##idity
##idium
##ido
##idone
##ids
##ie
##ied
##ield
##ien
##ience
##ienna
##ient
##ier
##iers
##ies
##iest
##ieties
##iew
##if
##ife
##ifer
##iff
##ific
##ifically
##ification
##ifications
##ified
##ifier
##ifiers
##ifies
##iform
##ift
##ify
##ifying
##ig
##igan
##igen
##iger
##igh
##ighed
##ight
##ighted
##ighter
##ights
##igma
##ign
##igned
##ignificant
##ignment
##igration
##igt
##igu
##ii
##iii
##ij
##ijing
##ijk
##ik
##ike
##il
##ilar
##ilarities
##ilateral
##ilation
##ild
##ilding
##ile
##iled
##ilent
##iler
##iles
##iley
##ili
##iliary
##ilibri
##ilibria
##ilibrium
##ilic
##ilinear
##iling
##ilities
##ility
##ill
##illa
##illar
##illary
##ille
##illed
##iller
##illi
##illin
##illing
##ills
##illus
##ils
##ilst
##ilt
##ily
##im
##ima
##image
##imaging
##imal
##imals
##ime
##imension
##imensional
##imer
##imeter
##imetic
##imetric
##imetry
##imid
##imide
##imin
##iminary
##imination
##immer
##immun
##imp
##impact
##imum
##in
##ina
##inal
##inally
##inant
##inary
##inase
##inate
##inated
##inates
##inating
##ination
##inations
##inc
##ince
##inceton
##inch
##incip
##including
##increasing
##inct
##ind
##inde
##independent
##inder
##index
##inding
##induced
##ine
##inear
##ined
##inement
##iner
##inery
##ines
##inese
##iness
##inetic
##inf
##infection
##inflammatory
##infrared
##ing
##inger
##ingly
##ings
##inhib
##ini
##inin
##inine
##ining
##inite
##initi
##initial
##inities
##inition
##inity
##inj
##injection
##ink
##inking
##inn
##ino
##ins
##insic
##insically
##insky
##inson
##inst
##int
##integration
##intensity
##inter
##intestinal
##inu
##invariant
##invasive
##io
##iod
##iol
##ion
##ional
##ione
##ionic
##ionine
##ionized
##ions
##iop
##ior
##iotic
##ious
##ip
##iph
##ipher
##ipolar
##ipore
##ipped
##ipping
##ips
##iqu
##ique
##iques
##ir
##ira
##irable
##iral
##irc
##ird
##ire
##irect
##ired
##ires
##iring
##irm
##iro
##iron
##irst
##is
##isation
##isations
##isc
##ischer
##ise
##ised
##isen
##iser
##ises
##ish
##ished
##isher
##ishes
##ishi
##ishing
##ising
##ision
##isite
##isk
##ism
##ismic
##isms
##iso
##ison
##isp
##iss
##ission
##isson
##ist
##istance
##istant
##isted
##istence
##ister
##istic
##istine
##isting
##iston
##istor
##istribution
##istry
##ists
##it
##ita
##itable
##itably
##ital
##itance
##itary
##itate
##itated
##itating
##itation
##itch
##ite
##ited
##iter
##ites
##ith
##ither
##ithi
##itic
##ities
##itin
##iting
##ition
##itions
##itive
##ito
##itol
##iton
##itone
##itor
##itoring
##itors
##itory
##itosan
##itro
##itrogen
##itron
##its
##itt
##itter
##itting
##itu
##itud
##itude
##itudes
##itudinal
##ity
##itz
##itzer
##ium
##ius
##iv
##ival
##ivalent
##ive
##ived
##iven
##iver
##ivered
##ivers
##ives
##ividual
##iving
##ivity
##ivo
##ix
##ixed
##ixel
##iz
##izability
##izable
##ization
##izations
##ize
##ized
##izer
##izers
##izes
##izing
##j
##ja
##je
##ject
##jected
##jection
##jective
##jects
##jet
##ji
##jiang
##jin
##jing
##jj
##jk
##jm
##jn
##jo
##joint
##jug
##k
##kB
##ka
##kb
##ke
##kel
##kele
##ken
##ker
##kes
##ket
##key
##kg
##kh
##ki
##kin
##king
##kj
##kk
##kl
##kle
##km
##kn
##knowled
##knowledge
##known
##ko
##kov
##kr
##ks
##kt
##kx
##ky
##l
##la
##lab
##label
##labeled
##labelled
##lact
##lactam
##lag
##lam
##lamm
##lan
##land
##lands
##lar
##large
##las
##lass
##last
##lastic
##lasts
##late
##lated
##lation
##lational
##law
##lay
##layer
##ld
##le
##leading
##lear
##lease
##lec
##lect
##lected
##lectic
##lecting
##lection
##lective
##lectivity
##lecular
##lecule
##lecules
##led
##left
##leg
##leigh
##lement
##lemental
##lementary
##lements
##len
##length
##ler
##lers
##les
##less
##let
##lete
##lets
##lett
##lev
##levant
##level
##lex
##ley
##li
##lic
##lication
##lice
##lich
##lick
##lied
##lier
##liers
##lies
##liest
##life
##lig
##light
##like
##lim
##limited
##limiting
##lin
##line
##linear
##linearity
##lined
##lines
##ling
##link
##linked
##linking
##links
##lip
##lipid
##liquid
##lis
##lish
##lished
##lishing
##lit
##lived
##lk
##ll
##lla
##lm
##ln
##lo
##load
##loaded
##loading
##loc
##local
##location
##lock
##locked
##log
##lon
##long
##look
##loop
##lor
##loss
##lot
##low
##lower
##ls
##lu
##luded
##luding
##luent
##lux
##ly
##lying
##lyl
##lympus
##lys
##lysis
##m
##mL
##mM
##ma
##mac
##made
##magn
##main
##mal
##male
##man
##mann
##map
##mark
##marked
##mas
##mass
##mat
##matched
##matching
##math
##matic
##matrix
##max
##maximum
##mb
##mc
##md
##me
##mean
##meas
##measure
##measured
##med
##medi
##media
##mediate
##mediated
##mediately
##mega
##mel
##mem
##membrane
##memory
##ment
##mentation
##mented
##mentioned
##ments
##mer
##merc
##mes
##met
##metal
##meth
##method
##methyl
##metic
##mg
##mi
##mic
##micro
##mid
##middle
##midt
##mill
##min
##ming
##ministration
##mission
##mit
##mitt
##mitted
##mium
##mix
##mj
##mk
##ml
##mm
##mma
##mmol
##mn
##mo
##mod
##mode
##model
##modified
##mol
##molecular
##molecule
##mon
##monary
##more
##most
##mp
##ms
##mt
##mu
##multi
##mun
##mut
##my
##n
##na
##nai
##nal
##nan
##nas
##nat
##natural
##nc
##nce
##nd
##nder
##ne
##nec
##necess
##ned
##neg
##negative
##neighbor
##nel
##ner
##ners
##nes
##ness
##net
##network
##neum
##neutral
##new
##ney
##ng
##ni
##night
##ning
##nit
##nitro
##nj
##nk
##nl
##nm
##nn
##no
##node
##noise
##non
##norm
##normal
##not
##note
##nov
##np
##nr
##ns
##nt
##nu
##nucle
##number
##ny
##o
##ob
##obacter
##obacteria
##obal
##obenz
##obi
##obic
##obile
##oblast
##obs
##obut
##oc
##ocal
##ocation
##occup
##ocene
##och
##ochastic
##oche
##ochemical
##ochemistry
##ochond
##ochrom
##ochrome
##oci
##ociated
##ociation
##ociety
##ock
##ocking
##ocl
##oco
##ococ
##ococcus
##oct
##ocus
##ocused
##ocusing
##ocyan
##ocyanate
##ocyt
##ocyte
##ocytes
##ocytosis
##od
##oda
##odal
##odd
##ode
##odec
##oded
##oder
##odes
##odi
##odic
##odies
##oding
##odium
##ods
##ody
##odynamic
##oe
##oelectric
##of
##off
##ofib
##ofl
##oform
##og
##ogel
##ogen
##ogene
##ogeneity
##ogeneous
##ogenesis
##ogenic
##ogenicity
##ogenous
##ogens
##ogether
##oglobin
##ogly
##oglycan
##ogn
##ognition
##ogonal
##ogram
##ograms
##ograph
##ographed
##ographic
##ographical
##ographically
##ographs
##ography
##oh
##ohist
##ohl
##ohn
##oi
##oic
##oid
##oidal
##oids
##oil
##oin
##oint
##ok
##oke
##oked
##okes
##oking
##oks
##ol
##ola
##olar
##olate
##old
##olds
##ole
##olecular
##oles
##olester
##oli
##olic
##olin
##oline
##olip
##olite
##olith
##olium
##olk
##oll
##ollary
##ollen
##ollow
##olo
##olog
##ologic
##ological
##ologically
##ologies
##ology
##olor
##ols
##oluble
##oluminescence
##olution
##olved
##oly
##olymer
##olymers
##olysis
##olytic
##om
##oma
##omain
##omal
##omatic
##omb
##ome
##omen
##oment
##omer
##omeric
##omers
##omes
##omet
##ometer
##ometers
##ometh
##omethane
##omething
##omethyl
##ometric
##ometrically
##ometry
##omial
##omic
##omics
##oming
##omit
##omm
##omo
##omon
##omonas
##omorph
##omorphic
##omorphism
##omp
##ompati
##omplex
##omponent
##ompos
##omposition
##oms
##omy
##omyc
##omycin
##on
##ona
##onal
##onate
##ond
##onder
##ondo
##ondon
##one
##oned
##onent
##onents
##ones
##oney
##ong
##oni
##onic
##onical
##onin
##onine
##oning
##onitrile
##onium
##only
##onom
##onomic
##onomous
##ons
##onset
##ont
##ontrol
##onucle
##onuclear
##ony
##onyl
##oo
##ood
##ool
##oor
##oot
##op
##opath
##ope
##oped
##open
##oper
##operative
##opes
##oph
##ophag
##ophen
##ophenyl
##ophil
##ophilic
##ophore
##ophores
##ophosph
##ophosphate
##ophyl
##ophyll
##ophysical
##opic
##oping
##opl
##oplas
##oplastic
##ople
##opoly
##opro
##oprop
##opropyl
##oprotein
##ops
##opt
##optic
##optical
##optim
##optimal
##opulation
##opy
##opyr
##opyran
##or
##ora
##orage
##oral
##oration
##orb
##orbed
##orbit
##ord
##ordan
##order
##ordered
##ordering
##orders
##ordinate
##ordon
##ore
##ored
##oreg
##oren
##orent
##orentz
##orer
##ores
##orescence
##oresis
##oretic
##org
##organ
##organic
##organization
##organized
##ori
##oric
##orient
##orientation
##oriented
##ories
##orig
##oring
##ork
##orld
##orm
##ormal
##orn
##orous
##orov
##orph
##orphic
##orphous
##orption
##orr
##ors
##ort
##orted
##orter
##orth
##orthy
##orting
##ortion
##ortions
##orts
##ortun
##ortunately
##orubicin
##orus
##ory
##os
##osa
##osal
##osan
##osc
##oscope
##ose
##osecond
##osed
##osen
##oser
##oses
##osh
##osidase
##oside
##osin
##osine
##osing
##osis
##osition
##osity
##osm
##osol
##osols
##osomal
##osome
##osomes
##osp
##ospace
##osph
##osphere
##ospheric
##ospital
##oss
##ost
##ostasis
##ostat
##ostatic
##oster
##osteric
##ostic
##osure
##osyl
##ot
##ota
##otal
##otation
##ote
##oted
##oter
##oters
##otes
##oth
##othe
##othelial
##other
##otherapy
##othermal
##oti
##otic
##otin
##oting
##oto
##otonic
##otopic
##otor
##otox
##otoxic
##otoxicity
##otrans
##otri
##otrop
##otropic
##ots
##ott
##ottom
##otyp
##otype
##ou
##oub
##oubtedly
##ough
##ould
##oun
##ound
##oung
##ount
##our
##ource
##ources
##oured
##ournal
##ours
##ous
##ouse
##ously
##oustic
##out
##outh
##outhern
##output
##ov
##ova
##oval
##ovascular
##ove
##over
##overl
##overy
##oves
##ovine
##ovsk
##ow
##ower
##owever
##own
##ows
##owski
##ox
##oxacin
##oxane
##oxia
##oxic
##oxicity
##oxid
##oxidant
##oxidase
##oxidation
##oxide
##oxin
##oxo
##oxy
##oxygen
##oxyl
##oxylin
##oxyp
##oy
##oyl
##oz
##p
##pH
##pa
##pack
##pair
##pan
##par
##parallel
##parameter
##parameters
##paration
##pared
##part
##particle
##particles
##parts
##pass
##path
##pc
##pd
##pe
##peak
##pec
##pecially
##pect
##pective
##pectives
##pen
##pent
##peptide
##per
##performance
##period
##periodic
##pers
##pert
##pes
##pet
##pez
##pf
##ph
##pha
##phal
##phase
##phen
##phenyl
##phone
##phosph
##phosphate
##phot
##photon
##phthal
##physical
##pi
##pic
##pin
##pite
##pixel
##pj
##pk
##pl
##placement
##plane
##plas
##plastic
##plate
##platin
##play
##ple
##plet
##plex
##plot
##plus
##pm
##pn
##po
##point
##points
##pol
##polar
##polarized
##poly
##polymer
##pon
##ponential
##poor
##por
##port
##pos
##pose
##posed
##position
##positions
##positive
##post
##pot
##potential
##pow
##power
##pp
##pped
##pping
##ppler
##ppm
##pq
##pr
##pre
##pread
##prec
##preced
##pres
##present
##pressed
##pressure
##print
##printing
##prints
##prise
##prisingly
##pro
##process
##processed
##processing
##product
##products
##prof
##prol
##proliferative
##prom
##prop
##proper
##prot
##protected
##protein
##ps
##pt
##ption
##pulse
##pur
##put
##py
##pyr
##q
##qi
##qu
##quad
##quality
##que
##queous
##ques
##quet
##quin
##quist
##r
##ra
##rab
##rac
##rad
##radi
##radiation
##raft
##rafts
##ral
##ram
##ramb
##rams
##ran
##random
##rane
##rang
##range
##rangian
##ranging
##rank
##rap
##raph
##rared
##ras
##rastructure
##rate
##rated
##ratic
##ratio
##raulic
##raw
##ray
##rays
##raz
##rb
##rc
##rd
##re
##rea
##reactive
##read
##ready
##real
##rease
##reased
##reasing
##rec
##recip
##rect
##rected
##rection
##red
##reduction
##ree
##reement
##ref
##reference
##reg
##region
##regn
##regular
##regulated
##regulation
##rehen
##rel
##related
##relation
##relations
##relative
##release
##ren
##rence
##rene
##rent
##rep
##represented
##requ
##requency
##rer
##res
##resh
##reshold
##resid
##resistance
##resistant
##resolution
##resolved
##reson
##resp
##respective
##respectively
##respon
##respond
##responding
##response
##responsive
##ress
##ressed
##ressing
##ression
##ressive
##rest
##restrial
##ret
##rete
##reted
##retion
##rett
##rex
##rh
##ri
##ria
##rib
##ric
##rical
##rically
##rices
##rich
##riched
##rick
##rid
##rie
##ried
##rief
##ries
##rig
##right
##ril
##rile
##rim
##rimin
##rin
##rine
##ring
##rinted
##rints
##rip
##ris
##rit
##rite
##rites
##ritic
##rix
##rk
##rm
##rn
##ro
##road
##rob
##roc
##rock
##rocyte
##rocytes
##rod
##rog
##rogate
##rogen
##rogenic
##roid
##roids
##rol
##role
##roleum
##roll
##rolog
##rology
##rom
##romagnetic
##romatic
##rome
##romo
##ron
##ronectin
##ronic
##ront
##room
##rop
##roph
##rophic
##rophy
##ropic
##ropri
##ropriate
##ropy
##ror
##ros
##roscop
##roscope
##roscopic
##roscopy
##rose
##rosine
##rosion
##rosp
##ross
##rost
##rot
##rough
##rought
##round
##roup
##rous
##row
##rowave
##rowing
##rown
##rows
##rowth
##rox
##rp
##rr
##rs
##rt
##ru
##ruit
##rum
##run
##rup
##ry
##rying
##ryp
##ryst
##rystal
##rystall
##rystalline
##rystals
##s
##sa
##sal
##sample
##sc
##scale
##scan
##sch
##scher
##science
##scill
##sd
##se
##sec
##second
##section
##sectional
##sed
##see
##seed
##segment
##selected
##selective
##self
##sem
##sen
##sensitive
##separ
##sequ
##sequence
##sequent
##sequently
##ser
##series
##ses
##set
##sets
##seud
##sey
##sh
##shaped
##sharing
##she
##sheet
##shell
##shift
##short
##shot
##shown
##si
##sia
##sian
##sibility
##sible
##sibly
##side
##sided
##sight
##sign
##signal
##sil
##sim
##similar
##sin
##since
##sing
##single
##sion
##sip
##sis
##site
##sities
##sive
##siveness
##sivity
##size
##sized
##sj
##sk
##ski
##sky
##sl
##sm
##small
##sn
##so
##soft
##sol
##solid
##soluble
##some
##son
##sor
##source
##sover
##sp
##space
##spec
##species
##specific
##spectrum
##speed
##spin
##spl
##spring
##squ
##square
##squared
##squares
##sr
##ss
##st
##stable
##stad
##stage
##stained
##stalk
##stand
##standard
##standing
##stant
##star
##stat
##state
##states
##static
##station
##stationary
##ste
##sted
##stein
##sten
##step
##ster
##stim
##stit
##stituted
##sto
##stock
##stone
##str
##stract
##strain
##strand
##stranded
##strate
##stre
##stream
##stress
##strom
##strong
##structure
##structured
##su
##sub
##such
##sulf
##sum
##sup
##super
##supp
##supported
##sur
##sure
##surface
##sus
##sw
##sy
##symmetric
##syn
##system
##t
##ta
##table
##tag
##tage
##tagged
##tail
##tain
##tained
##taining
##take
##tal
##tan
##tance
##target
##targeted
##tation
##tc
##td
##te
##ted
##teen
##tein
##temperature
##temporal
##ten
##tenance
##teness
##tension
##tention
##ter
##tered
##tering
##terior
##terious
##term
##termin
##terminal
##terminus
##tern
##ternal
##ters
##tes
##test
##tet
##tetra
##tex
##text
##th
##thal
##that
##the
##theless
##then
##ther
##there
##thermal
##thern
##thi
##thick
##thing
##third
##this
##though
##three
##threshold
##through
##throughput
##ti
##tia
##tial
##tian
##tiary
##tible
##tic
##tical
##tically
##tice
##tices
##ticity
##ticle
##ticles
##tics
##tid
##tide
##tidine
##tier
##ties
##tif
##tiff
##tification
##tified
##tig
##til
##tile
##tiles
##tilis
##tility
##till
##tilled
##tim
##timated
##time
##times
##tin
##ting
##tingu
##tio
##tion
##tional
##tions
##tious
##tip
##tir
##tis
##tissue
##tit
##tite
##titial
##tition
##titions
##titive
##titude
##titudes
##tium
##tiv
##tive
##tiveness
##tives
##tivities
##tivity
##tization
##tized
##tizing
##tj
##tk
##tl
##tle
##tm
##tn
##to
##tol
##ton
##top
##tor
##tot
##total
##totic
##tr
##tra
##tran
##trans
##transfer
##transferase
##transformed
##tration
##tre
##treat
##treated
##treatment
##tri
##tric
##trig
##trivial
##tron
##true
##ts
##tt
##ttp
##tu
##tumor
##ture
##tures
##turing
##turn
##tw
##two
##ty
##typ
##type
##typically
##tz
##u
##ua
##ual
##ually
##uals
##uan
##uary
##uate
##uated
##uation
##ub
##ube
##uber
##ubes
##ubic
##ubicin
##uble
##ublic
##uc
##uccess
##uccessful
##uce
##uced
##uch
##uche
##uchi
##uchy
##ucifer
##uciferase
##ucine
##uck
##ucl
##ucle
##uclear
##ucleotide
##uclide
##uclidean
##uct
##uction
##ud
##ude
##udes
##ue
##ued
##uel
##uent
##uents
##uer
##ues
##uff
##ug
##uge
##ugh
##ught
##ughter
##ugin
##ui
##uit
##uits
##uj
##uk
##ukary
##uker
##uki
##ul
##ula
##ulant
##ular
##ularities
##ulate
##ulated
##ulates
##ulating
##ulation
##ulations
##ulative
##ulator
##ulators
##ulatory
##uld
##ule
##uled
##ulence
##uler
##ules
##ulf
##ulfide
##uli
##ulic
##ulin
##uling
##ull
##ulos
##ulose
##ulse
##ulsion
##ulsive
##ult
##ultaneous
##ulti
##ulting
##ults
##ultural
##ulture
##ulum
##ulus
##uly
##um
##uman
##umann
##umar
##umb
##umber
##ume
##umed
##umen
##umer
##umes
##umin
##umination
##uminescence
##uming
##umm
##umn
##umor
##ump
##umption
##umptions
##un
##unc
##unch
##unct
##unction
##unctional
##unctions
##und
##undant
##under
##undred
##une
##uned
##ung
##uniform
##uning
##unit
##unk
##unov
##unt
##unte
##unter
##unting
##uous
##up
##uple
##upp
##upper
##ups
##ur
##ura
##urable
##ural
##urally
##uran
##urance
##urate
##uration
##urations
##urb
##urban
##urbed
##ure
##urea
##ured
##ures
##urface
##urg
##uric
##urine
##uring
##uristic
##urity
##urn
##urning
##uron
##urrent
##urt
##urther
##ury
##us
##usc
##use
##used
##ush
##ushed
##ushing
##using
##usion
##usive
##usk
##uspended
##uss
##ust
##usted
##uster
##ustered
##usters
##ustion
##usually
##ut
##utable
##utation
##utations
##ute
##uted
##uter
##utes
##uth
##uther
##utin
##uting
##ution
##utions
##utive
##utral
##uts
##utter
##uture
##uty
##uv
##uvate
##ux
##uy
##uz
##v
##va
##vable
##vac
##val
##valence
##vals
##value
##valued
##values
##van
##vance
##vant
##var
##vari
##variable
##variant
##varying
##vas
##vasive
##vated
##vation
##ve
##vector
##vectors
##ved
##vel
##velop
##ven
##veness
##vent
##vention
##ventional
##vents
##ver
##verage
##vere
##vered
##vern
##vers
##versal
##verse
##versely
##version
##versity
##very
##ves
##vestig
##vex
##vey
##vi
##via
##vian
##viation
##vic
##vier
##view
##ville
##vin
##ving
##vinyl
##vious
##viously
##vir
##viron
##vironment
##vis
##vised
##vision
##vity
##vj
##vk
##vn
##vo
##vol
##voltage
##volume
##volution
##vs
##vy
##w
##wa
##wal
##wald
##wall
##war
##ward
##wards
##ware
##was
##water
##wave
##wavelength
##way
##ways
##we
##weak
##weight
##weighted
##well
##welling
##went
##wer
##wh
##what
##when
##where
##which
##while
##white
##wi
##wich
##wide
##width
##win
##wind
##wing
##wise
##with
##within
##without
##wn
##wo
##wood
##work
##workers
##world
##ws
##wt
##ww
##www
##x
##xi
##xim
##xin
##xj
##xk
##xl
##xm
##xn
##xp
##xs
##xt
##xx
##xy
##y
##ya
##yan
##yc
##ycin
##ycl
##ycle
##yclic
##ycline
##yd
##ye
##year
##yer
##yes
##ygen
##yi
##ying
##yj
##yl
##ylate
##ylated
##ylation
##yle
##ylene
##yll
##ylon
##ym
##ymal
##ymmet
##ymmetric
##ymmetry
##ymp
##yn
##ynam
##ynamic
##ynchron
##ynes
##yo
##yp
##ype
##ypt
##yr
##yrene
##yrin
##ys
##ysi
##ysiological
##yst
##ystem
##ystems
##yt
##yte
##ytes
##ytic
##yx
##yz
##z
##za
##zation
##ze
##zed
##zen
##zer
##zero
##zes
##zhou
##zi
##zing
##zk
##zn
##zo
##zon
##zone
##zu
##zy
##zyme
##zymes
##zz
##{
##|
##|)
##|,
##|.
##|2
##||
##}
##})
##},
##}.
##~
##©
##­
##®
##°
##°,
##°.
##±
##±0.
##±0.0
##±1
##·
##··
##···
##Ã
##Å
##×
##×10
##á
##â
##ä
##é
##én
##ñ
##ö
##ör
##ø
##ü
##ück
##Ĥ
##ħ
##ɛ
##ˆ
##̂
##̃
##̄
##̅
##̇
##Γ
##Δ
##Θ
##Λ
##Ξ
##Π
##Σ
##Υ
##Φ
##Ψ
##Ω
##α
##αβ
##β
##γ
##δ
##ε
##ζ
##η
##θ
##ι
##κ
##λ
##μ
##μν
##ν
##ξ
##π
##ρ
##σ
##τ
##υ
##φ
##χ
##ψ
##ω
##‐
##–
##–(
##–1
##–1.
##–10
##–100
##–11
##–12
##–13
##–14
##–15
##–16
##–17
##–18
##–19
##–2
##–20
##–200
##–21
##–22
##–23
##–24
##–25
##–26
##–28
##–3
##–30
##–32
##–33
##–34
##–35
##–4
##–40
##–44
##–5
##–50
##–6
##–60
##–7
##–70
##–8
##–80
##–9
##–[
##––
##—
##——
##‖
##‘
##’
##’)
##’,
##’.
##“
##”
##”)
##”),
##”).
##”,
##”.
##†
##‡
##•
##′
##′(
##′)
##′),
##′,
##′-
##′.
##′2
##′′
##⃗
##←
##↑
##→
##→∞
##↓
##↔
##∀
##∂
##∇
##∈
##∏
##∑
##−
##−(
##−)
##−,
##−1
##−1(
##−1)
##−1),
##−1).
##−1,
##−1.
##−1/2
##−2
##−2)
##−3
##−4
##−=
##−→
##−−
##∓
##∕
##∗
##∗(
##∗)
##∗,
##∘
##∙
##√
##∝
##∞
##∞(
##∞)
##∞,
##∣
##∣∣
##∥
##∧
##∩
##∪
##∫
##∼
##≃
##≅
##≈
##≠
##≡
##≤
##≥
##≥0
##≪
##≫
##⊂
##⊕
##⊗
##⊙
##⊥
##⋅
##⋆
##⋯
##□
##○
##⟨
##⟩
##〈
##〉
##〉,
##〉.
$
%
%)
%),
%).
%,
%.
&
(
(#
(%
(%)
((
()
(*
(+
(+)
(-
(0
(0)
(0,
(0.
(0.0
(0.00
(0.01
(0.1
(0.2
(0.3
(0.4
(0.5
(0.6
(0.7
(0.8
(0.9
(1
(1)
(1),
(1).
(1,
(1-
(1.0
(1.1
(1.1)
(1.2
(1.3
(1.4
(1.5
(1/
(10
(10)
(10),
(10).
(10,
(100
(11
(11)
(11),
(11).
(12
(12)
(12),
(12).
(13
(13)
(13),
(13).
(14
(14)
(14),
(14).
(15
(15)
(15).
(150
(16
(16)
(17
(17)
(18
(18)
(19
(19)
(197
(198
(199
(1:
(1−
(2
(2)
(2),
(2).
(2,
(2-
(2.1
(2.1)
(2.2
(2.3
(2.4
(2.5
(20
(20)
(200
(2010)
(2011)
(2012)
(2013)
(2014)
(2015)
(2016)
(2017)
(21
(21)
(22
(22)
(23
(23)
(24
(24)
(25
(25)
(26
(26)
(27
(27)
(28
(28)
(29
(29)
(3
(3)
(3),
(3).
(3,
(3.1
(3.2
(3.3
(3.4
(30
(30)
(300
(31)
(32
(32)
(33
(33)
(34
(34)
(35
(35)
(36
(36)
(37
(37)
(38
(38)
(39)
(4
(4)
(4),
(4).
(4,
(4.1
(4.2
(4.3
(40
(40)
(400
(41)
(42)
(43)
(44)
(45
(45)
(46)
(5
(5)
(5),
(5).
(5,
(5.1
(50
(500
(6
(6)
(6),
(6).
(6,
(60
(65
(7
(7)
(7),
(7).
(70
(75
(8
(8)
(8),
(8).
(80
(9
(9)
(9),
(9).
(90
(95
(<
(=
(>
([
(|
(~
(±
(‘
(“
(∂
(−
(∼
(≥
)
),
).
*
**
***
+
+1
+2
,
-
.
..
...
...,
/
0
0%
0)
0),
0).
0,
0.
0.0
0.00
0.000
0.001
0.001,
0.002
0.003
0.004
0.005
0.01
0.01)
0.01,
0.02
0.025
0.03
0.04
0.05
0.05%
0.05)
0.05).
0.05,
0.05.
0.06
0.07
0.08
0.09
0.1
0.1%
0.1,
0.10
0.11
0.12
0.13
0.14
0.15
0.16
0.17
0.18
0.19
0.2
0.2%
0.20
0.21
0.22
0.23
0.24
0.25
0.26
0.27
0.28
0.29
0.3
0.30
0.31
0.32
0.33
0.34
0.35
0.36
0.37
0.38
0.39
0.4
0.40
0.42
0.43
0.44
0.45
0.46
0.47
0.48
0.49
0.5
0.5%
0.5,
0.50
0.53
0.54
0.55
0.56
0.57
0.58
0.59
0.6
0.60
0.63
0.64
0.65
0.66
0.67
0.68
0.69
0.7
0.70
0.72
0.73
0.74
0.75
0.76
0.77
0.78
0.79
0.8
0.80
0.82
0.83
0.84
0.85
0.86
0.87
0.88
0.89
0.9
0.90
0.91
0.92
0.93
0.94
0.95
0.96
0.97
0.98
0.99
00
000
03
09
0;
0]
0–
1
1%
1(
1)
1),
1).
1+
1,
1,2,
1-
1.
1.0
1.00
1.01
1.05
1.1
1.2
1.25
1.3
1.4
1.5
1.5%
1.6
1.7
1.8
1.9
1/
1/2
1/3
10
10%
10(
10)
10).
10,
10,000
10-
10.
10.0
10.10
10.3
10.4
10.5
100
100%
100,
100-
100.
1000
101
102
1024
103
104
105
106
107
108
109
10−
11
11%
11)
11).
11,
11-
11.
11.5
110
1100
111
112
113
114
115
116
117
118
119
12
12%
12)
12).
12,
12-
12.
12.0
12.5
120
1200
121
122
123
124
125
126
127
128
129
13
13%
13)
13).
13,
13.
130
131
132
133
134
135
136
137
138
139
14
14%
14)
14,
14.
140
141
142
143
144
145
146
147
148
149
15
15%
15)
15,
15-
15.
150
1500
151
152
153
154
155
156
157
158
159
16
16%
16)
16,
16-
16.
160
1600
161
162
163
164
165
166
167
168
169
17
17%
17,
17.
170
171
172
173
174
175
176
177
178
18
18%
18,
18.
180
184
185
188
19
19,
19.
190
192
193
195
196
1960
197
1970
198
1980
199
1990
1995
1996
1997
1998
1:
1:1
1;
1]
1}
1–
1–2
1–3
1−
2
2%
2(
2)
2),
2).
2+
2,
2-
2.
2.0
2.1
2.1.
2.2
2.2.
2.3
2.4
2.5
2.5%
2.6
2.7
2.8
2.9
2/
20
20%
20)
20,
20-
20.
20.0
200
2000
2000,
2001
2002
2003
2003,
2004
2004,
2005
2005,
2006
2006).
2006,
2007
2007).
2007,
2008
2008).
2008,
2009
2009).
2009,
2009;
2010
2010).
2010,
2010;
2011
2011).
2011,
2011;
2012
2012).
2012,
2012;
2013
2013)
2013).
2013,
2013;
2014
2014)
2014),
2014).
2014,
2014;
2015
2015)
2015).
2015,
2015;
2016
2016).
2016,
2016;
2017
2017).
2017,
2018
204
205
207
208
209
21
21,
21.
210
211
212
213
214
215
216
217
218
22
22%
22,
22.
220
223
224
225
226
227
228
23
23,
23.
230
233
234
235
237
238
24
24,
24-
24.
240
245
248
25
25%
25,
25.
250
2500
254
255
256
26
26,
26.
260
265
266
27
27,
270
275
278
28
28,
280
285
288
29
29,
290
293
295
298
299
2:
2;
2]
2].
2–
2–3
3
3%
3(
3)
3),
3).
3,
3-
3.
3.0
3.1
3.1.
3.2
3.2.
3.3
3.4
3.5
3.6
3.7
3.8
3.9
30
30%
30,
30-
30.
300
3000
305
308
30°
31
31,
310
313
315
316
318
32
32,
320
323
325
328
33
33%
33,
330
334
335
336
337
338
339
34
34,
340
345
35
35%
35,
350
36
36,
360
365
37
37,
370
375
37°
38
38,
380
39
390
3:
3;
3–
3′
4
4%
4(
4)
4),
4).
4,
4-
4.
4.0
4.1
4.1.
4.2
4.3
4.4
4.5
4.6
4.7
4.8
4.9
40
40%
40,
400
4000
405
41
410
42
42,
420
43
430
44
440
45
45%
45,
450
46
460
47
48
48,
480
488
49
4:
4°
5
5%
5(
5)
5),
5).
5,
5-
5.
5.0
5.1
5.2
5.3
5.4
5.5
5.6
5.7
5.8
5.9
50
50%
50,
50-
500
5000
51
510
512
52
53
54
540
55
55%
55,
550
56
57
58
59
5:
5′
5′-
6
6%
6(
6)
6),
6).
6,
6-
6.
6.0
6.1
6.2
6.3
6.4
6.5
6.6
6.7
6.8
6.9
60
60%
60,
600
6000
61
62
63
64
65
65%
650
66
67
68
69
6:
7
7%
7(
7)
7),
7).
7,
7-
7.
7.0
7.1
7.2
7.3
7.4
7.5
7.6
7.7
7.8
7.9
70
70%
70,
700
71
72
73
74
75
75%
75,
750
76
77
78
79
7:
8
8%
8(
8)
8),
8).
8,
8-
8.
8.0
8.1
8.2
8.3
8.4
8.5
8.6
8.7
8.8
80
80%
80,
800
81
82
83
84
85
85%
86
87
88
89
9
9%
9(
9)
9).
9,
9-
9.
9.0
9.1
9.2
9.3
9.4
9.5
90
90%
90,
900
91
92
93
94
95
95%
96
96-
97
98
98%
99
99%
:
;
<
</
<1
<10
=
>
?
@
A
AA
AB
ABA
ABC
ABSTRACT
AC
ACC
ACE
ACS
AD
ADC
ADP
AE
AES
AF
AFM
AG
AH
AI
AL
ALP
AM
AMP
AN
ANALYSIS
AND
ANN
ANOVA
AO
AP
APC
API
APP
AQ
AR
AS
ASA
ASC
ASD
AST
AT
ATCC
ATP
AU
AUC
AV
AZ
Ab
About
Above
Abstract
Ac
Academy
According
Accordingly
Acet
Acid
Act
Activation
Active
Activity
Actually
Ad
Adding
Addition
Additional
Additionally
Advanced
Aer
Af
Afric
After
Afterwards
Ag
Again
Agency
Agilent
Ai
Air
Ak
Al
Ala
Alex
Alexa
Alice
Alk
All
Almost
Along
Also
Altern
Alternatively
Although
Alzheimer
Am
Americ
America
American
Among
Ampl
An
Anal
Analog
Analy
Analyses
Analysis
Analytical
And
Anderson
Ang
Animal
Anne
Another
Ant
Anti
Any
Ap
Apart
App
Apparent
Appendix
Appl
Application
Applications
Applied
Applying
Appro
Approximately
Ar
Arch
Are
Area
Arg
Arm
As
Asp
Ass
Assay
Association
Assume
Assuming
At
Atomic
Att
Au
Aug
Aust
Australia
Aut
Av
Average
Award
Ax
Az
B
BA
BAL
BAS
BB
BBB
BC
BD
BE
BF
BG
BH
BI
BL
BM
BMI
BMP
BN
BO
BP
BR
BS
BSA
BT
BV
BW
BY
Ba
Back
Bal
Band
Bar
Barrett
Bas
Based
Basic
Bay
Bayesian
Be
Because
Before
Behavior
Beijing
Being
Bel
Bell
Below
Ben
Benz
Ber
Berg
Bern
Besides
Between
Beyond
Bi
Binding
Bio
Biological
Biom
Bios
Biot
Biotechnology
Bir
Bis
Bl
Black
Block
Blue
Bn
Bo
Bob
Bog
Boh
Boltzmann
Bon
Bond
Bor
Both
Br
Bra
Brazil
Bre
Briefly
Bro
Broad
Brown
Brownian
Brun
Bu
Bur
Burg
But
By
C
CA
CAM
CAP
CAS
CAT
CB
CC
CCD
CCS
CCT
CD
CDCl
CE
CEA
CER
CF
CFT
CFU
CG
CH
CHAR
CHF
CHO
CI
CK
CL
CM
CMOS
CMS
CN
CNS
CNT
CNTs
CO
COD
COM
CONCLUSION
CONCLUSIONS
COS
CP
CPT
CPU
CQ
CR
CS
CSA
CSP
CT
CU
CV
CVD
CW
CX
CY
CYP
Ca
CaCl
Cal
Calc
Calculation
California
Cam
Cambridge
Camp
Can
Canada
Cancer
Cap
Car
Carb
Carbon
Care
Carl
Carlo
Cart
Cartesian
Cas
Case
Cast
Cat
Cauchy
Cd
Ce
Cel
Cell
Cells
Cellular
Cent
Center
Central
Centre
Cer
Certain
Cf
Ch
Chain
Chan
Chand
Chang
Change
Changes
Char
Characteristics
Che
Chem
Chemical
Chemicals
Chemistry
Chen
Cheng
Chern
Chi
China
Chinese
Chlor
Cho
Chrom
Chromat
Ci
Circ
Cl
Class
Cle
Clearly
Close
Cluster
Cm
Cn
Co
Col
Cole
Coll
Collection
Color
Column
Com
Comb
Combined
Combining
Commercial
Commission
Committee
Common
Communication
Comp
Company
Compar
Compared
Comparing
Comparison
Comparisons
Complete
Complex
Components
Composition
Compound
Compounds
Computational
Con
Concentration
Concerning
Conclusions
Conditions
Conf
Consequently
Consid
Consider
Considering
Consistent
Constant
Cont
Contact
Content
Continu
Continuous
Contr
Contrary
Control
Conventional
Conversely
Cooper
Copyright
Cor
Core
Corollary
Corp
Corporation
Correlation
Corresponding
Coulomb
Council
Cox
Cp
Cr
Cre
Critical
Cross
Cry
Crystal
Crystall
Cs
Ct
Cu
Culture
Cur
Current
Currently
Cy
Cyc
Cycl
Cys
Cyt
Cz
D
DA
DAC
DAP
DAPI
DB
DBP
DC
DCM
DD
DE
DEM
DEP
DES
DF
DFT
DG
DH
DHA
DI
DIC
DISCUSSION
DL
DM
DMEM
DMF
DMSO
DN
DNA
DNS
DO
DOI
DOX
DP
DPP
DQ
DR
DS
DSC
DSS
DT
DTT
DU
DV
DW
DY
Da
Dal
Dat
Data
Dav
De
Dec
Def
Definition
Deg
Del
Dem
Den
Density
Dep
Department
Depending
Der
Deriv
Des
Design
Despite
Det
Detailed
Details
Detection
Determination
Development
Device
Devices
Dex
Di
Diff
Differences
Different
Differential
Diffusion
Dig
Digital
Dimension
Dir
Dirac
Direct
Dirichlet
Dis
Disc
Discussion
Dist
Distribution
Div
Dn
Do
Don
Doppler
Double
Dow
Dr
Dri
Drug
Dry
Ds
Du
Dual
Due
Dul
Dun
During
Dy
Dynamic
Dynamics
E
EA
EB
EC
ECG
ECL
ECM
ECs
ED
EDTA
EE
EEG
EF
EG
EGF
EGFR
EH
EI
EL
ELISA
EM
EN
EO
EP
EPR
EPS
EQ
ER
ES
ESI
ESR
ET
EU
EV
EW
EX
EXPERIMENT
Each
Eagle
Ear
Earlier
Early
Earth
Eb
Ec
Eco
Ed
Educ
Education
Ef
Eff
Effect
Effective
Effects
Efficiency
Efficient
Eg
Ei
Einstein
Ek
El
Electric
Electrical
Electro
Electron
Electronic
Electronics
Element
Elsevier
Em
En
End
Energy
Engineering
Enhanced
Ent
Environment
Environmental
Ep
Eq
Eqs
Equ
Equation
Equations
Er
Error
Es
Escherichia
Especially
Ess
Estim
Et
Eth
Eu
Euclidean
Euler
Europe
European
Ev
Evaluation
Even
Event
Every
Evidence
Evolution
Ex
Example
Examples
Exc
Except
Exchange
Exp
Experim
Experiment
Experimental
Experiments
Expl
Exposure
Expression
Ext
Extensive
F
FA
FB
FBS
FC
FCS
FD
FDA
FE
FEM
FF
FFT
FG
FH
FI
FIG
FIR
FITC
FL
FM
FN
FO
FOR
FP
FR
FRET
FS
FT
FTIR
FW
Fa
Fab
Fac
Facility
Far
Fast
Fc
Fe
Fer
Fermi
Fi
Fib
Field
Fig
Figs
Figure
Figures
Fil
Fin
Final
Finally
Fine
Finite
First
Firstly
Fischer
Fisher
Five
Fl
Flex
Flo
Flow
Flu
Fluor
Fluorescence
Fm
Fn
Fo
Following
For
Force
Form
Formation
Fortunately
Found
Foundation
Four
Fourier
Fr
Fra
Fraction
France
Frank
Fre
Free
Frequency
Fried
From
Fu
Fuk
Ful
Full
Function
Functional
Fund
Further
Furthermore
Future
G
GA
GAG
GB
GC
GD
GE
GF
GFP
GG
GH
GHz
GI
GL
GM
GN
GO
GP
GPU
GR
GRO
GS
GSH
GST
GT
GTP
GW
Ga
GaAs
GaN
Gal
Gao
Gas
Gauss
Gaussian
Gd
Ge
GeV
Gel
Gem
Gen
Gene
Gener
General
Generally
Generation
Germ
German
Germany
Gi
Gib
Gibbs
Given
Gl
Glass
Global
Glu
Gly
Gmb
GmbH
Gn
Go
Gold
Good
Gr
Gra
Gram
Grant
Graph
Gre
Green
Gro
Group
Growth
Gu
Guang
Guo
Gy
H
HA
HB
HC
HCC
HCT
HCl
HD
HE
HEK
HEPES
HER
HF
HG
HH
HI
HIF
HIV
HK
HL
HM
HN
HO
HP
HPA
HPLC
HR
HRMS
HRP
HS
HT
HU
HUV
HV
HY
Ha
Had
Hal
Hall
Ham
Hamilton
Hamiltonian
Han
Har
Hard
Hart
Having
Hay
Hb
He
HeLa
Health
Heat
Hel
Hem
Hen
Hence
Henry
Hep
HepG
Her
Here
Herein
Herm
Hes
Heter
Hf
Hg
Hi
Hig
Higgs
High
Higher
Hilbert
Hill
Hir
His
Hist
Ho
Hoff
Hol
Hom
Hong
Hop
Hor
Hot
How
However
Hs
Hu
Huang
Hug
Hum
Human
Hy
Hybrid
Hyd
Hydro
Hydrogen
Hyper
Hz
I
IA
IB
IC
ICP
ICT
ID
IE
IF
IFN
IG
II
III
IL
IM
IMF
IN
INS
INT
INTRODUCTION
IO
IP
IR
IS
ISO
IT
IU
IV
IX
Ia
Ib
Id
Ide
Ideally
If
Ig
IgG
Ill
Im
Image
Images
Imaging
Immun
Imp
Impact
Import
Importantly
Impro
In
Inc
Increased
Increasing
Ind
Indeed
Index
India
Individual
Industrial
Industry
Inf
Influence
Information
Inhib
Initi
Initial
Initially
Innov
Ins
Inst
Instead
Instit
Institute
Instrument
Instruments
Int
Integrated
Inter
Interaction
Interactions
Interestingly
Interface
Intern
International
Introduction
Investig
Investigation
Ion
Ip
Ir
Iron
Is
Iso
It
Italy
Its
Iz
J
JA
JC
JH
JP
JT
Jacob
Jacobian
Jan
Japan
Je
Jeff
Ji
Jiang
Jo
John
Johnson
Jones
Jose
Joseph
Just
K
KA
KB
KC
KCl
KD
KE
KF
KH
KI
KL
KM
KO
KP
KR
KS
KT
Ka
Kal
Kap
Kar
Kd
Ke
Kel
Key
Ki
Kim
King
Kir
Kit
Kle
Klein
Km
Kn
Ko
Kore
Korea
Kr
Kra
Kre
Ku
Kur
Ky
L
LA
LB
LC
LD
LDA
LDH
LE
LED
LF
LG
LH
LI
LJ
LL
LLC
LM
LN
LO
LOD
LP
LPS
LR
LS
LT
LU
LV
LW
LY
La
Lab
Laboratories
Laboratory
Lag
Lagrange
Lagrangian
Lam
Land
Langmuir
Lapl
Laplace
Laplacian
Lar
Large
Laser
Last
Lastly
Later
Law
Layer
Le
Lead
Lee
Left
Leg
Lemma
Let
Leu
Lev
Level
Lewis
Li
Lie
Life
Light
Like
Likewise
Lim
Lin
Lind
Line
Linear
Lip
Liu
Ln
Lo
Local
Log
London
Long
Lorentz
Loss
Lou
Louis
Low
Lower
Lp
Ltd
Lu
Ly
Lyapunov
Lys
M
MA
MALDI
MAP
MAS
MAT
MATLAB
MAX
MB
MC
MCF
MCM
MCP
MCS
MD
MDA
MDR
ME
MEMS
MES
MET
METHOD
METHODS
MF
MG
MH
MHz
MI
MIC
MIL
MIM
MIP
MIS
MIT
MJ
MK
ML
MM
MMP
MN
MO
MOD
MODEL
MOS
MOSFET
MP
MPC
MPI
MPa
MR
MRI
MS
MSA
MSC
MSCs
MT
MTT
MTX
MU
MV
MW
MZ
Ma
Mac
Mach
Mad
Mag
Magn
Magnetic
Main
Major
Mal
Man
Mann
Many
Mar
Marc
Mark
Markov
Mart
Mass
Mat
Material
Materials
Matlab
Matrix
Max
Maximum
Maxwell
May
Mb
Mc
Me
MeOH
MeV
Mean
Meanwhile
Measure
Measurement
Measurements
Mechan
Mechanical
Mechanism
Med
Medical
Medium
Mel
Membrane
Mer
Merck
Mes
Met
Metal
Method
Methods
Methyl
Mg
MgCl
Mi
Mic
Michael
Micro
Microscopy
Mid
Mil
Miller
Min
Mini
Ministry
Mit
Mix
Mixed
Mn
Mo
Mod
Mode
Model
Modeling
Models
Modified
Mol
Molecular
Mon
Monte
Mor
More
Moreover
Most
Mr
Ms
Mt
Mu
Much
Mul
Multi
Multiple
Mur
My
Mü
N
NA
NAC
NAD
NADH
NB
NC
ND
NE
NET
NF
NG
NGC
NH
NHS
NI
NIH
NIR
NJ
NK
NL
NM
NMR
NN
NO
NP
NPC
NPs
NR
NS
NSC
NT
NU
NV
NW
NY
Na
NaCl
NaH
NaOH
Nag
Nak
Namely
Nan
Nano
Nanos
Nat
National
Natural
Nature
Nb
Nc
Nd
Ne
Near
Neg
Negative
Neither
Net
Netherlands
Network
Neu
Neumann
Nevertheless
New
Newton
Next
Ng
Ni
Nic
Nit
No
Non
None
Nonetheless
Nor
Norm
Normal
North
Nos
Not
Notably
Note
Notice
Nov
Novel
Now
Nowadays
Np
Ns
Nt
Nu
Nucle
Nuclear
Number
Numer
Numerical
Numerous
Ny
O
OA
OB
OC
OCT
OD
OE
OF
OFF
OH
OL
OM
ON
OP
OR
OS
OT
OV
OVA
Ob
Observ
Observations
Obviously
Ocean
Oct
Of
Off
Office
Oh
Oil
Ol
Olig
On
Once
One
Only
Op
Open
Oper
Optical
Optim
Optimization
Or
Organ
Organic
Orig
Os
Other
Otherwise
Our
Out
Over
Overall
Owing
Ox
Oxford
Oxid
Oxygen
P
PA
PAC
PAH
PAM
PAN
PB
PBS
PC
PCA
PCB
PCM
PCP
PCR
PCS
PCs
PD
PDA
PDE
PDF
PDMS
PE
PEG
PET
PF
PFC
PG
PH
PI
PIC
PID
PIP
PK
PL
PLA
PM
PMA
PMS
PN
PO
PP
PPI
PQ
PR
PRO
PS
PSA
PSD
PSI
PT
PU
PV
PW
PY
PZ
Pa
Pack
Pal
Pan
Panel
Paper
Par
Parameter
Parameters
Park
Part
Partial
Particle
Particularly
Pas
Path
Paul
Pb
Pc
Pd
Pe
Peak
Pearson
Pel
Pen
Per
Percentage
Performance
Perhaps
Period
Pers
Pet
Petri
Pf
Ph
PhD
Pharm
Phase
Phe
Phen
Phosph
Phot
Photon
Phys
Physical
Physics
Pi
Pic
Pick
Pin
Pl
Planck
Plas
Plasma
Plus
Pm
Pn
Po
Point
Poisson
Pol
Polar
Poly
Polym
Polymer
Por
Port
Pos
Positive
Possible
Post
Pot
Potential
Power
Pp
Pr
Pre
Prec
Predic
Preliminary
Preparation
Pres
Presence
Pressure
Previous
Previously
Pri
Primary
Princip
Prior
Pro
Prob
Procedure
Process
Processing
Product
Production
Products
Prof
Professor
Program
Project
Prom
Proof
Prop
Proper
Properties
Proposed
Proposition
Prot
Protein
Proteins
Prov
Province
Ps
Pseud
Pseudomonas
Pt
Pu
Pub
Publishing
Pul
Pur
Pure
Purification
Py
Pyr
Q
QA
QC
QCD
QD
QDs
QR
Qi
Qu
Qual
Quantification
Quantitative
Quantum
R
RA
RAS
RB
RBC
RC
RD
RDF
RE
REM
RES
RESULTS
RF
RG
RGB
RH
RI
RL
RM
RMS
RMSE
RN
RNA
RNase
RO
ROI
ROS
RP
RPMI
RR
RS
RT
RV
RW
Ra
Rab
Rad
Radi
Radiation
Ram
Raman
Random
Rapid
Rate
Rather
Ratio
Raw
Ray
Rayleigh
Rb
Rd
Re
Reaction
Real
Rec
Recall
Recent
Recently
Red
Reduction
Ref
Reference
Refs
Reg
Regarding
Regardless
Region
Rel
Relationship
Relative
Release
Rem
Remark
Ren
Rep
Repe
Representative
Republic
Res
Resear
Research
Resistance
Reson
Response
Results
Ret
Rev
Rever
Review
Reynolds
Rf
Rh
Rhod
Ri
Ric
Rich
Richard
Richardson
Riemann
Right
Ring
River
Rm
Rn
Ro
Rob
Room
Ros
Ross
Rot
Rout
Roy
Royal
Rp
Rs
Ru
Run
Rus
Ry
S
SA
SAM
SAR
SB
SC
SCA
SCC
SCR
SD
SDS
SE
SEC
SEM
SER
SET
SF
SG
SH
SI
SIM
SIR
SK
SL
SM
SMA
SMC
SN
SNR
SO
SOC
SOD
SOL
SP
SPE
SQ
SR
SS
SSA
SSC
ST
STEM
STM
STR
STS
SU
SV
SW
SY
Sa
Sal
Sample
Samples
San
Sand
Santa
Sat
Sb
Sc
Scale
Scanning
Sch
Schematic
Scheme
Schmidt
Sci
Science
Sciences
Scientific
Se
Sec
Second
Secondary
Secondly
Section
Sections
See
Selected
Selective
Self
Separ
Sequ
Ser
Series
Set
Several
Sh
Shanghai
She
Shen
Shi
Short
Si
SiO
Sigma
Sign
Significant
Significantly
Sil
Silver
Sim
Similar
Similarly
Simple
Simulation
Simulations
Simultaneous
Sin
Since
Sing
Single
Site
Six
Size
Sk
Sl
Sm
Small
Smart
Smith
Sn
So
Society
Sodium
Soft
Software
Sol
Solar
Solid
Solution
Solutions
Some
Son
Sons
Source
South
Sox
Sp
Space
Spain
Span
Spatial
Spec
Special
Specific
Specifically
Spect
Spectral
Spectrum
Spin
Squ
Sr
St
Stability
Stable
Stage
Standard
Standards
Staphylococcus
Star
Starting
State
States
Statistical
Ste
Step
Stern
Still
Stock
Stokes
Storage
Strain
Strateg
Stre
Strept
Stress
Strong
Structural
Structure
Structures
Stud
Student
Studies
Study
Su
Sub
Subsequent
Subsequently
Substituting
Such
Sulf
Summary
Sun
Sup
Super
Supp
Supplemental
Supplementary
Supporting
Suppose
Sur
Surface
Surprisingly
Survey
Sus
Suz
Suzuki
Sw
Swed
Switzerland
Sy
Syn
Synthesis
Synthetic
System
Systems
Sz
T
TA
TABLE
TB
TC
TCA
TCP
TD
TE
TEM
TF
TG
TGF
TH
THE
THF
THz
TI
TK
TL
TLC
TM
TMS
TN
TNF
TO
TP
TR
TRA
TS
TT
TU
TV
TW
TX
Ta
Table
Tables
Taiwan
Tak
Taken
Taking
Tal
Tan
Tang
Target
Taylor
Tb
Tc
Te
Techn
Technologies
Technology
Tel
Temperature
Ten
Ter
Tes
Test
Testing
Tests
Tetra
Tex
Tf
Tg
Th
Thanks
That
The
Their
Then
Theore
Theorem
Theoretical
Theory
Ther
There
Thereafter
Therefore
Therm
Thermal
Thermo
These
They
Thin
Third
This
Thom
Thomas
Those
Though
Thr
Three
Through
Throughout
Thus
Ti
TiO
Tian
Time
Tit
Tm
Tn
To
Together
Tokyo
Tol
Top
Tor
Total
Tow
Tp
Tr
Tra
Trans
Transfer
Transform
Transition
Transmission
Transport
Tre
Treatment
Tri
Tris
Triton
Trp
Ts
Tu
Tumor
Turb
Tw
Tween
Two
Tx
Ty
Typ
Type
Typical
Typically
Tyr
U
UA
UC
UK
UL
UN
UP
US
USA
UT
UV
Ub
Ul
Ultimately
Ultr
Ultra
Ultras
Un
Und
Under
Understanding
Unfortunately
Uni
Union
Unit
United
University
Unlike
Until
Up
Upon
Upper
Ur
Us
Use
Using
Usually
Util
V
VA
VB
VC
VD
VE
VEGF
VF
VG
VH
VI
VII
VIII
VL
VM
VO
VP
VR
VS
VT
Va
Val
Values
Van
Vari
Variation
Various
Ve
Vel
Ver
Very
Vi
Video
Vienna
View
Vir
Vis
Visual
Vo
Vol
Voltage
Volume
W
WA
WB
WC
WD
WE
WF
WG
WI
WITH
WL
WP
WR
WS
WT
Wa
Wang
Wat
Water
Waters
Wave
We
Weber
Weib
Weight
Weiss
Well
West
Western
Wh
What
When
Where
Whereas
Whether
While
White
Wi
Wide
Wil
Wiley
Willi
Wilson
Wind
Wit
With
Within
Without
Wol
Wood
Work
World
Wu
X
XL
XP
XRD
XY
Xi
Xu
Y
Yam
Yan
Yang
Yet
Yield
Young
Yu
Z
Ze
Zeiss
Zh
Zhang
Zhao
Zhou
Zhu
Zn
ZnO
Zr
[
[(
[0
[0,
[1
[1,
[10
[10,
[10]
[10],
[10].
[11,
[11]
[11],
[11].
[12,
[12]
[12],
[12].
[13,
[13]
[13],
[13].
[14
[14,
[14]
[14],
[14].
[15
[15,
[15]
[15],
[15].
[16,
[16]
[16],
[16].
[17,
[17]
[17],
[17].
[18
[18,
[18]
[18],
[18].
[19,
[19]
[19],
[19].
[1]
[1],
[1].
[1–
[2
[2,
[20
[20,
[20]
[20],
[20].
[21,
[21]
[21],
[21].
[22,
[22]
[22],
[22].
[23,
[23]
[23],
[23].
[24,
[24]
[24],
[24].
[25,
[25]
[25],
[25].
[26,
[26]
[26],
[26].
[27,
[27]
[27],
[27].
[28,
[28]
[28],
[28].
[29]
[29].
[2]
[2],
[2].
[3
[3,
[30
[30]
[30].
[31]
[31].
[32]
[32].
[33]
[33].
[34]
[34].
[35]
[35].
[36]
[36].
[37]
[37].
[38]
[38].
[39]
[39].
[3]
[3],
[3].
[4
[4,
[40
[40]
[40].
[41]
[41].
[42]
[42].
[43]
[43].
[44]
[44].
[45].
[46].
[47].
[4]
[4],
[4].
[5
[5,
[50
[5]
[5],
[5].
[6
[6,
[60
[6]
[6],
[6].
[7
[7,
[7]
[7],
[7].
[8
[8,
[8]
[8],
[8].
[9
[9,
[9]
[9],
[9].
[−
\
]
_
a
aa
ab
abbrevi
aber
aberrations
abilities
ability
ablation
able
abnormal
about
above
abrupt
abs
absence
absent
absolute
absolutely
absor
absorb
absorbance
absorbed
absorbing
absorption
abstract
abstraction
abund
abundance
abundances
abundant
ac
academic
acc
accel
acceler
accelerate
accelerated
accelerating
acceleration
accept
acceptable
acceptance
accepted
accepting
acceptor
acces
access
accessed
accessibility
accessible
accessory
accommod
accommodate
accommodation
accomp
accompan
accompanied
accompanying
accomplish
accomplished
accord
accordance
according
accordingly
account
accounted
accounting
accounts
accretion
accum
accumulate
accumulated
accumulation
accur
accuracy
accurate
accurately
acet
acetate
acetic
acetone
acetonitrile
acetyl
acetylation
ach
achie
achievable
achieve
achieved
achievement
achieves
achieving
acid
acidic
acids
acknowled
acknowledge
acknowledged
acknowledges
acoustic
acquire
acquired
acquiring
acquisition
across
act
acted
actin
acting
action
actions
activ
activate
activated
activates
activating
activation
activator
active
actively
activities
activity
acts
actu
actual
actually
actuator
actuators
acute
acyclic
acyl
ad
adap
adapt
adaptation
adapted
adaptive
add
added
adding
addition
additional
additionally
additions
additive
additives
address
addressed
addresses
addressing
adds
adducts
aden
adenine
adenosine
adequ
adequate
adequately
adhe
adhere
adherence
adherent
adhesion
adhesive
adi
adiabatic
adip
adj
adjacent
adjoint
adjust
adjustable
adjusted
adjusting
adjustment
adjustments
administered
administration
admit
admits
adop
adopt
adopted
adopting
adoption
adopts
adsorb
adsorbed
adsorption
adult
adv
advance
advanced
advancement
advances
advancing
advant
advantage
advantageous
advantages
advent
adverse
adversely
aer
aerobic
aerosol
aeruginosa
aff
affect
affected
affecting
affects
affine
affinities
affinity
afford
afforded
afore
aforementioned
after
afterwards
ag
again
against
agar
agarose
age
aged
ageing
agent
agents
ages
aggreg
aggregate
aggregated
aggregates
aggregation
aggressive
aging
ago
agon
agonist
agre
agree
agreed
agreement
agrees
agricultural
agriculture
ahead
ai
aid
aids
aim
aimed
aiming
aims
air
aircraft
al
alanine
alb
albeit
albumin
alcoh
alcohol
ald
alg
algae
algebra
algebraic
algebras
algorith
algorithm
algorithms
align
aligned
alignment
alignments
aliqu
aliquot
aliquots
alk
alkal
alkaline
alkyl
all
alle
allevi
alleviate
allo
allow
allowed
allowing
allows
alloy
alloys
ally
almost
alone
along
alongside
alpha
already
also
alter
alteration
alterations
altered
altering
altern
alternate
alternating
alternative
alternatively
alternatives
alters
although
alumin
aluminum
always
am
amb
ambient
ambigu
ambiguity
ambiguous
amen
amenable
amide
amin
amine
amines
amino
ammon
ammonia
ammonium
among
amongst
amorphous
amount
amounts
amp
amph
ampl
amplification
amplified
amplifier
amplifiers
amplify
amplitude
amplitudes
amyl
amyloid
an
anaerobic
analog
analogous
analogs
analogue
analogues
analogy
analy
analyse
analysed
analyses
analysing
analysis
analyte
analytes
analytic
analytical
analytically
analyze
analyzed
analyzer
analyzing
anatom
anc
anch
anchor
and
anesthe
ang
angi
angiogenesis
angle
angles
angular
animal
animals
anion
anions
anisotropic
anisotropy
ann
anne
annealing
annot
annual
anode
anomal
anomalies
anomalous
anomaly
another
answ
answer
ant
antagon
anten
antenna
antennas
anth
anthrop
anti
antib
antibacterial
antibiotic
antibiotics
antibodies
antibody
antic
anticancer
anticip
anticipate
anticipated
antifungal
antigen
antigens
antim
antimicrobial
antioxid
antioxidant
antioxidants
antis
antit
antitumor
any
ap
apart
aperture
apex
apical
apo
apoptosis
apoptotic
app
apparatus
apparent
apparently
appe
appealing
appear
appearance
appeared
appearing
appears
appendix
applic
applicability
applicable
application
applications
applied
applies
apply
applying
appreci
appreciated
appro
approach
approached
approaches
approaching
appropri
appropriate
appropriately
approved
approxim
approximate
approximated
approximately
approximating
approximation
approximations
apt
aqu
aquatic
aqueous
ar
arbitr
arbitrarily
arbitrary
arc
arch
architecture
architectures
arcs
are
area
areas
arg
arginine
argon
argue
argued
argument
arguments
arise
arises
arising
arith
arithmetic
arm
arms
arom
aromatic
arose
around
arranged
arrangement
arrangements
array
arrays
arrest
arri
arrival
arrive
arrives
arriving
arrow
arrows
arsen
arsenic
art
arter
artery
article
articles
artifact
artifacts
artificial
artificially
aryl
as
asc
ascending
ascertain
ascribed
ash
aside
ask
asked
aspect
aspects
ass
assay
assayed
assays
assemb
assembled
assemblies
assembly
assess
assessed
assessing
assessment
assessments
assign
assigned
assigning
assignment
assignments
assist
assistance
assisted
associ
associate
associated
association
associations
associative
assum
assume
assumed
assumes
assuming
assumption
assumptions
assure
aster
asymmet
asymmetric
asymmetry
asympt
asymptotic
asymptotically
at
atmosp
atmosphere
atmospheric
atom
atomic
atoms
att
attach
attached
attachment
attack
attacks
attain
attained
attempt
attempted
attempts
atten
attention
attenuated
attenuation
attract
attracted
attraction
attractive
attrib
attributable
attribute
attributed
attributes
au
aug
augmented
aureus
aut
auth
authentic
author
authors
auto
autocorrelation
autom
automated
automatic
automatically
automotive
autonomous
autophag
autophagy
aux
auxiliary
av
avail
availability
available
aver
average
averaged
averages
averaging
avoid
avoided
avoiding
avoids
award
aware
away
ax
axes
axial
axis
az
azimuth
b
ba
back
backbone
background
backgrounds
backward
bacter
bacteri
bacteria
bacterial
bacterium
bad
bag
bal
balance
balanced
balancing
ball
balls
ban
band
bands
bandwidth
bank
bar
bare
barri
barrier
barriers
bars
bary
bas
basal
base
based
baseline
bases
basic
basically
basin
basins
basis
batch
batches
bath
batter
batteries
battery
bc
be
bead
beads
beam
beams
bear
bearing
bears
beat
bec
became
because
become
becomes
becoming
bed
been
before
beg
began
begin
beginning
begins
beh
behave
behaves
behavi
behavior
behaviors
behaviour
behaviours
behind
being
bel
belie
believe
believed
belong
belonging
belongs
below
belt
ben
benchmark
bending
bene
beneath
benef
beneficial
benefit
benefits
benign
bent
benz
benzene
ber
besides
best
bet
beta
better
between
beyond
bi
bias
biased
biases
bic
bicarbonate
bif
bifur
bifurcation
big
bigger
biggest
bil
bilayer
bile
bilinear
billion
bim
bin
binary
bind
binding
binds
bins
bio
bioactive
bioavailability
bioc
biochemical
biof
biofilm
biofilms
biological
biologically
biology
biom
biomark
biomarker
biomarkers
biomass
biomedical
biop
biore
bios
biosynthesis
biosynthetic
biotin
biotinylated
bip
bipartite
bipolar
bir
birth
bis
bit
bits
bl
black
bladder
blade
blank
blast
ble
blend
blind
blo
block
blockade
blocked
blocking
blocks
blood
blot
blotting
blow
blue
blur
bo
board
bodies
body
boiling
bol
bold
bomb
bond
bonded
bonding
bonds
bone
book
boost
bootstrap
bor
border
bore
born
bos
both
bott
bottle
bottlen
bottleneck
bottom
bound
boundaries
boundary
bounded
bounds
bovine
bow
box
boxes
bp
br
bra
bracket
brackets
brain
bran
branch
branched
branches
branching
bre
bread
break
breakdown
breaking
breaks
breakthrough
breast
breath
breathing
brid
bridge
bridges
bridging
brief
briefly
bright
brightness
bring
bringing
brings
bro
broad
broadband
broadening
broader
broadly
broken
brom
bromide
broth
brought
brown
brush
bu
bub
bubble
bubbles
buck
bud
budget
buff
buffer
buffered
buffers
build
building
builds
built
bul
bulk
bund
bundle
bundles
bur
burden
buried
burn
burning
burst
bursts
bus
but
butter
by
bypass
c
cDNA
ca
cable
cad
cadmium
caffe
caffeine
cage
cages
cal
calc
calcd
calcium
calculate
calculated
calculates
calculating
calculation
calculations
calibrated
calibration
call
called
calor
came
camera
cameras
camp
campaign
can
canc
cancel
cancell
cancellation
cancer
cancers
candid
candidate
candidates
cannot
canonical
cantile
cap
capabilities
capability
capable
capac
capacitance
capacities
capacitor
capacitors
capacity
capillaries
capillary
capital
caps
capsule
capture
captured
captures
capturing
car
carb
carbohydrate
carbohydrates
carbon
carbonate
carbonyl
carboxyl
carcin
carcinoma
card
cardi
cardiac
cardiomy
cardiovascular
care
careful
carefully
cargo
caro
caroten
carri
carried
carrier
carriers
carries
carry
carrying
cart
cartilage
cas
casc
cascade
cascades
case
cases
caspase
cass
cast
cat
catalog
cataly
catalysis
catalyst
catalysts
catalytic
catalyzed
catast
catech
catechol
categor
categories
categorized
category
cathode
cation
cationic
cations
caus
causal
cause
caused
causes
causing
caution
cav
cave
cavities
cavity
cc
cd
ce
cell
cells
cellul
cellular
cellulose
cement
cen
cent
center
centered
centers
central
centre
centres
centrifug
centrifugation
centrifuged
centroid
century
cer
ceramic
cere
certain
certainly
certified
cf
ch
cha
chain
chains
chair
challenge
challenges
challenging
cham
chamber
chambers
chance
change
changed
changes
changing
channel
channels
chaos
chaotic
chapter
char
character
characterised
characteristic
characteristics
characterize
characterized
characterizes
characterizing
characters
charge
charged
charges
charging
chart
che
cheap
check
checked
checking
chem
chemical
chemically
chemicals
chemistry
chemo
chemotherapy
chi
chick
child
children
chip
chips
chir
chiral
chitosan
chlor
chloride
chloroform
cho
choice
choices
cholesterol
choline
chond
choose
choosing
chord
chose
chosen
chrom
chromat
chromatic
chromatographic
chromatography
chron
chronic
ci
circ
circle
circles
circuit
circuits
circular
circulating
circulation
circum
circumference
circumst
circumstances
circumvent
cis
cisplatin
cit
cited
citrate
cl
claim
claimed
clamp
clar
clarified
clarify
clarity
class
classes
classic
classical
classification
classified
classifier
classify
clay
cle
clean
cleaned
cleaning
clear
clearance
clearly
cleavage
cleaved
click
clim
climate
clin
clinical
clinically
clock
clos
close
closed
closely
closer
closest
closing
closure
clot
cloud
clouds
cluster
clustered
clustering
clusters
cm
cn
co
coagulation
coal
coales
coars
coarse
coat
coated
coating
coatings
cobalt
code
coded
codes
coding
coefficient
coefficients
coex
coexistence
coffee
cogn
coherence
coherent
cohesion
coil
coils
coin
coinc
coincide
coincidence
coincides
col
cold
coli
coll
collabor
collaboration
collagen
collapse
collapsed
colle
colleag
colleagues
collect
collected
collecting
collection
collective
collectively
collector
collision
collisions
colloidal
colon
colonies
colony
color
colored
colors
colour
column
columns
com
comb
combination
combinations
combinatorial
combine
combined
combines
combining
combustion
come
comes
coming
comm
comment
comments
commerc
commercial
commercially
common
commonly
commun
communication
communications
communities
community
commut
comp
compact
companies
companion
company
compar
comparable
comparative
comparatively
compare
compared
compares
comparing
comparison
comparisons
compartment
compartments
compati
compatibility
compatible
compe
compens
compensate
compensated
compensation
compet
compete
competing
competition
competitive
compiled
comple
complement
complementary
complemented
complete
completed
completely
completeness
completes
completion
complex
complexes
complexity
compli
compliance
compliant
complic
complicated
complications
compon
component
components
compos
composed
composite
composites
composition
compositional
compositions
compound
compounds
comprehen
comprehensive
compressed
compression
compressive
comprise
comprised
comprises
comprising
comprom
compromise
compromised
comput
computation
computational
computationally
computations
compute
computed
computer
computing
con
conc
concave
conce
concentrate
concentrated
concentration
concentrations
concept
concepts
conceptual
conceptually
concer
concern
concerned
concerning
concerns
conclude
concluded
concludes
concluding
conclusion
conclusions
concomit
concomitant
concrete
concurrent
concurrently
cond
condens
condensation
condensed
condition
conditional
conditioned
conditioning
conditions
conduc
conduct
conductance
conducted
conducting
conduction
conductive
conductivity
conductor
cone
cones
conf
confer
confidence
config
configuration
configurations
configured
confined
confinement
confirm
confirmation
confirmed
confirming
confirms
conflic
conflicts
confocal
conform
conformal
conformation
conformational
conformations
confusion
cong
conject
conjecture
conjug
conjugate
conjugated
conjugates
conjugation
conjunction
conn
connect
connected
connecting
connection
connections
connectivity
connects
cons
consecutive
consensus
consequ
consequence
consequences
consequent
consequently
conservation
conservative
conserved
consid
consider
considerable
considerably
consideration
considerations
considered
considering
considers
consist
consisted
consistency
consistent
consistently
consisting
consists
consol
const
constant
constantly
constants
constit
constitu
constituent
constituents
constitute
constituted
constitutes
constitutive
constrain
constrained
constraint
constraints
construct
constructed
constructing
construction
constructive
constructs
consume
consumed
consumer
consuming
consumption
cont
contact
contacted
contacts
contain
contained
container
containers
containing
contains
contamin
contaminants
contaminated
contamination
content
contents
context
contexts
contig
contiguous
contin
continu
continually
continuation
continue
continued
continues
continuing
continuity
continuous
continuously
continuum
contour
contours
contr
contract
contraction
contradic
contradict
contradiction
contradictory
contrary
contrast
contrasting
contrasts
contrib
contribute
contributed
contributes
contributing
contribution
contributions
contributor
contro
control
controll
controllable
controlled
controller
controllers
controlling
controls
controversial
conv
conve
convection
convective
conven
convenience
convenient
convention
conventional
conver
converge
convergence
convergent
converges
converse
conversion
convert
converted
converter
converting
converts
convex
convinc
convolution
cool
cooled
cooling
cooper
cooperation
cooperative
coord
coordin
coordinate
coordinated
coordinates
coordinating
coordination
cop
copies
copolymer
copper
copy
copyright
cor
cord
core
cores
corn
corne
corner
corners
coronal
correct
corrected
correcting
correction
corrections
correctly
correl
correlate
correlated
correlates
correlation
correlations
correspond
corresponded
correspondence
corresponding
correspondingly
corresponds
corrobor
corrosion
cortex
cortical
cos
cosine
cosm
cosmic
cosmological
cost
costly
costs
cot
cotton
could
coun
count
counted
counter
counterpart
counterparts
counting
countries
counts
couple
coupled
couples
coupling
couplings
cour
course
courses
coval
covalent
covariance
cover
coverage
covered
covering
covers
cow
cowork
coworkers
cp
cr
crack
cracks
cre
create
created
creates
creating
creation
cri
criter
criteria
criterion
critical
critically
crop
cros
cross
crossed
crosses
crossing
crossover
crosstalk
crow
crown
cruc
crucial
crude
crust
cry
crypt
cryst
crystal
crystall
crystalline
crystallization
crystals
cs
cub
cube
cubic
cues
cul
cultivation
culture
cultured
cultures
cum
cumulative
cup
cur
curcumin
cure
cured
current
currently
currents
curvature
curve
curved
curves
cust
custom
customized
cut
cutoff
cuts
cutting
cy
cyan
cyc
cycl
cycle
cycles
cyclic
cycling
cyclo
cyl
cylind
cylinder
cylindrical
cysteine
cyt
cytochrome
cytok
cytokine
cytokines
cytometry
cytoplas
cytoplasm
cytoplasmic
cytos
cytoskeleton
cytosol
cytotoxic
cytotoxicity
d
dB
dS
dT
da
daily
dam
damage
damaged
damages
damaging
damp
damping
danger
dark
dashed
dat
data
datab
database
databases
datas
dataset
datasets
date
daughter
day
days
dc
dd
de
dead
deal
dealing
deals
dealt
death
deb
debate
debris
dec
decade
decades
decay
decays
decide
decided
decision
decl
declare
decline
declined
declines
decompose
decomposed
decomposition
decon
decor
decoupling
decre
decrease
decreased
decreases
decreasing
ded
dedicated
deduce
deduced
deemed
deep
deeper
deeply
def
default
defect
defective
defects
deficiencies
deficiency
deficient
define
defined
defines
defining
definite
definitely
definition
definitions
definitive
deflection
deform
deformation
deformations
deformed
deg
degen
degener
degenerate
degradation
degrade
degraded
degree
degrees
dehydration
dehydrogen
dehydrogenase
deionized
del
delay
delayed
delays
dele
deleterious
delib
deline
deliver
delivered
delivering
delivers
delivery
delta
dem
demand
demanding
demands
demonstr
demonstrate
demonstrated
demonstrates
demonstrating
demonstration
den
denaturation
dend
dendrites
dendritic
denominator
denote
denoted
denotes
denoting
dens
dense
densely
densities
density
dental
deoxy
dep
depar
departure
depend
depended
dependence
dependencies
dependency
dependent
depending
depends
depic
depict
depicted
depicts
deple
depleted
depletion
deploy
depolar
depolarization
depos
deposit
deposited
deposition
deposits
depressed
depression
depth
depths
der
deriv
derivation
derivative
derivatives
derive
derived
derives
deriving
des
desc
descending
describe
described
describes
describing
descript
description
descriptions
descriptor
descriptors
design
designated
designed
designing
designs
desirable
desired
desorption
despite
dest
destabil
destroy
destroyed
destruction
destructive
det
detached
detachment
detail
detailed
details
detect
detectable
detected
detecting
detection
detector
detectors
detects
deter
detergent
deterior
deterioration
determ
determin
determinant
determinants
determination
determinations
determine
determined
determines
determining
deterministic
detrim
detrimental
dev
develop
developed
developing
development
developments
develops
devi
deviate
deviation
deviations
device
devices
devised
devoted
dex
df
di
diabetes
diabetic
diag
diagn
diagnosis
diagnostic
diagnostics
diagonal
diagram
diagrams
dialysis
diam
diameter
diameters
diamond
diaphragm
dic
dich
dichlor
dict
did
die
dielectric
dies
diesel
diet
dietary
diff
differ
differed
differen
difference
differences
different
differenti
differential
differentially
differentiate
differentiated
differentiating
differentiation
differently
differing
differs
difficult
difficulties
difficulty
diffraction
diffus
diffuse
diffusion
diffusivity
dig
diges
digested
digestion
digit
digital
dil
dilute
diluted
dilution
dilutions
dim
dimension
dimensional
dimensionality
dimensionless
dimensions
dimer
dimers
dimethyl
dimin
diminish
diminished
din
diode
diodes
dioxide
dip
dipole
dire
direct
directed
direction
directional
directions
directly
director
dis
disadvant
disadvantage
disadvantages
disag
disagreement
disapp
disappear
disappearance
disappeared
disc
discarded
discern
discharge
discharged
discharges
discl
disclosed
disconnected
discontinu
discontinuity
discontinuous
discover
discovered
discovery
discre
discrep
discrepancies
discrepancy
discrete
discretization
discretized
discrimin
discriminate
discrimination
discs
discus
discuss
discussed
discusses
discussing
discussion
discussions
dise
disease
diseases
dish
dishes
disk
disks
dislocation
disorder
disordered
disorders
disp
disparity
disper
dispers
dispersed
dispersion
displ
displaced
displacement
displacements
display
displayed
displaying
displays
dispos
disposal
disproportion
disreg
disrup
disrupt
disrupted
disruption
diss
dissimilar
dissip
dissipation
dissoci
dissociated
dissociation
dissolution
dissolved
dist
distal
distance
distances
distant
distilled
distinct
distinction
distinctive
distinctly
distingu
distinguish
distinguished
distinguishing
distorted
distortion
distortions
distrib
distribute
distributed
distribution
distributions
disturb
disturbance
disturbances
disturbed
disulfide
div
diver
divergence
divergent
diverse
diversity
divid
divide
divided
dividing
division
dl
dm
dn
do
docking
documented
dodec
dodecyl
does
dog
doing
dom
domain
domains
domin
dominance
dominant
dominate
dominated
dominates
dominating
don
donation
done
donor
donors
door
dop
dopamine
doped
doping
dos
dosage
dose
doses
dosing
dot
dots
dotted
doub
double
doubled
doubling
doubly
doubt
down
downstream
downward
doxorubicin
dp
dr
drag
drain
drainage
dramatic
dramatically
drastically
draw
drawback
drawbacks
drawing
drawn
dri
dried
drift
drinking
drive
driven
driver
drives
driving
dro
drop
droplet
droplets
dropped
dropping
drops
drug
drugs
dry
drying
ds
dt
du
dual
duality
duc
duct
due
duplex
duplicate
duration
durations
during
dust
duty
dwar
dwarf
dwell
dx
dy
dye
dyes
dynam
dynamic
dynamical
dynamically
dynamics
dys
dz
e
eV
each
ear
earlier
earliest
early
earth
eas
ease
easier
easily
easy
ec
echo
ecological
econ
econom
economic
economical
economically
economy
ed
eddy
edge
edges
educ
ee
eff
effect
effective
effectively
effectiveness
effects
effic
efficacy
effici
efficiencies
efficiency
efficient
efficiently
effluent
efflux
effort
efforts
eg
egg
ei
eigen
eigenvalue
eigenvalues
eigenvector
eigenvectors
eight
either
ejection
el
elabor
elaborate
elaborated
elapsed
elast
elastic
elasticity
ele
elect
electric
electrical
electrically
electricity
electro
electrochemical
electrode
electrodes
electroly
electrolyte
electrom
electromagnetic
electron
electronic
electronics
electrons
electroph
electrophoresis
electrostatic
eleg
element
elemental
elementary
elements
elevated
elevation
elimin
eliminate
eliminated
eliminates
eliminating
elimination
ellip
ellipso
elliptic
elliptical
elong
elongated
elongation
else
elsewhere
elucid
elucidate
elucidated
eluted
elution
em
emb
embed
embedded
embedding
embry
embryonic
embryos
emerg
emerge
emerged
emergence
emergent
emerges
emerging
emission
emissions
emit
emitted
emitting
emphas
emphasis
emphasize
emphasized
emphasizes
emphasizing
empirical
empirically
employ
employed
employing
employment
employs
empty
emulsion
en
enab
enable
enabled
enables
enabling
enanti
enc
encaps
encapsulated
encapsulation
encl
enclosed
encoded
encoding
encoun
encounter
encountered
encounters
encour
encourage
encouraged
encouraging
end
ende
ending
endocytosis
endogenous
endothelial
endow
ends
endurance
energe
energetic
energies
energy
enforced
eng
engage
engaged
engine
engineer
engineered
engineering
engines
enhance
enhanced
enhancement
enhances
enhancing
enlarged
enlargement
enorm
enormous
enough
enrich
enriched
enrichment
ens
ensemble
ensure
ensured
ensures
ensuring
ent
entails
entang
entanglement
enter
entered
entering
enters
enthal
enti
entire
entirely
entities
entity
entrance
entries
entropy
entry
envelop
envelope
environment
environmental
environmentally
environments
envision
enzymatic
enzyme
enzymes
eosin
ep
epid
epit
epithelial
epoch
epoxy
eq
equ
equal
equality
equally
equals
equation
equations
equator
equilibria
equilibrium
equip
equipment
equipped
equiv
equival
equivalence
equivalent
equivalently
equivalents
er
erg
erosion
err
errone
error
errors
eryth
es
escape
especially
ess
essence
essential
essentially
est
estab
establish
established
establishes
establishing
establishment
ester
esters
estim
estimate
estimated
estimates
estimating
estimation
estimations
estimator
et
etc
etching
eth
ethanol
ether
ethyl
ethylene
eu
eukary
ev
evac
evalu
evaluate
evaluated
evaluating
evaluation
evaluations
evapor
evaporated
evaporation
even
evenly
event
events
eventual
eventually
ever
every
everywhere
evid
evidence
evidenced
evidences
evident
evol
evolution
evolutionary
evolve
evolved
evolves
evolving
ex
exact
exactly
exam
examination
examine
examined
examining
example
examples
exc
exceed
exceeded
exceeding
exceeds
excellent
except
exception
exceptional
exceptions
excess
excessive
exchange
exchanged
exchanges
excit
excitation
excitations
excited
exciting
excl
exclude
excluded
excluding
exclusion
exclusive
exclusively
exec
executed
exempl
exer
exerc
exercise
exert
exerted
exerts
exhaus
exhaustive
exhib
exhibit
exhibited
exhibiting
exhibits
exist
existed
existence
existing
exists
exit
exogenous
exp
expand
expanded
expanding
expands
expansion
expansions
expect
expectation
expectations
expected
expense
expensive
exper
experi
experience
experienced
experiences
experim
experiment
experimental
experimentally
experimentation
experiments
expl
explain
explained
explaining
explains
explan
explanation
explanations
explicit
explicitly
explo
exploit
exploitation
exploited
exploiting
explor
exploration
explore
explored
exploring
explosion
expon
exponent
exponential
exponentially
exponents
expose
exposed
exposure
exposures
express
expressed
expresses
expressing
expression
expressions
ext
extend
extended
extending
extends
extension
extensions
extensive
extensively
extent
exterior
external
externally
extinction
extr
extra
extracellular
extract
extracted
extracting
extraction
extracts
extraord
extrapol
extrapolated
extrapolation
extrem
extreme
extremely
extremes
extrinsic
eye
eyes
f
fa
fabric
fabricated
fabrication
fac
face
faced
faces
facet
facets
facil
facilit
facilitate
facilitated
facilitates
facilitating
facilities
facility
facing
fact
factor
factorization
factors
facts
fading
fail
failed
fails
failure
failures
fair
fairly
fall
falling
falls
false
fam
famil
familiar
families
family
famous
fan
far
fashion
fast
faster
fastest
fat
fate
fatigue
fatty
fault
faults
fav
favor
favorable
favored
favors
favour
favourable
fc
fe
feas
feasibility
feasible
feature
features
fed
feed
feedback
feeding
fell
felt
fem
female
fer
ferm
fermentation
ferritin
fertil
fetal
few
fewer
ff
fi
fib
fiber
fibers
fibr
fibre
fibres
fibrill
fibrils
fibrin
fibrinogen
fibroblast
fibroblasts
fibronectin
fibrous
fic
fidelity
field
fields
fifth
fig
figure
figures
fil
filament
filaments
file
files
fill
filled
filling
film
films
filter
filtered
filtering
filters
filtration
fin
final
finally
financ
financial
find
finding
findings
finds
fine
finer
fing
finger
fingerprint
fingers
finish
finished
finite
fire
firing
firm
first
firstly
fish
fission
fit
fitness
fits
fitted
fitting
five
fix
fixation
fixed
fixing
fl
flag
flame
flank
flash
flask
flat
flatten
flav
flavon
flavor
flex
flexibility
flexible
flight
flip
flo
floating
flood
flooding
floor
flour
flow
flower
flowing
flows
flu
fluctu
fluctuation
fluctuations
fluid
fluids
fluor
fluores
fluorescein
fluorescence
fluorescent
fluoride
flux
fluxes
fly
fm
fn
fo
foam
foc
focal
focus
focused
focuses
focusing
fol
folate
fold
folded
folding
folds
follow
followed
following
follows
food
foods
foot
footprint
for
force
forced
forces
forcing
fore
foreign
fores
forest
forests
form
formal
formaldehyde
formalism
formally
format
formation
formed
former
forming
forms
formul
formula
formulae
formulas
formulate
formulated
formulation
formulations
forth
forward
fossil
found
foundation
four
fourth
fr
fra
fract
fractal
fraction
fractional
fractionation
fractions
fracture
fractures
frag
fragment
fragmentation
fragmented
fragments
frame
frames
framework
frameworks
fre
free
freedom
freely
freeze
freezing
frequ
frequencies
frequency
frequent
frequently
fresh
freshly
fric
friction
friend
friendly
from
fron
front
frontier
frozen
fructose
fruit
fs
fu
fuel
fuels
ful
fulf
fulfill
fulfilled
full
fully
function
functional
functionalities
functionality
functionally
functioning
functions
fund
fundamental
fundamentally
funded
funding
fung
fungal
fungi
fur
furn
further
furthermore
fused
fusion
future
fuzzy
g
ga
gain
gained
gaining
gains
gal
galact
galax
galaxies
galaxy
gall
gamma
gap
gaps
gas
gases
gast
gastric
gastro
gate
gates
gather
gathered
gating
gaug
gauge
gave
ge
gel
gelatin
gels
gem
gen
gene
gener
general
generality
generalization
generalize
generalized
generally
generate
generated
generates
generating
generation
generations
generator
generators
generic
genes
genetic
genome
genomic
gent
gentle
gently
genuine
genus
geodes
geodesic
geomet
geometric
geometrical
geometries
geometry
germ
get
gets
getting
gi
giant
give
given
gives
giving
gl
glass
glasses
gli
glob
global
globally
glu
gluc
glucose
glut
glutamate
glutathione
gly
glyc
glycer
glycerol
glycine
glycol
glycos
glycosylation
gm
go
goal
goals
goes
going
gold
good
goodness
got
gover
govern
governed
governing
gr
gra
grad
grade
graded
grades
gradi
gradient
gradients
gradual
gradually
graf
graft
grafting
grafts
grain
grains
gram
gran
grand
grant
granular
granules
graph
graphene
graphical
graphite
graphs
grate
grateful
gratefully
grating
grav
gravitational
gravity
gray
grazing
gre
great
greater
greatest
greatly
green
greenhouse
grew
grey
grid
grids
gro
groove
gross
ground
grounded
groundwater
group
grouped
groups
grow
growing
grown
grows
growth
gu
guan
guarant
guarantee
guaranteed
guarantees
guess
guest
guid
guidance
guide
guided
guidelines
guides
guiding
gun
gut
gy
h
ha
hab
habit
had
hair
hal
half
hall
halo
hamp
hand
handle
handled
handling
happ
happen
happened
happens
har
hard
harder
hardly
hardness
hardware
harm
harmful
harmon
harmonic
harmonics
harves
harvest
harvested
harvesting
has
have
having
haz
hazard
hazardous
he
head
heads
healing
health
healthy
heart
heat
heated
heating
heavily
heavy
height
heights
hel
held
helic
helical
helices
helium
helix
help
helped
helpful
helps
hem
hemat
heme
hemisp
hemisphere
hemoglobin
hence
hep
heparin
hepat
hepatic
hepatocytes
her
here
hereafter
herein
heter
heterogeneity
heterogeneous
heuristic
hex
hexagonal
hi
hidden
hierarch
hierarchical
hierarchy
hig
high
higher
highest
highl
highlight
highlighted
highlighting
highlights
highly
hind
his
hist
histidine
histogram
histograms
histological
histone
histor
historical
histories
history
hit
hits
ho
hoc
hol
hold
holder
holding
holds
hole
holes
hollow
holog
hom
home
homeostasis
homogen
homogeneity
homogeneous
homogenized
homogenous
homolog
homologous
homology
hop
hope
hor
horizon
horizontal
horizontally
horm
host
hosts
hot
hour
hours
hous
house
housing
how
however
hr
http
huge
hull
hum
human
humans
humid
humidity
hundred
hundreds
hy
hyal
hybrid
hybridization
hybridized
hybrids
hyd
hydration
hydraulic
hydro
hydrocarbon
hydrocarbons
hydrochlor
hydrochloride
hydrodynamic
hydrogel
hydrogels
hydrogen
hydroly
hydrolysis
hydroph
hydrophilic
hydrophobic
hydrox
hydroxide
hydroxy
hydroxyl
hyp
hyper
hyperbolic
hypot
hypothe
hypotheses
hypothesis
hypothesize
hypothesized
hypothetical
hypoxia
hystere
hysteresis
i
ib
ic
ice
id
ide
idea
ideal
ideally
ideas
iden
identical
identically
identif
identification
identified
identifies
identify
identifying
identities
identity
if
ign
ignore
ignored
ignoring
ii
iii
ill
illumin
illuminated
illumination
illustrate
illustrated
illustrates
illustrating
illustration
im
imag
image
imaged
images
imaginary
imagine
imaging
imbalance
imm
immediate
immediately
immersed
immersion
immobil
immobilization
immobilized
immun
immune
immuno
immunos
imp
impact
impacted
impacts
impair
impaired
imped
impedance
imper
imperative
imperfect
impl
implant
implantation
implanted
implants
implement
implementation
implementations
implemented
implementing
implicated
implication
implications
implicit
implicitly
implied
implies
imply
implying
import
importance
important
importantly
impose
imposed
imposes
imposing
impossible
impressive
impro
improve
improved
improvement
improvements
improves
improving
impulse
impurities
in
inability
inaccurate
inactivation
inactive
inadequ
inadequate
inapp
inc
incidence
incident
incl
inclination
inclined
include
included
includes
including
inclusion
inclusions
incoming
incompatible
incomplete
incon
inconsist
inconsistent
incor
incorpor
incorporate
incorporated
incorporates
incorporating
incorporation
incorrect
incre
increase
increased
increases
increasing
increasingly
increment
incremental
increments
incub
incubated
incubation
incubator
ind
indeed
independ
independence
independent
independently
index
indexed
indexes
indic
indicate
indicated
indicates
indicating
indication
indications
indicative
indicator
indicators
indices
indirect
indirectly
indisp
indispensable
indistinguish
individ
individual
individually
individuals
indoor
induc
induce
induced
induces
inducing
inductance
induction
inductive
industrial
industries
industry
ineffective
inefficient
inequ
inequalities
inequality
iner
inert
inertia
inertial
inev
inevitable
inevitably
inexpensive
inf
infected
infection
infections
infer
inference
inferior
inferred
infiltration
infinite
infinitely
infinity
inflamm
inflammation
inflammatory
inflation
inflow
influ
influence
influenced
influences
influencing
inform
information
informative
infra
infrared
infrastructure
infusion
ing
ingredient
ingredients
inher
inherent
inherently
inhib
inhibit
inhibited
inhibiting
inhibition
inhibitor
inhibitors
inhibitory
inhibits
inhom
inhomogeneous
initi
initial
initialized
initially
initiate
initiated
initiates
initiating
initiation
inj
inject
injected
injecting
injection
injections
injury
ink
inlet
inn
inner
innov
innovative
inoc
inoculated
inorganic
input
inputs
ins
insensitive
inser
insert
inserted
inserting
insertion
inserts
inset
inside
insight
insights
insignificant
insoluble
inspection
inspired
inst
instability
installation
installed
instance
instances
instant
instantaneous
instead
instit
instructions
instrument
instrumental
instrumentation
instruments
insufficient
insulation
insulin
int
intact
intake
inte
integer
integers
integr
integrable
integral
integrals
integrate
integrated
integrating
integration
integrin
integrity
intellig
intended
intense
intensities
intensity
intensive
intention
inter
interact
interacting
interaction
interactions
interactive
interacts
intercal
intercept
interchange
interconn
interconnect
interconnected
interconnection
interest
interested
interesting
interests
interf
interface
interfaces
interfacial
interfer
interfere
interference
interfering
interior
interle
intermedi
intermediate
intermediates
intermitt
intermittent
intermolecular
intern
internal
internalization
internally
international
interplay
interpol
interpolated
interpolation
interpre
interpret
interpretation
interpretations
interpreted
interpreting
interrup
interrupted
inters
intersect
intersection
intersections
interstitial
interval
intervals
interven
intervention
intest
intestinal
intestine
intimate
into
intr
intra
intrac
intracellular
intramolecular
intravenous
intrigu
intriguing
intrinsic
intrinsically
intro
introduce
introduced
introduces
introducing
introduction
intrusion
intuitive
intuitively
inv
invari
invariance
invariant
invariants
invas
invasion
invasive
invent
inver
inverse
inversely
inversion
inverted
inverter
inves
invest
investig
investigate
investigated
investigates
investigating
investigation
investigations
investment
invoked
invol
involve
involved
involvement
involves
involving
inward
iod
iodide
iodine
ion
ionic
ionization
ions
ip
ir
iron
irradi
irradiance
irradiated
irradiation
irre
irreducible
irregular
irrelevant
irrespective
irrever
irreversible
is
ischem
island
islands
iso
isoform
isol
isolate
isolated
isolation
isomer
isomers
isomorphic
isomorphism
isot
isother
isotope
isotopic
isotropic
iss
issue
issues
it
item
items
iter
iteration
iterations
iterative
iteratively
ith
its
itself
iv
j
jet
jets
jitter
jo
join
joined
joining
joint
joints
journal
jth
ju
jud
judged
juice
jump
jumps
junction
junctions
jus
just
justified
justify
k
kDa
kHz
kJ
kPa
kV
kW
ka
kb
kcal
ke
keV
keep
keeping
keeps
kept
ker
keratin
kernel
kernels
ket
key
kg
ki
kid
kidney
kil
kill
killing
kin
kinase
kinases
kind
kindly
kinds
kine
kinematic
kinematics
kinetic
kinetics
kit
km
kn
knee
knock
knot
know
knowing
knowledge
known
kr
ks
kt
kth
l
la
lab
label
labeled
labeling
labelled
labelling
labels
laboratories
laboratory
lac
lack
lacking
lacks
lact
lactate
lactic
ladder
lag
lam
lamin
laminar
lamp
land
landsc
landscape
landscapes
lane
langu
language
lap
lar
large
largely
larger
largest
las
laser
lasers
last
lasted
late
latent
later
lateral
latest
latitude
latter
lattice
lattices
launched
law
laws
lay
layer
layered
layers
layout
le
lead
leading
leads
leaf
leak
leakage
lear
learn
learning
least
leave
leaves
leaving
lect
led
left
leg
legs
lemma
len
length
lengthen
lengths
lens
lenses
lept
les
lesion
lesions
less
lesser
let
letter
letters
leuk
lev
level
levels
lever
li
lib
libraries
library
lid
lie
lies
lif
life
lifetime
lift
lifting
lig
ligament
ligand
ligands
ligation
light
lighting
lights
lign
lignin
like
likelihood
likely
likewise
lim
limb
limit
limitation
limitations
limited
limiting
limits
lin
line
linear
linearity
linearized
linearly
lines
link
linkage
linkages
linked
linker
linking
links
lip
lipase
lipid
lipids
liposomes
liqu
liquid
liquids
list
listed
lists
lit
literature
lith
lithium
little
live
liver
lives
living
lm
ln
lo
load
loaded
loading
loadings
loads
lobe
lobes
loc
local
localization
localize
localized
locally
locate
located
locating
location
locations
lock
locked
locking
locus
log
logarith
logarithm
logarithmic
logic
logical
long
longer
longest
longitudinal
look
looked
looking
looks
loop
loops
loose
loosely
lose
losing
loss
losses
lost
lot
lots
low
lower
lowered
lowering
lowers
lowest
lubric
luciferase
lumen
lumin
luminance
luminescence
luminosity
lung
lungs
ly
lying
lymph
lys
lysate
lysates
lysine
lysis
m
mA
mAb
mL
mM
mRNA
mS
mT
mV
mW
ma
mac
mach
machine
machinery
machines
macro
macroph
macrophage
macrophages
macroscopic
made
mag
magn
magnesium
magnet
magnetic
magnetization
magnification
magnitude
magnitudes
main
mainly
maintain
maintained
maintaining
maintains
maintenance
major
majority
make
makes
making
mal
male
malign
malignant
mamm
mammalian
man
manage
management
mand
mandatory
manganese
manif
manifest
manifestation
manifested
manifold
manifolds
manip
manipulate
manipulated
manipulating
manipulation
manipulations
mann
manner
manual
manually
manufacture
manufactured
manufacturer
manufacturing
manuscript
many
map
mapped
mapping
mappings
maps
mar
marg
margin
marginal
marginally
marine
mark
marked
markedly
marker
markers
market
marks
marrow
mas
mask
masked
masking
masks
mass
masses
massive
master
mat
match
matched
matches
matching
material
materials
mathem
mathematical
mathematically
matrices
matrix
matter
matters
maturation
mature
max
maxim
maxima
maximal
maximally
maximize
maximized
maximizing
maximum
may
maybe
me
mean
meaning
meaningful
means
meant
meas
measurable
measure
measured
measurement
measurements
measures
measuring
mechan
mechanical
mechanically
mechanics
mechanism
mechanisms
mechanistic
med
medi
media
median
mediate
mediated
mediator
mediators
medic
medical
medicinal
medicine
medium
meet
meeting
meets
mel
melan
melanoma
melt
melting
mem
member
members
membrane
membranes
memories
memory
men
mention
mentioned
mentioning
mer
merc
mercury
mere
merely
merg
merge
merged
merger
merging
merit
merits
mes
mesenchymal
mesh
meshes
mess
met
meta
metab
metabol
metabolic
metabolism
metabolite
metabolites
metal
metall
metallic
metals
metam
metast
metastasis
metastatic
meteor
meter
meth
methan
methane
methanol
method
methodologies
methodology
methods
methyl
methylated
methylation
metric
metrics
mg
mi
miR
miRNA
miRNAs
mic
mice
micelles
micro
microarray
microb
microbes
microbi
microbial
microc
microf
microfluidic
microm
micron
microorgan
microorganisms
microp
micros
microscop
microscope
microscopic
microscopy
microsp
microspheres
microstructure
microtub
microv
microwave
mid
middle
might
migrate
migrated
migrating
migration
mil
mild
milk
mill
million
mim
mimic
mimics
min
mind
mineral
mineralization
minerals
mini
minim
minima
minimal
minimally
minimization
minimize
minimized
minimizes
minimizing
minimum
mining
minor
minority
minus
minute
minutes
mir
mirror
mirrors
mis
misc
mism
mismatch
miss
missing
mission
mist
mit
mitig
mitigate
mitigation
mitochondria
mitochondrial
mix
mixed
mixing
mixture
mixtures
ml
mm
mmHg
mmol
mo
mobile
mobility
mod
modal
modalities
mode
model
modeled
modeling
modelled
modelling
models
moderate
moderately
modern
modes
modest
modification
modifications
modified
modifies
modify
modifying
modular
modulate
modulated
modulating
modulation
modulator
modulators
module
modules
moduli
modulus
moieties
moiety
moist
moisture
mol
molar
mold
mole
molecular
molecule
molecules
mom
moment
moments
momentum
mon
monitor
monitored
monitoring
mono
monoc
monoclonal
monol
monolayer
monolayers
monolith
monomer
monomeric
monomers
mononuclear
monop
monot
monoton
monotonic
monotonically
month
months
more
moreover
morph
morphological
morphologies
morphology
mort
mortality
mosa
mosaic
most
mostly
mot
mother
motif
motifs
motility
motion
motions
motiv
motivated
motivation
motor
motors
mounted
mounting
mouse
move
moved
movement
movements
moves
moving
mp
ms
mu
muc
much
mul
multi
multic
multif
multilayer
multim
multimodal
multip
multipl
multiple
multiplex
multiplexing
multiplic
multiplication
multiplicative
multiplicity
multiplied
multiplier
multipliers
multiply
multiplying
multiv
multivariate
murine
mus
musc
muscle
muscles
must
mut
mutagenesis
mutant
mutants
mutation
mutations
mutual
mutually
my
myel
n
nM
na
name
named
namely
names
nan
nano
nanoc
nanocompos
nanom
nanop
nanoparticle
nanoparticles
nanor
nanos
nanoscale
nanostructures
nanot
nanotubes
nanow
nanowires
narrow
narrower
narrowing
nas
nat
national
native
natural
naturally
nature
nc
nd
ne
near
nearby
nearest
nearly
nec
necess
necessarily
necessary
necessity
neck
necrosis
need
needed
needle
needles
needs
neg
negative
negatively
neglect
neglected
neglig
negligible
neigh
neighb
neighbor
neighborhood
neighboring
neighbors
neighbour
neighbouring
neither
neon
nerve
nervous
nested
net
network
networks
neu
neur
neural
neuro
neuron
neuronal
neurons
neurot
neut
neutral
neutralization
neutrino
neutron
never
nevertheless
new
newly
next
ng
ni
nic
nice
nickel
night
nine
nit
nitrate
nitric
nitrite
nitro
nitrogen
nm
nmol
no
nod
nodal
node
nodes
noise
noises
noisy
nom
nominal
non
nond
none
nonetheless
noninvasive
nonlinear
nonlinearity
nonspecific
nontrivial
nonzero
nor
norm
normal
normalization
normalize
normalized
normally
north
northern
not
notable
notably
notation
notations
note
noted
noteworthy
nothing
notice
noticeable
noticed
noting
notion
novel
now
nowadays
np
ns
nt
nth
nucle
nuclear
nucleation
nuclei
nucleic
nucleotide
nucleotides
nucleus
nude
null
num
number
numbers
numer
numerical
numerically
numerous
nut
nutri
nutrient
nutrients
o
ob
obey
obj
object
objective
objectives
objects
oblique
obsc
obser
observ
observable
observables
observation
observational
observations
observe
observed
observer
observing
obstacle
obstacles
obtain
obtained
obtaining
obtains
obvious
obviously
oc
occ
occas
occasion
occasionally
occup
occupancy
occupation
occupied
occupy
occur
occurred
occurrence
occurring
occurs
ocean
oct
odd
odor
of
off
offer
offered
offering
offers
offset
often
oil
oils
ol
old
older
ole
olig
oligomer
oligomers
oligonucleotide
omit
omitted
on
once
one
ones
ongoing
online
only
onset
onto
op
open
opened
opening
opens
oper
operate
operated
operates
operating
operation
operational
operations
operative
operator
operators
opin
opinion
opp
opportun
opportunities
opportunity
opposed
opposing
opposite
opt
optic
optical
optically
optics
optim
optimal
optimally
optimisation
optimization
optimizations
optimize
optimized
optimizing
optimum
option
options
or
oral
orange
orbit
orbital
orbitals
orbits
ord
order
ordered
ordering
orders
ordinary
organ
organelles
organic
organism
organisms
organization
organized
organs
orient
orientation
orientations
oriented
orig
origin
original
originally
originate
originated
originates
originating
origins
orth
orthogonal
orthonormal
os
oscill
oscillation
oscillations
oscillator
oscillators
oscillatory
osm
osmotic
oste
osteoblasts
osteoc
other
others
otherwise
our
ours
ourselves
out
outcome
outcomes
outer
outflow
outgoing
outlet
outliers
outline
outlined
outper
output
outputs
outside
outstanding
outward
oval
ovari
oven
over
overall
overcome
overl
overlap
overlapped
overlapping
overlaps
overlay
overnight
oversh
overview
overw
overwhel
ow
owing
own
ox
oxal
oxid
oxidase
oxidation
oxidative
oxide
oxides
oxidized
oxygen
ozone
p
pA
pH
pM
pN
pT
pa
pack
package
packages
packaging
packed
packet
packets
packing
pad
page
paid
pain
pair
paired
pairing
pairs
pairwise
pal
pale
palm
pan
pancre
pancreatic
panel
panels
paper
papers
par
para
parabolic
parad
paradigm
paraffin
paragraph
parallel
param
parameter
parameterized
parameters
parametri
parametric
paras
parasitic
parent
parentheses
parity
part
partial
partially
partic
particip
participants
participate
participating
participation
particle
particles
particular
particularly
particulate
partition
partitioned
partitioning
partitions
partly
partner
partners
parts
pass
passage
passed
passes
passi
passing
passive
past
paste
pat
patch
patches
path
pathogen
pathogenic
pathogens
pathological
paths
pathway
pathways
pati
patient
patients
pattern
patterning
patterns
pay
pc
pe
peak
peaked
peaks
peculi
peculiar
ped
pel
pellet
pellets
pen
penal
penalty
pend
penetrate
penetration
penicillin
pent
people
pepti
peptide
peptides
per
perc
perceived
percent
percentage
percentages
perf
perfect
perfectly
perfor
perform
performance
performances
performed
performing
performs
perfusion
perhaps
peri
peric
period
periodic
periodically
periodicity
periods
peripher
peripheral
periphery
perm
perman
permanent
perme
permeability
permission
permit
permits
permitted
permittivity
permutation
perox
peroxidase
peroxide
perpendicular
pers
persist
persistence
persistent
persists
person
personal
perspective
perspectives
pertaining
pertinent
perturb
perturbation
perturbations
perturbed
pestic
pesticides
pet
petroleum
pg
ph
phag
phage
phantom
pharm
pharmac
pharmaceutical
pharmacokinetic
pharmacological
phase
phases
phen
phenol
phenolic
phenomen
phenomena
phenomenon
phenotype
phenyl
phon
phonon
phosph
phosphatase
phosphate
phospholip
phospholipid
phospholipids
phosphorus
phosphorylated
phosphorylation
phot
photo
photoc
photod
photograph
photographs
photon
photonic
photons
photore
photos
photosynthesis
photosynthetic
phr
phys
physi
physic
physical
physically
physicochemical
physics
physiological
phyt
pi
pic
pick
picked
picture
pictures
pie
piec
piece
pieces
piecewise
piez
piezoelectric
pig
pigment
pil
pilot
pin
pione
pip
pipe
pipeline
pit
pitch
piv
pivotal
pix
pixel
pixels
pl
place
placed
placement
places
placing
plain
plan
planar
plane
planes
planet
planned
planning
plans
plant
plants
plas
plasm
plasma
plasmid
plasmon
plastic
plasticity
plate
plateau
plated
platelet
platelets
plates
platform
platforms
platinum
plausible
play
played
playing
plays
ple
plot
plots
plotted
plug
plus
pm
pn
pneum
po
pocket
poin
point
pointed
pointing
points
poison
poisoning
pol
polar
polarity
polarization
polarized
pole
poles
polic
policy
poll
pollut
pollutants
pollution
poly
polyacrylamide
polyethylene
polymer
polymerase
polymeric
polymerization
polymers
polymorph
polymorphic
polynomial
polynomials
polypeptide
polys
polysaccharide
polysaccharides
pool
poor
poorer
poorly
pop
popular
populated
population
populations
por
porcine
pore
pores
porosity
porous
port
portable
portion
portions
ports
pos
pose
poses
posi
position
positional
positioned
positioning
positions
positive
positively
positron
possess
possessed
possesses
possessing
possibilities
possibility
possible
possibly
post
poster
posterior
postulated
pot
potassium
potency
potent
potenti
potential
potentially
potentials
pow
powder
power
powered
powerful
powers
pp
ppm
pr
prac
practical
practically
practice
pre
prec
preced
preceding
precip
precipitate
precipitated
precipitation
precise
precisely
precision
precursor
precursors
pred
predefined
predetermined
predic
predict
predictable
predicted
predicting
prediction
predictions
predictive
predicts
predominant
predominantly
prefer
preferable
preference
preferences
preferential
preferentially
preferred
preliminary
prem
premature
prep
prepar
preparation
preparations
prepare
prepared
preparing
prerequ
prerequisite
pres
prescribed
prescription
presence
present
presentation
presented
presenting
presently
presents
preservation
preserve
preserved
preserves
preserving
press
pressing
pressure
pressures
presumably
presumed
pretreated
pretreatment
prev
prevailing
prevalence
prevalent
prevent
prevented
preventing
prevention
prevents
previous
previously
pri
price
prices
prim
primarily
primary
prime
primer
primers
primitive
prin
princip
principal
principle
principles
print
printed
printing
prior
priori
priority
pro
prob
probabilistic
probabilities
probability
probable
probably
probe
probed
probes
probing
proble
problem
problematic
problems
procedure
procedures
proceed
proceeded
proceeding
proceeds
process
processed
processes
processing
processor
produc
produce
produced
produces
producing
product
production
productivity
products
prof
profile
profiles
profiling
profound
prog
progen
progenitor
program
programmable
programmed
programming
programs
progress
progresses
progression
progressive
progressively
prohib
proj
project
projected
projection
projections
projective
projects
prol
prolif
proliferation
proline
prolong
prolonged
prom
promin
prominent
promise
promising
promote
promoted
promoter
promoters
promotes
promoting
promotion
prompt
prompted
pron
prone
pronounced
proof
prop
propag
propagate
propagated
propagating
propagation
propensity
proper
properly
properties
property
propor
proportion
proportional
proportions
proposal
propose
proposed
proposes
proposition
prospective
prospects
prost
prostate
prot
prote
protease
protect
protected
protecting
protection
protective
protects
protein
proteins
proto
protoc
protocol
protocols
proton
protons
prototype
prov
prove
proved
proven
proves
provide
provided
provides
providing
proving
proxim
proximal
proximity
ps
pseud
pseudo
pu
pub
public
publication
publications
published
pul
pull
pulp
puls
pulse
pulsed
pulses
pump
pumping
pumps
punct
pur
purch
purchased
pure
purely
purification
purified
purity
purpose
purposes
purs
pursu
pursued
push
pushed
put
putative
putting
py
pyr
pyram
pyramidal
pyro
q
qi
qu
quad
quadr
quadrant
quadratic
quadrature
quadrup
qual
qualit
qualitative
qualitatively
qualities
quality
quanti
quantif
quantification
quantified
quantify
quantifying
quantit
quantitative
quantitatively
quantities
quantity
quantization
quantized
quantum
quark
quarter
quartz
quas
quasi
quatern
quenc
quenching
ques
question
questions
quick
quickly
quies
quiescent
quin
quite
quoted
quoti
quotient
r
ra
rab
rabbit
rac
race
rad
radi
radial
radiation
radiative
radical
radicals
radii
radio
radioactive
radiotherapy
radius
rain
raise
raised
raises
raising
ram
ramp
ran
random
randomly
randomness
range
ranged
ranges
ranging
rank
ranking
rapid
rapidly
rare
rarely
rat
rate
rates
rather
rati
rating
ratio
rational
rationale
ratios
rats
raw
ray
rays
rc
re
reach
reached
reaches
reaching
react
reacted
reaction
reactions
reactive
reactivity
reactor
read
reader
readers
readily
reading
readings
readout
reads
ready
reag
reagent
reagents
real
realistic
reality
realization
realizations
realize
realized
really
rear
rearrangement
rearrangements
reason
reasonable
reasonably
reasoning
reasons
rec
recall
rece
receive
received
receiver
receiving
recent
recently
receptor
receptors
recip
reciproc
reciprocal
recogn
recognition
recognize
recognized
recomb
recombinant
recombination
recomm
recommend
recommended
recon
reconstruct
reconstructed
reconstruction
reconstructions
record
recorded
recording
recordings
records
recover
recovered
recovering
recovery
recruit
rect
rectangle
rectangular
recur
recurrence
recursive
recycling
red
redistribution
redox
redshift
reduc
reduce
reduced
reduces
reducing
reductase
reduction
reductions
redundant
ref
refer
referen
reference
referenced
references
referred
referring
refers
refine
refined
refinement
reflect
reflectance
reflected
reflecting
reflection
reflections
reflective
reflects
reflux
reform
refractive
refractory
refrig
reg
regard
regarded
regarding
regardless
regards
regen
regeneration
regenerative
regime
regimes
region
regional
regions
registered
registration
regression
regular
regularity
regularization
regularly
regulate
regulated
regulating
regulation
regulator
regulatory
reinforce
reinforced
reinforcement
rejected
rejection
rel
relate
related
relates
relating
relation
relations
relationship
relationships
relative
relatively
relativistic
relax
relaxation
relaxed
relay
rele
release
released
releases
releasing
relevance
relevant
reli
reliability
reliable
reliably
relie
relied
relief
relies
rely
relying
rem
remain
remainder
remained
remaining
remains
remark
remarkable
remarkably
remarks
remn
remod
remodeling
remote
removal
remove
removed
removes
removing
renal
rend
render
rendered
rendering
renders
renew
renewable
renormal
reorganization
rep
repair
repe
repeat
repeated
repeatedly
repeating
repeats
repetition
repetitive
repl
replace
replaced
replacement
replaces
replacing
replic
replica
replicate
replicated
replicates
replication
report
reported
reporter
reporting
reports
repres
represent
representation
representations
representative
represented
representing
represents
repro
reproduc
reproduce
reproduced
reproducibility
reproducible
reproduction
requ
requi
require
required
requirement
requirements
requires
requiring
res
resc
resear
research
researchers
researches
resemb
resemble
resembles
resembling
reservoir
reservoirs
reset
resid
reside
residence
resides
residing
residual
residuals
residue
residues
resin
resis
resist
resistance
resistant
resistive
resistivity
resistor
resol
resolution
resolutions
resolve
resolved
resolving
reson
resonance
resonances
resonant
resonator
resource
resources
resp
respect
respective
respectively
respir
respiration
respiratory
respon
respond
responds
response
responses
responsible
responsive
rest
resting
restoration
restore
restored
restric
restrict
restricted
restricting
restriction
restrictions
restricts
resul
result
resultant
resulted
resulting
results
resuspended
ret
retain
retained
retaining
retains
retard
retardation
retention
retic
retinal
retrie
retrieval
retrieved
retro
return
returned
returning
returns
reus
reuse
reve
reveal
revealed
revealing
reveals
rever
reversal
reverse
reversed
reversible
review
reviewed
reviews
revis
revised
revolution
rewrite
rewritten
rf
rh
rhe
rhod
ri
rib
rice
rich
rid
ridge
rig
right
rigid
rigidity
rigorous
rim
ring
rings
rins
rinsed
rip
ripple
ris
rise
rises
rising
risk
risks
river
rms
ro
road
rob
robot
robust
robustness
rock
rocks
rod
rods
role
roles
roll
rolling
room
root
roots
rose
rot
rotary
rotated
rotating
rotation
rotational
rotations
rotor
rough
roughly
roughness
round
rounded
rout
route
routes
routine
routinely
row
rows
rp
rpm
rs
rt
rub
rubber
rule
ruled
rules
run
running
runs
rup
rupture
s
sa
sac
sacrific
sacrificed
saddle
saf
safe
safely
safety
said
sake
sal
saline
salinity
saliv
salt
salts
same
sample
sampled
samples
sampling
sand
sap
sat
satellite
satellites
satis
satisf
satisfactory
satisfied
satisfies
satisfy
satisfying
satur
saturated
saturation
saving
saw
say
sc
scaff
scaffold
scaffolds
scal
scalability
scalable
scalar
scale
scaled
scales
scaling
scan
scanned
scanner
scanning
scans
scar
scarce
scatter
scattered
scattering
scavenging
scenari
scenario
scenarios
sch
sched
schem
schematic
scheme
schemes
science
sciences
scientific
scientists
scope
score
scores
scr
scrap
scratch
screen
screened
screening
screens
screw
scrutin
se
sea
seal
sealed
seam
search
searched
searches
searching
season
seaw
seawater
sec
second
secondary
seconds
secreted
secretion
section
sections
sector
sectors
secure
security
sediment
sedimentation
sediments
see
seed
seeded
seeding
seeds
seek
seem
seemed
seemingly
seems
seen
sees
segment
segmental
segmentation
segmented
segments
segreg
segregation
seismic
seldom
selec
select
selected
selecting
selection
selective
selectively
selectivity
selen
selenium
self
sem
semi
semic
semiconductor
seminal
sens
sense
sensi
sensing
sensitive
sensitivities
sensitivity
sensitization
sensor
sensors
sensory
sent
separ
separable
separate
separated
separately
separates
separating
separation
sept
septum
sequ
sequence
sequences
sequencing
sequential
sequentially
ser
serial
series
serine
serious
seriously
serum
serve
served
serves
service
serving
ses
session
set
sets
sett
setting
settings
settle
settling
setup
seven
sever
several
severe
severely
severity
sh
shad
shaded
shadow
shaft
shaking
shall
shallow
shap
shape
shaped
shapes
shaping
shar
share
shared
shares
sharing
sharp
sharply
she
shear
sheath
shed
shedding
sheet
sheets
shelf
shell
shells
shield
shif
shift
shifted
shifting
shifts
sho
shock
shocks
short
shortcomings
shortened
shortening
shorter
shortest
shortly
shot
should
shoulder
show
showed
showing
shown
shows
shrink
shrinkage
shunt
shut
si
siRNA
sial
side
sides
sie
sig
sight
sigma
sign
signal
signaling
signals
signature
signatures
signific
significance
significant
significantly
signs
sil
silic
silica
silico
silicon
silicone
silk
silver
sim
similar
similarities
similarity
similarly
simpl
simple
simpler
simplest
simplicity
simplification
simplified
simplifies
simplify
simplifying
simply
simulate
simulated
simulating
simulation
simulations
simulator
simultaneous
simultaneously
sin
since
sine
sing
single
singlet
singular
singularities
singularity
sink
sinus
sinusoidal
site
sites
situ
situated
situation
situations
six
sixth
size
sized
sizes
sk
skeletal
skeleton
sket
sketch
skew
skin
sky
sl
slab
slic
slice
slices
slide
slides
sliding
slight
slightly
slip
slit
slope
slopes
slot
slow
slower
slowing
slowly
sludge
sm
small
smaller
smallest
smart
smoke
smoot
smooth
smoothed
smoothing
smoothly
smoothness
sn
snapshot
snow
so
soc
social
society
sodium
soft
software
soil
soils
sol
solar
solder
sole
solely
solid
solids
solitary
solub
solubility
soluble
solute
solution
solutions
solve
solved
solvent
solvents
solver
solves
solving
some
somehow
something
sometimes
somewhat
son
sonic
soon
soph
sophistic
sophisticated
sorption
sort
sorted
sorting
sought
sound
source
sources
south
soy
soybean
sp
spac
space
spacecraft
spaced
spacer
spaces
spacetime
spacing
span
spanned
spanning
spans
sparse
spatial
spatially
spatiotemporal
spe
speaking
spec
special
specialized
specially
speciation
species
specific
specifically
specification
specifications
specificity
specified
specify
specim
specimen
specimens
spect
spectra
spectral
spectro
spectrom
spectrometer
spectrometry
spectrophot
spectroscopic
spectroscopy
spectrum
speculate
speculated
speed
speeds
spent
sperm
sphe
sphere
spheres
spherical
spi
spike
spikes
spill
spin
spinal
spindle
spins
spir
spiral
spirit
spite
spl
sple
spleen
split
splits
splitting
spontaneous
spontaneously
spot
spots
spray
spread
spreading
spreads
spring
spur
spurious
sput
squ
square
squared
squares
ss
st
stabil
stability
stabilization
stabilize
stabilized
stabilizing
stable
stably
stack
stacked
stacking
stacks
stage
stages
stain
stained
staining
stainless
stand
standard
standardized
standards
standing
stands
star
starch
stark
stars
start
started
starting
starts
state
stated
statement
statements
states
static
station
stationary
stations
statis
statistic
statistical
statistically
statistics
status
stay
stays
ste
steadily
steady
steam
steel
steep
steering
stellar
stem
stems
step
steps
stepwise
ster
stere
stereo
steric
sterile
sti
stic
stick
stiff
stiffness
still
stim
stimulate
stimulated
stimulating
stimulation
stimuli
stimulus
stir
stirred
stirring
sto
stochastic
stock
stoichi
stom
stop
stopped
stopping
stops
storage
store
stored
storing
str
straight
straightforward
strain
strains
strand
strands
strateg
strategies
strategy
stratification
stratified
straw
stre
stream
streaming
streams
strength
strengthen
strengthened
strengthening
strengths
strept
streptomycin
stress
stressed
stresses
stret
stretch
stretching
stri
stric
strict
strictly
striking
string
stringent
strings
strip
strips
stro
stroke
strong
stronger
strongest
strongly
struct
structural
structurally
structure
structured
structures
structuring
stud
student
students
studied
studies
study
studying
su
sub
subcellular
subcutaneous
subgroup
subject
subjected
subjects
subm
submitted
subs
subscript
subsection
subsequent
subsequently
subset
subsets
subspace
subspaces
subst
substan
substance
substances
substanti
substantial
substantially
substit
substitute
substituted
substituting
substitution
substitutions
substr
substrate
substrates
subsurface
subsystem
subsystems
subt
subtilis
subtle
subtracted
subtracting
subtraction
subun
subunit
subunits
suc
succeed
success
successful
successfully
successive
successively
succin
such
sucrose
suction
sudden
suff
suffer
suffered
suffers
suffices
sufficient
sufficiently
sug
sugar
sugars
sugges
suggest
suggested
suggesting
suggestion
suggestive
suggests
suit
suitability
suitable
suite
suited
sulf
sulfate
sulfur
sulph
sulphate
sum
summ
summar
summarize
summarized
summarizes
summary
summation
summed
summer
summing
sums
sun
sup
super
superconducting
superf
superficial
superimposed
superior
superiority
supernat
supernatant
supernatants
superoxide
superposition
supp
supplement
supplementary
supplemented
supplied
supplies
supply
support
supported
supporting
supports
suppose
supposed
suppress
suppressed
suppresses
suppressing
suppression
supra
sur
sure
surface
surfaces
surfact
surfactant
surg
surgery
surgical
surprise
surprising
surprisingly
surrogate
surround
surrounded
surrounding
surve
survey
surveys
survival
survive
sus
susceptibility
susceptible
susp
suspect
suspected
suspended
suspension
suspensions
sustain
sustainability
sustainable
sustained
sw
swe
sweep
swelling
swimming
swing
swit
switch
switched
switches
switching
sy
symb
symbol
symbols
symmet
symmetric
symmetrical
symmetries
symmetry
symp
symplectic
sympt
syn
synaptic
synchron
synchronization
synchronized
synchronous
synd
synerg
synergistic
synth
synthase
synthe
synthesis
synthesize
synthesized
synthetic
syringe
system
systematic
systematically
systemic
systems
t
ta
tab
table
tables
tablets
tack
tag
tagged
tags
tail
tailored
tails
tak
take
taken
takes
taking
tall
tan
tandem
tang
tangent
tangential
tank
tap
tape
target
targeted
targeting
targets
task
tasks
tau
tax
tc
td
te
tea
teac
teaching
team
tear
techn
technical
technique
techniques
technological
technologies
technology
ted
tel
tele
tell
temperature
temperatures
template
templates
tempor
temporal
temporally
temporary
ten
tend
tended
tendency
tends
tens
tensile
tension
tensor
tent
ter
term
termed
termin
terminal
terminals
terminate
terminated
termination
terminus
terms
ternary
terrestrial
tertiary
tes
test
tested
testing
tests
tet
tetr
tetra
tetrac
tex
text
texture
textures
th
than
thank
thanks
that
the
their
them
thems
themselves
then
theore
theorem
theorems
theoretical
theoretically
theories
theory
ther
therapeu
therapeutic
therapeutics
therapies
therapy
there
thereafter
thereby
therefore
therein
therm
thermal
thermally
thermodynamic
these
theta
they
thi
thick
thickening
thicker
thickness
thicknesses
thin
things
think
thinning
thiol
third
this
thor
thorough
thoroughly
those
though
thought
thous
thousand
thousands
thr
thre
thread
threads
threat
three
threshold
thresholds
thromb
thrombin
through
throughout
throughput
thrust
thus
thy
thym
ti
tidal
tie
tight
tightly
til
tile
tiles
till
tilt
tim
time
times
timing
tin
tiny
tip
tips
tiss
tissue
tissues
tit
titanium
title
titration
to
today
together
toler
tolerance
tolerated
tolu
toluene
tom
tomography
ton
tons
too
took
tool
tools
tooth
top
topic
topics
topographic
topography
topological
topologies
topology
tor
torque
torsion
tort
torus
total
totally
touch
toward
towards
tox
toxic
toxicity
tp
tr
tra
trac
trace
traced
tracer
traces
tracing
track
tracked
tracking
tracks
tract
traction
trade
traditional
traditionally
traff
traffic
train
trained
training
traject
trajectories
trajectory
tran
trans
transc
transcript
transcription
transcriptional
transduc
transducer
transduction
transfected
transfection
transfer
transferred
transferring
transfers
transform
transformation
transformations
transformed
transformer
transforming
transforms
transi
transient
transients
transistor
transistors
transit
transition
transitional
transitions
transl
translate
translated
translates
translation
translational
translations
translocation
transmembrane
transmission
transmit
transmitted
transmitting
transparency
transparent
transpl
transport
transportation
transported
transporter
transporters
transverse
trap
trapped
trapping
traps
travel
traveling
tre
treat
treated
treating
treatment
treatments
tree
trees
trem
tremend
tremendous
trend
trends
tri
trial
trials
triang
triangle
triangles
triangular
tric
tried
trig
trigger
triggered
triggering
triggers
triglycer
trim
trip
triple
triplet
triplicate
tris
trivial
trop
trough
true
truly
trunc
truncated
truncation
try
trying
tryp
trypsin
tryptophan
ts
tub
tube
tubes
tubular
tum
tumor
tumors
tumour
tun
tunable
tune
tuned
tung
tuning
tunnel
tunneling
turb
turbine
turbulence
turbulent
turn
turned
turning
turnover
turns
tw
twelve
twenty
twice
twin
twins
twist
twisted
two
twofold
ty
typ
type
types
typical
typically
tyrosine
u
ubiquit
ubiquitous
ui
ultimate
ultimately
ultr
ultra
ultras
ultrasonic
ultrasound
ultraviolet
um
un
unable
unaffected
unambigu
unambiguous
unbiased
unbounded
unc
uncertain
uncertainties
uncertainty
unchanged
unclear
unconstrained
uncontrolled
uncorrelated
uncover
uncovered
und
under
underestimate
underestimated
undergo
undergoes
undergoing
undergone
underlying
unders
understand
understanding
understood
undertaken
underwater
underwent
undes
undesirable
undet
unequ
unequal
uneven
unexpected
unexpl
unf
unfavorable
unfolding
uni
unified
uniform
uniformity
uniformly
unim
unique
uniquely
uniqueness
unit
unitary
units
unity
univers
universal
universe
unknown
unless
unlike
unlikely
unnecess
unnecessary
unp
unpaired
unre
unresolved
uns
unsaturated
unstable
unsuccessful
until
untreated
unus
unusual
unw
unwanted
up
upd
update
updated
upon
upper
upstream
uptake
upward
ur
urban
ure
urea
urgent
urine
us
usage
use
used
useful
usefulness
user
users
uses
using
usual
usually
ut
util
utility
utilization
utilize
utilized
utilizes
utilizing
v
vac
vacc
vaccine
vacu
vacuum
val
valence
valid
validate
validated
validation
validity
valley
valu
valuable
value
valued
values
valve
valves
van
vanish
vanishes
vanishing
vap
vapor
var
vari
variability
variable
variables
variance
variances
variant
variants
variation
variational
variations
varied
varies
variety
various
vary
varying
vas
vascular
vast
ve
vector
vectors
veget
vegetable
vegetation
vehicle
vehicles
vein
velocities
velocity
ven
vent
ver
verification
verified
verify
verifying
vers
versa
versatile
version
versions
versus
vertex
vertical
vertically
vertices
very
ves
vesicle
vesicles
vessel
vessels
vi
via
viability
viable
vibration
vibrational
vibrations
vic
vice
vicinity
vide
video
view
viewed
viewing
viewpoint
views
vigorous
vin
viol
violation
vir
viral
virt
virtual
virtually
virtue
virus
viruses
vis
visc
visco
viscosity
viscous
visibility
visible
vision
visual
visualization
visualize
visualized
visually
vit
vital
vitamin
vitro
vivo
viz
void
vol
volatile
volatility
volt
voltage
voltages
volume
volumes
volumetric
volunte
von
vor
vortex
vox
voxel
voxels
vs
vul
vulner
vulnerable
w
wa
wafer
waist
waiting
wake
walk
walking
wall
walls
want
war
warm
warming
was
wash
washed
washing
waste
wastewater
water
waters
wave
waveform
waveforms
wavegu
waveguide
wavelength
wavelengths
wavelet
waves
way
ways
we
weak
weaker
weakly
weakness
wealth
wear
weather
web
webs
wedge
wee
week
weeks
weigh
weighed
weighing
weight
weighted
weighting
weights
well
wells
went
were
western
wet
wh
what
whatever
whe
wheat
wheel
when
whenever
where
whereas
whereby
wherein
whether
which
while
whilst
white
who
whole
whose
why
wid
wide
widely
wider
widespread
width
widths
wild
will
wind
winding
window
windows
wine
wing
winter
wire
wireless
wires
wish
wit
with
withdrawn
within
without
witness
wood
wor
word
words
work
worked
workers
workflow
working
works
world
worldwide
worm
worse
worst
worth
worthwhile
would
wound
wounds
writ
write
writing
written
wrong
wt
ww
www
x
xen
xi
xn
xy
xyl
y
year
years
yeast
yellow
yet
yield
yielded
yielding
yields
yl
yn
you
young
your
yr
yt
z
ze
zebrafish
zer
zero
zeros
zinc
zone
zones
{
{(
|
}
~
©
°
±
·
Ã
Å
×
Ĥ
̃
̄
̇
Γ
Δ
Θ
Λ
Ξ
Π
Σ
Υ
Φ
Ψ
Ω
α
β
γ
δ
ε
ζ
η
θ
κ
λ
μ
ν
ξ
π
ρ
σ
τ
υ
φ
χ
ψ
ω
‐
–
—
‖
‘
“
•
←
→
↔
∀
∂
∇
∈
∑
−
−0.0
−1
−1,
−2
−3
−4
∗
√
∝
∞
∞,
∞.
∣
∥
∫
∼
≃
≈
≠
≡
≤
≥
≪
⊗
⋅
〈
